const unsigned char sr2by1ai_1_tflite[] = {
  0x1c, 0x00, 0x00, 0x00, 0x54, 0x46, 0x4c, 0x33, 0x00, 0x00, 0x12, 0x00, 0x1c,
  0x00, 0x18, 0x00, 0x14, 0x00, 0x10, 0x00, 0x0c, 0x00, 0x08, 0x00, 0x00, 0x00,
  0x04, 0x00, 0x12, 0x00, 0x00, 0x00, 0x18, 0x00, 0x00, 0x00, 0x70, 0x00, 0x00,
  0x00, 0x6c, 0x12, 0x00, 0x00, 0x7c, 0x12, 0x00, 0x00, 0x38, 0x71, 0x00, 0x00,
  0x03, 0x00, 0x00, 0x00, 0x02, 0x00, 0x00, 0x00, 0x34, 0x00, 0x00, 0x00, 0x04,
  0x00, 0x00, 0x00, 0xdc, 0xff, 0xff, 0xff, 0x68, 0x00, 0x00, 0x00, 0x04, 0x00,
  0x00, 0x00, 0x13, 0x00, 0x00, 0x00, 0x43, 0x4f, 0x4e, 0x56, 0x45, 0x52, 0x53,
  0x49, 0x4f, 0x4e, 0x5f, 0x4d, 0x45, 0x54, 0x41, 0x44, 0x41, 0x54, 0x41, 0x00,
  0x08, 0x00, 0x0c, 0x00, 0x08, 0x00, 0x04, 0x00, 0x08, 0x00, 0x00, 0x00, 0x67,
  0x00, 0x00, 0x00, 0x04, 0x00, 0x00, 0x00, 0x13, 0x00, 0x00, 0x00, 0x6d, 0x69,
  0x6e, 0x5f, 0x72, 0x75, 0x6e, 0x74, 0x69, 0x6d, 0x65, 0x5f, 0x76, 0x65, 0x72,
  0x73, 0x69, 0x6f, 0x6e, 0x00, 0x69, 0x00, 0x00, 0x00, 0xf8, 0x11, 0x00, 0x00,
  0xf0, 0x11, 0x00, 0x00, 0x80, 0x11, 0x00, 0x00, 0x18, 0x11, 0x00, 0x00, 0xc8,
  0x10, 0x00, 0x00, 0x78, 0x10, 0x00, 0x00, 0xe8, 0x0f, 0x00, 0x00, 0x78, 0x0f,
  0x00, 0x00, 0x18, 0x0f, 0x00, 0x00, 0xc8, 0x0e, 0x00, 0x00, 0x78, 0x0e, 0x00,
  0x00, 0x60, 0x0e, 0x00, 0x00, 0x48, 0x0e, 0x00, 0x00, 0x34, 0x0e, 0x00, 0x00,
  0x20, 0x0e, 0x00, 0x00, 0x90, 0x0d, 0x00, 0x00, 0x70, 0x0d, 0x00, 0x00, 0x30,
  0x0d, 0x00, 0x00, 0xf0, 0x0c, 0x00, 0x00, 0x80, 0x0c, 0x00, 0x00, 0xb0, 0x0b,
  0x00, 0x00, 0x7c, 0x0b, 0x00, 0x00, 0x48, 0x0b, 0x00, 0x00, 0xa8, 0x0a, 0x00,
  0x00, 0x68, 0x0a, 0x00, 0x00, 0x28, 0x0a, 0x00, 0x00, 0x58, 0x09, 0x00, 0x00,
  0x24, 0x09, 0x00, 0x00, 0xf0, 0x08, 0x00, 0x00, 0x90, 0x08, 0x00, 0x00, 0x08,
  0x08, 0x00, 0x00, 0xd8, 0x07, 0x00, 0x00, 0xa8, 0x07, 0x00, 0x00, 0x34, 0x07,
  0x00, 0x00, 0x00, 0x07, 0x00, 0x00, 0xcc, 0x06, 0x00, 0x00, 0x44, 0x06, 0x00,
  0x00, 0x14, 0x06, 0x00, 0x00, 0xe4, 0x05, 0x00, 0x00, 0x94, 0x05, 0x00, 0x00,
  0x34, 0x05, 0x00, 0x00, 0x0c, 0x05, 0x00, 0x00, 0xe4, 0x04, 0x00, 0x00, 0x94,
  0x04, 0x00, 0x00, 0x64, 0x04, 0x00, 0x00, 0x34, 0x04, 0x00, 0x00, 0xd4, 0x03,
  0x00, 0x00, 0xac, 0x03, 0x00, 0x00, 0x84, 0x03, 0x00, 0x00, 0x34, 0x03, 0x00,
  0x00, 0x0c, 0x03, 0x00, 0x00, 0xe4, 0x02, 0x00, 0x00, 0x94, 0x02, 0x00, 0x00,
  0x6c, 0x02, 0x00, 0x00, 0x44, 0x02, 0x00, 0x00, 0x2c, 0x02, 0x00, 0x00, 0x14,
  0x02, 0x00, 0x00, 0xe4, 0x01, 0x00, 0x00, 0xdc, 0x01, 0x00, 0x00, 0xd4, 0x01,
  0x00, 0x00, 0xcc, 0x01, 0x00, 0x00, 0xc4, 0x01, 0x00, 0x00, 0xbc, 0x01, 0x00,
  0x00, 0xb4, 0x01, 0x00, 0x00, 0xac, 0x01, 0x00, 0x00, 0xa4, 0x01, 0x00, 0x00,
  0x9c, 0x01, 0x00, 0x00, 0x94, 0x01, 0x00, 0x00, 0x8c, 0x01, 0x00, 0x00, 0x84,
  0x01, 0x00, 0x00, 0x7c, 0x01, 0x00, 0x00, 0x74, 0x01, 0x00, 0x00, 0x6c, 0x01,
  0x00, 0x00, 0x64, 0x01, 0x00, 0x00, 0x5c, 0x01, 0x00, 0x00, 0x54, 0x01, 0x00,
  0x00, 0x4c, 0x01, 0x00, 0x00, 0x44, 0x01, 0x00, 0x00, 0x3c, 0x01, 0x00, 0x00,
  0x34, 0x01, 0x00, 0x00, 0x2c, 0x01, 0x00, 0x00, 0x24, 0x01, 0x00, 0x00, 0x1c,
  0x01, 0x00, 0x00, 0x14, 0x01, 0x00, 0x00, 0x0c, 0x01, 0x00, 0x00, 0x04, 0x01,
  0x00, 0x00, 0xfc, 0x00, 0x00, 0x00, 0xf4, 0x00, 0x00, 0x00, 0xec, 0x00, 0x00,
  0x00, 0xe4, 0x00, 0x00, 0x00, 0xdc, 0x00, 0x00, 0x00, 0xd4, 0x00, 0x00, 0x00,
  0xcc, 0x00, 0x00, 0x00, 0xc4, 0x00, 0x00, 0x00, 0xbc, 0x00, 0x00, 0x00, 0xb4,
  0x00, 0x00, 0x00, 0xac, 0x00, 0x00, 0x00, 0xa4, 0x00, 0x00, 0x00, 0x9c, 0x00,
  0x00, 0x00, 0x94, 0x00, 0x00, 0x00, 0x8c, 0x00, 0x00, 0x00, 0x84, 0x00, 0x00,
  0x00, 0x7c, 0x00, 0x00, 0x00, 0x5c, 0x00, 0x00, 0x00, 0x04, 0x00, 0x00, 0x00,
  0x22, 0xf0, 0xff, 0xff, 0x04, 0x00, 0x00, 0x00, 0x48, 0x00, 0x00, 0x00, 0x04,
  0x00, 0x00, 0x00, 0xdc, 0xff, 0xff, 0xff, 0x10, 0x00, 0x00, 0x00, 0x24, 0x00,
  0x00, 0x00, 0x00, 0x00, 0x06, 0x00, 0x08, 0x00, 0x04, 0x00, 0x06, 0x00, 0x00,
  0x00, 0x04, 0x00, 0x00, 0x00, 0x01, 0x00, 0x00, 0x00, 0xec, 0x03, 0x00, 0x00,
  0x08, 0x00, 0x0c, 0x00, 0x08, 0x00, 0x04, 0x00, 0x08, 0x00, 0x00, 0x00, 0x01,
  0x00, 0x00, 0x00, 0x04, 0x00, 0x00, 0x00, 0x06, 0x00, 0x00, 0x00, 0x32, 0x2e,
  0x31, 0x30, 0x2e, 0x30, 0x00, 0x00, 0x76, 0xf0, 0xff, 0xff, 0x04, 0x00, 0x00,
  0x00, 0x10, 0x00, 0x00, 0x00, 0x31, 0x2e, 0x37, 0x2e, 0x30, 0x00, 0x00, 0x00,
  0x00, 0x00, 0x00, 0x00, 0x00, 0x00, 0x00, 0x00, 0x8c, 0xca, 0xff, 0xff, 0x90,
  0xca, 0xff, 0xff, 0x94, 0xca, 0xff, 0xff, 0x98, 0xca, 0xff, 0xff, 0x9c, 0xca,
  0xff, 0xff, 0xa0, 0xca, 0xff, 0xff, 0xa4, 0xca, 0xff, 0xff, 0xa8, 0xca, 0xff,
  0xff, 0xac, 0xca, 0xff, 0xff, 0xb0, 0xca, 0xff, 0xff, 0xb4, 0xca, 0xff, 0xff,
  0xb8, 0xca, 0xff, 0xff, 0xbc, 0xca, 0xff, 0xff, 0xc0, 0xca, 0xff, 0xff, 0xc4,
  0xca, 0xff, 0xff, 0xc8, 0xca, 0xff, 0xff, 0xcc, 0xca, 0xff, 0xff, 0xd0, 0xca,
  0xff, 0xff, 0xd4, 0xca, 0xff, 0xff, 0xd8, 0xca, 0xff, 0xff, 0xdc, 0xca, 0xff,
  0xff, 0xe0, 0xca, 0xff, 0xff, 0xe4, 0xca, 0xff, 0xff, 0xe8, 0xca, 0xff, 0xff,
  0xec, 0xca, 0xff, 0xff, 0xf0, 0xca, 0xff, 0xff, 0xf4, 0xca, 0xff, 0xff, 0xf8,
  0xca, 0xff, 0xff, 0xfc, 0xca, 0xff, 0xff, 0x00, 0xcb, 0xff, 0xff, 0x04, 0xcb,
  0xff, 0xff, 0x08, 0xcb, 0xff, 0xff, 0x0c, 0xcb, 0xff, 0xff, 0x10, 0xcb, 0xff,
  0xff, 0x14, 0xcb, 0xff, 0xff, 0x18, 0xcb, 0xff, 0xff, 0x1c, 0xcb, 0xff, 0xff,
  0x20, 0xcb, 0xff, 0xff, 0x24, 0xcb, 0xff, 0xff, 0x28, 0xcb, 0xff, 0xff, 0x2c,
  0xcb, 0xff, 0xff, 0x30, 0xcb, 0xff, 0xff, 0x34, 0xcb, 0xff, 0xff, 0x38, 0xcb,
  0xff, 0xff, 0x3c, 0xcb, 0xff, 0xff, 0x46, 0xf1, 0xff, 0xff, 0x04, 0x00, 0x00,
  0x00, 0x20, 0x00, 0x00, 0x00, 0x00, 0x00, 0x00, 0x00, 0x00, 0x00, 0x00, 0x00,
  0x01, 0x00, 0x00, 0x00, 0x01, 0x00, 0x00, 0x00, 0x01, 0x00, 0x00, 0x00, 0x01,
  0x00, 0x00, 0x00, 0x00, 0x00, 0x00, 0x00, 0x00, 0x00, 0x00, 0x00, 0x72, 0xf1,
  0xff, 0xff, 0x04, 0x00, 0x00, 0x00, 0x08, 0x00, 0x00, 0x00, 0x3a, 0x04, 0x00,
  0x00, 0x82, 0x07, 0x00, 0x00, 0x86, 0xf1, 0xff, 0xff, 0x04, 0x00, 0x00, 0x00,
  0x08, 0x00, 0x00, 0x00, 0x9f, 0x30, 0x99, 0x8a, 0x7e, 0x08, 0x7f, 0x85, 0x9a,
  0xf1, 0xff, 0xff, 0x04, 0x00, 0x00, 0x00, 0x18, 0x00, 0x00, 0x00, 0x81, 0xf7,
  0x38, 0xbd, 0xc1, 0xea, 0x9d, 0x77, 0xa3, 0x7f, 0x7f, 0x81, 0x48, 0xb3, 0x7f,
  0x7f, 0xd9, 0x8f, 0x8a, 0xf2, 0x81, 0x7f, 0x8a, 0x15, 0xbe, 0xf1, 0xff, 0xff,
  0x04, 0x00, 0x00, 0x00, 0x18, 0x00, 0x00, 0x00, 0xd1, 0x81, 0x39, 0x81, 0x81,
  0x9c, 0x7f, 0xb6, 0xd6, 0xb1, 0x7f, 0x29, 0xaf, 0x74, 0x6b, 0x7f, 0x81, 0xb0,
  0xb5, 0x33, 0xe3, 0x7f, 0xf7, 0xb8, 0xe2, 0xf1, 0xff, 0xff, 0x04, 0x00, 0x00,
  0x00, 0x40, 0x00, 0x00, 0x00, 0xaa, 0xc3, 0x1d, 0x7f, 0x54, 0x15, 0x19, 0xcf,
  0xfc, 0xde, 0x10, 0x81, 0xd1, 0x0e, 0x13, 0x05, 0xdc, 0x37, 0x7f, 0xb1, 0xb9,
  0xde, 0x01, 0xa6, 0xe8, 0xc4, 0x0e, 0x81, 0xf2, 0x1c, 0x0a, 0x12, 0x7f, 0x56,
  0x77, 0x73, 0x31, 0x00, 0xfe, 0x36, 0xe0, 0xce, 0xb7, 0x81, 0xcb, 0xf3, 0xc4,
  0xc0, 0x26, 0x7f, 0x59, 0x04, 0x01, 0x01, 0x05, 0x10, 0xfb, 0xee, 0xfb, 0xe4,
  0x4e, 0x51, 0x7f, 0x61, 0x2e, 0xf2, 0xff, 0xff, 0x04, 0x00, 0x00, 0x00, 0x18,
  0x00, 0x00, 0x00, 0xec, 0x7f, 0x7f, 0x08, 0xfb, 0xfb, 0xf2, 0x15, 0x7f, 0x3a,
  0xa8, 0x81, 0x7f, 0x7f, 0x7f, 0x7f, 0xdb, 0xb0, 0x4f, 0x10, 0xee, 0xf0, 0xf2,
  0x02, 0x52, 0xf2, 0xff, 0xff, 0x04, 0x00, 0x00, 0x00, 0x18, 0x00, 0x00, 0x00,
  0x22, 0xf5, 0x0a, 0xeb, 0x4e, 0x81, 0x39, 0xbf, 0x81, 0x02, 0x00, 0x64, 0x81,
  0xe1, 0x70, 0x7f, 0x16, 0x81, 0x7f, 0x81, 0xc9, 0x21, 0x7f, 0xc8, 0x76, 0xf2,
  0xff, 0xff, 0x04, 0x00, 0x00, 0x00, 0x40, 0x00, 0x00, 0x00, 0x19, 0x01, 0xf2,
  0xae, 0x81, 0xe5, 0xf6, 0xe5, 0x03, 0x90, 0x02, 0x0b, 0x13, 0x0c, 0x7f, 0x04,
  0xf2, 0x81, 0x01, 0x0f, 0xf9, 0x01, 0x70, 0xfe, 0x42, 0x14, 0x58, 0x85, 0x05,
  0x7f, 0x02, 0x2e, 0x81, 0xca, 0x71, 0xa3, 0x01, 0x79, 0xef, 0x79, 0xb1, 0x04,
  0x78, 0xa0, 0x06, 0x7f, 0x04, 0x4d, 0x7f, 0x08, 0x0f, 0xa6, 0x07, 0x64, 0xf9,
  0x26, 0x9e, 0x4a, 0xb9, 0xf0, 0xf7, 0x2a, 0x14, 0x81, 0xc2, 0xf2, 0xff, 0xff,
  0x04, 0x00, 0x00, 0x00, 0x18, 0x00, 0x00, 0x00, 0x1f, 0x05, 0xf5, 0xed, 0x0e,
  0xaa, 0x47, 0x04, 0x7f, 0x81, 0x81, 0x81, 0x81, 0x81, 0x33, 0x7f, 0x24, 0xa0,
  0xfd, 0xf9, 0x8c, 0xad, 0x7f, 0x00, 0xe6, 0xf2, 0xff, 0xff, 0x04, 0x00, 0x00,
  0x00, 0x18, 0x00, 0x00, 0x00, 0xe2, 0x7f, 0x1e, 0x81, 0x40, 0x2c, 0x7f, 0x54,
  0x81, 0x2a, 0xbe, 0x14, 0x7f, 0x7f, 0x12, 0x81, 0xc1, 0x0c, 0x7f, 0xf0, 0x15,
  0x45, 0x0c, 0x32, 0x0a, 0xf3, 0xff, 0xff, 0x04, 0x00, 0x00, 0x00, 0x50, 0x00,
  0x00, 0x00, 0x81, 0xea, 0xf2, 0x05, 0x21, 0xf4, 0xcb, 0x0f, 0x0a, 0x7c, 0x44,
  0xf2, 0x98, 0x7f, 0xe4, 0xe6, 0xe5, 0x03, 0xf6, 0x12, 0x26, 0x41, 0x58, 0xf8,
  0xaa, 0x05, 0xc9, 0x46, 0x7f, 0xcc, 0x52, 0x2b, 0x81, 0xf2, 0xeb, 0x2d, 0xd9,
  0x7d, 0x4b, 0x26, 0x81, 0x3c, 0x44, 0xcf, 0xf6, 0x35, 0xe3, 0x2b, 0xf3, 0x10,
  0x24, 0x23, 0x63, 0x02, 0x8b, 0xff, 0x7f, 0x23, 0x9d, 0xab, 0xca, 0x00, 0x47,
  0xac, 0x08, 0x7f, 0xe6, 0x03, 0x00, 0x04, 0x40, 0x81, 0x38, 0x01, 0xe6, 0xff,
  0xde, 0xfb, 0x1d, 0xc6, 0x66, 0xf3, 0xff, 0xff, 0x04, 0x00, 0x00, 0x00, 0x1e,
  0x00, 0x00, 0x00, 0x1a, 0xf5, 0x10, 0xa5, 0x11, 0x36, 0xd3, 0xc3, 0xfa, 0xc3,
  0x7f, 0x81, 0x7f, 0x7f, 0x81, 0x81, 0xa3, 0x81, 0x81, 0x7f, 0x14, 0xfc, 0x06,
  0xc7, 0x00, 0x0c, 0x81, 0xc3, 0xe8, 0xca, 0x00, 0x00, 0x92, 0xf3, 0xff, 0xff,
  0x04, 0x00, 0x00, 0x00, 0x1e, 0x00, 0x00, 0x00, 0x81, 0x8e, 0x45, 0xff, 0xf9,
  0x31, 0x4d, 0x81, 0x7d, 0xfa, 0x48, 0xb5, 0x81, 0x7f, 0x7f, 0x7f, 0x7f, 0x28,
  0x7f, 0x81, 0x1a, 0x81, 0x4b, 0xf1, 0xa9, 0x2a, 0x04, 0xe8, 0xf4, 0x0c, 0x00,
  0x00, 0xbe, 0xf3, 0xff, 0xff, 0x04, 0x00, 0x00, 0x00, 0x40, 0x00, 0x00, 0x00,
  0x51, 0x5e, 0xd9, 0x3a, 0x02, 0x7f, 0xdd, 0xf4, 0xb7, 0x81, 0xf6, 0x06, 0x08,
  0x02, 0x53, 0xc4, 0xeb, 0xbe, 0x67, 0xf6, 0x0b, 0x94, 0x7f, 0xff, 0x3e, 0xf5,
  0x40, 0x7f, 0xfe, 0x12, 0xd1, 0xfd, 0x1d, 0x30, 0xf1, 0x23, 0xbd, 0x0a, 0x26,
  0x81, 0xd9, 0x81, 0xe6, 0x0f, 0xfe, 0xf6, 0xfa, 0x07, 0x24, 0x7f, 0x03, 0xff,
  0xb6, 0xfa, 0xe5, 0xea, 0x99, 0x02, 0x37, 0x81, 0x05, 0x9d, 0x79, 0xff, 0x0a,
  0xf4, 0xff, 0xff, 0x04, 0x00, 0x00, 0x00, 0x18, 0x00, 0x00, 0x00, 0x11, 0x6b,
  0xfb, 0xfd, 0xa9, 0xff, 0x3c, 0x59, 0x81, 0x56, 0x7f, 0x81, 0x7f, 0x7f, 0xf9,
  0x8a, 0x07, 0x7f, 0x02, 0xff, 0xc6, 0xfd, 0x7f, 0x7f, 0x2e, 0xf4, 0xff, 0xff,
  0x04, 0x00, 0x00, 0x00, 0x18, 0x00, 0x00, 0x00, 0x81, 0x0e, 0x97, 0x3c, 0x0a,
  0xd7, 0x74, 0x03, 0x54, 0x81, 0x7f, 0x7f, 0x81, 0x7f, 0x7f, 0x81, 0xe7, 0x45,
  0xe8, 0xcd, 0x12, 0xe1, 0x17, 0x0d, 0x52, 0xf4, 0xff, 0xff, 0x04, 0x00, 0x00,
  0x00, 0x50, 0x00, 0x00, 0x00, 0x2f, 0x7f, 0x06, 0xff, 0x00, 0xfb, 0xfc, 0xd9,
  0x5c, 0xdb, 0x17, 0x41, 0x07, 0xfc, 0xc9, 0x0b, 0x81, 0xe4, 0x5a, 0xdd, 0xa6,
  0xc9, 0xf3, 0x04, 0x0c, 0x05, 0x06, 0x22, 0x81, 0xd5, 0x26, 0xc7, 0xfe, 0xf9,
  0x11, 0x05, 0xa7, 0x81, 0xe2, 0x04, 0xf7, 0xf7, 0x81, 0xea, 0x21, 0x8c, 0xe9,
  0x01, 0x08, 0x08, 0x2c, 0xee, 0xfe, 0xf6, 0x07, 0xff, 0x82, 0xd4, 0xe6, 0x81,
  0x1c, 0x53, 0x29, 0xdd, 0xab, 0xb7, 0x81, 0x2b, 0x03, 0x2a, 0x01, 0xf9, 0xc3,
  0x81, 0xa7, 0x9c, 0x03, 0xf9, 0xfb, 0x01, 0xae, 0xf4, 0xff, 0xff, 0x04, 0x00,
  0x00, 0x00, 0x40, 0x00, 0x00, 0x00, 0x00, 0x00, 0x00, 0x00, 0x00, 0x00, 0x00,
  0x00, 0x00, 0x00, 0x00, 0x00, 0x00, 0x00, 0x00, 0x00, 0x00, 0x00, 0x00, 0x00,
  0x00, 0x00, 0x00, 0x00, 0x00, 0x00, 0x00, 0x00, 0x00, 0x00, 0x00, 0x00, 0x00,
  0x00, 0x00, 0x00, 0x00, 0x00, 0x00, 0x00, 0x00, 0x00, 0x00, 0x00, 0x00, 0x00,
  0x00, 0x00, 0x00, 0x00, 0x00, 0x00, 0x00, 0x00, 0x00, 0x00, 0x00, 0x00, 0x00,
  0x00, 0x00, 0x00, 0x00, 0x00, 0xfa, 0xf4, 0xff, 0xff, 0x04, 0x00, 0x00, 0x00,
  0x1e, 0x00, 0x00, 0x00, 0x7c, 0x3a, 0xa8, 0x7f, 0x1e, 0x81, 0xdc, 0x2e, 0x13,
  0x13, 0x7f, 0x7f, 0xbe, 0xaa, 0x81, 0x4c, 0x81, 0x7f, 0x7f, 0x7f, 0x69, 0x34,
  0x7f, 0xfa, 0x4b, 0xdf, 0xcc, 0x26, 0x14, 0x18, 0x00, 0x00, 0x26, 0xf5, 0xff,
  0xff, 0x04, 0x00, 0x00, 0x00, 0x1e, 0x00, 0x00, 0x00, 0x17, 0x08, 0xc5, 0x0c,
  0xd9, 0xf7, 0x07, 0x81, 0x81, 0xa2, 0x7f, 0x10, 0x81, 0x7f, 0x81, 0x81, 0x7f,
  0x58, 0x9d, 0x7f, 0x49, 0x7f, 0xcf, 0x20, 0xbc, 0xe6, 0xe8, 0x38, 0xd2, 0xdf,
  0x00, 0x00, 0x52, 0xf5, 0xff, 0xff, 0x04, 0x00, 0x00, 0x00, 0x78, 0x00, 0x00,
  0x00, 0xdb, 0x1e, 0x0f, 0x45, 0xbf, 0x7e, 0x27, 0x81, 0xf4, 0x3c, 0x1b, 0xc1,
  0x34, 0xf5, 0x28, 0xa0, 0x4a, 0x81, 0xbc, 0xbc, 0xe6, 0xf2, 0xb3, 0xef, 0xb5,
  0x81, 0x88, 0x1d, 0x0c, 0x10, 0xd7, 0x2f, 0xd3, 0x1c, 0xf2, 0xbc, 0x1b, 0x81,
  0xe7, 0xeb, 0x51, 0xe2, 0xe4, 0xe8, 0x09, 0x24, 0xef, 0x29, 0xe9, 0xf1, 0x20,
  0xeb, 0x14, 0xfb, 0x19, 0x8d, 0xf0, 0x90, 0xf9, 0x81, 0xe8, 0xfd, 0xea, 0x21,
  0x00, 0x3e, 0x7f, 0x10, 0xdd, 0x08, 0xf3, 0x12, 0x20, 0xe2, 0xda, 0xe4, 0x7f,
  0xbd, 0xc3, 0x0f, 0x09, 0xfe, 0x56, 0x20, 0x86, 0x27, 0xe3, 0x73, 0xa1, 0x42,
  0x52, 0xf7, 0x7f, 0x04, 0xdf, 0x18, 0x7f, 0x02, 0x08, 0x98, 0xf4, 0x17, 0x03,
  0xb0, 0xbe, 0xf3, 0x34, 0xf9, 0x25, 0x01, 0xe7, 0x15, 0x48, 0xeb, 0xde, 0xa8,
  0x63, 0x7f, 0x57, 0x45, 0xd6, 0xf5, 0xff, 0xff, 0x04, 0x00, 0x00, 0x00, 0x24,
  0x00, 0x00, 0x00, 0xd1, 0x05, 0x7f, 0x2f, 0xe2, 0x66, 0x2c, 0xfd, 0x1b, 0xaf,
  0x06, 0xd0, 0x81, 0xa4, 0x4f, 0x7f, 0x81, 0x7f, 0x81, 0x81, 0x81, 0x81, 0x7f,
  0x81, 0xe2, 0x7f, 0x2d, 0x1b, 0x1b, 0x23, 0x65, 0xf4, 0x1a, 0xc9, 0xff, 0xc4,
  0x06, 0xf6, 0xff, 0xff, 0x04, 0x00, 0x00, 0x00, 0x24, 0x00, 0x00, 0x00, 0x42,
  0x29, 0x35, 0x7f, 0x81, 0xac, 0xe9, 0x31, 0x0f, 0x36, 0x5c, 0x12, 0x3c, 0x7f,
  0x7f, 0xcb, 0x90, 0x7f, 0x81, 0x81, 0x81, 0x7f, 0x81, 0xd1, 0x81, 0x22, 0x30,
  0xfb, 0xfd, 0xbf, 0x00, 0x0c, 0x7d, 0xb3, 0x1c, 0x81, 0x36, 0xf6, 0xff, 0xff,
  0x04, 0x00, 0x00, 0x00, 0x64, 0x00, 0x00, 0x00, 0xed, 0x01, 0xf4, 0xc7, 0xfa,
  0x7f, 0x0e, 0x06, 0x00, 0xef, 0xa8, 0xfd, 0x10, 0xee, 0x4a, 0xea, 0xd2, 0x7f,
  0x10, 0x4f, 0x12, 0xaa, 0x81, 0xf4, 0xe4, 0xc4, 0xcd, 0xfd, 0x1a, 0x07, 0xf4,
  0x91, 0x00, 0x0d, 0x06, 0x10, 0x52, 0x04, 0x81, 0xf8, 0x07, 0xbd, 0x81, 0xfd,
  0x4d, 0x15, 0xec, 0xe6, 0x56, 0x74, 0x08, 0x1a, 0xc6, 0xfa, 0xcc, 0xf8, 0xca,
  0xfc, 0x7f, 0x0c, 0xd1, 0xef, 0xe8, 0x01, 0x7f, 0xbb, 0xe4, 0xe6, 0x00, 0xde,
  0x69, 0xf0, 0x09, 0x9f, 0x81, 0x01, 0x26, 0xfc, 0xfd, 0xb1, 0xdf, 0xfd, 0xd0,
  0x7f, 0x0b, 0x0f, 0xf2, 0x40, 0x03, 0x78, 0xcf, 0xf4, 0x81, 0xd0, 0x04, 0xec,
  0xfe, 0x41, 0xf8, 0xf9, 0xa6, 0xf6, 0xff, 0xff, 0x04, 0x00, 0x00, 0x00, 0x1e,
  0x00, 0x00, 0x00, 0x1a, 0xa6, 0x0b, 0xea, 0x1f, 0xf2, 0x92, 0x05, 0x14, 0xb8,
  0x7f, 0x7f, 0x81, 0x81, 0x81, 0x7f, 0x7f, 0x81, 0x7f, 0x81, 0x1c, 0xb6, 0x00,
  0xf6, 0x1e, 0x0c, 0x8d, 0x02, 0x56, 0xba, 0x00, 0x00, 0xd2, 0xf6, 0xff, 0xff,
  0x04, 0x00, 0x00, 0x00, 0x1e, 0x00, 0x00, 0x00, 0xde, 0x04, 0x01, 0x81, 0xf4,
  0x81, 0xf7, 0xdb, 0xd1, 0x81, 0xbb, 0x7f, 0x7f, 0x37, 0x7f, 0x46, 0x7f, 0x7f,
  0x81, 0x37, 0x81, 0x1b, 0x0d, 0x0a, 0x1d, 0x91, 0xf2, 0xa2, 0xe9, 0xef, 0x00,
  0x00, 0xfe, 0xf6, 0xff, 0xff, 0x04, 0x00, 0x00, 0x00, 0x78, 0x00, 0x00, 0x00,
  0xee, 0xee, 0x0d, 0x21, 0x4a, 0xf2, 0xf0, 0xdb, 0x07, 0xe4, 0x81, 0xdf, 0xf9,
  0x81, 0x0c, 0xf5, 0xfe, 0x1f, 0xc1, 0x1a, 0xe0, 0xeb, 0xfb, 0x08, 0x22, 0xd0,
  0x7f, 0xef, 0x32, 0xf3, 0xc2, 0x1d, 0x1f, 0xe6, 0xdc, 0x24, 0x7f, 0xf1, 0xec,
  0x97, 0xa8, 0x4c, 0x45, 0x35, 0xf1, 0x7b, 0xd6, 0x00, 0x1e, 0x7f, 0xeb, 0xf4,
  0xd6, 0xe5, 0x3a, 0xaf, 0xf1, 0xf1, 0x2a, 0xf9, 0xfe, 0x09, 0x0c, 0x7f, 0x7e,
  0xcc, 0xf8, 0x65, 0x02, 0xb9, 0x03, 0x85, 0x08, 0xe9, 0xb5, 0xee, 0x15, 0x2c,
  0x04, 0x7f, 0x0c, 0xf0, 0x0c, 0x3f, 0x7b, 0xe9, 0xd4, 0x87, 0x41, 0x73, 0x7f,
  0x29, 0xe9, 0x1c, 0xe0, 0x0d, 0xfa, 0x0e, 0x11, 0x10, 0x01, 0x22, 0x67, 0xcf,
  0x81, 0x1d, 0xde, 0x1d, 0xe3, 0x13, 0xfa, 0x12, 0xdf, 0x94, 0x02, 0x0c, 0xfa,
  0x7f, 0xf9, 0x96, 0x82, 0xf7, 0xff, 0xff, 0x04, 0x00, 0x00, 0x00, 0x50, 0x00,
  0x00, 0x00, 0x00, 0x00, 0x00, 0x00, 0x00, 0x00, 0x00, 0x00, 0x00, 0x00, 0x00,
  0x00, 0x00, 0x00, 0x00, 0x00, 0x00, 0x00, 0x00, 0x00, 0x00, 0x00, 0x00, 0x00,
  0x00, 0x00, 0x00, 0x00, 0x00, 0x00, 0x00, 0x00, 0x00, 0x00, 0x00, 0x00, 0x00,
  0x00, 0x00, 0x00, 0x00, 0x00, 0x00, 0x00, 0x00, 0x00, 0x00, 0x00, 0x00, 0x00,
  0x00, 0x00, 0x00, 0x00, 0x00, 0x00, 0x00, 0x00, 0x00, 0x00, 0x00, 0x00, 0x00,
  0x00, 0x00, 0x00, 0x00, 0x00, 0x00, 0x00, 0x00, 0x00, 0x00, 0x00, 0x00, 0x00,
  0x00, 0x00, 0x00, 0x00, 0xde, 0xf7, 0xff, 0xff, 0x04, 0x00, 0x00, 0x00, 0x24,
  0x00, 0x00, 0x00, 0x24, 0xed, 0x7f, 0xe5, 0x1d, 0xdb, 0xc5, 0x54, 0x5d, 0x06,
  0x21, 0x48, 0x7f, 0x81, 0x4f, 0x81, 0x7f, 0x81, 0x81, 0x7f, 0x81, 0x81, 0x7f,
  0x7f, 0x20, 0x2c, 0x0c, 0xdd, 0x19, 0xe3, 0x9f, 0x6e, 0xdd, 0x12, 0x14, 0x36,
  0x0e, 0xf8, 0xff, 0xff, 0x04, 0x00, 0x00, 0x00, 0x24, 0x00, 0x00, 0x00, 0x10,
  0x36, 0xe1, 0x06, 0x9f, 0x81, 0xbf, 0xc1, 0x27, 0xca, 0x15, 0x0b, 0x2b, 0x7f,
  0x81, 0x7f, 0xb3, 0x40, 0x81, 0x81, 0x7f, 0x7f, 0x7f, 0xce, 0x7f, 0x0e, 0x02,
  0x21, 0x7f, 0x6d, 0xce, 0xd6, 0x24, 0xc2, 0x13, 0x81, 0x3e, 0xf8, 0xff, 0xff,
  0x04, 0x00, 0x00, 0x00, 0xc0, 0x00, 0x00, 0x00, 0x32, 0xff, 0x27, 0x07, 0xf1,
  0x42, 0x28, 0x24, 0x22, 0x06, 0x07, 0xe5, 0xde, 0x05, 0xe8, 0x81, 0x39, 0xaa,
  0xd1, 0x21, 0x7a, 0x0e, 0xd9, 0xf7, 0x7f, 0xcb, 0x53, 0x3c, 0xda, 0xba, 0xc0,
  0x13, 0xfa, 0x02, 0x81, 0xf0, 0xbe, 0xef, 0xe6, 0x04, 0x4a, 0xd2, 0x1c, 0x3a,
  0xf5, 0x49, 0x53, 0x07, 0xef, 0x0d, 0xf0, 0xe3, 0x12, 0xf3, 0xe5, 0xfe, 0xef,
  0x32, 0xf9, 0x36, 0x00, 0x03, 0x81, 0x12, 0x5a, 0x07, 0xc6, 0x5d, 0xb5, 0x0c,
  0x69, 0xe5, 0x1a, 0x62, 0x40, 0x19, 0x04, 0xd0, 0x81, 0xf8, 0xee, 0x5d, 0x56,
  0x3e, 0x20, 0x5b, 0x14, 0xf1, 0x03, 0x3b, 0x24, 0x19, 0x19, 0xdc, 0x81, 0x01,
  0x7f, 0xb5, 0x2e, 0x23, 0x54, 0x3e, 0xfd, 0xc2, 0x08, 0x1c, 0x2c, 0xc4, 0xcf,
  0x0e, 0xf2, 0x0e, 0x33, 0x47, 0xdf, 0xe7, 0x48, 0xf0, 0xb3, 0x4b, 0x3f, 0xfc,
  0x2d, 0x34, 0x4f, 0xf4, 0x7f, 0x14, 0xe5, 0x7f, 0x0f, 0xd2, 0xc1, 0x0e, 0x50,
  0x1a, 0xbc, 0xdf, 0x9f, 0x04, 0x5d, 0x5b, 0xf2, 0xb6, 0x3a, 0x67, 0x0d, 0x42,
  0x22, 0x62, 0x0b, 0xc3, 0xf5, 0xec, 0x7f, 0x24, 0x27, 0x97, 0x0c, 0x44, 0x53,
  0xab, 0x73, 0xf9, 0xfd, 0xf1, 0x3c, 0xd8, 0xf9, 0x38, 0xbb, 0x98, 0xf1, 0x7f,
  0x8a, 0xb4, 0x11, 0x15, 0xbd, 0xfc, 0xf6, 0xcf, 0xed, 0x2a, 0x0d, 0x01, 0x0e,
  0x5c, 0x7f, 0x06, 0xe5, 0x03, 0x0a, 0xf9, 0xff, 0xff, 0x04, 0x00, 0x00, 0x00,
  0x30, 0x00, 0x00, 0x00, 0x1c, 0x9c, 0x48, 0x02, 0xd8, 0x7f, 0xec, 0xd1, 0x81,
  0x81, 0x23, 0x69, 0x0b, 0x36, 0xac, 0xd4, 0x81, 0xd9, 0x41, 0x7f, 0x7f, 0xef,
  0x7f, 0x81, 0x57, 0x5b, 0x43, 0x81, 0x7f, 0x81, 0x7f, 0x81, 0xf9, 0x7f, 0x81,
  0xfb, 0xfc, 0x1e, 0x0c, 0xf0, 0x2b, 0x49, 0x81, 0x2e, 0x58, 0x25, 0xd2, 0xa5,
  0x46, 0xf9, 0xff, 0xff, 0x04, 0x00, 0x00, 0x00, 0x30, 0x00, 0x00, 0x00, 0x14,
  0xd5, 0xe8, 0x28, 0xfd, 0x81, 0xbc, 0x97, 0x15, 0x81, 0xcc, 0x3b, 0x81, 0x81,
  0xfd, 0x7f, 0x6b, 0x7b, 0x81, 0x0d, 0x81, 0x90, 0x7f, 0x7f, 0x7f, 0x65, 0xaf,
  0x81, 0xff, 0xa0, 0x81, 0x8c, 0x81, 0x7f, 0x75, 0x81, 0x24, 0xc6, 0xbb, 0xe6,
  0x04, 0x2c, 0x81, 0xcd, 0x71, 0x95, 0x77, 0xfa, 0x82, 0xf9, 0xff, 0xff, 0x04,
  0x00, 0x00, 0x00, 0x90, 0x00, 0x00, 0x00, 0xa2, 0xb6, 0x7f, 0x1c, 0xe5, 0x66,
  0x8f, 0x4b, 0xe6, 0xb9, 0xba, 0x37, 0x05, 0xfb, 0x07, 0x81, 0xdd, 0xaf, 0xa9,
  0x31, 0x02, 0x1e, 0xc1, 0x96, 0x16, 0x08, 0x1d, 0x08, 0x7f, 0xb7, 0x0b, 0x18,
  0x27, 0x0e, 0x0e, 0xaa, 0x20, 0x1e, 0xd8, 0x09, 0xfc, 0x81, 0x3d, 0xf4, 0xff,
  0x4b, 0x2d, 0xe3, 0x2b, 0xe0, 0xf0, 0xe6, 0xea, 0x81, 0x18, 0xf4, 0x2c, 0x0e,
  0xa4, 0x07, 0xdf, 0x27, 0x9e, 0xd7, 0xe1, 0xf3, 0x81, 0xd7, 0x25, 0x6e, 0x12,
  0x5a, 0x09, 0x0e, 0x0f, 0x81, 0xab, 0x26, 0x0a, 0x08, 0xa4, 0x19, 0xc6, 0x23,
  0x7f, 0x8b, 0x5f, 0x2f, 0xf3, 0x2e, 0xdb, 0x6e, 0x74, 0x0b, 0xae, 0x22, 0x07,
  0xde, 0x0f, 0x7f, 0x42, 0x1a, 0x52, 0xe9, 0xe1, 0xf3, 0xfe, 0x0b, 0xc6, 0x01,
  0xee, 0x81, 0xf6, 0xec, 0xfa, 0x31, 0x19, 0x3f, 0xaa, 0xf7, 0x17, 0xe8, 0x53,
  0x1f, 0xe0, 0x3d, 0xf5, 0x81, 0xc9, 0xf7, 0xea, 0x02, 0x61, 0xc7, 0x3d, 0x20,
  0xfe, 0x81, 0x50, 0x24, 0xe0, 0xc5, 0x00, 0xd6, 0x1e, 0xfa, 0xff, 0xff, 0x04,
  0x00, 0x00, 0x00, 0x24, 0x00, 0x00, 0x00, 0x05, 0x81, 0xf4, 0x45, 0x3f, 0x31,
  0x81, 0x1b, 0xed, 0xbc, 0x7f, 0x0b, 0x7f, 0xd7, 0x7f, 0x7f, 0x81, 0x81, 0xac,
  0x7f, 0x81, 0x81, 0x58, 0x81, 0xfb, 0xd3, 0xef, 0x0c, 0x7a, 0x18, 0xb9, 0xd3,
  0xd9, 0xcf, 0xf9, 0xe1, 0x4e, 0xfa, 0xff, 0xff, 0x04, 0x00, 0x00, 0x00, 0x24,
  0x00, 0x00, 0x00, 0x81, 0x63, 0x7f, 0xda, 0xdd, 0x03, 0xf5, 0x85, 0x8b, 0x0a,
  0x44, 0x1c, 0x28, 0xf1, 0x85, 0x7f, 0x7f, 0x81, 0x0a, 0x81, 0xe3, 0x81, 0xcc,
  0x7f, 0xfa, 0x7f, 0x42, 0x63, 0xe6, 0x0d, 0x7f, 0x4a, 0x7f, 0x86, 0x7f, 0x0d,
  0x7e, 0xfa, 0xff, 0xff, 0x04, 0x00, 0x00, 0x00, 0xc0, 0x00, 0x00, 0x00, 0x01,
  0x3e, 0x02, 0x58, 0xfc, 0xf6, 0x9b, 0x2c, 0xec, 0x2b, 0x2f, 0x09, 0x81, 0xf8,
  0x05, 0x6d, 0xef, 0x81, 0x0c, 0xab, 0x9e, 0x0e, 0xaf, 0xf5, 0xf6, 0x47, 0x11,
  0x02, 0x56, 0x8b, 0xe0, 0xfe, 0xea, 0xee, 0xec, 0xb7, 0x24, 0xfa, 0x7f, 0x1a,
  0x11, 0x29, 0xe1, 0x18, 0x1b, 0x07, 0xc9, 0x8f, 0x40, 0xe2, 0xe7, 0xfe, 0xfb,
  0x7f, 0xe6, 0x07, 0x25, 0x1d, 0xab, 0x9e, 0xa0, 0x5d, 0x0b, 0x00, 0xc3, 0x89,
  0x20, 0x40, 0x0e, 0xdc, 0xf5, 0x60, 0x81, 0x11, 0xbd, 0x76, 0x03, 0x46, 0xc2,
  0x36, 0x97, 0x1b, 0x6d, 0xec, 0x04, 0xda, 0xe9, 0x7f, 0xf3, 0xd4, 0xbd, 0x26,
  0x0d, 0x03, 0x0d, 0xf9, 0x7f, 0x24, 0xad, 0x28, 0xba, 0xe1, 0x17, 0x43, 0xe7,
  0x00, 0xc9, 0x3b, 0x1e, 0x42, 0xe6, 0x40, 0xdf, 0x73, 0x30, 0xa5, 0xf0, 0x81,
  0xcb, 0xd8, 0xde, 0xba, 0xf4, 0x2b, 0x28, 0xf5, 0x98, 0x8a, 0xff, 0x7f, 0x1c,
  0x36, 0x6f, 0xf5, 0xbf, 0x59, 0xea, 0x99, 0x3e, 0x4e, 0x08, 0xac, 0x6a, 0x5a,
  0xed, 0x23, 0xe9, 0x11, 0xe1, 0xfe, 0x81, 0xea, 0xf6, 0x95, 0xed, 0x08, 0x8c,
  0xe6, 0x34, 0x57, 0x24, 0xe1, 0xcb, 0x81, 0xaa, 0xa2, 0xf0, 0x0b, 0xb2, 0x3a,
  0xec, 0x1a, 0xe8, 0x87, 0x88, 0xe3, 0x0e, 0x10, 0x06, 0xfd, 0xe2, 0x7f, 0x03,
  0x06, 0x4c, 0x23, 0x04, 0x2c, 0x0a, 0xbd, 0x6e, 0xef, 0x4a, 0xfb, 0xff, 0xff,
  0x04, 0x00, 0x00, 0x00, 0x60, 0x00, 0x00, 0x00, 0x00, 0x00, 0x00, 0x00, 0x00,
  0x00, 0x00, 0x00, 0x00, 0x00, 0x00, 0x00, 0x00, 0x00, 0x00, 0x00, 0x00, 0x00,
  0x00, 0x00, 0x00, 0x00, 0x00, 0x00, 0x00, 0x00, 0x00, 0x00, 0x00, 0x00, 0x00,
  0x00, 0x00, 0x00, 0x00, 0x00, 0x00, 0x00, 0x00, 0x00, 0x00, 0x00, 0x00, 0x00,
  0x00, 0x00, 0x00, 0x00, 0x00, 0x00, 0x00, 0x00, 0x00, 0x00, 0x00, 0x00, 0x00,
  0x00, 0x00, 0x00, 0x00, 0x00, 0x00, 0x00, 0x00, 0x00, 0x00, 0x00, 0x00, 0x00,
  0x00, 0x00, 0x00, 0x00, 0x00, 0x00, 0x00, 0x00, 0x00, 0x00, 0x00, 0x00, 0x00,
  0x00, 0x00, 0x00, 0x00, 0x00, 0x00, 0x00, 0x00, 0x00, 0x00, 0x00, 0x00, 0x00,
  0xb6, 0xfb, 0xff, 0xff, 0x04, 0x00, 0x00, 0x00, 0x30, 0x00, 0x00, 0x00, 0x88,
  0x7f, 0x5f, 0xf2, 0xd3, 0x79, 0x09, 0xb2, 0x7f, 0xc1, 0xe1, 0x18, 0x17, 0xa7,
  0x7f, 0x0f, 0x02, 0x91, 0x15, 0xd4, 0x61, 0x81, 0x81, 0x0a, 0x89, 0x7f, 0xf2,
  0x7f, 0x7f, 0x7f, 0xc8, 0x81, 0x7f, 0x1b, 0x81, 0x81, 0x81, 0xcb, 0xe4, 0x81,
  0xf6, 0xc9, 0x81, 0xbc, 0x25, 0x85, 0xc1, 0x39, 0xf2, 0xfb, 0xff, 0xff, 0x04,
  0x00, 0x00, 0x00, 0x30, 0x00, 0x00, 0x00, 0x69, 0x67, 0xb1, 0x6b, 0x6c, 0xff,
  0x32, 0x00, 0xff, 0xed, 0x7f, 0x0c, 0x02, 0xd5, 0x67, 0xab, 0x7f, 0x81, 0x95,
  0x81, 0x81, 0x81, 0x52, 0x2f, 0x6a, 0xce, 0xea, 0x7f, 0x7f, 0x81, 0xee, 0x7f,
  0x06, 0x3f, 0x81, 0x0b, 0xc8, 0xf6, 0x81, 0x7f, 0x7f, 0x7f, 0xe0, 0x36, 0x8e,
  0xe3, 0x81, 0xc5, 0x2e, 0xfc, 0xff, 0xff, 0x04, 0x00, 0x00, 0x00, 0x10, 0x00,
  0x00, 0x00, 0x81, 0x7f, 0x7f, 0x7f, 0x7f, 0x7f, 0x7f, 0x7f, 0x81, 0x7f, 0x81,
  0x81, 0x81, 0x7f, 0x7f, 0x81, 0x4a, 0xfc, 0xff, 0xff, 0x04, 0x00, 0x00, 0x00,
  0x80, 0x00, 0x00, 0x00, 0x00, 0x00, 0x00, 0x00, 0x00, 0x00, 0x00, 0x00, 0x00,
  0x00, 0x00, 0x00, 0x00, 0x00, 0x00, 0x00, 0x00, 0x00, 0x00, 0x00, 0x00, 0x00,
  0x00, 0x00, 0x00, 0x00, 0x00, 0x00, 0x00, 0x00, 0x00, 0x00, 0x00, 0x00, 0x00,
  0x00, 0x00, 0x00, 0x00, 0x00, 0x00, 0x00, 0x00, 0x00, 0x00, 0x00, 0x00, 0x00,
  0x00, 0x00, 0x00, 0x00, 0x00, 0x00, 0x00, 0x00, 0x00, 0x00, 0x00, 0x00, 0x00,
  0x00, 0x00, 0x00, 0x00, 0x00, 0x00, 0x00, 0x00, 0x00, 0x00, 0x00, 0x00, 0x00,
  0x00, 0x00, 0x00, 0x00, 0x00, 0x00, 0x00, 0x00, 0x00, 0x00, 0x00, 0x00, 0x00,
  0x00, 0x00, 0x00, 0x00, 0x00, 0x00, 0x00, 0x00, 0x00, 0x00, 0x00, 0x00, 0x00,
  0x00, 0x00, 0x00, 0x00, 0x00, 0x00, 0x00, 0x00, 0x00, 0x00, 0x00, 0x00, 0x00,
  0x00, 0x00, 0x00, 0x00, 0x00, 0x00, 0x00, 0x00, 0x00, 0x00, 0x00, 0x00, 0x00,
  0x00, 0x00, 0xd6, 0xfc, 0xff, 0xff, 0x04, 0x00, 0x00, 0x00, 0x03, 0x00, 0x00,
  0x00, 0xc1, 0x81, 0x39, 0x00, 0xe6, 0xfc, 0xff, 0xff, 0x04, 0x00, 0x00, 0x00,
  0x03, 0x00, 0x00, 0x00, 0x4d, 0x7f, 0xb9, 0x00, 0xf6, 0xfc, 0xff, 0xff, 0x04,
  0x00, 0x00, 0x00, 0x08, 0x00, 0x00, 0x00, 0x00, 0x00, 0x00, 0x00, 0x00, 0x00,
  0x00, 0x00, 0x0a, 0xfd, 0xff, 0xff, 0x04, 0x00, 0x00, 0x00, 0x08, 0x00, 0x00,
  0x00, 0x99, 0xb0, 0xff, 0xff, 0xff, 0xff, 0xff, 0xff, 0x1e, 0xfd, 0xff, 0xff,
  0x04, 0x00, 0x00, 0x00, 0x40, 0x00, 0x00, 0x00, 0x4e, 0xd2, 0xff, 0xff, 0xff,
  0xff, 0xff, 0xff, 0xfe, 0x0b, 0x00, 0x00, 0x00, 0x00, 0x00, 0x00, 0xc9, 0xf1,
  0xff, 0xff, 0xff, 0xff, 0xff, 0xff, 0x98, 0xfc, 0xff, 0xff, 0xff, 0xff, 0xff,
  0xff, 0x80, 0xe9, 0xff, 0xff, 0xff, 0xff, 0xff, 0xff, 0xfc, 0x6b, 0xff, 0xff,
  0xff, 0xff, 0xff, 0xff, 0xff, 0x09, 0x00, 0x00, 0x00, 0x00, 0x00, 0x00, 0x49,
  0xee, 0xff, 0xff, 0xff, 0xff, 0xff, 0xff, 0x6a, 0xfd, 0xff, 0xff, 0x04, 0x00,
  0x00, 0x00, 0x40, 0x00, 0x00, 0x00, 0x2d, 0xa0, 0xff, 0xff, 0xff, 0xff, 0xff,
  0xff, 0xb6, 0xb9, 0xff, 0xff, 0xff, 0xff, 0xff, 0xff, 0xd7, 0xa9, 0xff, 0xff,
  0xff, 0xff, 0xff, 0xff, 0xd8, 0x99, 0xff, 0xff, 0xff, 0xff, 0xff, 0xff, 0xeb,
  0x90, 0x00, 0x00, 0x00, 0x00, 0x00, 0x00, 0xc5, 0x1d, 0x00, 0x00, 0x00, 0x00,
  0x00, 0x00, 0x3c, 0xfc, 0xff, 0xff, 0xff, 0xff, 0xff, 0xff, 0xe0, 0xea, 0xff,
  0xff, 0xff, 0xff, 0xff, 0xff, 0xb6, 0xfd, 0xff, 0xff, 0x04, 0x00, 0x00, 0x00,
  0x50, 0x00, 0x00, 0x00, 0x80, 0x0d, 0x00, 0x00, 0x00, 0x00, 0x00, 0x00, 0x67,
  0x9d, 0xfe, 0xff, 0xff, 0xff, 0xff, 0xff, 0x2a, 0x1a, 0x02, 0x00, 0x00, 0x00,
  0x00, 0x00, 0x3f, 0x36, 0xfe, 0xff, 0xff, 0xff, 0xff, 0xff, 0xdd, 0x0b, 0x05,
  0x00, 0x00, 0x00, 0x00, 0x00, 0x8f, 0x19, 0x00, 0x00, 0x00, 0x00, 0x00, 0x00,
  0x56, 0x1e, 0xff, 0xff, 0xff, 0xff, 0xff, 0xff, 0x43, 0xeb, 0x02, 0x00, 0x00,
  0x00, 0x00, 0x00, 0xc5, 0x66, 0xff, 0xff, 0xff, 0xff, 0xff, 0xff, 0x2f, 0xbb,
  0x00, 0x00, 0x00, 0x00, 0x00, 0x00, 0x12, 0xfe, 0xff, 0xff, 0x04, 0x00, 0x00,
  0x00, 0x60, 0x00, 0x00, 0x00, 0x84, 0xf3, 0xff, 0xff, 0xff, 0xff, 0xff, 0xff,
  0xdc, 0xa2, 0x00, 0x00, 0x00, 0x00, 0x00, 0x00, 0x0b, 0xe8, 0xff, 0xff, 0xff,
  0xff, 0xff, 0xff, 0x04, 0xfa, 0xff, 0xff, 0xff, 0xff, 0xff, 0xff, 0x35, 0x43,
  0x00, 0x00, 0x00, 0x00, 0x00, 0x00, 0x55, 0x1c, 0xfd, 0xff, 0xff, 0xff, 0xff,
  0xff, 0xeb, 0x98, 0x02, 0x00, 0x00, 0x00, 0x00, 0x00, 0x90, 0xfc, 0x00, 0x00,
  0x00, 0x00, 0x00, 0x00, 0x9f, 0xa5, 0xfd, 0xff, 0xff, 0xff, 0xff, 0xff, 0xc0,
  0x99, 0x00, 0x00, 0x00, 0x00, 0x00, 0x00, 0x4f, 0xa6, 0xff, 0xff, 0xff, 0xff,
  0xff, 0xff, 0x83, 0x8c, 0xff, 0xff, 0xff, 0xff, 0xff, 0xff, 0x7e, 0xfe, 0xff,
  0xff, 0x04, 0x00, 0x00, 0x00, 0x80, 0x00, 0x00, 0x00, 0x80, 0xd1, 0x8c, 0xfb,
  0xff, 0xff, 0xff, 0xff, 0x7a, 0x1a, 0x1c, 0x00, 0x00, 0x00, 0x00, 0x00, 0xc8,
  0x1e, 0x4b, 0x00, 0x00, 0x00, 0x00, 0x00, 0x08, 0x9d, 0xf1, 0xff, 0xff, 0xff,
  0xff, 0xff, 0x7d, 0x3a, 0x0d, 0x00, 0x00, 0x00, 0x00, 0x00, 0xcd, 0x80, 0x0e,
  0x00, 0x00, 0x00, 0x00, 0x00, 0xfa, 0x52, 0xf9, 0xff, 0xff, 0xff, 0xff, 0xff,
  0x2e, 0x91, 0x24, 0x00, 0x00, 0x00, 0x00, 0x00, 0x3b, 0xf1, 0x18, 0x00, 0x00,
  0x00, 0x00, 0x00, 0x46, 0x0d, 0x0b, 0x00, 0x00, 0x00, 0x00, 0x00, 0x36, 0xca,
  0xc5, 0xff, 0xff, 0xff, 0xff, 0xff, 0x82, 0x61, 0xf3, 0xff, 0xff, 0xff, 0xff,
  0xff, 0xef, 0x66, 0xec, 0xff, 0xff, 0xff, 0xff, 0xff, 0x9d, 0x2d, 0x08, 0x00,
  0x00, 0x00, 0x00, 0x00, 0xbc, 0x87, 0xff, 0xff, 0xff, 0xff, 0xff, 0xff, 0x28,
  0xa5, 0x10, 0x00, 0x00, 0x00, 0x00, 0x00, 0x0a, 0xff, 0xff, 0xff, 0x04, 0x00,
  0x00, 0x00, 0x40, 0x00, 0x00, 0x00, 0x47, 0x67, 0x00, 0x00, 0x00, 0x00, 0x00,
  0x00, 0x9c, 0x7f, 0xff, 0xff, 0xff, 0xff, 0xff, 0xff, 0x4f, 0x5f, 0x00, 0x00,
  0x00, 0x00, 0x00, 0x00, 0x85, 0x44, 0xff, 0xff, 0xff, 0xff, 0xff, 0xff, 0x79,
  0x4c, 0x00, 0x00, 0x00, 0x00, 0x00, 0x00, 0xbc, 0x2a, 0xff, 0xff, 0xff, 0xff,
  0xff, 0xff, 0x1d, 0x18, 0xff, 0xff, 0xff, 0xff, 0xff, 0xff, 0x19, 0x76, 0x00,
  0x00, 0x00, 0x00, 0x00, 0x00, 0x56, 0xff, 0xff, 0xff, 0x04, 0x00, 0x00, 0x00,
  0x40, 0x00, 0x00, 0x00, 0x7d, 0x91, 0x00, 0x00, 0x00, 0x00, 0x00, 0x00, 0x91,
  0x65, 0xf2, 0xff, 0xff, 0xff, 0xff, 0xff, 0x19, 0x0d, 0x00, 0x00, 0x00, 0x00,
  0x00, 0x00, 0x60, 0xfb, 0xff, 0xff, 0xff, 0xff, 0xff, 0xff, 0x4b, 0xac, 0xff,
  0xff, 0xff, 0xff, 0xff, 0xff, 0x8f, 0x6f, 0x00, 0x00, 0x00, 0x00, 0x00, 0x00,
  0x68, 0x64, 0xf9, 0xff, 0xff, 0xff, 0xff, 0xff, 0x30, 0x43, 0xff, 0xff, 0xff,
  0xff, 0xff, 0xff, 0xa2, 0xff, 0xff, 0xff, 0x04, 0x00, 0x00, 0x00, 0x50, 0x00,
  0x00, 0x00, 0xb2, 0x24, 0xff, 0xff, 0xff, 0xff, 0xff, 0xff, 0x71, 0x77, 0x02,
  0x00, 0x00, 0x00, 0x00, 0x00, 0xff, 0x04, 0xef, 0xff, 0xff, 0xff, 0xff, 0xff,
  0x35, 0x6d, 0xff, 0xff, 0xff, 0xff, 0xff, 0xff, 0xdd, 0xba, 0xfd, 0xff, 0xff,
  0xff, 0xff, 0xff, 0x35, 0xf3, 0xff, 0xff, 0xff, 0xff, 0xff, 0xff, 0x93, 0xfa,
  0x02, 0x00, 0x00, 0x00, 0x00, 0x00, 0xb9, 0x1f, 0xfe, 0xff, 0xff, 0xff, 0xff,
  0xff, 0x1c, 0x15, 0xff, 0xff, 0xff, 0xff, 0xff, 0xff, 0x54, 0x64, 0xff, 0xff,
  0xff, 0xff, 0xff, 0xff, 0x00, 0x00, 0x06, 0x00, 0x08, 0x00, 0x04, 0x00, 0x06,
  0x00, 0x00, 0x00, 0x04, 0x00, 0x00, 0x00, 0x60, 0x00, 0x00, 0x00, 0x4d, 0xe9,
  0x01, 0x00, 0x00, 0x00, 0x00, 0x00, 0x39, 0x2d, 0x02, 0x00, 0x00, 0x00, 0x00,
  0x00, 0x32, 0x49, 0x05, 0x00, 0x00, 0x00, 0x00, 0x00, 0x5c, 0x23, 0xfe, 0xff,
  0xff, 0xff, 0xff, 0xff, 0x71, 0xfd, 0x1a, 0x00, 0x00, 0x00, 0x00, 0x00, 0x29,
  0x08, 0xf6, 0xff, 0xff, 0xff, 0xff, 0xff, 0x3c, 0x3f, 0xfd, 0xff, 0xff, 0xff,
  0xff, 0xff, 0xf1, 0x18, 0xfd, 0xff, 0xff, 0xff, 0xff, 0xff, 0x67, 0x73, 0x09,
  0x00, 0x00, 0x00, 0x00, 0x00, 0x9b, 0x50, 0xfe, 0xff, 0xff, 0xff, 0xff, 0xff,
  0x03, 0x3f, 0x05, 0x00, 0x00, 0x00, 0x00, 0x00, 0x4f, 0x23, 0xfe, 0xff, 0xff,
  0xff, 0xff, 0xff, 0x6c, 0xda, 0xff, 0xff, 0x70, 0xda, 0xff, 0xff, 0x0f, 0x00,
  0x00, 0x00, 0x4d, 0x4c, 0x49, 0x52, 0x20, 0x43, 0x6f, 0x6e, 0x76, 0x65, 0x72,
  0x74, 0x65, 0x64, 0x2e, 0x00, 0x01, 0x00, 0x00, 0x00, 0x14, 0x00, 0x00, 0x00,
  0x00, 0x00, 0x0e, 0x00, 0x18, 0x00, 0x14, 0x00, 0x10, 0x00, 0x0c, 0x00, 0x08,
  0x00, 0x04, 0x00, 0x0e, 0x00, 0x00, 0x00, 0x14, 0x00, 0x00, 0x00, 0x1c, 0x00,
  0x00, 0x00, 0x5c, 0x0c, 0x00, 0x00, 0x60, 0x0c, 0x00, 0x00, 0x64, 0x0c, 0x00,
  0x00, 0x04, 0x00, 0x00, 0x00, 0x6d, 0x61, 0x69, 0x6e, 0x00, 0x00, 0x00, 0x00,
  0x2f, 0x00, 0x00, 0x00, 0x20, 0x0c, 0x00, 0x00, 0xe4, 0x0b, 0x00, 0x00, 0x84,
  0x0b, 0x00, 0x00, 0x30, 0x0b, 0x00, 0x00, 0xe4, 0x0a, 0x00, 0x00, 0xa0, 0x0a,
  0x00, 0x00, 0x5c, 0x0a, 0x00, 0x00, 0x0c, 0x0a, 0x00, 0x00, 0xc8, 0x09, 0x00,
  0x00, 0x84, 0x09, 0x00, 0x00, 0x44, 0x09, 0x00, 0x00, 0x00, 0x09, 0x00, 0x00,
  0xbc, 0x08, 0x00, 0x00, 0x7c, 0x08, 0x00, 0x00, 0x3c, 0x08, 0x00, 0x00, 0xf8,
  0x07, 0x00, 0x00, 0xb4, 0x07, 0x00, 0x00, 0x70, 0x07, 0x00, 0x00, 0x2c, 0x07,
  0x00, 0x00, 0xe8, 0x06, 0x00, 0x00, 0xa8, 0x06, 0x00, 0x00, 0x64, 0x06, 0x00,
  0x00, 0x20, 0x06, 0x00, 0x00, 0xe0, 0x05, 0x00, 0x00, 0xa8, 0x05, 0x00, 0x00,
  0x64, 0x05, 0x00, 0x00, 0x20, 0x05, 0x00, 0x00, 0xdc, 0x04, 0x00, 0x00, 0x98,
  0x04, 0x00, 0x00, 0x54, 0x04, 0x00, 0x00, 0x14, 0x04, 0x00, 0x00, 0xd0, 0x03,
  0x00, 0x00, 0x8c, 0x03, 0x00, 0x00, 0x4c, 0x03, 0x00, 0x00, 0x14, 0x03, 0x00,
  0x00, 0xd0, 0x02, 0x00, 0x00, 0x8c, 0x02, 0x00, 0x00, 0x48, 0x02, 0x00, 0x00,
  0x04, 0x02, 0x00, 0x00, 0xc0, 0x01, 0x00, 0x00, 0x80, 0x01, 0x00, 0x00, 0x48,
  0x01, 0x00, 0x00, 0x14, 0x01, 0x00, 0x00, 0xc0, 0x00, 0x00, 0x00, 0x78, 0x00,
  0x00, 0x00, 0x28, 0x00, 0x00, 0x00, 0x04, 0x00, 0x00, 0x00, 0xa6, 0xf4, 0xff,
  0xff, 0x0c, 0x00, 0x00, 0x00, 0x10, 0x00, 0x00, 0x00, 0x06, 0x00, 0x00, 0x00,
  0x01, 0x00, 0x00, 0x00, 0x67, 0x00, 0x00, 0x00, 0x01, 0x00, 0x00, 0x00, 0x65,
  0x00, 0x00, 0x00, 0x5e, 0xf5, 0xff, 0xff, 0x20, 0x00, 0x00, 0x00, 0x00, 0x00,
  0x00, 0x01, 0x28, 0x00, 0x00, 0x00, 0x2c, 0x00, 0x00, 0x00, 0x02, 0x00, 0x00,
  0x00, 0x00, 0x00, 0x0a, 0x00, 0x10, 0x00, 0x0f, 0x00, 0x08, 0x00, 0x04, 0x00,
  0x0a, 0x00, 0x00, 0x00, 0x01, 0x00, 0x00, 0x00, 0x01, 0x00, 0x00, 0x00, 0x00,
  0x00, 0x00, 0x01, 0x01, 0x00, 0x00, 0x00, 0x65, 0x00, 0x00, 0x00, 0x03, 0x00,
  0x00, 0x00, 0x64, 0x00, 0x00, 0x00, 0x36, 0x00, 0x00, 0x00, 0x0a, 0x00, 0x00,
  0x00, 0xaa, 0xf5, 0xff, 0xff, 0x14, 0x00, 0x00, 0x00, 0x00, 0x00, 0x00, 0x02,
  0x20, 0x00, 0x00, 0x00, 0x24, 0x00, 0x00, 0x00, 0x01, 0x00, 0x00, 0x00, 0xbc,
  0xff, 0xff, 0xff, 0x01, 0x00, 0x00, 0x00, 0x01, 0x00, 0x00, 0x00, 0x01, 0x00,
  0x00, 0x00, 0x00, 0x00, 0x00, 0x01, 0x01, 0x00, 0x00, 0x00, 0x64, 0x00, 0x00,
  0x00, 0x03, 0x00, 0x00, 0x00, 0x63, 0x00, 0x00, 0x00, 0x35, 0x00, 0x00, 0x00,
  0x26, 0x00, 0x00, 0x00, 0xee, 0xf5, 0xff, 0xff, 0x20, 0x00, 0x00, 0x00, 0x00,
  0x00, 0x00, 0x02, 0x2c, 0x00, 0x00, 0x00, 0x30, 0x00, 0x00, 0x00, 0x01, 0x00,
  0x00, 0x00, 0x0c, 0x00, 0x14, 0x00, 0x13, 0x00, 0x0c, 0x00, 0x08, 0x00, 0x04,
  0x00, 0x0c, 0x00, 0x00, 0x00, 0x01, 0x00, 0x00, 0x00, 0x01, 0x00, 0x00, 0x00,
  0x01, 0x00, 0x00, 0x00, 0x00, 0x00, 0x00, 0x01, 0x01, 0x00, 0x00, 0x00, 0x63,
  0x00, 0x00, 0x00, 0x03, 0x00, 0x00, 0x00, 0x62, 0x00, 0x00, 0x00, 0x34, 0x00,
  0x00, 0x00, 0x26, 0x00, 0x00, 0x00, 0x3e, 0xf6, 0xff, 0xff, 0x14, 0x00, 0x00,
  0x00, 0x00, 0x00, 0x00, 0x0f, 0x10, 0x00, 0x00, 0x00, 0x14, 0x00, 0x00, 0x00,
  0x04, 0x00, 0x00, 0x00, 0x9c, 0xdc, 0xff, 0xff, 0x01, 0x00, 0x00, 0x00, 0x62,
  0x00, 0x00, 0x00, 0x02, 0x00, 0x00, 0x00, 0x61, 0x00, 0x00, 0x00, 0x37, 0x00,
  0x00, 0x00, 0x6e, 0xf6, 0xff, 0xff, 0x14, 0x00, 0x00, 0x00, 0x00, 0x00, 0x00,
  0x0b, 0x14, 0x00, 0x00, 0x00, 0x18, 0x00, 0x00, 0x00, 0x03, 0x00, 0x00, 0x00,
  0x78, 0xf9, 0xff, 0xff, 0x00, 0x00, 0x00, 0x00, 0x01, 0x00, 0x00, 0x00, 0x61,
  0x00, 0x00, 0x00, 0x02, 0x00, 0x00, 0x00, 0x5a, 0x00, 0x00, 0x00, 0x60, 0x00,
  0x00, 0x00, 0xa2, 0xf6, 0xff, 0xff, 0x14, 0x00, 0x00, 0x00, 0x00, 0x00, 0x00,
  0x01, 0x18, 0x00, 0x00, 0x00, 0x1c, 0x00, 0x00, 0x00, 0x02, 0x00, 0x00, 0x00,
  0x2a, 0xf7, 0xff, 0xff, 0x01, 0x00, 0x00, 0x00, 0x01, 0x00, 0x00, 0x00, 0x01,
  0x00, 0x00, 0x00, 0x60, 0x00, 0x00, 0x00, 0x03, 0x00, 0x00, 0x00, 0x5f, 0x00,
  0x00, 0x00, 0x33, 0x00, 0x00, 0x00, 0x09, 0x00, 0x00, 0x00, 0xde, 0xf6, 0xff,
  0xff, 0x14, 0x00, 0x00, 0x00, 0x00, 0x00, 0x00, 0x02, 0x1c, 0x00, 0x00, 0x00,
  0x20, 0x00, 0x00, 0x00, 0x01, 0x00, 0x00, 0x00, 0xd0, 0xf6, 0xff, 0xff, 0x01,
  0x00, 0x00, 0x00, 0x01, 0x00, 0x00, 0x00, 0x01, 0x00, 0x00, 0x00, 0x01, 0x00,
  0x00, 0x00, 0x5f, 0x00, 0x00, 0x00, 0x03, 0x00, 0x00, 0x00, 0x5e, 0x00, 0x00,
  0x00, 0x32, 0x00, 0x00, 0x00, 0x26, 0x00, 0x00, 0x00, 0x1e, 0xf7, 0xff, 0xff,
  0x14, 0x00, 0x00, 0x00, 0x00, 0x00, 0x00, 0x02, 0x1c, 0x00, 0x00, 0x00, 0x20,
  0x00, 0x00, 0x00, 0x01, 0x00, 0x00, 0x00, 0x10, 0xf7, 0xff, 0xff, 0x01, 0x00,
  0x00, 0x00, 0x01, 0x00, 0x00, 0x00, 0x01, 0x00, 0x00, 0x00, 0x01, 0x00, 0x00,
  0x00, 0x5e, 0x00, 0x00, 0x00, 0x03, 0x00, 0x00, 0x00, 0x5d, 0x00, 0x00, 0x00,
  0x31, 0x00, 0x00, 0x00, 0x26, 0x00, 0x00, 0x00, 0x5e, 0xf7, 0xff, 0xff, 0x14,
  0x00, 0x00, 0x00, 0x00, 0x00, 0x00, 0x01, 0x1c, 0x00, 0x00, 0x00, 0x20, 0x00,
  0x00, 0x00, 0x02, 0x00, 0x00, 0x00, 0xb4, 0xf8, 0xff, 0xff, 0x00, 0x00, 0x00,
  0x01, 0x01, 0x00, 0x00, 0x00, 0x01, 0x00, 0x00, 0x00, 0x01, 0x00, 0x00, 0x00,
  0x5d, 0x00, 0x00, 0x00, 0x03, 0x00, 0x00, 0x00, 0x5c, 0x00, 0x00, 0x00, 0x30,
  0x00, 0x00, 0x00, 0x04, 0x00, 0x00, 0x00, 0x9e, 0xf7, 0xff, 0xff, 0x14, 0x00,
  0x00, 0x00, 0x00, 0x00, 0x00, 0x02, 0x1c, 0x00, 0x00, 0x00, 0x20, 0x00, 0x00,
  0x00, 0x01, 0x00, 0x00, 0x00, 0x90, 0xf7, 0xff, 0xff, 0x01, 0x00, 0x00, 0x00,
  0x01, 0x00, 0x00, 0x00, 0x01, 0x00, 0x00, 0x00, 0x01, 0x00, 0x00, 0x00, 0x5c,
  0x00, 0x00, 0x00, 0x03, 0x00, 0x00, 0x00, 0x5b, 0x00, 0x00, 0x00, 0x2f, 0x00,
  0x00, 0x00, 0x26, 0x00, 0x00, 0x00, 0xde, 0xf7, 0xff, 0xff, 0x14, 0x00, 0x00,
  0x00, 0x00, 0x00, 0x00, 0x02, 0x1c, 0x00, 0x00, 0x00, 0x20, 0x00, 0x00, 0x00,
  0x01, 0x00, 0x00, 0x00, 0xd0, 0xf7, 0xff, 0xff, 0x01, 0x00, 0x00, 0x00, 0x01,
  0x00, 0x00, 0x00, 0x01, 0x00, 0x00, 0x00, 0x01, 0x00, 0x00, 0x00, 0x5b, 0x00,
  0x00, 0x00, 0x03, 0x00, 0x00, 0x00, 0x5a, 0x00, 0x00, 0x00, 0x2e, 0x00, 0x00,
  0x00, 0x26, 0x00, 0x00, 0x00, 0x1e, 0xf8, 0xff, 0xff, 0x14, 0x00, 0x00, 0x00,
  0x00, 0x00, 0x00, 0x0b, 0x14, 0x00, 0x00, 0x00, 0x18, 0x00, 0x00, 0x00, 0x03,
  0x00, 0x00, 0x00, 0x28, 0xfb, 0xff, 0xff, 0x00, 0x00, 0x00, 0x00, 0x01, 0x00,
  0x00, 0x00, 0x5a, 0x00, 0x00, 0x00, 0x02, 0x00, 0x00, 0x00, 0x59, 0x00, 0x00,
  0x00, 0x56, 0x00, 0x00, 0x00, 0x52, 0xf8, 0xff, 0xff, 0x14, 0x00, 0x00, 0x00,
  0x00, 0x00, 0x00, 0x01, 0x18, 0x00, 0x00, 0x00, 0x1c, 0x00, 0x00, 0x00, 0x02,
  0x00, 0x00, 0x00, 0xda, 0xf8, 0xff, 0xff, 0x01, 0x00, 0x00, 0x00, 0x01, 0x00,
  0x00, 0x00, 0x01, 0x00, 0x00, 0x00, 0x59, 0x00, 0x00, 0x00, 0x03, 0x00, 0x00,
  0x00, 0x58, 0x00, 0x00, 0x00, 0x2d, 0x00, 0x00, 0x00, 0x08, 0x00, 0x00, 0x00,
  0x8e, 0xf8, 0xff, 0xff, 0x14, 0x00, 0x00, 0x00, 0x00, 0x00, 0x00, 0x02, 0x1c,
  0x00, 0x00, 0x00, 0x20, 0x00, 0x00, 0x00, 0x01, 0x00, 0x00, 0x00, 0x80, 0xf8,
  0xff, 0xff, 0x01, 0x00, 0x00, 0x00, 0x01, 0x00, 0x00, 0x00, 0x01, 0x00, 0x00,
  0x00, 0x01, 0x00, 0x00, 0x00, 0x58, 0x00, 0x00, 0x00, 0x03, 0x00, 0x00, 0x00,
  0x57, 0x00, 0x00, 0x00, 0x2c, 0x00, 0x00, 0x00, 0x1c, 0x00, 0x00, 0x00, 0xce,
  0xf8, 0xff, 0xff, 0x14, 0x00, 0x00, 0x00, 0x00, 0x00, 0x00, 0x02, 0x1c, 0x00,
  0x00, 0x00, 0x20, 0x00, 0x00, 0x00, 0x01, 0x00, 0x00, 0x00, 0xc0, 0xf8, 0xff,
  0xff, 0x01, 0x00, 0x00, 0x00, 0x01, 0x00, 0x00, 0x00, 0x01, 0x00, 0x00, 0x00,
  0x01, 0x00, 0x00, 0x00, 0x57, 0x00, 0x00, 0x00, 0x03, 0x00, 0x00, 0x00, 0x50,
  0x00, 0x00, 0x00, 0x2b, 0x00, 0x00, 0x00, 0x1c, 0x00, 0x00, 0x00, 0x0e, 0xf9,
  0xff, 0xff, 0x14, 0x00, 0x00, 0x00, 0x00, 0x00, 0x00, 0x01, 0x18, 0x00, 0x00,
  0x00, 0x1c, 0x00, 0x00, 0x00, 0x02, 0x00, 0x00, 0x00, 0x96, 0xf9, 0xff, 0xff,
  0x01, 0x00, 0x00, 0x00, 0x01, 0x00, 0x00, 0x00, 0x01, 0x00, 0x00, 0x00, 0x56,
  0x00, 0x00, 0x00, 0x03, 0x00, 0x00, 0x00, 0x55, 0x00, 0x00, 0x00, 0x2a, 0x00,
  0x00, 0x00, 0x08, 0x00, 0x00, 0x00, 0x4a, 0xf9, 0xff, 0xff, 0x14, 0x00, 0x00,
  0x00, 0x00, 0x00, 0x00, 0x02, 0x1c, 0x00, 0x00, 0x00, 0x20, 0x00, 0x00, 0x00,
  0x01, 0x00, 0x00, 0x00, 0x3c, 0xf9, 0xff, 0xff, 0x01, 0x00, 0x00, 0x00, 0x01,
  0x00, 0x00, 0x00, 0x01, 0x00, 0x00, 0x00, 0x01, 0x00, 0x00, 0x00, 0x55, 0x00,
  0x00, 0x00, 0x03, 0x00, 0x00, 0x00, 0x54, 0x00, 0x00, 0x00, 0x29, 0x00, 0x00,
  0x00, 0x26, 0x00, 0x00, 0x00, 0x8a, 0xf9, 0xff, 0xff, 0x14, 0x00, 0x00, 0x00,
  0x00, 0x00, 0x00, 0x02, 0x1c, 0x00, 0x00, 0x00, 0x20, 0x00, 0x00, 0x00, 0x01,
  0x00, 0x00, 0x00, 0x7c, 0xf9, 0xff, 0xff, 0x01, 0x00, 0x00, 0x00, 0x01, 0x00,
  0x00, 0x00, 0x01, 0x00, 0x00, 0x00, 0x01, 0x00, 0x00, 0x00, 0x54, 0x00, 0x00,
  0x00, 0x03, 0x00, 0x00, 0x00, 0x53, 0x00, 0x00, 0x00, 0x28, 0x00, 0x00, 0x00,
  0x26, 0x00, 0x00, 0x00, 0xca, 0xf9, 0xff, 0xff, 0x14, 0x00, 0x00, 0x00, 0x00,
  0x00, 0x00, 0x01, 0x1c, 0x00, 0x00, 0x00, 0x20, 0x00, 0x00, 0x00, 0x02, 0x00,
  0x00, 0x00, 0x20, 0xfb, 0xff, 0xff, 0x00, 0x00, 0x00, 0x01, 0x01, 0x00, 0x00,
  0x00, 0x01, 0x00, 0x00, 0x00, 0x01, 0x00, 0x00, 0x00, 0x53, 0x00, 0x00, 0x00,
  0x03, 0x00, 0x00, 0x00, 0x52, 0x00, 0x00, 0x00, 0x27, 0x00, 0x00, 0x00, 0x03,
  0x00, 0x00, 0x00, 0x0a, 0xfa, 0xff, 0xff, 0x14, 0x00, 0x00, 0x00, 0x00, 0x00,
  0x00, 0x02, 0x1c, 0x00, 0x00, 0x00, 0x20, 0x00, 0x00, 0x00, 0x01, 0x00, 0x00,
  0x00, 0xfc, 0xf9, 0xff, 0xff, 0x01, 0x00, 0x00, 0x00, 0x01, 0x00, 0x00, 0x00,
  0x01, 0x00, 0x00, 0x00, 0x01, 0x00, 0x00, 0x00, 0x52, 0x00, 0x00, 0x00, 0x03,
  0x00, 0x00, 0x00, 0x51, 0x00, 0x00, 0x00, 0x25, 0x00, 0x00, 0x00, 0x1c, 0x00,
  0x00, 0x00, 0x4a, 0xfa, 0xff, 0xff, 0x14, 0x00, 0x00, 0x00, 0x00, 0x00, 0x00,
  0x02, 0x1c, 0x00, 0x00, 0x00, 0x20, 0x00, 0x00, 0x00, 0x01, 0x00, 0x00, 0x00,
  0x3c, 0xfa, 0xff, 0xff, 0x01, 0x00, 0x00, 0x00, 0x01, 0x00, 0x00, 0x00, 0x01,
  0x00, 0x00, 0x00, 0x01, 0x00, 0x00, 0x00, 0x51, 0x00, 0x00, 0x00, 0x03, 0x00,
  0x00, 0x00, 0x50, 0x00, 0x00, 0x00, 0x24, 0x00, 0x00, 0x00, 0x1c, 0x00, 0x00,
  0x00, 0x8a, 0xfa, 0xff, 0xff, 0x14, 0x00, 0x00, 0x00, 0x00, 0x00, 0x00, 0x0b,
  0x14, 0x00, 0x00, 0x00, 0x18, 0x00, 0x00, 0x00, 0x03, 0x00, 0x00, 0x00, 0x94,
  0xfd, 0xff, 0xff, 0x00, 0x00, 0x00, 0x00, 0x01, 0x00, 0x00, 0x00, 0x50, 0x00,
  0x00, 0x00, 0x02, 0x00, 0x00, 0x00, 0x4f, 0x00, 0x00, 0x00, 0x4c, 0x00, 0x00,
  0x00, 0xbe, 0xfa, 0xff, 0xff, 0x14, 0x00, 0x00, 0x00, 0x00, 0x00, 0x00, 0x01,
  0x18, 0x00, 0x00, 0x00, 0x1c, 0x00, 0x00, 0x00, 0x02, 0x00, 0x00, 0x00, 0x46,
  0xfb, 0xff, 0xff, 0x01, 0x00, 0x00, 0x00, 0x01, 0x00, 0x00, 0x00, 0x01, 0x00,
  0x00, 0x00, 0x4f, 0x00, 0x00, 0x00, 0x03, 0x00, 0x00, 0x00, 0x4e, 0x00, 0x00,
  0x00, 0x23, 0x00, 0x00, 0x00, 0x07, 0x00, 0x00, 0x00, 0xfa, 0xfa, 0xff, 0xff,
  0x14, 0x00, 0x00, 0x00, 0x00, 0x00, 0x00, 0x02, 0x1c, 0x00, 0x00, 0x00, 0x20,
  0x00, 0x00, 0x00, 0x01, 0x00, 0x00, 0x00, 0xec, 0xfa, 0xff, 0xff, 0x01, 0x00,
  0x00, 0x00, 0x01, 0x00, 0x00, 0x00, 0x01, 0x00, 0x00, 0x00, 0x01, 0x00, 0x00,
  0x00, 0x4e, 0x00, 0x00, 0x00, 0x03, 0x00, 0x00, 0x00, 0x4d, 0x00, 0x00, 0x00,
  0x22, 0x00, 0x00, 0x00, 0x12, 0x00, 0x00, 0x00, 0x3a, 0xfb, 0xff, 0xff, 0x14,
  0x00, 0x00, 0x00, 0x00, 0x00, 0x00, 0x02, 0x1c, 0x00, 0x00, 0x00, 0x20, 0x00,
  0x00, 0x00, 0x01, 0x00, 0x00, 0x00, 0x2c, 0xfb, 0xff, 0xff, 0x01, 0x00, 0x00,
  0x00, 0x01, 0x00, 0x00, 0x00, 0x01, 0x00, 0x00, 0x00, 0x01, 0x00, 0x00, 0x00,
  0x4d, 0x00, 0x00, 0x00, 0x03, 0x00, 0x00, 0x00, 0x46, 0x00, 0x00, 0x00, 0x21,
  0x00, 0x00, 0x00, 0x12, 0x00, 0x00, 0x00, 0x7a, 0xfb, 0xff, 0xff, 0x14, 0x00,
  0x00, 0x00, 0x00, 0x00, 0x00, 0x01, 0x18, 0x00, 0x00, 0x00, 0x1c, 0x00, 0x00,
  0x00, 0x02, 0x00, 0x00, 0x00, 0x02, 0xfc, 0xff, 0xff, 0x01, 0x00, 0x00, 0x00,
  0x01, 0x00, 0x00, 0x00, 0x01, 0x00, 0x00, 0x00, 0x4c, 0x00, 0x00, 0x00, 0x03,
  0x00, 0x00, 0x00, 0x4b, 0x00, 0x00, 0x00, 0x20, 0x00, 0x00, 0x00, 0x07, 0x00,
  0x00, 0x00, 0xb6, 0xfb, 0xff, 0xff, 0x14, 0x00, 0x00, 0x00, 0x00, 0x00, 0x00,
  0x02, 0x1c, 0x00, 0x00, 0x00, 0x20, 0x00, 0x00, 0x00, 0x01, 0x00, 0x00, 0x00,
  0xa8, 0xfb, 0xff, 0xff, 0x01, 0x00, 0x00, 0x00, 0x01, 0x00, 0x00, 0x00, 0x01,
  0x00, 0x00, 0x00, 0x01, 0x00, 0x00, 0x00, 0x4b, 0x00, 0x00, 0x00, 0x03, 0x00,
  0x00, 0x00, 0x4a, 0x00, 0x00, 0x00, 0x1f, 0x00, 0x00, 0x00, 0x1c, 0x00, 0x00,
  0x00, 0xf6, 0xfb, 0xff, 0xff, 0x14, 0x00, 0x00, 0x00, 0x00, 0x00, 0x00, 0x02,
  0x1c, 0x00, 0x00, 0x00, 0x20, 0x00, 0x00, 0x00, 0x01, 0x00, 0x00, 0x00, 0xe8,
  0xfb, 0xff, 0xff, 0x01, 0x00, 0x00, 0x00, 0x01, 0x00, 0x00, 0x00, 0x01, 0x00,
  0x00, 0x00, 0x01, 0x00, 0x00, 0x00, 0x4a, 0x00, 0x00, 0x00, 0x03, 0x00, 0x00,
  0x00, 0x49, 0x00, 0x00, 0x00, 0x1e, 0x00, 0x00, 0x00, 0x1c, 0x00, 0x00, 0x00,
  0x36, 0xfc, 0xff, 0xff, 0x14, 0x00, 0x00, 0x00, 0x00, 0x00, 0x00, 0x01, 0x1c,
  0x00, 0x00, 0x00, 0x20, 0x00, 0x00, 0x00, 0x02, 0x00, 0x00, 0x00, 0x8c, 0xfd,
  0xff, 0xff, 0x00, 0x00, 0x00, 0x01, 0x01, 0x00, 0x00, 0x00, 0x01, 0x00, 0x00,
  0x00, 0x01, 0x00, 0x00, 0x00, 0x49, 0x00, 0x00, 0x00, 0x03, 0x00, 0x00, 0x00,
  0x48, 0x00, 0x00, 0x00, 0x1d, 0x00, 0x00, 0x00, 0x02, 0x00, 0x00, 0x00, 0x76,
  0xfc, 0xff, 0xff, 0x14, 0x00, 0x00, 0x00, 0x00, 0x00, 0x00, 0x02, 0x1c, 0x00,
  0x00, 0x00, 0x20, 0x00, 0x00, 0x00, 0x01, 0x00, 0x00, 0x00, 0x68, 0xfc, 0xff,
  0xff, 0x01, 0x00, 0x00, 0x00, 0x01, 0x00, 0x00, 0x00, 0x01, 0x00, 0x00, 0x00,
  0x01, 0x00, 0x00, 0x00, 0x48, 0x00, 0x00, 0x00, 0x03, 0x00, 0x00, 0x00, 0x47,
  0x00, 0x00, 0x00, 0x1b, 0x00, 0x00, 0x00, 0x12, 0x00, 0x00, 0x00, 0xb6, 0xfc,
  0xff, 0xff, 0x14, 0x00, 0x00, 0x00, 0x00, 0x00, 0x00, 0x02, 0x1c, 0x00, 0x00,
  0x00, 0x20, 0x00, 0x00, 0x00, 0x01, 0x00, 0x00, 0x00, 0xa8, 0xfc, 0xff, 0xff,
  0x01, 0x00, 0x00, 0x00, 0x01, 0x00, 0x00, 0x00, 0x01, 0x00, 0x00, 0x00, 0x01,
  0x00, 0x00, 0x00, 0x47, 0x00, 0x00, 0x00, 0x03, 0x00, 0x00, 0x00, 0x46, 0x00,
  0x00, 0x00, 0x1a, 0x00, 0x00, 0x00, 0x12, 0x00, 0x00, 0x00, 0xf6, 0xfc, 0xff,
  0xff, 0x1c, 0x00, 0x00, 0x00, 0x00, 0x00, 0x00, 0x0b, 0x1c, 0x00, 0x00, 0x00,
  0x20, 0x00, 0x00, 0x00, 0x03, 0x00, 0x00, 0x00, 0x08, 0x00, 0x08, 0x00, 0x00,
  0x00, 0x07, 0x00, 0x08, 0x00, 0x00, 0x00, 0x00, 0x00, 0x00, 0x00, 0x01, 0x00,
  0x00, 0x00, 0x46, 0x00, 0x00, 0x00, 0x02, 0x00, 0x00, 0x00, 0x45, 0x00, 0x00,
  0x00, 0x42, 0x00, 0x00, 0x00, 0x32, 0xfd, 0xff, 0xff, 0x14, 0x00, 0x00, 0x00,
  0x00, 0x00, 0x00, 0x01, 0x18, 0x00, 0x00, 0x00, 0x1c, 0x00, 0x00, 0x00, 0x02,
  0x00, 0x00, 0x00, 0xba, 0xfd, 0xff, 0xff, 0x01, 0x00, 0x00, 0x00, 0x01, 0x00,
  0x00, 0x00, 0x01, 0x00, 0x00, 0x00, 0x45, 0x00, 0x00, 0x00, 0x03, 0x00, 0x00,
  0x00, 0x44, 0x00, 0x00, 0x00, 0x19, 0x00, 0x00, 0x00, 0x06, 0x00, 0x00, 0x00,
  0x6e, 0xfd, 0xff, 0xff, 0x14, 0x00, 0x00, 0x00, 0x00, 0x00, 0x00, 0x02, 0x1c,
  0x00, 0x00, 0x00, 0x20, 0x00, 0x00, 0x00, 0x01, 0x00, 0x00, 0x00, 0x60, 0xfd,
  0xff, 0xff, 0x01, 0x00, 0x00, 0x00, 0x01, 0x00, 0x00, 0x00, 0x01, 0x00, 0x00,
  0x00, 0x01, 0x00, 0x00, 0x00, 0x44, 0x00, 0x00, 0x00, 0x03, 0x00, 0x00, 0x00,
  0x43, 0x00, 0x00, 0x00, 0x18, 0x00, 0x00, 0x00, 0x0e, 0x00, 0x00, 0x00, 0xae,
  0xfd, 0xff, 0xff, 0x14, 0x00, 0x00, 0x00, 0x00, 0x00, 0x00, 0x02, 0x1c, 0x00,
  0x00, 0x00, 0x20, 0x00, 0x00, 0x00, 0x01, 0x00, 0x00, 0x00, 0xa0, 0xfd, 0xff,
  0xff, 0x01, 0x00, 0x00, 0x00, 0x01, 0x00, 0x00, 0x00, 0x01, 0x00, 0x00, 0x00,
  0x01, 0x00, 0x00, 0x00, 0x43, 0x00, 0x00, 0x00, 0x03, 0x00, 0x00, 0x00, 0x3c,
  0x00, 0x00, 0x00, 0x17, 0x00, 0x00, 0x00, 0x0e, 0x00, 0x00, 0x00, 0xee, 0xfd,
  0xff, 0xff, 0x14, 0x00, 0x00, 0x00, 0x00, 0x00, 0x00, 0x01, 0x18, 0x00, 0x00,
  0x00, 0x1c, 0x00, 0x00, 0x00, 0x02, 0x00, 0x00, 0x00, 0x76, 0xfe, 0xff, 0xff,
  0x01, 0x00, 0x00, 0x00, 0x01, 0x00, 0x00, 0x00, 0x01, 0x00, 0x00, 0x00, 0x42,
  0x00, 0x00, 0x00, 0x03, 0x00, 0x00, 0x00, 0x41, 0x00, 0x00, 0x00, 0x16, 0x00,
  0x00, 0x00, 0x06, 0x00, 0x00, 0x00, 0x2a, 0xfe, 0xff, 0xff, 0x14, 0x00, 0x00,
  0x00, 0x00, 0x00, 0x00, 0x02, 0x1c, 0x00, 0x00, 0x00, 0x20, 0x00, 0x00, 0x00,
  0x01, 0x00, 0x00, 0x00, 0x1c, 0xfe, 0xff, 0xff, 0x01, 0x00, 0x00, 0x00, 0x01,
  0x00, 0x00, 0x00, 0x01, 0x00, 0x00, 0x00, 0x01, 0x00, 0x00, 0x00, 0x41, 0x00,
  0x00, 0x00, 0x03, 0x00, 0x00, 0x00, 0x40, 0x00, 0x00, 0x00, 0x15, 0x00, 0x00,
  0x00, 0x12, 0x00, 0x00, 0x00, 0x6a, 0xfe, 0xff, 0xff, 0x14, 0x00, 0x00, 0x00,
  0x00, 0x00, 0x00, 0x02, 0x1c, 0x00, 0x00, 0x00, 0x20, 0x00, 0x00, 0x00, 0x01,
  0x00, 0x00, 0x00, 0x5c, 0xfe, 0xff, 0xff, 0x01, 0x00, 0x00, 0x00, 0x01, 0x00,
  0x00, 0x00, 0x01, 0x00, 0x00, 0x00, 0x01, 0x00, 0x00, 0x00, 0x40, 0x00, 0x00,
  0x00, 0x03, 0x00, 0x00, 0x00, 0x3f, 0x00, 0x00, 0x00, 0x14, 0x00, 0x00, 0x00,
  0x12, 0x00, 0x00, 0x00, 0xaa, 0xfe, 0xff, 0xff, 0x20, 0x00, 0x00, 0x00, 0x00,
  0x00, 0x00, 0x01, 0x28, 0x00, 0x00, 0x00, 0x2c, 0x00, 0x00, 0x00, 0x02, 0x00,
  0x00, 0x00, 0x0c, 0x00, 0x10, 0x00, 0x00, 0x00, 0x0c, 0x00, 0x08, 0x00, 0x07,
  0x00, 0x0c, 0x00, 0x00, 0x00, 0x00, 0x00, 0x00, 0x01, 0x01, 0x00, 0x00, 0x00,
  0x01, 0x00, 0x00, 0x00, 0x01, 0x00, 0x00, 0x00, 0x3f, 0x00, 0x00, 0x00, 0x03,
  0x00, 0x00, 0x00, 0x3e, 0x00, 0x00, 0x00, 0x13, 0x00, 0x00, 0x00, 0x01, 0x00,
  0x00, 0x00, 0xf6, 0xfe, 0xff, 0xff, 0x14, 0x00, 0x00, 0x00, 0x00, 0x00, 0x00,
  0x02, 0x1c, 0x00, 0x00, 0x00, 0x20, 0x00, 0x00, 0x00, 0x01, 0x00, 0x00, 0x00,
  0xe8, 0xfe, 0xff, 0xff, 0x01, 0x00, 0x00, 0x00, 0x01, 0x00, 0x00, 0x00, 0x01,
  0x00, 0x00, 0x00, 0x01, 0x00, 0x00, 0x00, 0x3e, 0x00, 0x00, 0x00, 0x03, 0x00,
  0x00, 0x00, 0x3d, 0x00, 0x00, 0x00, 0x11, 0x00, 0x00, 0x00, 0x0e, 0x00, 0x00,
  0x00, 0x36, 0xff, 0xff, 0xff, 0x14, 0x00, 0x00, 0x00, 0x00, 0x00, 0x00, 0x02,
  0x1c, 0x00, 0x00, 0x00, 0x20, 0x00, 0x00, 0x00, 0x01, 0x00, 0x00, 0x00, 0x28,
  0xff, 0xff, 0xff, 0x01, 0x00, 0x00, 0x00, 0x01, 0x00, 0x00, 0x00, 0x01, 0x00,
  0x00, 0x00, 0x01, 0x00, 0x00, 0x00, 0x3d, 0x00, 0x00, 0x00, 0x03, 0x00, 0x00,
  0x00, 0x3c, 0x00, 0x00, 0x00, 0x10, 0x00, 0x00, 0x00, 0x0e, 0x00, 0x00, 0x00,
  0x76, 0xff, 0xff, 0xff, 0x20, 0x00, 0x00, 0x00, 0x00, 0x00, 0x00, 0x01, 0x24,
  0x00, 0x00, 0x00, 0x28, 0x00, 0x00, 0x00, 0x02, 0x00, 0x00, 0x00, 0x00, 0x00,
  0x0a, 0x00, 0x0c, 0x00, 0x00, 0x00, 0x08, 0x00, 0x04, 0x00, 0x0a, 0x00, 0x00,
  0x00, 0x01, 0x00, 0x00, 0x00, 0x01, 0x00, 0x00, 0x00, 0x01, 0x00, 0x00, 0x00,
  0x3c, 0x00, 0x00, 0x00, 0x03, 0x00, 0x00, 0x00, 0x3b, 0x00, 0x00, 0x00, 0x0f,
  0x00, 0x00, 0x00, 0x05, 0x00, 0x00, 0x00, 0xbe, 0xff, 0xff, 0xff, 0x14, 0x00,
  0x00, 0x00, 0x00, 0x00, 0x00, 0x02, 0x1c, 0x00, 0x00, 0x00, 0x20, 0x00, 0x00,
  0x00, 0x01, 0x00, 0x00, 0x00, 0xb0, 0xff, 0xff, 0xff, 0x01, 0x00, 0x00, 0x00,
  0x01, 0x00, 0x00, 0x00, 0x02, 0x00, 0x00, 0x00, 0x01, 0x00, 0x00, 0x00, 0x3b,
  0x00, 0x00, 0x00, 0x03, 0x00, 0x00, 0x00, 0x3a, 0x00, 0x00, 0x00, 0x0d, 0x00,
  0x00, 0x00, 0x0b, 0x00, 0x00, 0x00, 0x00, 0x00, 0x0e, 0x00, 0x18, 0x00, 0x14,
  0x00, 0x10, 0x00, 0x0c, 0x00, 0x0b, 0x00, 0x04, 0x00, 0x0e, 0x00, 0x00, 0x00,
  0x20, 0x00, 0x00, 0x00, 0x00, 0x00, 0x00, 0x02, 0x28, 0x00, 0x00, 0x00, 0x2c,
  0x00, 0x00, 0x00, 0x01, 0x00, 0x00, 0x00, 0x0c, 0x00, 0x10, 0x00, 0x00, 0x00,
  0x0c, 0x00, 0x08, 0x00, 0x04, 0x00, 0x0c, 0x00, 0x00, 0x00, 0x01, 0x00, 0x00,
  0x00, 0x02, 0x00, 0x00, 0x00, 0x01, 0x00, 0x00, 0x00, 0x01, 0x00, 0x00, 0x00,
  0x3a, 0x00, 0x00, 0x00, 0x03, 0x00, 0x00, 0x00, 0x39, 0x00, 0x00, 0x00, 0x0c,
  0x00, 0x00, 0x00, 0x0b, 0x00, 0x00, 0x00, 0x00, 0x00, 0x0e, 0x00, 0x14, 0x00,
  0x00, 0x00, 0x10, 0x00, 0x0c, 0x00, 0x0b, 0x00, 0x04, 0x00, 0x0e, 0x00, 0x00,
  0x00, 0x10, 0x00, 0x00, 0x00, 0x00, 0x00, 0x00, 0x16, 0x0c, 0x00, 0x00, 0x00,
  0x10, 0x00, 0x00, 0x00, 0xc4, 0xe6, 0xff, 0xff, 0x01, 0x00, 0x00, 0x00, 0x39,
  0x00, 0x00, 0x00, 0x02, 0x00, 0x00, 0x00, 0x00, 0x00, 0x00, 0x00, 0x38, 0x00,
  0x00, 0x00, 0x00, 0x00, 0x0a, 0x00, 0x10, 0x00, 0x0c, 0x00, 0x08, 0x00, 0x04,
  0x00, 0x0a, 0x00, 0x00, 0x00, 0x0c, 0x00, 0x00, 0x00, 0x10, 0x00, 0x00, 0x00,
  0x05, 0x00, 0x00, 0x00, 0x01, 0x00, 0x00, 0x00, 0x00, 0x00, 0x00, 0x00, 0x01,
  0x00, 0x00, 0x00, 0x66, 0x00, 0x00, 0x00, 0x01, 0x00, 0x00, 0x00, 0x67, 0x00,
  0x00, 0x00, 0x01, 0x00, 0x00, 0x00, 0x66, 0x00, 0x00, 0x00, 0x68, 0x00, 0x00,
  0x00, 0xa0, 0x51, 0x00, 0x00, 0xac, 0x50, 0x00, 0x00, 0xec, 0x4f, 0x00, 0x00,
  0x40, 0x4f, 0x00, 0x00, 0x94, 0x4e, 0x00, 0x00, 0x88, 0x4d, 0x00, 0x00, 0xac,
  0x4c, 0x00, 0x00, 0xe8, 0x4b, 0x00, 0x00, 0x3c, 0x4b, 0x00, 0x00, 0x90, 0x4a,
  0x00, 0x00, 0x3c, 0x4a, 0x00, 0x00, 0xe8, 0x49, 0x00, 0x00, 0x54, 0x49, 0x00,
  0x00, 0xd4, 0x48, 0x00, 0x00, 0xcc, 0x47, 0x00, 0x00, 0x28, 0x46, 0x00, 0x00,
  0x80, 0x44, 0x00, 0x00, 0xd4, 0x42, 0x00, 0x00, 0xf4, 0x41, 0x00, 0x00, 0xa0,
  0x40, 0x00, 0x00, 0x48, 0x3f, 0x00, 0x00, 0xec, 0x3d, 0x00, 0x00, 0x94, 0x3c,
  0x00, 0x00, 0xec, 0x3a, 0x00, 0x00, 0x40, 0x39, 0x00, 0x00, 0xe8, 0x37, 0x00,
  0x00, 0x90, 0x36, 0x00, 0x00, 0x34, 0x35, 0x00, 0x00, 0x6c, 0x34, 0x00, 0x00,
  0x40, 0x33, 0x00, 0x00, 0x08, 0x32, 0x00, 0x00, 0xd4, 0x30, 0x00, 0x00, 0xa4,
  0x2f, 0x00, 0x00, 0x44, 0x2e, 0x00, 0x00, 0xe8, 0x2c, 0x00, 0x00, 0xb8, 0x2b,
  0x00, 0x00, 0x80, 0x2a, 0x00, 0x00, 0x4c, 0x29, 0x00, 0x00, 0x9c, 0x28, 0x00,
  0x00, 0x98, 0x27, 0x00, 0x00, 0x88, 0x26, 0x00, 0x00, 0x7c, 0x25, 0x00, 0x00,
  0x74, 0x24, 0x00, 0x00, 0x3c, 0x23, 0x00, 0x00, 0x08, 0x22, 0x00, 0x00, 0x00,
  0x21, 0x00, 0x00, 0xf0, 0x1f, 0x00, 0x00, 0xe4, 0x1e, 0x00, 0x00, 0xdc, 0x1d,
  0x00, 0x00, 0xcc, 0x1c, 0x00, 0x00, 0xc0, 0x1b, 0x00, 0x00, 0xb8, 0x1a, 0x00,
  0x00, 0xa8, 0x19, 0x00, 0x00, 0x9c, 0x18, 0x00, 0x00, 0x24, 0x18, 0x00, 0x00,
  0xf0, 0x17, 0x00, 0x00, 0xb8, 0x17, 0x00, 0x00, 0x48, 0x17, 0x00, 0x00, 0xcc,
  0x16, 0x00, 0x00, 0x50, 0x16, 0x00, 0x00, 0xbc, 0x15, 0x00, 0x00, 0x40, 0x15,
  0x00, 0x00, 0xc4, 0x14, 0x00, 0x00, 0x28, 0x14, 0x00, 0x00, 0xac, 0x13, 0x00,
  0x00, 0x30, 0x13, 0x00, 0x00, 0x94, 0x12, 0x00, 0x00, 0x18, 0x12, 0x00, 0x00,
  0x9c, 0x11, 0x00, 0x00, 0x00, 0x11, 0x00, 0x00, 0x8c, 0x10, 0x00, 0x00, 0x10,
  0x10, 0x00, 0x00, 0x94, 0x0f, 0x00, 0x00, 0xf0, 0x0e, 0x00, 0x00, 0x74, 0x0e,
  0x00, 0x00, 0xf8, 0x0d, 0x00, 0x00, 0x5c, 0x0d, 0x00, 0x00, 0xe0, 0x0c, 0x00,
  0x00, 0x64, 0x0c, 0x00, 0x00, 0xc8, 0x0b, 0x00, 0x00, 0x54, 0x0b, 0x00, 0x00,
  0xd8, 0x0a, 0x00, 0x00, 0x5c, 0x0a, 0x00, 0x00, 0xb8, 0x09, 0x00, 0x00, 0x3c,
  0x09, 0x00, 0x00, 0xc0, 0x08, 0x00, 0x00, 0x24, 0x08, 0x00, 0x00, 0xa8, 0x07,
  0x00, 0x00, 0x2c, 0x07, 0x00, 0x00, 0x90, 0x06, 0x00, 0x00, 0x1c, 0x06, 0x00,
  0x00, 0xa0, 0x05, 0x00, 0x00, 0x24, 0x05, 0x00, 0x00, 0x80, 0x04, 0x00, 0x00,
  0x04, 0x04, 0x00, 0x00, 0x88, 0x03, 0x00, 0x00, 0xec, 0x02, 0x00, 0x00, 0x78,
  0x02, 0x00, 0x00, 0xf4, 0x01, 0x00, 0x00, 0x78, 0x01, 0x00, 0x00, 0xfc, 0x00,
  0x00, 0x00, 0x78, 0x00, 0x00, 0x00, 0x44, 0x00, 0x00, 0x00, 0x04, 0x00, 0x00,
  0x00, 0xd0, 0xff, 0xff, 0xff, 0x08, 0x00, 0x00, 0x00, 0x14, 0x00, 0x00, 0x00,
  0x0a, 0x00, 0x00, 0x00, 0x42, 0x69, 0x61, 0x73, 0x41, 0x64, 0x64, 0x5f, 0x31,
  0x32, 0x00, 0x00, 0x04, 0x00, 0x00, 0x00, 0x01, 0x00, 0x00, 0x00, 0x38, 0x04,
  0x00, 0x00, 0x80, 0x07, 0x00, 0x00, 0x01, 0x00, 0x00, 0x00, 0x0c, 0x00, 0x0c,
  0x00, 0x08, 0x00, 0x00, 0x00, 0x00, 0x00, 0x04, 0x00, 0x0c, 0x00, 0x00, 0x00,
  0x08, 0x00, 0x00, 0x00, 0x14, 0x00, 0x00, 0x00, 0x0b, 0x00, 0x00, 0x00, 0x50,
  0x6c, 0x61, 0x63, 0x65, 0x68, 0x6f, 0x6c, 0x64, 0x65, 0x72, 0x00, 0x04, 0x00,
  0x00, 0x00, 0x01, 0x00, 0x00, 0x00, 0x38, 0x04, 0x00, 0x00, 0x80, 0x07, 0x00,
  0x00, 0x01, 0x00, 0x00, 0x00, 0x7a, 0xb0, 0xff, 0xff, 0x14, 0x00, 0x00, 0x00,
  0x4c, 0x00, 0x00, 0x00, 0x66, 0x00, 0x00, 0x00, 0x00, 0x00, 0x00, 0x07, 0x58,
  0x00, 0x00, 0x00, 0x6c, 0xb0, 0xff, 0xff, 0x10, 0x00, 0x00, 0x00, 0x1c, 0x00,
  0x00, 0x00, 0x20, 0x00, 0x00, 0x00, 0x24, 0x00, 0x00, 0x00, 0x01, 0x00, 0x00,
  0x00, 0x00, 0x00, 0x00, 0x00, 0x00, 0x00, 0x00, 0x00, 0x00, 0x00, 0x00, 0x00,
  0x01, 0x00, 0x00, 0x00, 0xda, 0xb8, 0xac, 0x36, 0x01, 0x00, 0x00, 0x00, 0x69,
  0x8b, 0x12, 0x3e, 0x01, 0x00, 0x00, 0x00, 0x81, 0xb7, 0x2c, 0xbe, 0x10, 0x00,
  0x00, 0x00, 0x42, 0x69, 0x61, 0x73, 0x41, 0x64, 0x64, 0x5f, 0x31, 0x32, 0x5f,
  0x69, 0x6e, 0x74, 0x31, 0x36, 0x00, 0x00, 0x00, 0x00, 0x04, 0x00, 0x00, 0x00,
  0x01, 0x00, 0x00, 0x00, 0x38, 0x04, 0x00, 0x00, 0x80, 0x07, 0x00, 0x00, 0x01,
  0x00, 0x00, 0x00, 0xfa, 0xb0, 0xff, 0xff, 0x14, 0x00, 0x00, 0x00, 0x48, 0x00,
  0x00, 0x00, 0x65, 0x00, 0x00, 0x00, 0x00, 0x00, 0x00, 0x07, 0x50, 0x00, 0x00,
  0x00, 0xec, 0xb0, 0xff, 0xff, 0x10, 0x00, 0x00, 0x00, 0x18, 0x00, 0x00, 0x00,
  0x1c, 0x00, 0x00, 0x00, 0x20, 0x00, 0x00, 0x00, 0x01, 0x00, 0x00, 0x00, 0x00,
  0x00, 0x00, 0x00, 0x00, 0x00, 0x00, 0x00, 0x01, 0x00, 0x00, 0x00, 0x15, 0xd2,
  0x3b, 0x39, 0x01, 0x00, 0x00, 0x00, 0x9d, 0xd0, 0xbb, 0x40, 0x01, 0x00, 0x00,
  0x00, 0x34, 0x74, 0x93, 0xc0, 0x0d, 0x00, 0x00, 0x00, 0x64, 0x65, 0x70, 0x74,
  0x68, 0x77, 0x69, 0x73, 0x65, 0x5f, 0x32, 0x35, 0x32, 0x00, 0x00, 0x00, 0x04,
  0x00, 0x00, 0x00, 0x01, 0x00, 0x00, 0x00, 0x38, 0x04, 0x00, 0x00, 0x80, 0x07,
  0x00, 0x00, 0x08, 0x00, 0x00, 0x00, 0x72, 0xb1, 0xff, 0xff, 0x14, 0x00, 0x00,
  0x00, 0x48, 0x00, 0x00, 0x00, 0x64, 0x00, 0x00, 0x00, 0x00, 0x00, 0x00, 0x07,
  0x50, 0x00, 0x00, 0x00, 0x64, 0xb1, 0xff, 0xff, 0x10, 0x00, 0x00, 0x00, 0x18,
  0x00, 0x00, 0x00, 0x1c, 0x00, 0x00, 0x00, 0x20, 0x00, 0x00, 0x00, 0x01, 0x00,
  0x00, 0x00, 0x00, 0x00, 0x00, 0x00, 0x00, 0x00, 0x00, 0x00, 0x01, 0x00, 0x00,
  0x00, 0xe3, 0xf4, 0x8e, 0x3a, 0x01, 0x00, 0x00, 0x00, 0xcd, 0x77, 0x0d, 0x42,
  0x01, 0x00, 0x00, 0x00, 0xc5, 0xf3, 0x0e, 0xc2, 0x0d, 0x00, 0x00, 0x00, 0x64,
  0x65, 0x70, 0x74, 0x68, 0x77, 0x69, 0x73, 0x65, 0x5f, 0x32, 0x34, 0x31, 0x00,
  0x00, 0x00, 0x04, 0x00, 0x00, 0x00, 0x01, 0x00, 0x00, 0x00, 0x38, 0x04, 0x00,
  0x00, 0x82, 0x07, 0x00, 0x00, 0x08, 0x00, 0x00, 0x00, 0xea, 0xb1, 0xff, 0xff,
  0x14, 0x00, 0x00, 0x00, 0x48, 0x00, 0x00, 0x00, 0x63, 0x00, 0x00, 0x00, 0x00,
  0x00, 0x00, 0x07, 0x58, 0x00, 0x00, 0x00, 0xdc, 0xb1, 0xff, 0xff, 0x10, 0x00,
  0x00, 0x00, 0x18, 0x00, 0x00, 0x00, 0x1c, 0x00, 0x00, 0x00, 0x20, 0x00, 0x00,
  0x00, 0x01, 0x00, 0x00, 0x00, 0x00, 0x00, 0x00, 0x00, 0x00, 0x00, 0x00, 0x00,
  0x01, 0x00, 0x00, 0x00, 0x58, 0xf7, 0x48, 0x3c, 0x01, 0x00, 0x00, 0x00, 0xc6,
  0xf5, 0xc8, 0x43, 0x01, 0x00, 0x00, 0x00, 0xf4, 0xcc, 0x8f, 0xc3, 0x15, 0x00,
  0x00, 0x00, 0x72, 0x65, 0x73, 0x69, 0x7a, 0x65, 0x2f, 0x52, 0x65, 0x73, 0x69,
  0x7a, 0x65, 0x42, 0x69, 0x6c, 0x69, 0x6e, 0x65, 0x61, 0x72, 0x00, 0x00, 0x00,
  0x04, 0x00, 0x00, 0x00, 0x01, 0x00, 0x00, 0x00, 0x3a, 0x04, 0x00, 0x00, 0x82,
  0x07, 0x00, 0x00, 0x08, 0x00, 0x00, 0x00, 0x6a, 0xb2, 0xff, 0xff, 0x14, 0x00,
  0x00, 0x00, 0x48, 0x00, 0x00, 0x00, 0x62, 0x00, 0x00, 0x00, 0x00, 0x00, 0x00,
  0x07, 0x48, 0x00, 0x00, 0x00, 0x5c, 0xb2, 0xff, 0xff, 0x10, 0x00, 0x00, 0x00,
  0x18, 0x00, 0x00, 0x00, 0x1c, 0x00, 0x00, 0x00, 0x20, 0x00, 0x00, 0x00, 0x01,
  0x00, 0x00, 0x00, 0x00, 0x00, 0x00, 0x00, 0x00, 0x00, 0x00, 0x00, 0x01, 0x00,
  0x00, 0x00, 0x58, 0xf7, 0x48, 0x3c, 0x01, 0x00, 0x00, 0x00, 0xc6, 0xf5, 0xc8,
  0x43, 0x01, 0x00, 0x00, 0x00, 0xf4, 0xcc, 0x8f, 0xc3, 0x05, 0x00, 0x00, 0x00,
  0x41, 0x64, 0x64, 0x5f, 0x34, 0x00, 0x00, 0x00, 0x04, 0x00, 0x00, 0x00, 0x01,
  0x00, 0x00, 0x00, 0x1d, 0x02, 0x00, 0x00, 0xc1, 0x03, 0x00, 0x00, 0x08, 0x00,
  0x00, 0x00, 0xda, 0xb2, 0xff, 0xff, 0x14, 0x00, 0x00, 0x00, 0x48, 0x00, 0x00,
  0x00, 0x61, 0x00, 0x00, 0x00, 0x00, 0x00, 0x00, 0x07, 0x70, 0x00, 0x00, 0x00,
  0xcc, 0xb2, 0xff, 0xff, 0x10, 0x00, 0x00, 0x00, 0x18, 0x00, 0x00, 0x00, 0x1c,
  0x00, 0x00, 0x00, 0x20, 0x00, 0x00, 0x00, 0x01, 0x00, 0x00, 0x00, 0x00, 0x00,
  0x00, 0x00, 0x00, 0x00, 0x00, 0x00, 0x01, 0x00, 0x00, 0x00, 0x5c, 0x9a, 0x3f,
  0x3c, 0x01, 0x00, 0x00, 0x00, 0xdd, 0x98, 0xbf, 0x43, 0x01, 0x00, 0x00, 0x00,
  0x1c, 0x27, 0x87, 0xc3, 0x2c, 0x00, 0x00, 0x00, 0x42, 0x69, 0x61, 0x73, 0x41,
  0x64, 0x64, 0x5f, 0x31, 0x31, 0x3b, 0x64, 0x65, 0x70, 0x74, 0x68, 0x77, 0x69,
  0x73, 0x65, 0x5f, 0x32, 0x35, 0x3b, 0x43, 0x6f, 0x6e, 0x76, 0x32, 0x44, 0x5f,
  0x31, 0x31, 0x3b, 0x63, 0x6f, 0x6e, 0x76, 0x5f, 0x34, 0x5f, 0x31, 0x5f, 0x62,
  0x00, 0x00, 0x00, 0x00, 0x04, 0x00, 0x00, 0x00, 0x01, 0x00, 0x00, 0x00, 0x1d,
  0x02, 0x00, 0x00, 0xc1, 0x03, 0x00, 0x00, 0x08, 0x00, 0x00, 0x00, 0x72, 0xb3,
  0xff, 0xff, 0x14, 0x00, 0x00, 0x00, 0x48, 0x00, 0x00, 0x00, 0x60, 0x00, 0x00,
  0x00, 0x00, 0x00, 0x00, 0x07, 0x50, 0x00, 0x00, 0x00, 0x64, 0xb3, 0xff, 0xff,
  0x10, 0x00, 0x00, 0x00, 0x18, 0x00, 0x00, 0x00, 0x1c, 0x00, 0x00, 0x00, 0x20,
  0x00, 0x00, 0x00, 0x01, 0x00, 0x00, 0x00, 0x00, 0x00, 0x00, 0x00, 0x00, 0x00,
  0x00, 0x00, 0x01, 0x00, 0x00, 0x00, 0x81, 0x28, 0xfa, 0x3b, 0x01, 0x00, 0x00,
  0x00, 0x83, 0xf2, 0x5c, 0x43, 0x01, 0x00, 0x00, 0x00, 0x8d, 0x26, 0x7a, 0xc3,
  0x0d, 0x00, 0x00, 0x00, 0x64, 0x65, 0x70, 0x74, 0x68, 0x77, 0x69, 0x73, 0x65,
  0x5f, 0x32, 0x33, 0x31, 0x00, 0x00, 0x00, 0x04, 0x00, 0x00, 0x00, 0x01, 0x00,
  0x00, 0x00, 0x1d, 0x02, 0x00, 0x00, 0xc1, 0x03, 0x00, 0x00, 0x08, 0x00, 0x00,
  0x00, 0xea, 0xb3, 0xff, 0xff, 0x14, 0x00, 0x00, 0x00, 0x48, 0x00, 0x00, 0x00,
  0x5f, 0x00, 0x00, 0x00, 0x00, 0x00, 0x00, 0x07, 0x50, 0x00, 0x00, 0x00, 0xdc,
  0xb3, 0xff, 0xff, 0x10, 0x00, 0x00, 0x00, 0x18, 0x00, 0x00, 0x00, 0x1c, 0x00,
  0x00, 0x00, 0x20, 0x00, 0x00, 0x00, 0x01, 0x00, 0x00, 0x00, 0x00, 0x00, 0x00,
  0x00, 0x00, 0x00, 0x00, 0x00, 0x01, 0x00, 0x00, 0x00, 0x72, 0x89, 0x14, 0x3c,
  0x01, 0x00, 0x00, 0x00, 0x49, 0x88, 0x94, 0x43, 0x01, 0x00, 0x00, 0x00, 0x21,
  0x06, 0x09, 0xc3, 0x0d, 0x00, 0x00, 0x00, 0x64, 0x65, 0x70, 0x74, 0x68, 0x77,
  0x69, 0x73, 0x65, 0x5f, 0x32, 0x32, 0x31, 0x00, 0x00, 0x00, 0x04, 0x00, 0x00,
  0x00, 0x01, 0x00, 0x00, 0x00, 0x1d, 0x02, 0x00, 0x00, 0xc1, 0x03, 0x00, 0x00,
  0x08, 0x00, 0x00, 0x00, 0x62, 0xb4, 0xff, 0xff, 0x14, 0x00, 0x00, 0x00, 0x4c,
  0x00, 0x00, 0x00, 0x5e, 0x00, 0x00, 0x00, 0x00, 0x00, 0x00, 0x07, 0x78, 0x00,
  0x00, 0x00, 0x54, 0xb4, 0xff, 0xff, 0x10, 0x00, 0x00, 0x00, 0x1c, 0x00, 0x00,
  0x00, 0x20, 0x00, 0x00, 0x00, 0x24, 0x00, 0x00, 0x00, 0x01, 0x00, 0x00, 0x00,
  0x00, 0x00, 0x00, 0x00, 0x00, 0x00, 0x00, 0x00, 0x00, 0x00, 0x00, 0x00, 0x01,
  0x00, 0x00, 0x00, 0x5e, 0x93, 0xd5, 0x3b, 0x01, 0x00, 0x00, 0x00, 0xb3, 0x91,
  0x55, 0x43, 0x01, 0x00, 0x00, 0x00, 0x00, 0x00, 0x00, 0x00, 0x33, 0x00, 0x00,
  0x00, 0x52, 0x65, 0x6c, 0x75, 0x5f, 0x33, 0x3b, 0x42, 0x69, 0x61, 0x73, 0x41,
  0x64, 0x64, 0x5f, 0x31, 0x30, 0x3b, 0x64, 0x65, 0x70, 0x74, 0x68, 0x77, 0x69,
  0x73, 0x65, 0x5f, 0x32, 0x35, 0x3b, 0x43, 0x6f, 0x6e, 0x76, 0x32, 0x44, 0x5f,
  0x31, 0x30, 0x3b, 0x63, 0x6f, 0x6e, 0x76, 0x5f, 0x34, 0x5f, 0x30, 0x5f, 0x62,
  0x00, 0x04, 0x00, 0x00, 0x00, 0x01, 0x00, 0x00, 0x00, 0x1d, 0x02, 0x00, 0x00,
  0xc1, 0x03, 0x00, 0x00, 0x08, 0x00, 0x00, 0x00, 0x02, 0xb5, 0xff, 0xff, 0x14,
  0x00, 0x00, 0x00, 0x48, 0x00, 0x00, 0x00, 0x5d, 0x00, 0x00, 0x00, 0x00, 0x00,
  0x00, 0x07, 0x50, 0x00, 0x00, 0x00, 0xf4, 0xb4, 0xff, 0xff, 0x10, 0x00, 0x00,
  0x00, 0x18, 0x00, 0x00, 0x00, 0x1c, 0x00, 0x00, 0x00, 0x20, 0x00, 0x00, 0x00,
  0x01, 0x00, 0x00, 0x00, 0x00, 0x00, 0x00, 0x00, 0x00, 0x00, 0x00, 0x00, 0x01,
  0x00, 0x00, 0x00, 0x72, 0xc3, 0x48, 0x3b, 0x01, 0x00, 0x00, 0x00, 0x9f, 0x2e,
  0xbc, 0x42, 0x01, 0x00, 0x00, 0x00, 0xe0, 0xc1, 0xc8, 0xc2, 0x0d, 0x00, 0x00,
  0x00, 0x64, 0x65, 0x70, 0x74, 0x68, 0x77, 0x69, 0x73, 0x65, 0x5f, 0x32, 0x31,
  0x31, 0x00, 0x00, 0x00, 0x04, 0x00, 0x00, 0x00, 0x01, 0x00, 0x00, 0x00, 0x1d,
  0x02, 0x00, 0x00, 0xc1, 0x03, 0x00, 0x00, 0x08, 0x00, 0x00, 0x00, 0x7a, 0xb5,
  0xff, 0xff, 0x14, 0x00, 0x00, 0x00, 0x48, 0x00, 0x00, 0x00, 0x5c, 0x00, 0x00,
  0x00, 0x00, 0x00, 0x00, 0x07, 0x50, 0x00, 0x00, 0x00, 0x6c, 0xb5, 0xff, 0xff,
  0x10, 0x00, 0x00, 0x00, 0x18, 0x00, 0x00, 0x00, 0x1c, 0x00, 0x00, 0x00, 0x20,
  0x00, 0x00, 0x00, 0x01, 0x00, 0x00, 0x00, 0x00, 0x00, 0x00, 0x00, 0x00, 0x00,
  0x00, 0x00, 0x01, 0x00, 0x00, 0x00, 0x9f, 0xc1, 0x57, 0x3b, 0x01, 0x00, 0x00,
  0x00, 0xef, 0xbf, 0xd7, 0x42, 0x01, 0x00, 0x00, 0x00, 0x25, 0xc6, 0x93, 0xc2,
  0x0d, 0x00, 0x00, 0x00, 0x64, 0x65, 0x70, 0x74, 0x68, 0x77, 0x69, 0x73, 0x65,
  0x5f, 0x32, 0x30, 0x31, 0x00, 0x00, 0x00, 0x04, 0x00, 0x00, 0x00, 0x01, 0x00,
  0x00, 0x00, 0x1d, 0x02, 0x00, 0x00, 0xc1, 0x03, 0x00, 0x00, 0x08, 0x00, 0x00,
  0x00, 0xf2, 0xb5, 0xff, 0xff, 0x14, 0x00, 0x00, 0x00, 0x48, 0x00, 0x00, 0x00,
  0x5b, 0x00, 0x00, 0x00, 0x00, 0x00, 0x00, 0x07, 0x48, 0x00, 0x00, 0x00, 0xe4,
  0xb5, 0xff, 0xff, 0x10, 0x00, 0x00, 0x00, 0x18, 0x00, 0x00, 0x00, 0x1c, 0x00,
  0x00, 0x00, 0x20, 0x00, 0x00, 0x00, 0x01, 0x00, 0x00, 0x00, 0x00, 0x00, 0x00,
  0x00, 0x00, 0x00, 0x00, 0x00, 0x01, 0x00, 0x00, 0x00, 0xfe, 0xdd, 0x47, 0x3b,
  0x01, 0x00, 0x00, 0x00, 0x6e, 0xdc, 0xc7, 0x42, 0x01, 0x00, 0x00, 0x00, 0x53,
  0x50, 0x93, 0xc2, 0x05, 0x00, 0x00, 0x00, 0x41, 0x64, 0x64, 0x5f, 0x33, 0x00,
  0x00, 0x00, 0x04, 0x00, 0x00, 0x00, 0x01, 0x00, 0x00, 0x00, 0x1d, 0x02, 0x00,
  0x00, 0xc1, 0x03, 0x00, 0x00, 0x08, 0x00, 0x00, 0x00, 0x62, 0xb6, 0xff, 0xff,
  0x14, 0x00, 0x00, 0x00, 0x4c, 0x00, 0x00, 0x00, 0x5a, 0x00, 0x00, 0x00, 0x00,
  0x00, 0x00, 0x07, 0x70, 0x00, 0x00, 0x00, 0x54, 0xb6, 0xff, 0xff, 0x10, 0x00,
  0x00, 0x00, 0x1c, 0x00, 0x00, 0x00, 0x20, 0x00, 0x00, 0x00, 0x24, 0x00, 0x00,
  0x00, 0x01, 0x00, 0x00, 0x00, 0x00, 0x00, 0x00, 0x00, 0x00, 0x00, 0x00, 0x00,
  0x00, 0x00, 0x00, 0x00, 0x01, 0x00, 0x00, 0x00, 0x35, 0x18, 0x0e, 0x3b, 0x01,
  0x00, 0x00, 0x00, 0x5f, 0xc6, 0x8b, 0x42, 0x01, 0x00, 0x00, 0x00, 0x19, 0x17,
  0x8e, 0xc2, 0x2a, 0x00, 0x00, 0x00, 0x42, 0x69, 0x61, 0x73, 0x41, 0x64, 0x64,
  0x5f, 0x39, 0x3b, 0x64, 0x65, 0x70, 0x74, 0x68, 0x77, 0x69, 0x73, 0x65, 0x5f,
  0x32, 0x35, 0x3b, 0x43, 0x6f, 0x6e, 0x76, 0x32, 0x44, 0x5f, 0x39, 0x3b, 0x63,
  0x6f, 0x6e, 0x76, 0x5f, 0x33, 0x5f, 0x31, 0x5f, 0x62, 0x00, 0x00, 0x04, 0x00,
  0x00, 0x00, 0x01, 0x00, 0x00, 0x00, 0x1d, 0x02, 0x00, 0x00, 0xc1, 0x03, 0x00,
  0x00, 0x08, 0x00, 0x00, 0x00, 0xfa, 0xb6, 0xff, 0xff, 0x14, 0x00, 0x00, 0x00,
  0x48, 0x00, 0x00, 0x00, 0x59, 0x00, 0x00, 0x00, 0x00, 0x00, 0x00, 0x07, 0x50,
  0x00, 0x00, 0x00, 0xec, 0xb6, 0xff, 0xff, 0x10, 0x00, 0x00, 0x00, 0x18, 0x00,
  0x00, 0x00, 0x1c, 0x00, 0x00, 0x00, 0x20, 0x00, 0x00, 0x00, 0x01, 0x00, 0x00,
  0x00, 0x00, 0x00, 0x00, 0x00, 0x00, 0x00, 0x00, 0x00, 0x01, 0x00, 0x00, 0x00,
  0x9e, 0x0d, 0xa0, 0x3a, 0x01, 0x00, 0x00, 0x00, 0x5e, 0x0c, 0x20, 0x42, 0x01,
  0x00, 0x00, 0x00, 0x40, 0xa3, 0x1c, 0xc2, 0x0d, 0x00, 0x00, 0x00, 0x64, 0x65,
  0x70, 0x74, 0x68, 0x77, 0x69, 0x73, 0x65, 0x5f, 0x31, 0x39, 0x32, 0x00, 0x00,
  0x00, 0x04, 0x00, 0x00, 0x00, 0x01, 0x00, 0x00, 0x00, 0x1d, 0x02, 0x00, 0x00,
  0xc1, 0x03, 0x00, 0x00, 0x0a, 0x00, 0x00, 0x00, 0x72, 0xb7, 0xff, 0xff, 0x14,
  0x00, 0x00, 0x00, 0x48, 0x00, 0x00, 0x00, 0x58, 0x00, 0x00, 0x00, 0x00, 0x00,
  0x00, 0x07, 0x50, 0x00, 0x00, 0x00, 0x64, 0xb7, 0xff, 0xff, 0x10, 0x00, 0x00,
  0x00, 0x18, 0x00, 0x00, 0x00, 0x1c, 0x00, 0x00, 0x00, 0x20, 0x00, 0x00, 0x00,
  0x01, 0x00, 0x00, 0x00, 0x00, 0x00, 0x00, 0x00, 0x00, 0x00, 0x00, 0x00, 0x01,
  0x00, 0x00, 0x00, 0x77, 0xdb, 0xc6, 0x3a, 0x01, 0x00, 0x00, 0x00, 0x6d, 0xe1,
  0x41, 0x42, 0x01, 0x00, 0x00, 0x00, 0xe9, 0xd9, 0x46, 0xc2, 0x0d, 0x00, 0x00,
  0x00, 0x64, 0x65, 0x70, 0x74, 0x68, 0x77, 0x69, 0x73, 0x65, 0x5f, 0x31, 0x38,
  0x31, 0x00, 0x00, 0x00, 0x04, 0x00, 0x00, 0x00, 0x01, 0x00, 0x00, 0x00, 0x1d,
  0x02, 0x00, 0x00, 0xc1, 0x03, 0x00, 0x00, 0x0a, 0x00, 0x00, 0x00, 0xea, 0xb7,
  0xff, 0xff, 0x14, 0x00, 0x00, 0x00, 0x4c, 0x00, 0x00, 0x00, 0x57, 0x00, 0x00,
  0x00, 0x00, 0x00, 0x00, 0x07, 0x70, 0x00, 0x00, 0x00, 0xdc, 0xb7, 0xff, 0xff,
  0x10, 0x00, 0x00, 0x00, 0x1c, 0x00, 0x00, 0x00, 0x20, 0x00, 0x00, 0x00, 0x24,
  0x00, 0x00, 0x00, 0x01, 0x00, 0x00, 0x00, 0x00, 0x00, 0x00, 0x00, 0x00, 0x00,
  0x00, 0x00, 0x00, 0x00, 0x00, 0x00, 0x01, 0x00, 0x00, 0x00, 0x3f, 0x8a, 0x2b,
  0x3b, 0x01, 0x00, 0x00, 0x00, 0xd2, 0x30, 0xab, 0x42, 0x01, 0x00, 0x00, 0x00,
  0xe8, 0x88, 0xab, 0xc2, 0x2a, 0x00, 0x00, 0x00, 0x42, 0x69, 0x61, 0x73, 0x41,
  0x64, 0x64, 0x5f, 0x38, 0x3b, 0x64, 0x65, 0x70, 0x74, 0x68, 0x77, 0x69, 0x73,
  0x65, 0x5f, 0x32, 0x35, 0x3b, 0x43, 0x6f, 0x6e, 0x76, 0x32, 0x44, 0x5f, 0x38,
  0x3b, 0x63, 0x6f, 0x6e, 0x76, 0x5f, 0x33, 0x5f, 0x31, 0x5f, 0x62, 0x00, 0x00,
  0x04, 0x00, 0x00, 0x00, 0x01, 0x00, 0x00, 0x00, 0x1d, 0x02, 0x00, 0x00, 0xc1,
  0x03, 0x00, 0x00, 0x08, 0x00, 0x00, 0x00, 0x82, 0xb8, 0xff, 0xff, 0x14, 0x00,
  0x00, 0x00, 0x48, 0x00, 0x00, 0x00, 0x56, 0x00, 0x00, 0x00, 0x00, 0x00, 0x00,
  0x07, 0x50, 0x00, 0x00, 0x00, 0x74, 0xb8, 0xff, 0xff, 0x10, 0x00, 0x00, 0x00,
  0x18, 0x00, 0x00, 0x00, 0x1c, 0x00, 0x00, 0x00, 0x20, 0x00, 0x00, 0x00, 0x01,
  0x00, 0x00, 0x00, 0x00, 0x00, 0x00, 0x00, 0x00, 0x00, 0x00, 0x00, 0x01, 0x00,
  0x00, 0x00, 0x4d, 0x44, 0xf9, 0x3a, 0x01, 0x00, 0x00, 0x00, 0x35, 0x4e, 0x38,
  0x42, 0x01, 0x00, 0x00, 0x00, 0x5a, 0x42, 0x79, 0xc2, 0x0d, 0x00, 0x00, 0x00,
  0x64, 0x65, 0x70, 0x74, 0x68, 0x77, 0x69, 0x73, 0x65, 0x5f, 0x31, 0x37, 0x31,
  0x00, 0x00, 0x00, 0x04, 0x00, 0x00, 0x00, 0x01, 0x00, 0x00, 0x00, 0x1d, 0x02,
  0x00, 0x00, 0xc1, 0x03, 0x00, 0x00, 0x08, 0x00, 0x00, 0x00, 0xfa, 0xb8, 0xff,
  0xff, 0x14, 0x00, 0x00, 0x00, 0x48, 0x00, 0x00, 0x00, 0x55, 0x00, 0x00, 0x00,
  0x00, 0x00, 0x00, 0x07, 0x50, 0x00, 0x00, 0x00, 0xec, 0xb8, 0xff, 0xff, 0x10,
  0x00, 0x00, 0x00, 0x18, 0x00, 0x00, 0x00, 0x1c, 0x00, 0x00, 0x00, 0x20, 0x00,
  0x00, 0x00, 0x01, 0x00, 0x00, 0x00, 0x00, 0x00, 0x00, 0x00, 0x00, 0x00, 0x00,
  0x00, 0x01, 0x00, 0x00, 0x00, 0x44, 0xdd, 0xf7, 0x3a, 0x01, 0x00, 0x00, 0x00,
  0x97, 0xb1, 0x53, 0x42, 0x01, 0x00, 0x00, 0x00, 0x54, 0xdb, 0x77, 0xc2, 0x0d,
  0x00, 0x00, 0x00, 0x64, 0x65, 0x70, 0x74, 0x68, 0x77, 0x69, 0x73, 0x65, 0x5f,
  0x31, 0x36, 0x31, 0x00, 0x00, 0x00, 0x04, 0x00, 0x00, 0x00, 0x01, 0x00, 0x00,
  0x00, 0x1d, 0x02, 0x00, 0x00, 0xc1, 0x03, 0x00, 0x00, 0x08, 0x00, 0x00, 0x00,
  0x72, 0xb9, 0xff, 0xff, 0x14, 0x00, 0x00, 0x00, 0x4c, 0x00, 0x00, 0x00, 0x54,
  0x00, 0x00, 0x00, 0x00, 0x00, 0x00, 0x07, 0x78, 0x00, 0x00, 0x00, 0x64, 0xb9,
  0xff, 0xff, 0x10, 0x00, 0x00, 0x00, 0x1c, 0x00, 0x00, 0x00, 0x20, 0x00, 0x00,
  0x00, 0x24, 0x00, 0x00, 0x00, 0x01, 0x00, 0x00, 0x00, 0x00, 0x00, 0x00, 0x00,
  0x00, 0x00, 0x00, 0x00, 0x00, 0x00, 0x00, 0x00, 0x01, 0x00, 0x00, 0x00, 0x4e,
  0xe4, 0x6a, 0x3b, 0x01, 0x00, 0x00, 0x00, 0x78, 0xe2, 0xea, 0x42, 0x01, 0x00,
  0x00, 0x00, 0x00, 0x00, 0x00, 0x00, 0x31, 0x00, 0x00, 0x00, 0x52, 0x65, 0x6c,
  0x75, 0x5f, 0x32, 0x3b, 0x42, 0x69, 0x61, 0x73, 0x41, 0x64, 0x64, 0x5f, 0x37,
  0x3b, 0x64, 0x65, 0x70, 0x74, 0x68, 0x77, 0x69, 0x73, 0x65, 0x5f, 0x32, 0x35,
  0x3b, 0x43, 0x6f, 0x6e, 0x76, 0x32, 0x44, 0x5f, 0x37, 0x3b, 0x63, 0x6f, 0x6e,
  0x76, 0x5f, 0x33, 0x5f, 0x30, 0x5f, 0x62, 0x00, 0x00, 0x00, 0x04, 0x00, 0x00,
  0x00, 0x01, 0x00, 0x00, 0x00, 0x1d, 0x02, 0x00, 0x00, 0xc1, 0x03, 0x00, 0x00,
  0x08, 0x00, 0x00, 0x00, 0x12, 0xba, 0xff, 0xff, 0x14, 0x00, 0x00, 0x00, 0x48,
  0x00, 0x00, 0x00, 0x53, 0x00, 0x00, 0x00, 0x00, 0x00, 0x00, 0x07, 0x50, 0x00,
  0x00, 0x00, 0x04, 0xba, 0xff, 0xff, 0x10, 0x00, 0x00, 0x00, 0x18, 0x00, 0x00,
  0x00, 0x1c, 0x00, 0x00, 0x00, 0x20, 0x00, 0x00, 0x00, 0x01, 0x00, 0x00, 0x00,
  0x00, 0x00, 0x00, 0x00, 0x00, 0x00, 0x00, 0x00, 0x01, 0x00, 0x00, 0x00, 0x32,
  0x30, 0xb5, 0x3a, 0x01, 0x00, 0x00, 0x00, 0x1b, 0x6e, 0x19, 0x42, 0x01, 0x00,
  0x00, 0x00, 0xc8, 0x2e, 0x35, 0xc2, 0x0d, 0x00, 0x00, 0x00, 0x64, 0x65, 0x70,
  0x74, 0x68, 0x77, 0x69, 0x73, 0x65, 0x5f, 0x31, 0x35, 0x31, 0x00, 0x00, 0x00,
  0x04, 0x00, 0x00, 0x00, 0x01, 0x00, 0x00, 0x00, 0x1d, 0x02, 0x00, 0x00, 0xc1,
  0x03, 0x00, 0x00, 0x0a, 0x00, 0x00, 0x00, 0x8a, 0xba, 0xff, 0xff, 0x14, 0x00,
  0x00, 0x00, 0x48, 0x00, 0x00, 0x00, 0x52, 0x00, 0x00, 0x00, 0x00, 0x00, 0x00,
  0x07, 0x50, 0x00, 0x00, 0x00, 0x7c, 0xba, 0xff, 0xff, 0x10, 0x00, 0x00, 0x00,
  0x18, 0x00, 0x00, 0x00, 0x1c, 0x00, 0x00, 0x00, 0x20, 0x00, 0x00, 0x00, 0x01,
  0x00, 0x00, 0x00, 0x00, 0x00, 0x00, 0x00, 0x00, 0x00, 0x00, 0x00, 0x01, 0x00,
  0x00, 0x00, 0xbe, 0xd1, 0xe8, 0x3a, 0x01, 0x00, 0x00, 0x00, 0xa9, 0x13, 0x34,
  0x42, 0x01, 0x00, 0x00, 0x00, 0xec, 0xcf, 0x68, 0xc2, 0x0d, 0x00, 0x00, 0x00,
  0x64, 0x65, 0x70, 0x74, 0x68, 0x77, 0x69, 0x73, 0x65, 0x5f, 0x31, 0x34, 0x31,
  0x00, 0x00, 0x00, 0x04, 0x00, 0x00, 0x00, 0x01, 0x00, 0x00, 0x00, 0x1d, 0x02,
  0x00, 0x00, 0xc1, 0x03, 0x00, 0x00, 0x0a, 0x00, 0x00, 0x00, 0x02, 0xbb, 0xff,
  0xff, 0x14, 0x00, 0x00, 0x00, 0x48, 0x00, 0x00, 0x00, 0x51, 0x00, 0x00, 0x00,
  0x00, 0x00, 0x00, 0x07, 0x48, 0x00, 0x00, 0x00, 0xf4, 0xba, 0xff, 0xff, 0x10,
  0x00, 0x00, 0x00, 0x18, 0x00, 0x00, 0x00, 0x1c, 0x00, 0x00, 0x00, 0x20, 0x00,
  0x00, 0x00, 0x01, 0x00, 0x00, 0x00, 0x00, 0x00, 0x00, 0x00, 0x00, 0x00, 0x00,
  0x00, 0x01, 0x00, 0x00, 0x00, 0x1d, 0x21, 0x12, 0x3b, 0x01, 0x00, 0x00, 0x00,
  0xf9, 0x1f, 0x92, 0x42, 0x01, 0x00, 0x00, 0x00, 0xae, 0xfd, 0x73, 0xc2, 0x05,
  0x00, 0x00, 0x00, 0x41, 0x64, 0x64, 0x5f, 0x32, 0x00, 0x00, 0x00, 0x04, 0x00,
  0x00, 0x00, 0x01, 0x00, 0x00, 0x00, 0x1d, 0x02, 0x00, 0x00, 0xc1, 0x03, 0x00,
  0x00, 0x0a, 0x00, 0x00, 0x00, 0x72, 0xbb, 0xff, 0xff, 0x14, 0x00, 0x00, 0x00,
  0x4c, 0x00, 0x00, 0x00, 0x50, 0x00, 0x00, 0x00, 0x00, 0x00, 0x00, 0x07, 0x70,
  0x00, 0x00, 0x00, 0x64, 0xbb, 0xff, 0xff, 0x10, 0x00, 0x00, 0x00, 0x1c, 0x00,
  0x00, 0x00, 0x20, 0x00, 0x00, 0x00, 0x24, 0x00, 0x00, 0x00, 0x01, 0x00, 0x00,
  0x00, 0x00, 0x00, 0x00, 0x00, 0x00, 0x00, 0x00, 0x00, 0x00, 0x00, 0x00, 0x00,
  0x01, 0x00, 0x00, 0x00, 0x77, 0xe7, 0xf1, 0x3a, 0x01, 0x00, 0x00, 0x00, 0x93,
  0xe5, 0x71, 0x42, 0x01, 0x00, 0x00, 0x00, 0xca, 0x00, 0x3a, 0xc2, 0x2a, 0x00,
  0x00, 0x00, 0x42, 0x69, 0x61, 0x73, 0x41, 0x64, 0x64, 0x5f, 0x36, 0x3b, 0x64,
  0x65, 0x70, 0x74, 0x68, 0x77, 0x69, 0x73, 0x65, 0x5f, 0x31, 0x39, 0x3b, 0x43,
  0x6f, 0x6e, 0x76, 0x32, 0x44, 0x5f, 0x36, 0x3b, 0x63, 0x6f, 0x6e, 0x76, 0x5f,
  0x32, 0x5f, 0x31, 0x5f, 0x62, 0x00, 0x00, 0x04, 0x00, 0x00, 0x00, 0x01, 0x00,
  0x00, 0x00, 0x1d, 0x02, 0x00, 0x00, 0xc1, 0x03, 0x00, 0x00, 0x0a, 0x00, 0x00,
  0x00, 0x0a, 0xbc, 0xff, 0xff, 0x14, 0x00, 0x00, 0x00, 0x48, 0x00, 0x00, 0x00,
  0x4f, 0x00, 0x00, 0x00, 0x00, 0x00, 0x00, 0x07, 0x50, 0x00, 0x00, 0x00, 0xfc,
  0xbb, 0xff, 0xff, 0x10, 0x00, 0x00, 0x00, 0x18, 0x00, 0x00, 0x00, 0x1c, 0x00,
  0x00, 0x00, 0x20, 0x00, 0x00, 0x00, 0x01, 0x00, 0x00, 0x00, 0x00, 0x00, 0x00,
  0x00, 0x00, 0x00, 0x00, 0x00, 0x01, 0x00, 0x00, 0x00, 0xc6, 0xbf, 0x42, 0x3a,
  0x01, 0x00, 0x00, 0x00, 0x41, 0xbe, 0xc2, 0x41, 0x01, 0x00, 0x00, 0x00, 0xde,
  0xb0, 0x80, 0xc1, 0x0d, 0x00, 0x00, 0x00, 0x64, 0x65, 0x70, 0x74, 0x68, 0x77,
  0x69, 0x73, 0x65, 0x5f, 0x31, 0x33, 0x32, 0x00, 0x00, 0x00, 0x04, 0x00, 0x00,
  0x00, 0x01, 0x00, 0x00, 0x00, 0x1d, 0x02, 0x00, 0x00, 0xc1, 0x03, 0x00, 0x00,
  0x0c, 0x00, 0x00, 0x00, 0x82, 0xbc, 0xff, 0xff, 0x14, 0x00, 0x00, 0x00, 0x48,
  0x00, 0x00, 0x00, 0x4e, 0x00, 0x00, 0x00, 0x00, 0x00, 0x00, 0x07, 0x50, 0x00,
  0x00, 0x00, 0x74, 0xbc, 0xff, 0xff, 0x10, 0x00, 0x00, 0x00, 0x18, 0x00, 0x00,
  0x00, 0x1c, 0x00, 0x00, 0x00, 0x20, 0x00, 0x00, 0x00, 0x01, 0x00, 0x00, 0x00,
  0x00, 0x00, 0x00, 0x00, 0x00, 0x00, 0x00, 0x00, 0x01, 0x00, 0x00, 0x00, 0x05,
  0x96, 0x82, 0x3a, 0x01, 0x00, 0x00, 0x00, 0x00, 0x95, 0x02, 0x42, 0x01, 0x00,
  0x00, 0x00, 0x7c, 0xe2, 0xae, 0xc1, 0x0d, 0x00, 0x00, 0x00, 0x64, 0x65, 0x70,
  0x74, 0x68, 0x77, 0x69, 0x73, 0x65, 0x5f, 0x31, 0x32, 0x31, 0x00, 0x00, 0x00,
  0x04, 0x00, 0x00, 0x00, 0x01, 0x00, 0x00, 0x00, 0x1d, 0x02, 0x00, 0x00, 0xc1,
  0x03, 0x00, 0x00, 0x0c, 0x00, 0x00, 0x00, 0xfa, 0xbc, 0xff, 0xff, 0x14, 0x00,
  0x00, 0x00, 0x4c, 0x00, 0x00, 0x00, 0x4d, 0x00, 0x00, 0x00, 0x00, 0x00, 0x00,
  0x07, 0x70, 0x00, 0x00, 0x00, 0xec, 0xbc, 0xff, 0xff, 0x10, 0x00, 0x00, 0x00,
  0x1c, 0x00, 0x00, 0x00, 0x20, 0x00, 0x00, 0x00, 0x24, 0x00, 0x00, 0x00, 0x01,
  0x00, 0x00, 0x00, 0x00, 0x00, 0x00, 0x00, 0x00, 0x00, 0x00, 0x00, 0x00, 0x00,
  0x00, 0x00, 0x01, 0x00, 0x00, 0x00, 0xbe, 0x9d, 0x28, 0x3b, 0x01, 0x00, 0x00,
  0x00, 0x6d, 0x9c, 0xa8, 0x42, 0x01, 0x00, 0x00, 0x00, 0x55, 0x30, 0x3b, 0xc2,
  0x2a, 0x00, 0x00, 0x00, 0x42, 0x69, 0x61, 0x73, 0x41, 0x64, 0x64, 0x5f, 0x35,
  0x3b, 0x64, 0x65, 0x70, 0x74, 0x68, 0x77, 0x69, 0x73, 0x65, 0x5f, 0x31, 0x39,
  0x3b, 0x43, 0x6f, 0x6e, 0x76, 0x32, 0x44, 0x5f, 0x35, 0x3b, 0x63, 0x6f, 0x6e,
  0x76, 0x5f, 0x32, 0x5f, 0x31, 0x5f, 0x62, 0x00, 0x00, 0x04, 0x00, 0x00, 0x00,
  0x01, 0x00, 0x00, 0x00, 0x1d, 0x02, 0x00, 0x00, 0xc1, 0x03, 0x00, 0x00, 0x0a,
  0x00, 0x00, 0x00, 0x92, 0xbd, 0xff, 0xff, 0x14, 0x00, 0x00, 0x00, 0x48, 0x00,
  0x00, 0x00, 0x4c, 0x00, 0x00, 0x00, 0x00, 0x00, 0x00, 0x07, 0x50, 0x00, 0x00,
  0x00, 0x84, 0xbd, 0xff, 0xff, 0x10, 0x00, 0x00, 0x00, 0x18, 0x00, 0x00, 0x00,
  0x1c, 0x00, 0x00, 0x00, 0x20, 0x00, 0x00, 0x00, 0x01, 0x00, 0x00, 0x00, 0x00,
  0x00, 0x00, 0x00, 0x00, 0x00, 0x00, 0x00, 0x01, 0x00, 0x00, 0x00, 0x6a, 0xc7,
  0x39, 0x3a, 0x01, 0x00, 0x00, 0x00, 0xf6, 0xc5, 0xb9, 0x41, 0x01, 0x00, 0x00,
  0x00, 0x6f, 0x4b, 0xa2, 0xc1, 0x0d, 0x00, 0x00, 0x00, 0x64, 0x65, 0x70, 0x74,
  0x68, 0x77, 0x69, 0x73, 0x65, 0x5f, 0x31, 0x31, 0x31, 0x00, 0x00, 0x00, 0x04,
  0x00, 0x00, 0x00, 0x01, 0x00, 0x00, 0x00, 0x1d, 0x02, 0x00, 0x00, 0xc1, 0x03,
  0x00, 0x00, 0x0a, 0x00, 0x00, 0x00, 0x0a, 0xbe, 0xff, 0xff, 0x14, 0x00, 0x00,
  0x00, 0x48, 0x00, 0x00, 0x00, 0x4b, 0x00, 0x00, 0x00, 0x00, 0x00, 0x00, 0x07,
  0x50, 0x00, 0x00, 0x00, 0xfc, 0xbd, 0xff, 0xff, 0x10, 0x00, 0x00, 0x00, 0x18,
  0x00, 0x00, 0x00, 0x1c, 0x00, 0x00, 0x00, 0x20, 0x00, 0x00, 0x00, 0x01, 0x00,
  0x00, 0x00, 0x00, 0x00, 0x00, 0x00, 0x00, 0x00, 0x00, 0x00, 0x01, 0x00, 0x00,
  0x00, 0xe0, 0x0d, 0x4b, 0x3a, 0x01, 0x00, 0x00, 0x00, 0x5c, 0xdd, 0xc6, 0x41,
  0x01, 0x00, 0x00, 0x00, 0x4a, 0x0c, 0xcb, 0xc1, 0x0d, 0x00, 0x00, 0x00, 0x64,
  0x65, 0x70, 0x74, 0x68, 0x77, 0x69, 0x73, 0x65, 0x5f, 0x31, 0x30, 0x31, 0x00,
  0x00, 0x00, 0x04, 0x00, 0x00, 0x00, 0x01, 0x00, 0x00, 0x00, 0x1d, 0x02, 0x00,
  0x00, 0xc1, 0x03, 0x00, 0x00, 0x0a, 0x00, 0x00, 0x00, 0x82, 0xbe, 0xff, 0xff,
  0x14, 0x00, 0x00, 0x00, 0x4c, 0x00, 0x00, 0x00, 0x4a, 0x00, 0x00, 0x00, 0x00,
  0x00, 0x00, 0x07, 0x78, 0x00, 0x00, 0x00, 0x74, 0xbe, 0xff, 0xff, 0x10, 0x00,
  0x00, 0x00, 0x1c, 0x00, 0x00, 0x00, 0x20, 0x00, 0x00, 0x00, 0x24, 0x00, 0x00,
  0x00, 0x01, 0x00, 0x00, 0x00, 0x00, 0x00, 0x00, 0x00, 0x00, 0x00, 0x00, 0x00,
  0x00, 0x00, 0x00, 0x00, 0x01, 0x00, 0x00, 0x00, 0xcf, 0x7d, 0x9c, 0x3a, 0x01,
  0x00, 0x00, 0x00, 0x96, 0x7c, 0x1c, 0x42, 0x01, 0x00, 0x00, 0x00, 0x00, 0x00,
  0x00, 0x00, 0x31, 0x00, 0x00, 0x00, 0x52, 0x65, 0x6c, 0x75, 0x5f, 0x31, 0x3b,
  0x42, 0x69, 0x61, 0x73, 0x41, 0x64, 0x64, 0x5f, 0x34, 0x3b, 0x64, 0x65, 0x70,
  0x74, 0x68, 0x77, 0x69, 0x73, 0x65, 0x5f, 0x31, 0x39, 0x3b, 0x43, 0x6f, 0x6e,
  0x76, 0x32, 0x44, 0x5f, 0x34, 0x3b, 0x63, 0x6f, 0x6e, 0x76, 0x5f, 0x32, 0x5f,
  0x30, 0x5f, 0x62, 0x00, 0x00, 0x00, 0x04, 0x00, 0x00, 0x00, 0x01, 0x00, 0x00,
  0x00, 0x1d, 0x02, 0x00, 0x00, 0xc1, 0x03, 0x00, 0x00, 0x0a, 0x00, 0x00, 0x00,
  0x22, 0xbf, 0xff, 0xff, 0x14, 0x00, 0x00, 0x00, 0x48, 0x00, 0x00, 0x00, 0x49,
  0x00, 0x00, 0x00, 0x00, 0x00, 0x00, 0x07, 0x50, 0x00, 0x00, 0x00, 0x14, 0xbf,
  0xff, 0xff, 0x10, 0x00, 0x00, 0x00, 0x18, 0x00, 0x00, 0x00, 0x1c, 0x00, 0x00,
  0x00, 0x20, 0x00, 0x00, 0x00, 0x01, 0x00, 0x00, 0x00, 0x00, 0x00, 0x00, 0x00,
  0x00, 0x00, 0x00, 0x00, 0x01, 0x00, 0x00, 0x00, 0x37, 0x8c, 0x1c, 0x3a, 0x01,
  0x00, 0x00, 0x00, 0xfe, 0x8a, 0x9c, 0x41, 0x01, 0x00, 0x00, 0x00, 0x47, 0xb8,
  0x9b, 0xc1, 0x0c, 0x00, 0x00, 0x00, 0x64, 0x65, 0x70, 0x74, 0x68, 0x77, 0x69,
  0x73, 0x65, 0x5f, 0x39, 0x31, 0x00, 0x00, 0x00, 0x00, 0x04, 0x00, 0x00, 0x00,
  0x01, 0x00, 0x00, 0x00, 0x1d, 0x02, 0x00, 0x00, 0xc1, 0x03, 0x00, 0x00, 0x0c,
  0x00, 0x00, 0x00, 0x9a, 0xbf, 0xff, 0xff, 0x14, 0x00, 0x00, 0x00, 0x48, 0x00,
  0x00, 0x00, 0x48, 0x00, 0x00, 0x00, 0x00, 0x00, 0x00, 0x07, 0x50, 0x00, 0x00,
  0x00, 0x8c, 0xbf, 0xff, 0xff, 0x10, 0x00, 0x00, 0x00, 0x18, 0x00, 0x00, 0x00,
  0x1c, 0x00, 0x00, 0x00, 0x20, 0x00, 0x00, 0x00, 0x01, 0x00, 0x00, 0x00, 0x00,
  0x00, 0x00, 0x00, 0x00, 0x00, 0x00, 0x00, 0x01, 0x00, 0x00, 0x00, 0x2a, 0x72,
  0x30, 0x3a, 0x01, 0x00, 0x00, 0x00, 0xc9, 0x70, 0xb0, 0x41, 0x01, 0x00, 0x00,
  0x00, 0x23, 0xc2, 0xaa, 0xc1, 0x0c, 0x00, 0x00, 0x00, 0x64, 0x65, 0x70, 0x74,
  0x68, 0x77, 0x69, 0x73, 0x65, 0x5f, 0x38, 0x31, 0x00, 0x00, 0x00, 0x00, 0x04,
  0x00, 0x00, 0x00, 0x01, 0x00, 0x00, 0x00, 0x1d, 0x02, 0x00, 0x00, 0xc1, 0x03,
  0x00, 0x00, 0x0c, 0x00, 0x00, 0x00, 0x12, 0xc0, 0xff, 0xff, 0x14, 0x00, 0x00,
  0x00, 0x48, 0x00, 0x00, 0x00, 0x47, 0x00, 0x00, 0x00, 0x00, 0x00, 0x00, 0x07,
  0x48, 0x00, 0x00, 0x00, 0x04, 0xc0, 0xff, 0xff, 0x10, 0x00, 0x00, 0x00, 0x18,
  0x00, 0x00, 0x00, 0x1c, 0x00, 0x00, 0x00, 0x20, 0x00, 0x00, 0x00, 0x01, 0x00,
  0x00, 0x00, 0x00, 0x00, 0x00, 0x00, 0x00, 0x00, 0x00, 0x00, 0x01, 0x00, 0x00,
  0x00, 0xfd, 0xa2, 0x62, 0x3a, 0x01, 0x00, 0x00, 0x00, 0x38, 0xa1, 0xe2, 0x41,
  0x01, 0x00, 0x00, 0x00, 0x6f, 0xb5, 0xbf, 0xc1, 0x05, 0x00, 0x00, 0x00, 0x41,
  0x64, 0x64, 0x5f, 0x31, 0x00, 0x00, 0x00, 0x04, 0x00, 0x00, 0x00, 0x01, 0x00,
  0x00, 0x00, 0x1d, 0x02, 0x00, 0x00, 0xc1, 0x03, 0x00, 0x00, 0x0c, 0x00, 0x00,
  0x00, 0x82, 0xc0, 0xff, 0xff, 0x14, 0x00, 0x00, 0x00, 0x4c, 0x00, 0x00, 0x00,
  0x46, 0x00, 0x00, 0x00, 0x00, 0x00, 0x00, 0x07, 0x70, 0x00, 0x00, 0x00, 0x74,
  0xc0, 0xff, 0xff, 0x10, 0x00, 0x00, 0x00, 0x1c, 0x00, 0x00, 0x00, 0x20, 0x00,
  0x00, 0x00, 0x24, 0x00, 0x00, 0x00, 0x01, 0x00, 0x00, 0x00, 0x00, 0x00, 0x00,
  0x00, 0x00, 0x00, 0x00, 0x00, 0x00, 0x00, 0x00, 0x00, 0x01, 0x00, 0x00, 0x00,
  0x62, 0x59, 0x12, 0x3a, 0x01, 0x00, 0x00, 0x00, 0xa6, 0x70, 0x84, 0x41, 0x01,
  0x00, 0x00, 0x00, 0x3d, 0x58, 0x92, 0xc1, 0x2a, 0x00, 0x00, 0x00, 0x42, 0x69,
  0x61, 0x73, 0x41, 0x64, 0x64, 0x5f, 0x33, 0x3b, 0x64, 0x65, 0x70, 0x74, 0x68,
  0x77, 0x69, 0x73, 0x65, 0x5f, 0x31, 0x33, 0x3b, 0x43, 0x6f, 0x6e, 0x76, 0x32,
  0x44, 0x5f, 0x33, 0x3b, 0x63, 0x6f, 0x6e, 0x76, 0x5f, 0x31, 0x5f, 0x31, 0x5f,
  0x62, 0x00, 0x00, 0x04, 0x00, 0x00, 0x00, 0x01, 0x00, 0x00, 0x00, 0x1d, 0x02,
  0x00, 0x00, 0xc1, 0x03, 0x00, 0x00, 0x0c, 0x00, 0x00, 0x00, 0x1a, 0xc1, 0xff,
  0xff, 0x14, 0x00, 0x00, 0x00, 0x48, 0x00, 0x00, 0x00, 0x45, 0x00, 0x00, 0x00,
  0x00, 0x00, 0x00, 0x07, 0x50, 0x00, 0x00, 0x00, 0x0c, 0xc1, 0xff, 0xff, 0x10,
  0x00, 0x00, 0x00, 0x18, 0x00, 0x00, 0x00, 0x1c, 0x00, 0x00, 0x00, 0x20, 0x00,
  0x00, 0x00, 0x01, 0x00, 0x00, 0x00, 0x00, 0x00, 0x00, 0x00, 0x00, 0x00, 0x00,
  0x00, 0x01, 0x00, 0x00, 0x00, 0xb4, 0x07, 0x14, 0x39, 0x01, 0x00, 0x00, 0x00,
  0x66, 0xa5, 0x85, 0x40, 0x01, 0x00, 0x00, 0x00, 0x8c, 0x06, 0x94, 0xc0, 0x0c,
  0x00, 0x00, 0x00, 0x64, 0x65, 0x70, 0x74, 0x68, 0x77, 0x69, 0x73, 0x65, 0x5f,
  0x37, 0x32, 0x00, 0x00, 0x00, 0x00, 0x04, 0x00, 0x00, 0x00, 0x01, 0x00, 0x00,
  0x00, 0x1d, 0x02, 0x00, 0x00, 0xc1, 0x03, 0x00, 0x00, 0x10, 0x00, 0x00, 0x00,
  0x92, 0xc1, 0xff, 0xff, 0x14, 0x00, 0x00, 0x00, 0x48, 0x00, 0x00, 0x00, 0x44,
  0x00, 0x00, 0x00, 0x00, 0x00, 0x00, 0x07, 0x50, 0x00, 0x00, 0x00, 0x84, 0xc1,
  0xff, 0xff, 0x10, 0x00, 0x00, 0x00, 0x18, 0x00, 0x00, 0x00, 0x1c, 0x00, 0x00,
  0x00, 0x20, 0x00, 0x00, 0x00, 0x01, 0x00, 0x00, 0x00, 0x00, 0x00, 0x00, 0x00,
  0x00, 0x00, 0x00, 0x00, 0x01, 0x00, 0x00, 0x00, 0x20, 0xf8, 0x2f, 0x39, 0x01,
  0x00, 0x00, 0x00, 0xc0, 0xf6, 0xaf, 0x40, 0x01, 0x00, 0x00, 0x00, 0xe4, 0x07,
  0x5b, 0xc0, 0x0c, 0x00, 0x00, 0x00, 0x64, 0x65, 0x70, 0x74, 0x68, 0x77, 0x69,
  0x73, 0x65, 0x5f, 0x36, 0x31, 0x00, 0x00, 0x00, 0x00, 0x04, 0x00, 0x00, 0x00,
  0x01, 0x00, 0x00, 0x00, 0x1d, 0x02, 0x00, 0x00, 0xc1, 0x03, 0x00, 0x00, 0x10,
  0x00, 0x00, 0x00, 0x0a, 0xc2, 0xff, 0xff, 0x14, 0x00, 0x00, 0x00, 0x4c, 0x00,
  0x00, 0x00, 0x43, 0x00, 0x00, 0x00, 0x00, 0x00, 0x00, 0x07, 0x70, 0x00, 0x00,
  0x00, 0xfc, 0xc1, 0xff, 0xff, 0x10, 0x00, 0x00, 0x00, 0x1c, 0x00, 0x00, 0x00,
  0x20, 0x00, 0x00, 0x00, 0x24, 0x00, 0x00, 0x00, 0x01, 0x00, 0x00, 0x00, 0x00,
  0x00, 0x00, 0x00, 0x00, 0x00, 0x00, 0x00, 0x00, 0x00, 0x00, 0x00, 0x01, 0x00,
  0x00, 0x00, 0x0d, 0xf3, 0x7e, 0x3a, 0x01, 0x00, 0x00, 0x00, 0x0f, 0xf1, 0xfe,
  0x41, 0x01, 0x00, 0x00, 0x00, 0xb0, 0x49, 0xc9, 0xc1, 0x2a, 0x00, 0x00, 0x00,
  0x42, 0x69, 0x61, 0x73, 0x41, 0x64, 0x64, 0x5f, 0x32, 0x3b, 0x64, 0x65, 0x70,
  0x74, 0x68, 0x77, 0x69, 0x73, 0x65, 0x5f, 0x31, 0x33, 0x3b, 0x43, 0x6f, 0x6e,
  0x76, 0x32, 0x44, 0x5f, 0x32, 0x3b, 0x63, 0x6f, 0x6e, 0x76, 0x5f, 0x31, 0x5f,
  0x31, 0x5f, 0x62, 0x00, 0x00, 0x04, 0x00, 0x00, 0x00, 0x01, 0x00, 0x00, 0x00,
  0x1d, 0x02, 0x00, 0x00, 0xc1, 0x03, 0x00, 0x00, 0x0c, 0x00, 0x00, 0x00, 0xa2,
  0xc2, 0xff, 0xff, 0x14, 0x00, 0x00, 0x00, 0x48, 0x00, 0x00, 0x00, 0x42, 0x00,
  0x00, 0x00, 0x00, 0x00, 0x00, 0x07, 0x50, 0x00, 0x00, 0x00, 0x94, 0xc2, 0xff,
  0xff, 0x10, 0x00, 0x00, 0x00, 0x18, 0x00, 0x00, 0x00, 0x1c, 0x00, 0x00, 0x00,
  0x20, 0x00, 0x00, 0x00, 0x01, 0x00, 0x00, 0x00, 0x00, 0x00, 0x00, 0x00, 0x00,
  0x00, 0x00, 0x00, 0x01, 0x00, 0x00, 0x00, 0x34, 0xe8, 0xd0, 0x39, 0x01, 0x00,
  0x00, 0x00, 0x92, 0xe6, 0x50, 0x41, 0x01, 0x00, 0x00, 0x00, 0xc7, 0x67, 0x0d,
  0xc1, 0x0c, 0x00, 0x00, 0x00, 0x64, 0x65, 0x70, 0x74, 0x68, 0x77, 0x69, 0x73,
  0x65, 0x5f, 0x35, 0x31, 0x00, 0x00, 0x00, 0x00, 0x04, 0x00, 0x00, 0x00, 0x01,
  0x00, 0x00, 0x00, 0x1d, 0x02, 0x00, 0x00, 0xc1, 0x03, 0x00, 0x00, 0x0c, 0x00,
  0x00, 0x00, 0x1a, 0xc3, 0xff, 0xff, 0x14, 0x00, 0x00, 0x00, 0x48, 0x00, 0x00,
  0x00, 0x41, 0x00, 0x00, 0x00, 0x00, 0x00, 0x00, 0x07, 0x50, 0x00, 0x00, 0x00,
  0x0c, 0xc3, 0xff, 0xff, 0x10, 0x00, 0x00, 0x00, 0x18, 0x00, 0x00, 0x00, 0x1c,
  0x00, 0x00, 0x00, 0x20, 0x00, 0x00, 0x00, 0x01, 0x00, 0x00, 0x00, 0x00, 0x00,
  0x00, 0x00, 0x00, 0x00, 0x00, 0x00, 0x01, 0x00, 0x00, 0x00, 0x96, 0xf3, 0xa4,
  0x39, 0x01, 0x00, 0x00, 0x00, 0xc2, 0xfe, 0x1b, 0x41, 0x01, 0x00, 0x00, 0x00,
  0x4c, 0xf2, 0x24, 0xc1, 0x0c, 0x00, 0x00, 0x00, 0x64, 0x65, 0x70, 0x74, 0x68,
  0x77, 0x69, 0x73, 0x65, 0x5f, 0x34, 0x31, 0x00, 0x00, 0x00, 0x00, 0x04, 0x00,
  0x00, 0x00, 0x01, 0x00, 0x00, 0x00, 0x1d, 0x02, 0x00, 0x00, 0xc1, 0x03, 0x00,
  0x00, 0x0c, 0x00, 0x00, 0x00, 0x92, 0xc3, 0xff, 0xff, 0x14, 0x00, 0x00, 0x00,
  0x48, 0x00, 0x00, 0x00, 0x40, 0x00, 0x00, 0x00, 0x00, 0x00, 0x00, 0x07, 0x70,
  0x00, 0x00, 0x00, 0x84, 0xc3, 0xff, 0xff, 0x10, 0x00, 0x00, 0x00, 0x18, 0x00,
  0x00, 0x00, 0x1c, 0x00, 0x00, 0x00, 0x20, 0x00, 0x00, 0x00, 0x01, 0x00, 0x00,
  0x00, 0x00, 0x00, 0x00, 0x00, 0x00, 0x00, 0x00, 0x00, 0x01, 0x00, 0x00, 0x00,
  0x64, 0xa7, 0xbe, 0x39, 0x01, 0x00, 0x00, 0x00, 0xe7, 0xa5, 0x3e, 0x41, 0x01,
  0x00, 0x00, 0x00, 0x00, 0x00, 0x00, 0x00, 0x2f, 0x00, 0x00, 0x00, 0x52, 0x65,
  0x6c, 0x75, 0x3b, 0x42, 0x69, 0x61, 0x73, 0x41, 0x64, 0x64, 0x5f, 0x31, 0x3b,
  0x64, 0x65, 0x70, 0x74, 0x68, 0x77, 0x69, 0x73, 0x65, 0x5f, 0x31, 0x33, 0x3b,
  0x43, 0x6f, 0x6e, 0x76, 0x32, 0x44, 0x5f, 0x31, 0x3b, 0x63, 0x6f, 0x6e, 0x76,
  0x5f, 0x31, 0x5f, 0x30, 0x5f, 0x62, 0x00, 0x04, 0x00, 0x00, 0x00, 0x01, 0x00,
  0x00, 0x00, 0x1d, 0x02, 0x00, 0x00, 0xc1, 0x03, 0x00, 0x00, 0x0c, 0x00, 0x00,
  0x00, 0x2a, 0xc4, 0xff, 0xff, 0x14, 0x00, 0x00, 0x00, 0x48, 0x00, 0x00, 0x00,
  0x3f, 0x00, 0x00, 0x00, 0x00, 0x00, 0x00, 0x07, 0x50, 0x00, 0x00, 0x00, 0x1c,
  0xc4, 0xff, 0xff, 0x10, 0x00, 0x00, 0x00, 0x18, 0x00, 0x00, 0x00, 0x1c, 0x00,
  0x00, 0x00, 0x20, 0x00, 0x00, 0x00, 0x01, 0x00, 0x00, 0x00, 0x00, 0x00, 0x00,
  0x00, 0x00, 0x00, 0x00, 0x00, 0x01, 0x00, 0x00, 0x00, 0xcb, 0x7b, 0x05, 0x39,
  0x01, 0x00, 0x00, 0x00, 0x75, 0x76, 0x7e, 0x40, 0x01, 0x00, 0x00, 0x00, 0xc0,
  0x7a, 0x85, 0xc0, 0x0c, 0x00, 0x00, 0x00, 0x64, 0x65, 0x70, 0x74, 0x68, 0x77,
  0x69, 0x73, 0x65, 0x5f, 0x33, 0x31, 0x00, 0x00, 0x00, 0x00, 0x04, 0x00, 0x00,
  0x00, 0x01, 0x00, 0x00, 0x00, 0x1d, 0x02, 0x00, 0x00, 0xc1, 0x03, 0x00, 0x00,
  0x10, 0x00, 0x00, 0x00, 0xa2, 0xc4, 0xff, 0xff, 0x14, 0x00, 0x00, 0x00, 0x48,
  0x00, 0x00, 0x00, 0x3e, 0x00, 0x00, 0x00, 0x00, 0x00, 0x00, 0x07, 0x50, 0x00,
  0x00, 0x00, 0x94, 0xc4, 0xff, 0xff, 0x10, 0x00, 0x00, 0x00, 0x18, 0x00, 0x00,
  0x00, 0x1c, 0x00, 0x00, 0x00, 0x20, 0x00, 0x00, 0x00, 0x01, 0x00, 0x00, 0x00,
  0x00, 0x00, 0x00, 0x00, 0x00, 0x00, 0x00, 0x00, 0x01, 0x00, 0x00, 0x00, 0x86,
  0xf1, 0xea, 0x38, 0x01, 0x00, 0x00, 0x00, 0xb0, 0xef, 0x6a, 0x40, 0x01, 0x00,
  0x00, 0x00, 0xf7, 0xb9, 0x67, 0xc0, 0x0c, 0x00, 0x00, 0x00, 0x64, 0x65, 0x70,
  0x74, 0x68, 0x77, 0x69, 0x73, 0x65, 0x5f, 0x32, 0x36, 0x00, 0x00, 0x00, 0x00,
  0x04, 0x00, 0x00, 0x00, 0x01, 0x00, 0x00, 0x00, 0x1d, 0x02, 0x00, 0x00, 0xc1,
  0x03, 0x00, 0x00, 0x10, 0x00, 0x00, 0x00, 0x1a, 0xc5, 0xff, 0xff, 0x14, 0x00,
  0x00, 0x00, 0x4c, 0x00, 0x00, 0x00, 0x3d, 0x00, 0x00, 0x00, 0x00, 0x00, 0x00,
  0x07, 0x68, 0x00, 0x00, 0x00, 0x0c, 0xc5, 0xff, 0xff, 0x10, 0x00, 0x00, 0x00,
  0x1c, 0x00, 0x00, 0x00, 0x20, 0x00, 0x00, 0x00, 0x24, 0x00, 0x00, 0x00, 0x01,
  0x00, 0x00, 0x00, 0x00, 0x00, 0x00, 0x00, 0x00, 0x00, 0x00, 0x00, 0x00, 0x00,
  0x00, 0x00, 0x01, 0x00, 0x00, 0x00, 0xdd, 0x61, 0x40, 0x39, 0x01, 0x00, 0x00,
  0x00, 0x5c, 0x60, 0xc0, 0x40, 0x01, 0x00, 0x00, 0x00, 0x30, 0x01, 0xb2, 0xc0,
  0x23, 0x00, 0x00, 0x00, 0x42, 0x69, 0x61, 0x73, 0x41, 0x64, 0x64, 0x3b, 0x64,
  0x65, 0x70, 0x74, 0x68, 0x77, 0x69, 0x73, 0x65, 0x5f, 0x37, 0x3b, 0x43, 0x6f,
  0x6e, 0x76, 0x32, 0x44, 0x3b, 0x63, 0x6f, 0x6e, 0x76, 0x5f, 0x30, 0x5f, 0x62,
  0x00, 0x04, 0x00, 0x00, 0x00, 0x01, 0x00, 0x00, 0x00, 0x1d, 0x02, 0x00, 0x00,
  0xc1, 0x03, 0x00, 0x00, 0x10, 0x00, 0x00, 0x00, 0xaa, 0xc5, 0xff, 0xff, 0x14,
  0x00, 0x00, 0x00, 0x48, 0x00, 0x00, 0x00, 0x3c, 0x00, 0x00, 0x00, 0x00, 0x00,
  0x00, 0x07, 0x50, 0x00, 0x00, 0x00, 0x9c, 0xc5, 0xff, 0xff, 0x10, 0x00, 0x00,
  0x00, 0x18, 0x00, 0x00, 0x00, 0x1c, 0x00, 0x00, 0x00, 0x20, 0x00, 0x00, 0x00,
  0x01, 0x00, 0x00, 0x00, 0x00, 0x00, 0x00, 0x00, 0x00, 0x00, 0x00, 0x00, 0x01,
  0x00, 0x00, 0x00, 0x83, 0x28, 0xf6, 0x38, 0x01, 0x00, 0x00, 0x00, 0xb5, 0x11,
  0x15, 0x3f, 0x01, 0x00, 0x00, 0x00, 0x97, 0x26, 0x76, 0xc0, 0x0d, 0x00, 0x00,
  0x00, 0x64, 0x65, 0x70, 0x74, 0x68, 0x77, 0x69, 0x73, 0x65, 0x5f, 0x31, 0x31,
  0x30, 0x00, 0x00, 0x00, 0x04, 0x00, 0x00, 0x00, 0x01, 0x00, 0x00, 0x00, 0x1d,
  0x02, 0x00, 0x00, 0xc1, 0x03, 0x00, 0x00, 0x01, 0x00, 0x00, 0x00, 0x22, 0xc6,
  0xff, 0xff, 0x14, 0x00, 0x00, 0x00, 0x4c, 0x00, 0x00, 0x00, 0x3b, 0x00, 0x00,
  0x00, 0x00, 0x00, 0x00, 0x07, 0x50, 0x00, 0x00, 0x00, 0x14, 0xc6, 0xff, 0xff,
  0x10, 0x00, 0x00, 0x00, 0x1c, 0x00, 0x00, 0x00, 0x20, 0x00, 0x00, 0x00, 0x24,
  0x00, 0x00, 0x00, 0x01, 0x00, 0x00, 0x00, 0x00, 0x00, 0x00, 0x00, 0x00, 0x00,
  0x00, 0x00, 0x00, 0x00, 0x00, 0x00, 0x01, 0x00, 0x00, 0x00, 0x23, 0x78, 0xa3,
  0x38, 0x01, 0x00, 0x00, 0x00, 0xdc, 0x76, 0x23, 0x40, 0x01, 0x00, 0x00, 0x00,
  0xbb, 0x5e, 0xa3, 0xbe, 0x0a, 0x00, 0x00, 0x00, 0x64, 0x65, 0x70, 0x74, 0x68,
  0x77, 0x69, 0x73, 0x65, 0x31, 0x00, 0x00, 0x04, 0x00, 0x00, 0x00, 0x01, 0x00,
  0x00, 0x00, 0x1d, 0x02, 0x00, 0x00, 0x82, 0x07, 0x00, 0x00, 0x01, 0x00, 0x00,
  0x00, 0x9a, 0xc6, 0xff, 0xff, 0x14, 0x00, 0x00, 0x00, 0x48, 0x00, 0x00, 0x00,
  0x3a, 0x00, 0x00, 0x00, 0x00, 0x00, 0x00, 0x07, 0x44, 0x00, 0x00, 0x00, 0x8c,
  0xc6, 0xff, 0xff, 0x10, 0x00, 0x00, 0x00, 0x18, 0x00, 0x00, 0x00, 0x1c, 0x00,
  0x00, 0x00, 0x20, 0x00, 0x00, 0x00, 0x01, 0x00, 0x00, 0x00, 0x00, 0x00, 0x00,
  0x00, 0x00, 0x00, 0x00, 0x00, 0x01, 0x00, 0x00, 0x00, 0x00, 0x01, 0x00, 0x38,
  0x01, 0x00, 0x00, 0x00, 0x00, 0x00, 0x80, 0x3f, 0x01, 0x00, 0x00, 0x00, 0x00,
  0x00, 0x00, 0x00, 0x03, 0x00, 0x00, 0x00, 0x50, 0x61, 0x64, 0x00, 0x04, 0x00,
  0x00, 0x00, 0x01, 0x00, 0x00, 0x00, 0x3a, 0x04, 0x00, 0x00, 0x82, 0x07, 0x00,
  0x00, 0x01, 0x00, 0x00, 0x00, 0x06, 0xc7, 0xff, 0xff, 0x14, 0x00, 0x00, 0x00,
  0x14, 0x00, 0x00, 0x00, 0x39, 0x00, 0x00, 0x00, 0x00, 0x00, 0x00, 0x02, 0x14,
  0x00, 0x00, 0x00, 0xcc, 0xff, 0xff, 0xff, 0x07, 0x00, 0x00, 0x00, 0x43, 0x6f,
  0x6e, 0x73, 0x74, 0x5f, 0x31, 0x00, 0x02, 0x00, 0x00, 0x00, 0x04, 0x00, 0x00,
  0x00, 0x02, 0x00, 0x00, 0x00, 0x3a, 0xc7, 0xff, 0xff, 0x18, 0x00, 0x00, 0x00,
  0x18, 0x00, 0x00, 0x00, 0x38, 0x00, 0x00, 0x00, 0x00, 0x00, 0x00, 0x02, 0x14,
  0x00, 0x00, 0x00, 0x04, 0x00, 0x04, 0x00, 0x04, 0x00, 0x00, 0x00, 0x03, 0x00,
  0x00, 0x00, 0x61, 0x64, 0x64, 0x00, 0x01, 0x00, 0x00, 0x00, 0x02, 0x00, 0x00,
  0x00, 0x6a, 0xc7, 0xff, 0xff, 0x14, 0x00, 0x00, 0x00, 0x48, 0x00, 0x00, 0x00,
  0x37, 0x00, 0x00, 0x00, 0x00, 0x00, 0x00, 0x09, 0x4c, 0x00, 0x00, 0x00, 0x5c,
  0xc7, 0xff, 0xff, 0x10, 0x00, 0x00, 0x00, 0x18, 0x00, 0x00, 0x00, 0x1c, 0x00,
  0x00, 0x00, 0x20, 0x00, 0x00, 0x00, 0x01, 0x00, 0x00, 0x00, 0x00, 0x00, 0x00,
  0x00, 0x00, 0x00, 0x00, 0x00, 0x01, 0x00, 0x00, 0x00, 0xf3, 0xcf, 0xa6, 0x39,
  0x01, 0x00, 0x00, 0x00, 0x53, 0x82, 0x25, 0x3d, 0x01, 0x00, 0x00, 0x00, 0xab,
  0xe6, 0x20, 0xbd, 0x0a, 0x00, 0x00, 0x00, 0x43, 0x6f, 0x6e, 0x76, 0x32, 0x44,
  0x5f, 0x31, 0x32, 0x31, 0x00, 0x00, 0x04, 0x00, 0x00, 0x00, 0x01, 0x00, 0x00,
  0x00, 0x01, 0x00, 0x00, 0x00, 0x01, 0x00, 0x00, 0x00, 0x08, 0x00, 0x00, 0x00,
  0xde, 0xc7, 0xff, 0xff, 0x14, 0x00, 0x00, 0x00, 0xd8, 0x00, 0x00, 0x00, 0x36,
  0x00, 0x00, 0x00, 0x00, 0x00, 0x00, 0x09, 0xe0, 0x00, 0x00, 0x00, 0xea, 0xcf,
  0xff, 0xff, 0x03, 0x00, 0x00, 0x00, 0x10, 0x00, 0x00, 0x00, 0x50, 0x00, 0x00,
  0x00, 0x70, 0x00, 0x00, 0x00, 0x90, 0x00, 0x00, 0x00, 0x08, 0x00, 0x00, 0x00,
  0x00, 0x00, 0x00, 0x00, 0x00, 0x00, 0x00, 0x00, 0x00, 0x00, 0x00, 0x00, 0x00,
  0x00, 0x00, 0x00, 0x00, 0x00, 0x00, 0x00, 0x00, 0x00, 0x00, 0x00, 0x00, 0x00,
  0x00, 0x00, 0x00, 0x00, 0x00, 0x00, 0x00, 0x00, 0x00, 0x00, 0x00, 0x00, 0x00,
  0x00, 0x00, 0x00, 0x00, 0x00, 0x00, 0x00, 0x00, 0x00, 0x00, 0x00, 0x00, 0x00,
  0x00, 0x00, 0x00, 0x00, 0x00, 0x00, 0x00, 0x00, 0x00, 0x00, 0x00, 0x00, 0x08,
  0x00, 0x00, 0x00, 0xdb, 0x63, 0x7c, 0x3a, 0x54, 0x06, 0x1d, 0x3b, 0x79, 0x33,
  0x97, 0x3a, 0x69, 0x9b, 0x5d, 0x3a, 0x3f, 0xcc, 0x14, 0x3b, 0xa1, 0x89, 0x18,
  0x3a, 0x64, 0xfb, 0xb8, 0x3a, 0xb8, 0xb9, 0x15, 0x3a, 0x08, 0x00, 0x00, 0x00,
  0xde, 0xe3, 0x1a, 0xbd, 0x47, 0xcc, 0x9b, 0x3e, 0x12, 0x05, 0x16, 0x3e, 0x7d,
  0x60, 0x3b, 0xbc, 0x0f, 0xdb, 0x26, 0x3e, 0x8e, 0x58, 0x97, 0x3d, 0x6d, 0x89,
  0x37, 0x3e, 0x45, 0x8e, 0x94, 0x3d, 0x08, 0x00, 0x00, 0x00, 0x13, 0x6b, 0xfa,
  0xbd, 0x88, 0xa6, 0x8a, 0xbe, 0x5c, 0x88, 0x0b, 0xbe, 0x32, 0xe0, 0xdb, 0xbd,
  0xa7, 0xa2, 0x93, 0xbe, 0xe8, 0xec, 0x36, 0xbd, 0x7c, 0x3c, 0x2b, 0xbe, 0x9e,
  0x36, 0x40, 0x3c, 0x0d, 0x00, 0x00, 0x00, 0x64, 0x65, 0x70, 0x74, 0x68, 0x77,
  0x69, 0x73, 0x65, 0x5f, 0x32, 0x35, 0x31, 0x00, 0x00, 0x00, 0x04, 0x00, 0x00,
  0x00, 0x01, 0x00, 0x00, 0x00, 0x01, 0x00, 0x00, 0x00, 0x03, 0x00, 0x00, 0x00,
  0x08, 0x00, 0x00, 0x00, 0xe6, 0xc8, 0xff, 0xff, 0x14, 0x00, 0x00, 0x00, 0xdc,
  0x00, 0x00, 0x00, 0x35, 0x00, 0x00, 0x00, 0x00, 0x00, 0x00, 0x09, 0xe4, 0x00,
  0x00, 0x00, 0xf2, 0xd0, 0xff, 0xff, 0x03, 0x00, 0x00, 0x00, 0x10, 0x00, 0x00,
  0x00, 0x54, 0x00, 0x00, 0x00, 0x74, 0x00, 0x00, 0x00, 0x94, 0x00, 0x00, 0x00,
  0x08, 0x00, 0x00, 0x00, 0x00, 0x00, 0x00, 0x00, 0x00, 0x00, 0x00, 0x00, 0x00,
  0x00, 0x00, 0x00, 0x00, 0x00, 0x00, 0x00, 0x00, 0x00, 0x00, 0x00, 0x00, 0x00,
  0x00, 0x00, 0x00, 0x00, 0x00, 0x00, 0x00, 0x00, 0x00, 0x00, 0x00, 0x00, 0x00,
  0x00, 0x00, 0x00, 0x00, 0x00, 0x00, 0x00, 0x00, 0x00, 0x00, 0x00, 0x00, 0x00,
  0x00, 0x00, 0x00, 0x00, 0x00, 0x00, 0x00, 0x00, 0x00, 0x00, 0x00, 0x00, 0x00,
  0x00, 0x00, 0x00, 0x00, 0x00, 0x00, 0x00, 0x08, 0x00, 0x00, 0x00, 0x64, 0x96,
  0x4f, 0x3a, 0xc3, 0x0e, 0x97, 0x39, 0xc3, 0xa3, 0x3c, 0x3a, 0x5f, 0x9c, 0x8b,
  0x3a, 0x14, 0xb1, 0x5b, 0x3a, 0xa6, 0x77, 0x1f, 0x3a, 0x00, 0x91, 0x1e, 0x3a,
  0x49, 0x79, 0x05, 0x3b, 0x08, 0x00, 0x00, 0x00, 0x8b, 0xa0, 0x09, 0xbd, 0xf4,
  0x93, 0xba, 0xbc, 0x7b, 0x2a, 0xbb, 0x3d, 0x44, 0x58, 0x5f, 0x3d, 0x84, 0xe7,
  0xc4, 0xbc, 0xb7, 0x38, 0x9e, 0x3d, 0xde, 0x53, 0x9d, 0x3d, 0x56, 0x6e, 0x84,
  0x3e, 0x08, 0x00, 0x00, 0x00, 0x37, 0xf7, 0xcd, 0xbd, 0xa5, 0xe0, 0x15, 0xbd,
  0x6d, 0x2e, 0x5c, 0xbd, 0x26, 0x85, 0x0a, 0xbe, 0xb2, 0xf9, 0xd9, 0xbd, 0x97,
  0x04, 0x79, 0xbd, 0x05, 0xdc, 0xb9, 0xbb, 0xfa, 0x97, 0x1a, 0xbe, 0x0c, 0x00,
  0x00, 0x00, 0x64, 0x65, 0x70, 0x74, 0x68, 0x77, 0x69, 0x73, 0x65, 0x5f, 0x32,
  0x34, 0x00, 0x00, 0x00, 0x00, 0x04, 0x00, 0x00, 0x00, 0x01, 0x00, 0x00, 0x00,
  0x03, 0x00, 0x00, 0x00, 0x01, 0x00, 0x00, 0x00, 0x08, 0x00, 0x00, 0x00, 0xf2,
  0xc9, 0xff, 0xff, 0x14, 0x00, 0x00, 0x00, 0xd8, 0x00, 0x00, 0x00, 0x34, 0x00,
  0x00, 0x00, 0x00, 0x00, 0x00, 0x09, 0xdc, 0x00, 0x00, 0x00, 0xe4, 0xc9, 0xff,
  0xff, 0x10, 0x00, 0x00, 0x00, 0x54, 0x00, 0x00, 0x00, 0x74, 0x00, 0x00, 0x00,
  0x94, 0x00, 0x00, 0x00, 0x08, 0x00, 0x00, 0x00, 0x00, 0x00, 0x00, 0x00, 0x00,
  0x00, 0x00, 0x00, 0x00, 0x00, 0x00, 0x00, 0x00, 0x00, 0x00, 0x00, 0x00, 0x00,
  0x00, 0x00, 0x00, 0x00, 0x00, 0x00, 0x00, 0x00, 0x00, 0x00, 0x00, 0x00, 0x00,
  0x00, 0x00, 0x00, 0x00, 0x00, 0x00, 0x00, 0x00, 0x00, 0x00, 0x00, 0x00, 0x00,
  0x00, 0x00, 0x00, 0x00, 0x00, 0x00, 0x00, 0x00, 0x00, 0x00, 0x00, 0x00, 0x00,
  0x00, 0x00, 0x00, 0x00, 0x00, 0x00, 0x00, 0x00, 0x00, 0x00, 0x00, 0x08, 0x00,
  0x00, 0x00, 0x99, 0x0a, 0xe8, 0x3b, 0xa8, 0x62, 0x55, 0x3c, 0x63, 0x89, 0xd7,
  0x3b, 0xbd, 0xb6, 0x11, 0x3c, 0xc1, 0xec, 0x9b, 0x3b, 0x8f, 0x18, 0xfc, 0x3b,
  0x75, 0xa3, 0xb3, 0x3c, 0xee, 0x37, 0x6c, 0x3c, 0x08, 0x00, 0x00, 0x00, 0x84,
  0x3a, 0x66, 0x3f, 0x56, 0xf4, 0x80, 0x3e, 0x50, 0xda, 0x55, 0x3f, 0x3b, 0x34,
  0x7e, 0x3e, 0xe7, 0xb4, 0x1a, 0x3f, 0xa2, 0xaf, 0xcb, 0xbd, 0x2e, 0x3c, 0x32,
  0x40, 0x7e, 0x5f, 0xea, 0x3f, 0x08, 0x00, 0x00, 0x00, 0xeb, 0x1d, 0x1b, 0xbf,
  0xe3, 0xb7, 0xd3, 0xbf, 0x3d, 0x0e, 0x17, 0xbf, 0x50, 0x93, 0x90, 0xbf, 0xf0,
  0xbb, 0x00, 0xbc, 0x5e, 0x20, 0x7a, 0xbf, 0xd6, 0x51, 0xbd, 0x3c, 0x82, 0xd3,
  0xce, 0xbe, 0x09, 0x00, 0x00, 0x00, 0x43, 0x6f, 0x6e, 0x76, 0x32, 0x44, 0x5f,
  0x31, 0x31, 0x00, 0x00, 0x00, 0x04, 0x00, 0x00, 0x00, 0x08, 0x00, 0x00, 0x00,
  0x01, 0x00, 0x00, 0x00, 0x01, 0x00, 0x00, 0x00, 0x08, 0x00, 0x00, 0x00, 0xf6,
  0xca, 0xff, 0xff, 0x14, 0x00, 0x00, 0x00, 0xd8, 0x00, 0x00, 0x00, 0x33, 0x00,
  0x00, 0x00, 0x00, 0x00, 0x00, 0x09, 0xe0, 0x00, 0x00, 0x00, 0x02, 0xd3, 0xff,
  0xff, 0x03, 0x00, 0x00, 0x00, 0x10, 0x00, 0x00, 0x00, 0x50, 0x00, 0x00, 0x00,
  0x70, 0x00, 0x00, 0x00, 0x90, 0x00, 0x00, 0x00, 0x08, 0x00, 0x00, 0x00, 0x00,
  0x00, 0x00, 0x00, 0x00, 0x00, 0x00, 0x00, 0x00, 0x00, 0x00, 0x00, 0x00, 0x00,
  0x00, 0x00, 0x00, 0x00, 0x00, 0x00, 0x00, 0x00, 0x00, 0x00, 0x00, 0x00, 0x00,
  0x00, 0x00, 0x00, 0x00, 0x00, 0x00, 0x00, 0x00, 0x00, 0x00, 0x00, 0x00, 0x00,
  0x00, 0x00, 0x00, 0x00, 0x00, 0x00, 0x00, 0x00, 0x00, 0x00, 0x00, 0x00, 0x00,
  0x00, 0x00, 0x00, 0x00, 0x00, 0x00, 0x00, 0x00, 0x00, 0x00, 0x00, 0x08, 0x00,
  0x00, 0x00, 0xa7, 0xa5, 0xe4, 0x3b, 0x4a, 0xba, 0xb2, 0x3b, 0xd5, 0xa1, 0x9a,
  0x3b, 0x82, 0x07, 0x1d, 0x3c, 0x94, 0x38, 0x48, 0x3c, 0xcd, 0x5c, 0x87, 0x3c,
  0x12, 0x8a, 0xee, 0x3b, 0xba, 0x08, 0x25, 0x3c, 0x08, 0x00, 0x00, 0x00, 0x5c,
  0xdc, 0x62, 0x3f, 0xd5, 0x54, 0x31, 0x3f, 0x91, 0x6c, 0x19, 0x3f, 0x8c, 0x41,
  0x1c, 0x3e, 0x23, 0xa8, 0xc6, 0x3f, 0x13, 0x4e, 0x06, 0x40, 0xfe, 0xac, 0x6c,
  0x3f, 0xa9, 0xbe, 0xa3, 0x3f, 0x08, 0x00, 0x00, 0x00, 0x5f, 0x19, 0x84, 0xbe,
  0xaa, 0xd6, 0xde, 0xbe, 0x7d, 0x37, 0xd5, 0xbe, 0x73, 0xcd, 0x9b, 0xbf, 0xa7,
  0x3e, 0x5d, 0xbe, 0x32, 0xdd, 0x85, 0xbe, 0x23, 0x7b, 0xd2, 0xbd, 0x06, 0x3d,
  0xa6, 0x3c, 0x0c, 0x00, 0x00, 0x00, 0x64, 0x65, 0x70, 0x74, 0x68, 0x77, 0x69,
  0x73, 0x65, 0x5f, 0x32, 0x33, 0x00, 0x00, 0x00, 0x00, 0x04, 0x00, 0x00, 0x00,
  0x01, 0x00, 0x00, 0x00, 0x01, 0x00, 0x00, 0x00, 0x03, 0x00, 0x00, 0x00, 0x08,
  0x00, 0x00, 0x00, 0xfe, 0xcb, 0xff, 0xff, 0x14, 0x00, 0x00, 0x00, 0xdc, 0x00,
  0x00, 0x00, 0x32, 0x00, 0x00, 0x00, 0x00, 0x00, 0x00, 0x09, 0xe4, 0x00, 0x00,
  0x00, 0x0a, 0xd4, 0xff, 0xff, 0x03, 0x00, 0x00, 0x00, 0x10, 0x00, 0x00, 0x00,
  0x54, 0x00, 0x00, 0x00, 0x74, 0x00, 0x00, 0x00, 0x94, 0x00, 0x00, 0x00, 0x08,
  0x00, 0x00, 0x00, 0x00, 0x00, 0x00, 0x00, 0x00, 0x00, 0x00, 0x00, 0x00, 0x00,
  0x00, 0x00, 0x00, 0x00, 0x00, 0x00, 0x00, 0x00, 0x00, 0x00, 0x00, 0x00, 0x00,
  0x00, 0x00, 0x00, 0x00, 0x00, 0x00, 0x00, 0x00, 0x00, 0x00, 0x00, 0x00, 0x00,
  0x00, 0x00, 0x00, 0x00, 0x00, 0x00, 0x00, 0x00, 0x00, 0x00, 0x00, 0x00, 0x00,
  0x00, 0x00, 0x00, 0x00, 0x00, 0x00, 0x00, 0x00, 0x00, 0x00, 0x00, 0x00, 0x00,
  0x00, 0x00, 0x00, 0x00, 0x00, 0x00, 0x08, 0x00, 0x00, 0x00, 0x45, 0xa8, 0xf8,
  0x3b, 0x35, 0x5d, 0xbc, 0x3b, 0xbe, 0xfe, 0x0b, 0x3c, 0x80, 0x55, 0x1b, 0x3b,
  0x08, 0xe4, 0x79, 0x3b, 0x54, 0x46, 0xbc, 0x3b, 0xa4, 0x24, 0xdc, 0x3b, 0x7a,
  0x27, 0x8a, 0x3b, 0x08, 0x00, 0x00, 0x00, 0xc7, 0x9c, 0x85, 0x3e, 0x19, 0x67,
  0x18, 0x3c, 0xc1, 0xe6, 0x8a, 0x3f, 0x1e, 0x4d, 0x73, 0x3e, 0xf5, 0x42, 0x98,
  0x3e, 0x33, 0xc2, 0x40, 0x3e, 0x5b, 0x6c, 0x5a, 0x3f, 0x2b, 0x13, 0x09, 0x3f,
  0x08, 0x00, 0x00, 0x00, 0xf4, 0xb6, 0x76, 0xbf, 0x7b, 0xe4, 0x3a, 0xbf, 0xd2,
  0x8f, 0xc0, 0xba, 0xd5, 0x1e, 0x9a, 0xbe, 0x40, 0xf0, 0xf7, 0xbe, 0xc7, 0xcd,
  0x3a, 0xbf, 0x12, 0x8f, 0xc2, 0x3e, 0x26, 0x14, 0x8c, 0xbe, 0x0c, 0x00, 0x00,
  0x00, 0x64, 0x65, 0x70, 0x74, 0x68, 0x77, 0x69, 0x73, 0x65, 0x5f, 0x32, 0x32,
  0x00, 0x00, 0x00, 0x00, 0x04, 0x00, 0x00, 0x00, 0x01, 0x00, 0x00, 0x00, 0x03,
  0x00, 0x00, 0x00, 0x01, 0x00, 0x00, 0x00, 0x08, 0x00, 0x00, 0x00, 0x0a, 0xcd,
  0xff, 0xff, 0x14, 0x00, 0x00, 0x00, 0xd8, 0x00, 0x00, 0x00, 0x31, 0x00, 0x00,
  0x00, 0x00, 0x00, 0x00, 0x09, 0xdc, 0x00, 0x00, 0x00, 0xfc, 0xcc, 0xff, 0xff,
  0x10, 0x00, 0x00, 0x00, 0x54, 0x00, 0x00, 0x00, 0x74, 0x00, 0x00, 0x00, 0x94,
  0x00, 0x00, 0x00, 0x08, 0x00, 0x00, 0x00, 0x00, 0x00, 0x00, 0x00, 0x00, 0x00,
  0x00, 0x00, 0x00, 0x00, 0x00, 0x00, 0x00, 0x00, 0x00, 0x00, 0x00, 0x00, 0x00,
  0x00, 0x00, 0x00, 0x00, 0x00, 0x00, 0x00, 0x00, 0x00, 0x00, 0x00, 0x00, 0x00,
  0x00, 0x00, 0x00, 0x00, 0x00, 0x00, 0x00, 0x00, 0x00, 0x00, 0x00, 0x00, 0x00,
  0x00, 0x00, 0x00, 0x00, 0x00, 0x00, 0x00, 0x00, 0x00, 0x00, 0x00, 0x00, 0x00,
  0x00, 0x00, 0x00, 0x00, 0x00, 0x00, 0x00, 0x00, 0x00, 0x00, 0x08, 0x00, 0x00,
  0x00, 0xcc, 0xa5, 0x69, 0x3c, 0x0f, 0x09, 0x97, 0x3c, 0x94, 0x1d, 0x7b, 0x3c,
  0x0e, 0x86, 0x4c, 0x3c, 0x45, 0x68, 0x2b, 0x3c, 0x65, 0x56, 0x57, 0x3c, 0xd5,
  0xa8, 0xab, 0x3c, 0x42, 0xd6, 0x54, 0x3c, 0x08, 0x00, 0x00, 0x00, 0x8d, 0x6f,
  0xb3, 0x3e, 0xfd, 0xda, 0x15, 0x40, 0x8a, 0xc6, 0xdb, 0x3f, 0x02, 0xed, 0xca,
  0x3f, 0xae, 0x37, 0xa2, 0x3f, 0xb8, 0xa7, 0xd5, 0x3f, 0x83, 0x51, 0x2a, 0x40,
  0x4b, 0xa9, 0x77, 0x3f, 0x08, 0x00, 0x00, 0x00, 0x80, 0xd2, 0xe7, 0xbf, 0x73,
  0x34, 0x04, 0xc0, 0x59, 0x27, 0xf9, 0xbf, 0x4d, 0xd3, 0xc3, 0xbf, 0x74, 0x11,
  0xaa, 0xbf, 0xcd, 0x6f, 0xa1, 0xbf, 0x2d, 0xc7, 0xf1, 0xbf, 0x95, 0x2c, 0xd3,
  0xbf, 0x09, 0x00, 0x00, 0x00, 0x43, 0x6f, 0x6e, 0x76, 0x32, 0x44, 0x5f, 0x31,
  0x30, 0x00, 0x00, 0x00, 0x04, 0x00, 0x00, 0x00, 0x08, 0x00, 0x00, 0x00, 0x01,
  0x00, 0x00, 0x00, 0x01, 0x00, 0x00, 0x00, 0x08, 0x00, 0x00, 0x00, 0x0e, 0xce,
  0xff, 0xff, 0x14, 0x00, 0x00, 0x00, 0xd8, 0x00, 0x00, 0x00, 0x30, 0x00, 0x00,
  0x00, 0x00, 0x00, 0x00, 0x09, 0xe0, 0x00, 0x00, 0x00, 0x1a, 0xd6, 0xff, 0xff,
  0x03, 0x00, 0x00, 0x00, 0x10, 0x00, 0x00, 0x00, 0x50, 0x00, 0x00, 0x00, 0x70,
  0x00, 0x00, 0x00, 0x90, 0x00, 0x00, 0x00, 0x08, 0x00, 0x00, 0x00, 0x00, 0x00,
  0x00, 0x00, 0x00, 0x00, 0x00, 0x00, 0x00, 0x00, 0x00, 0x00, 0x00, 0x00, 0x00,
  0x00, 0x00, 0x00, 0x00, 0x00, 0x00, 0x00, 0x00, 0x00, 0x00, 0x00, 0x00, 0x00,
  0x00, 0x00, 0x00, 0x00, 0x00, 0x00, 0x00, 0x00, 0x00, 0x00, 0x00, 0x00, 0x00,
  0x00, 0x00, 0x00, 0x00, 0x00, 0x00, 0x00, 0x00, 0x00, 0x00, 0x00, 0x00, 0x00,
  0x00, 0x00, 0x00, 0x00, 0x00, 0x00, 0x00, 0x00, 0x00, 0x00, 0x08, 0x00, 0x00,
  0x00, 0xeb, 0x2d, 0xfc, 0x3b, 0xc1, 0xea, 0xba, 0x3b, 0x86, 0xd2, 0x25, 0x3c,
  0x7c, 0x18, 0xfe, 0x3b, 0xfe, 0xad, 0xc5, 0x3b, 0x96, 0x32, 0x83, 0x3b, 0xe8,
