const unsigned char sr2by1ai_2_tflite[] = {
  0x20, 0x00, 0x00, 0x00, 0x54, 0x46, 0x4c, 0x33, 0x00, 0x00, 0x00, 0x00, 0x00,
  0x00, 0x12, 0x00, 0x1c, 0x00, 0x18, 0x00, 0x14, 0x00, 0x10, 0x00, 0x0c, 0x00,
  0x08, 0x00, 0x00, 0x00, 0x04, 0x00, 0x12, 0x00, 0x00, 0x00, 0x18, 0x00, 0x00,
  0x00, 0x70, 0x00, 0x00, 0x00, 0x9c, 0x1b, 0x00, 0x00, 0xac, 0x1b, 0x00, 0x00,
  0x2c, 0xa3, 0x00, 0x00, 0x03, 0x00, 0x00, 0x00, 0x02, 0x00, 0x00, 0x00, 0x34,
  0x00, 0x00, 0x00, 0x04, 0x00, 0x00, 0x00, 0xdc, 0xff, 0xff, 0xff, 0x92, 0x00,
  0x00, 0x00, 0x04, 0x00, 0x00, 0x00, 0x13, 0x00, 0x00, 0x00, 0x43, 0x4f, 0x4e,
  0x56, 0x45, 0x52, 0x53, 0x49, 0x4f, 0x4e, 0x5f, 0x4d, 0x45, 0x54, 0x41, 0x44,
  0x41, 0x54, 0x41, 0x00, 0x08, 0x00, 0x0c, 0x00, 0x08, 0x00, 0x04, 0x00, 0x08,
  0x00, 0x00, 0x00, 0x91, 0x00, 0x00, 0x00, 0x04, 0x00, 0x00, 0x00, 0x13, 0x00,
  0x00, 0x00, 0x6d, 0x69, 0x6e, 0x5f, 0x72, 0x75, 0x6e, 0x74, 0x69, 0x6d, 0x65,
  0x5f, 0x76, 0x65, 0x72, 0x73, 0x69, 0x6f, 0x6e, 0x00, 0x93, 0x00, 0x00, 0x00,
  0x28, 0x1b, 0x00, 0x00, 0x20, 0x1b, 0x00, 0x00, 0xe8, 0x1a, 0x00, 0x00, 0xa8,
  0x1a, 0x00, 0x00, 0x60, 0x1a, 0x00, 0x00, 0x08, 0x1a, 0x00, 0x00, 0x98, 0x19,
  0x00, 0x00, 0x10, 0x19, 0x00, 0x00, 0xe0, 0x18, 0x00, 0x00, 0xc8, 0x18, 0x00,
  0x00, 0xb0, 0x18, 0x00, 0x00, 0x98, 0x18, 0x00, 0x00, 0xe8, 0x17, 0x00, 0x00,
  0xc4, 0x17, 0x00, 0x00, 0x78, 0x17, 0x00, 0x00, 0x2c, 0x17, 0x00, 0x00, 0xa4,
  0x16, 0x00, 0x00, 0x68, 0x15, 0x00, 0x00, 0x0c, 0x15, 0x00, 0x00, 0xb0, 0x14,
  0x00, 0x00, 0xbc, 0x13, 0x00, 0x00, 0x70, 0x13, 0x00, 0x00, 0x24, 0x13, 0x00,
  0x00, 0xe8, 0x11, 0x00, 0x00, 0xa8, 0x11, 0x00, 0x00, 0x68, 0x11, 0x00, 0x00,
  0xf8, 0x10, 0x00, 0x00, 0x34, 0x10, 0x00, 0x00, 0xe8, 0x0f, 0x00, 0x00, 0x9c,
  0x0f, 0x00, 0x00, 0xfc, 0x0e, 0x00, 0x00, 0xbc, 0x0e, 0x00, 0x00, 0x7c, 0x0e,
  0x00, 0x00, 0xb8, 0x0d, 0x00, 0x00, 0x84, 0x0d, 0x00, 0x00, 0x50, 0x0d, 0x00,
  0x00, 0xf8, 0x0c, 0x00, 0x00, 0x7c, 0x0c, 0x00, 0x00, 0x3c, 0x0c, 0x00, 0x00,
  0xfc, 0x0b, 0x00, 0x00, 0x98, 0x0b, 0x00, 0x00, 0x64, 0x0b, 0x00, 0x00, 0x30,
  0x0b, 0x00, 0x00, 0xb4, 0x0a, 0x00, 0x00, 0x88, 0x0a, 0x00, 0x00, 0x5c, 0x0a,
  0x00, 0x00, 0x14, 0x0a, 0x00, 0x00, 0xc4, 0x09, 0x00, 0x00, 0x90, 0x09, 0x00,
  0x00, 0x5c, 0x09, 0x00, 0x00, 0x18, 0x09, 0x00, 0x00, 0xec, 0x08, 0x00, 0x00,
  0xc0, 0x08, 0x00, 0x00, 0x70, 0x08, 0x00, 0x00, 0x48, 0x08, 0x00, 0x00, 0x20,
  0x08, 0x00, 0x00, 0xe8, 0x07, 0x00, 0x00, 0xb4, 0x07, 0x00, 0x00, 0x88, 0x07,
  0x00, 0x00, 0x5c, 0x07, 0x00, 0x00, 0x30, 0x07, 0x00, 0x00, 0x08, 0x07, 0x00,
  0x00, 0xe0, 0x06, 0x00, 0x00, 0xac, 0x06, 0x00, 0x00, 0x8c, 0x06, 0x00, 0x00,
  0x6c, 0x06, 0x00, 0x00, 0x40, 0x06, 0x00, 0x00, 0x14, 0x06, 0x00, 0x00, 0xe8,
  0x05, 0x00, 0x00, 0xbc, 0x05, 0x00, 0x00, 0x90, 0x05, 0x00, 0x00, 0x64, 0x05,
  0x00, 0x00, 0x4c, 0x05, 0x00, 0x00, 0x9c, 0x04, 0x00, 0x00, 0x14, 0x04, 0x00,
  0x00, 0xa4, 0x03, 0x00, 0x00, 0x4c, 0x03, 0x00, 0x00, 0x04, 0x03, 0x00, 0x00,
  0xcc, 0x02, 0x00, 0x00, 0x94, 0x02, 0x00, 0x00, 0x7c, 0x02, 0x00, 0x00, 0x74,
  0x02, 0x00, 0x00, 0x6c, 0x02, 0x00, 0x00, 0x64, 0x02, 0x00, 0x00, 0x5c, 0x02,
  0x00, 0x00, 0x54, 0x02, 0x00, 0x00, 0x4c, 0x02, 0x00, 0x00, 0x44, 0x02, 0x00,
  0x00, 0x3c, 0x02, 0x00, 0x00, 0x34, 0x02, 0x00, 0x00, 0x2c, 0x02, 0x00, 0x00,
  0x24, 0x02, 0x00, 0x00, 0x1c, 0x02, 0x00, 0x00, 0x14, 0x02, 0x00, 0x00, 0x0c,
  0x02, 0x00, 0x00, 0x04, 0x02, 0x00, 0x00, 0xfc, 0x01, 0x00, 0x00, 0xf4, 0x01,
  0x00, 0x00, 0xec, 0x01, 0x00, 0x00, 0xe4, 0x01, 0x00, 0x00, 0xdc, 0x01, 0x00,
  0x00, 0xd4, 0x01, 0x00, 0x00, 0xcc, 0x01, 0x00, 0x00, 0xc4, 0x01, 0x00, 0x00,
  0xbc, 0x01, 0x00, 0x00, 0xb4, 0x01, 0x00, 0x00, 0xac, 0x01, 0x00, 0x00, 0xa4,
  0x01, 0x00, 0x00, 0x9c, 0x01, 0x00, 0x00, 0x94, 0x01, 0x00, 0x00, 0x8c, 0x01,
  0x00, 0x00, 0x84, 0x01, 0x00, 0x00, 0x7c, 0x01, 0x00, 0x00, 0x74, 0x01, 0x00,
  0x00, 0x6c, 0x01, 0x00, 0x00, 0x64, 0x01, 0x00, 0x00, 0x5c, 0x01, 0x00, 0x00,
  0x54, 0x01, 0x00, 0x00, 0x4c, 0x01, 0x00, 0x00, 0x44, 0x01, 0x00, 0x00, 0x3c,
  0x01, 0x00, 0x00, 0x34, 0x01, 0x00, 0x00, 0x2c, 0x01, 0x00, 0x00, 0x24, 0x01,
  0x00, 0x00, 0x1c, 0x01, 0x00, 0x00, 0x14, 0x01, 0x00, 0x00, 0x0c, 0x01, 0x00,
  0x00, 0x04, 0x01, 0x00, 0x00, 0xfc, 0x00, 0x00, 0x00, 0xf4, 0x00, 0x00, 0x00,
  0xec, 0x00, 0x00, 0x00, 0xe4, 0x00, 0x00, 0x00, 0xdc, 0x00, 0x00, 0x00, 0xd4,
  0x00, 0x00, 0x00, 0xcc, 0x00, 0x00, 0x00, 0xc4, 0x00, 0x00, 0x00, 0xbc, 0x00,
  0x00, 0x00, 0xb4, 0x00, 0x00, 0x00, 0xac, 0x00, 0x00, 0x00, 0xa4, 0x00, 0x00,
  0x00, 0x9c, 0x00, 0x00, 0x00, 0x94, 0x00, 0x00, 0x00, 0x8c, 0x00, 0x00, 0x00,
  0x84, 0x00, 0x00, 0x00, 0x7c, 0x00, 0x00, 0x00, 0x5c, 0x00, 0x00, 0x00, 0x04,
  0x00, 0x00, 0x00, 0x62, 0xe7, 0xff, 0xff, 0x04, 0x00, 0x00, 0x00, 0x48, 0x00,
  0x00, 0x00, 0x04, 0x00, 0x00, 0x00, 0xdc, 0xff, 0xff, 0xff, 0x10, 0x00, 0x00,
  0x00, 0x24, 0x00, 0x00, 0x00, 0x00, 0x00, 0x06, 0x00, 0x08, 0x00, 0x04, 0x00,
  0x06, 0x00, 0x00, 0x00, 0x04, 0x00, 0x00, 0x00, 0x01, 0x00, 0x00, 0x00, 0xec,
  0x03, 0x00, 0x00, 0x08, 0x00, 0x0c, 0x00, 0x08, 0x00, 0x04, 0x00, 0x08, 0x00,
  0x00, 0x00, 0x01, 0x00, 0x00, 0x00, 0x04, 0x00, 0x00, 0x00, 0x05, 0x00, 0x00,
  0x00, 0x32, 0x2e, 0x39, 0x2e, 0x30, 0x00, 0x00, 0x00, 0xb6, 0xe7, 0xff, 0xff,
  0x04, 0x00, 0x00, 0x00, 0x10, 0x00, 0x00, 0x00, 0x31, 0x2e, 0x35, 0x2e, 0x30,
  0x00, 0x00, 0x00, 0x00, 0x00, 0x00, 0x00, 0x00, 0x00, 0x00, 0x00, 0xe0, 0x64,
  0xff, 0xff, 0xe4, 0x64, 0xff, 0xff, 0xe8, 0x64, 0xff, 0xff, 0xec, 0x64, 0xff,
  0xff, 0xf0, 0x64, 0xff, 0xff, 0xf4, 0x64, 0xff, 0xff, 0xf8, 0x64, 0xff, 0xff,
  0xfc, 0x64, 0xff, 0xff, 0x00, 0x65, 0xff, 0xff, 0x04, 0x65, 0xff, 0xff, 0x08,
  0x65, 0xff, 0xff, 0x0c, 0x65, 0xff, 0xff, 0x10, 0x65, 0xff, 0xff, 0x14, 0x65,
  0xff, 0xff, 0x18, 0x65, 0xff, 0xff, 0x1c, 0x65, 0xff, 0xff, 0x20, 0x65, 0xff,
  0xff, 0x24, 0x65, 0xff, 0xff, 0x28, 0x65, 0xff, 0xff, 0x2c, 0x65, 0xff, 0xff,
  0x30, 0x65, 0xff, 0xff, 0x34, 0x65, 0xff, 0xff, 0x38, 0x65, 0xff, 0xff, 0x3c,
  0x65, 0xff, 0xff, 0x40, 0x65, 0xff, 0xff, 0x44, 0x65, 0xff, 0xff, 0x48, 0x65,
  0xff, 0xff, 0x4c, 0x65, 0xff, 0xff, 0x50, 0x65, 0xff, 0xff, 0x54, 0x65, 0xff,
  0xff, 0x58, 0x65, 0xff, 0xff, 0x5c, 0x65, 0xff, 0xff, 0x60, 0x65, 0xff, 0xff,
  0x64, 0x65, 0xff, 0xff, 0x68, 0x65, 0xff, 0xff, 0x6c, 0x65, 0xff, 0xff, 0x70,
  0x65, 0xff, 0xff, 0x74, 0x65, 0xff, 0xff, 0x78, 0x65, 0xff, 0xff, 0x7c, 0x65,
  0xff, 0xff, 0x80, 0x65, 0xff, 0xff, 0x84, 0x65, 0xff, 0xff, 0x88, 0x65, 0xff,
  0xff, 0x8c, 0x65, 0xff, 0xff, 0x90, 0x65, 0xff, 0xff, 0x94, 0x65, 0xff, 0xff,
  0x98, 0x65, 0xff, 0xff, 0x9c, 0x65, 0xff, 0xff, 0xa0, 0x65, 0xff, 0xff, 0xa4,
  0x65, 0xff, 0xff, 0xa8, 0x65, 0xff, 0xff, 0xac, 0x65, 0xff, 0xff, 0xb0, 0x65,
  0xff, 0xff, 0xb4, 0x65, 0xff, 0xff, 0xb8, 0x65, 0xff, 0xff, 0xbc, 0x65, 0xff,
  0xff, 0xc0, 0x65, 0xff, 0xff, 0xc4, 0x65, 0xff, 0xff, 0xc8, 0x65, 0xff, 0xff,
  0xcc, 0x65, 0xff, 0xff, 0xd0, 0x65, 0xff, 0xff, 0xd4, 0x65, 0xff, 0xff, 0xd8,
  0x65, 0xff, 0xff, 0xdc, 0x65, 0xff, 0xff, 0xd2, 0xe8, 0xff, 0xff, 0x04, 0x00,
  0x00, 0x00, 0x08, 0x00, 0x00, 0x00, 0x2c, 0x4c, 0x00, 0x00, 0x00, 0x00, 0x00,
  0x00, 0xe6, 0xe8, 0xff, 0xff, 0x04, 0x00, 0x00, 0x00, 0x28, 0x00, 0x00, 0x00,
  0x7f, 0xa0, 0xff, 0xff, 0xff, 0xff, 0xff, 0xff, 0xb6, 0xa1, 0xff, 0xff, 0xff,
  0xff, 0xff, 0xff, 0x9d, 0xd0, 0x00, 0x00, 0x00, 0x00, 0x00, 0x00, 0x35, 0xdd,
  0x03, 0x00, 0x00, 0x00, 0x00, 0x00, 0xc1, 0x4d, 0x01, 0x00, 0x00, 0x00, 0x00,
  0x00, 0x1a, 0xe9, 0xff, 0xff, 0x04, 0x00, 0x00, 0x00, 0x28, 0x00, 0x00, 0x00,
  0x2a, 0xd2, 0xff, 0xff, 0xff, 0xff, 0xff, 0xff, 0x00, 0x91, 0xff, 0xff, 0xff,
  0xff, 0xff, 0xff, 0xf3, 0x24, 0x00, 0x00, 0x00, 0x00, 0x00, 0x00, 0xa2, 0x61,
  0xff, 0xff, 0xff, 0xff, 0xff, 0xff, 0x9d, 0x2f, 0xff, 0xff, 0xff, 0xff, 0xff,
  0xff, 0x4e, 0xe9, 0xff, 0xff, 0x04, 0x00, 0x00, 0x00, 0x38, 0x00, 0x00, 0x00,
  0xb4, 0x77, 0x00, 0x00, 0x00, 0x00, 0x00, 0x00, 0xe2, 0xf8, 0x00, 0x00, 0x00,
  0x00, 0x00, 0x00, 0x23, 0x25, 0x00, 0x00, 0x00, 0x00, 0x00, 0x00, 0x3c, 0x62,
  0x00, 0x00, 0x00, 0x00, 0x00, 0x00, 0xef, 0x19, 0x00, 0x00, 0x00, 0x00, 0x00,
  0x00, 0x30, 0x06, 0x00, 0x00, 0x00, 0x00, 0x00, 0x00, 0xbc, 0xc2, 0xff, 0xff,
  0xff, 0xff, 0xff, 0xff, 0x92, 0xe9, 0xff, 0xff, 0x04, 0x00, 0x00, 0x00, 0x48,
  0x00, 0x00, 0x00, 0xae, 0xa6, 0xff, 0xff, 0xff, 0xff, 0xff, 0xff, 0x4c, 0xe6,
  0xff, 0xff, 0xff, 0xff, 0xff, 0xff, 0x36, 0xaf, 0xff, 0xff, 0xff, 0xff, 0xff,
  0xff, 0x40, 0x3f, 0xff, 0xff, 0xff, 0xff, 0xff, 0xff, 0x34, 0x0f, 0xff, 0xff,
  0xff, 0xff, 0xff, 0xff, 0xca, 0xab, 0xff, 0xff, 0xff, 0xff, 0xff, 0xff, 0x31,
  0xf7, 0xff, 0xff, 0xff, 0xff, 0xff, 0xff, 0x22, 0x08, 0x00, 0x00, 0x00, 0x00,
  0x00, 0x00, 0xa0, 0x8b, 0x01, 0x00, 0x00, 0x00, 0x00, 0x00, 0xe6, 0xe9, 0xff,
  0xff, 0x04, 0x00, 0x00, 0x00, 0x60, 0x00, 0x00, 0x00, 0x9c, 0xab, 0xff, 0xff,
  0xff, 0xff, 0xff, 0xff, 0xec, 0x5a, 0x00, 0x00, 0x00, 0x00, 0x00, 0x00, 0x05,
  0xf5, 0xff, 0xff, 0xff, 0xff, 0xff, 0xff, 0xbc, 0x09, 0x00, 0x00, 0x00, 0x00,
  0x00, 0x00, 0xdd, 0xef, 0xff, 0xff, 0xff, 0xff, 0xff, 0xff, 0x7e, 0x1f, 0x00,
  0x00, 0x00, 0x00, 0x00, 0x00, 0x70, 0x6c, 0x00, 0x00, 0x00, 0x00, 0x00, 0x00,
  0x65, 0xd2, 0xff, 0xff, 0xff, 0xff, 0xff, 0xff, 0xdd, 0xcd, 0xff, 0xff, 0xff,
  0xff, 0xff, 0xff, 0xd4, 0x1e, 0x00, 0x00, 0x00, 0x00, 0x00, 0x00, 0xe0, 0x04,
  0x00, 0x00, 0x00, 0x00, 0x00, 0x00, 0x8a, 0x95, 0xff, 0xff, 0xff, 0xff, 0xff,
  0xff, 0x52, 0xea, 0xff, 0xff, 0x04, 0x00, 0x00, 0x00, 0x78, 0x00, 0x00, 0x00,
  0x87, 0x65, 0x00, 0x00, 0x00, 0x00, 0x00, 0x00, 0x8d, 0x1e, 0x00, 0x00, 0x00,
  0x00, 0x00, 0x00, 0x74, 0x86, 0xff, 0xff, 0xff, 0xff, 0xff, 0xff, 0xbc, 0xaf,
  0xff, 0xff, 0xff, 0xff, 0xff, 0xff, 0xdd, 0x02, 0x00, 0x00, 0x00, 0x00, 0x00,
  0x00, 0xfa, 0x3c, 0x00, 0x00, 0x00, 0x00, 0x00, 0x00, 0x8e, 0x16, 0x00, 0x00,
  0x00, 0x00, 0x00, 0x00, 0x47, 0xe1, 0xff, 0xff, 0xff, 0xff, 0xff, 0xff, 0x42,
  0x24, 0x00, 0x00, 0x00, 0x00, 0x00, 0x00, 0x5b, 0xd4, 0xff, 0xff, 0xff, 0xff,
  0xff, 0xff, 0x1d, 0x57, 0x00, 0x00, 0x00, 0x00, 0x00, 0x00, 0x39, 0xa0, 0x00,
  0x00, 0x00, 0x00, 0x00, 0x00, 0xfe, 0x03, 0x00, 0x00, 0x00, 0x00, 0x00, 0x00,
  0xc1, 0xe9, 0xff, 0xff, 0xff, 0xff, 0xff, 0xff, 0xdd, 0x4f, 0x00, 0x00, 0x00,
  0x00, 0x00, 0x00, 0xd6, 0xea, 0xff, 0xff, 0x04, 0x00, 0x00, 0x00, 0xa0, 0x00,
  0x00, 0x00, 0xd6, 0xc8, 0x02, 0x00, 0x00, 0x00, 0x00, 0x00, 0x78, 0x83, 0xfa,
  0xff, 0xff, 0xff, 0xff, 0xff, 0x8f, 0xaa, 0xfd, 0xff, 0xff, 0xff, 0xff, 0xff,
  0xc9, 0x26, 0x01, 0x00, 0x00, 0x00, 0x00, 0x00, 0xf1, 0x05, 0x08, 0x00, 0x00,
  0x00, 0x00, 0x00, 0x03, 0xd6, 0xce, 0xff, 0xff, 0xff, 0xff, 0xff, 0xf4, 0x7a,
  0x10, 0x00, 0x00, 0x00, 0x00, 0x00, 0x76, 0xf1, 0xea, 0xff, 0xff, 0xff, 0xff,
  0xff, 0x09, 0xf1, 0x13, 0x00, 0x00, 0x00, 0x00, 0x00, 0x0c, 0x54, 0xff, 0xff,
  0xff, 0xff, 0xff, 0xff, 0x2f, 0xee, 0xe7, 0xff, 0xff, 0xff, 0xff, 0xff, 0x2e,
  0xdd, 0xe6, 0xff, 0xff, 0xff, 0xff, 0xff, 0x98, 0x37, 0xff, 0xff, 0xff, 0xff,
  0xff, 0xff, 0xf3, 0x45, 0x02, 0x00, 0x00, 0x00, 0x00, 0x00, 0xf5, 0xad, 0x00,
  0x00, 0x00, 0x00, 0x00, 0x00, 0xed, 0xba, 0x01, 0x00, 0x00, 0x00, 0x00, 0x00,
  0xa8, 0xa5, 0xe7, 0xff, 0xff, 0xff, 0xff, 0xff, 0x87, 0xe3, 0x00, 0x00, 0x00,
  0x00, 0x00, 0x00, 0x00, 0x20, 0x0b, 0x02, 0x00, 0x00, 0x00, 0x00, 0x45, 0x9c,
  0xe2, 0xff, 0xff, 0xff, 0xff, 0xff, 0x82, 0xeb, 0xff, 0xff, 0x04, 0x00, 0x00,
  0x00, 0x05, 0x00, 0x00, 0x00, 0xc0, 0xb6, 0x3a, 0xdd, 0x7f, 0x00, 0x00, 0x00,
  0x96, 0xeb, 0xff, 0xff, 0x04, 0x00, 0x00, 0x00, 0x19, 0x00, 0x00, 0x00, 0xcf,
  0xf8, 0xfb, 0xe4, 0xf8, 0x09, 0x17, 0xfe, 0xf6, 0x08, 0x2c, 0x19, 0x3e, 0x7f,
  0xb7, 0x81, 0x81, 0x81, 0xe8, 0x7f, 0xf0, 0x8a, 0x99, 0x96, 0x05, 0x00, 0x00,
  0x00, 0xbe, 0xeb, 0xff, 0xff, 0x04, 0x00, 0x00, 0x00, 0x19, 0x00, 0x00, 0x00,
  0xd6, 0xe3, 0x4b, 0xd9, 0xbc, 0x81, 0xdc, 0x4c, 0xcc, 0x81, 0xb5, 0xda, 0x81,
  0x90, 0x8a, 0x23, 0x81, 0x8c, 0x81, 0x4c, 0xdd, 0x74, 0x5d, 0x5d, 0xf8, 0x00,
  0x00, 0x00, 0xe6, 0xeb, 0xff, 0xff, 0x04, 0x00, 0x00, 0x00, 0x19, 0x00, 0x00,
  0x00, 0x7f, 0xc2, 0x05, 0x08, 0x76, 0x0f, 0x42, 0x63, 0xe1, 0x81, 0x16, 0x81,
  0x2f, 0x52, 0x03, 0x10, 0x0d, 0x7f, 0xee, 0x2f, 0xf7, 0xeb, 0x81, 0xaf, 0x33,
  0x00, 0x00, 0x00, 0x0e, 0xec, 0xff, 0xff, 0x04, 0x00, 0x00, 0x00, 0x19, 0x00,
  0x00, 0x00, 0xbd, 0xbd, 0xee, 0x12, 0x15, 0x18, 0xb2, 0xba, 0x1c, 0x00, 0x7f,
  0x81, 0x8c, 0x7f, 0x7f, 0x12, 0xc4, 0x81, 0x42, 0x55, 0x8c, 0xd4, 0x21, 0xfe,
  0xde, 0x00, 0x00, 0x00, 0x36, 0xec, 0xff, 0xff, 0x04, 0x00, 0x00, 0x00, 0x19,
  0x00, 0x00, 0x00, 0xd5, 0x81, 0xed, 0x48, 0x81, 0x1a, 0xc9, 0xa6, 0x81, 0x5a,
  0xbd, 0x1f, 0x7f, 0x1b, 0x9c, 0xbc, 0xbe, 0xcc, 0x19, 0xec, 0x81, 0x97, 0xe0,
  0xc9, 0x16, 0x00, 0x00, 0x00, 0x5e, 0xec, 0xff, 0xff, 0x04, 0x00, 0x00, 0x00,
  0x19, 0x00, 0x00, 0x00, 0xcf, 0x18, 0x7f, 0xc1, 0x6a, 0xd9, 0x20, 0x04, 0x81,
  0x33, 0x81, 0xb4, 0x05, 0x27, 0x0c, 0x81, 0x8f, 0x18, 0x00, 0xba, 0xc7, 0x7f,
  0xfa, 0x03, 0x3a, 0x00, 0x00, 0x00, 0x86, 0xec, 0xff, 0xff, 0x04, 0x00, 0x00,
  0x00, 0x0f, 0x00, 0x00, 0x00, 0x81, 0x65, 0x64, 0x57, 0x7f, 0xaa, 0x7f, 0x81,
  0x7f, 0x26, 0xdf, 0x43, 0x64, 0x6c, 0x6a, 0x00, 0xa2, 0xec, 0xff, 0xff, 0x04,
  0x00, 0x00, 0x00, 0x0f, 0x00, 0x00, 0x00, 0x81, 0x23, 0xa4, 0x30, 0x7f, 0xd7,
  0x44, 0x81, 0x81, 0xe9, 0xf3, 0x81, 0xbb, 0x4c, 0x28, 0x00, 0xbe, 0xec, 0xff,
  0xff, 0x04, 0x00, 0x00, 0x00, 0x23, 0x00, 0x00, 0x00, 0x3a, 0x81, 0xbb, 0x32,
  0xe5, 0x65, 0x76, 0x3f, 0xbd, 0xc4, 0x2e, 0x7f, 0xdd, 0x0b, 0xc8, 0x7f, 0xe0,
  0xa9, 0xd2, 0xd6, 0xfa, 0xdf, 0x30, 0x03, 0xfa, 0x81, 0x11, 0x17, 0xc6, 0xe5,
  0xf4, 0x2c, 0x10, 0x02, 0x7f, 0x00, 0xee, 0xec, 0xff, 0xff, 0x04, 0x00, 0x00,
  0x00, 0x15, 0x00, 0x00, 0x00, 0xa9, 0xd7, 0x63, 0x44, 0x6d, 0x7f, 0x1a, 0x81,
  0x81, 0x7f, 0x3b, 0x81, 0x52, 0x7f, 0xac, 0xe8, 0x2d, 0x81, 0x68, 0x12, 0x01,
  0x00, 0x00, 0x00, 0x12, 0xed, 0xff, 0xff, 0x04, 0x00, 0x00, 0x00, 0x15, 0x00,
  0x00, 0x00, 0x81, 0x8a, 0x16, 0x59, 0x81, 0x43, 0xe8, 0x07, 0x7f, 0x44, 0x7f,
  0xfc, 0x7f, 0xef, 0x62, 0x14, 0x7f, 0x2c, 0xcb, 0x70, 0x81, 0x00, 0x00, 0x00,
  0x36, 0xed, 0xff, 0xff, 0x04, 0x00, 0x00, 0x00, 0x19, 0x00, 0x00, 0x00, 0x14,
  0xe7, 0x0c, 0x10, 0x81, 0x5c, 0x28, 0x81, 0x3b, 0x3c, 0x96, 0xcb, 0xfd, 0x07,
  0x7f, 0xe9, 0x81, 0x23, 0xbc, 0xf5, 0xdd, 0xb6, 0x6e, 0x81, 0x88, 0x00, 0x00,
  0x00, 0x5e, 0xed, 0xff, 0xff, 0x04, 0x00, 0x00, 0x00, 0x19, 0x00, 0x00, 0x00,
  0xfe, 0x61, 0xfe, 0x92, 0xf9, 0xec, 0x59, 0xe9, 0xb3, 0x36, 0x81, 0x7f, 0x7f,
  0x7d, 0x7f, 0x43, 0x1e, 0xa8, 0x81, 0xc6, 0xf2, 0x17, 0x2c, 0xf8, 0x0d, 0x00,
  0x00, 0x00, 0x86, 0xed, 0xff, 0xff, 0x04, 0x00, 0x00, 0x00, 0x19, 0x00, 0x00,
  0x00, 0x89, 0x05, 0x57, 0x0a, 0x0d, 0x7f, 0x5c, 0xa2, 0xeb, 0x1a, 0x07, 0x7f,
  0x7f, 0x81, 0x81, 0xa7, 0x6f, 0x77, 0xd6, 0x0c, 0xf2, 0x6f, 0x20, 0xea, 0x04,
  0x00, 0x00, 0x00, 0xae, 0xed, 0xff, 0xff, 0x04, 0x00, 0x00, 0x00, 0x23, 0x00,
  0x00, 0x00, 0x1a, 0x46, 0xf5, 0x02, 0xb9, 0x81, 0xae, 0x22, 0x3f, 0xfa, 0xf5,
  0x21, 0x04, 0x81, 0x94, 0xda, 0x7f, 0xb2, 0xf3, 0xf0, 0x2c, 0xcd, 0x98, 0x30,
  0x81, 0xfd, 0x0d, 0x15, 0x7f, 0x1e, 0xd5, 0x5a, 0xd6, 0xfa, 0xcd, 0x00, 0xde,
  0xed, 0xff, 0xff, 0x04, 0x00, 0x00, 0x00, 0x28, 0x00, 0x00, 0x00, 0x00, 0x00,
  0x00, 0x00, 0x00, 0x00, 0x00, 0x00, 0x00, 0x00, 0x00, 0x00, 0x00, 0x00, 0x00,
  0x00, 0x00, 0x00, 0x00, 0x00, 0x00, 0x00, 0x00, 0x00, 0x00, 0x00, 0x00, 0x00,
  0x00, 0x00, 0x00, 0x00, 0x00, 0x00, 0x00, 0x00, 0x00, 0x00, 0x00, 0x00, 0x12,
  0xee, 0xff, 0xff, 0x04, 0x00, 0x00, 0x00, 0x15, 0x00, 0x00, 0x00, 0x00, 0xee,
  0xac, 0x13, 0xd6, 0x3c, 0x7f, 0x7f, 0x7f, 0x81, 0x7f, 0x81, 0x7f, 0x36, 0x1b,
  0xfa, 0xcd, 0xcc, 0xdf, 0x3c, 0x7d, 0x00, 0x00, 0x00, 0x36, 0xee, 0xff, 0xff,
  0x04, 0x00, 0x00, 0x00, 0x15, 0x00, 0x00, 0x00, 0x34, 0x01, 0xf2, 0x98, 0x81,
  0x7f, 0xe5, 0x81, 0x7f, 0x81, 0xe2, 0x50, 0x4b, 0x0c, 0xb9, 0x96, 0xbe, 0x81,
  0x44, 0xc3, 0x7f, 0x00, 0x00, 0x00, 0x5a, 0xee, 0xff, 0xff, 0x04, 0x00, 0x00,
  0x00, 0x3f, 0x00, 0x00, 0x00, 0x29, 0xce, 0x8a, 0xf2, 0x7f, 0xb1, 0x34, 0x19,
  0x33, 0x21, 0x13, 0x3c, 0xf1, 0x7f, 0xd1, 0x48, 0x20, 0x40, 0x7f, 0x03, 0xeb,
  0xaa, 0xb8, 0x04, 0xd7, 0xab, 0x3d, 0x2d, 0x81, 0xf2, 0xd9, 0x1c, 0xf1, 0x4a,
  0xd9, 0x28, 0x95, 0x1e, 0xde, 0x4c, 0x95, 0x7f, 0x1e, 0x60, 0xa4, 0x81, 0x0a,
  0x4e, 0x59, 0xb8, 0x59, 0x2e, 0x15, 0x06, 0xfe, 0x3c, 0xe6, 0xe9, 0xce, 0x0f,
  0x09, 0x7f, 0x68, 0x00, 0xa6, 0xee, 0xff, 0xff, 0x04, 0x00, 0x00, 0x00, 0x1b,
  0x00, 0x00, 0x00, 0xe1, 0x2d, 0x06, 0x0a, 0x81, 0x7f, 0x5e, 0x03, 0x25, 0x7f,
  0x5c, 0x7f, 0x7f, 0xad, 0xef, 0x5c, 0x7f, 0x7f, 0x9d, 0x7f, 0xe8, 0x79, 0x5d,
  0x35, 0x7f, 0xbb, 0x1e, 0x00, 0xce, 0xee, 0xff, 0xff, 0x04, 0x00, 0x00, 0x00,
  0x1b, 0x00, 0x00, 0x00, 0x6e, 0xf7, 0xb7, 0xc5, 0x81, 0x81, 0xb0, 0x30, 0x00,
  0x7f, 0x81, 0x9d, 0xcc, 0x9f, 0xb3, 0xc2, 0x81, 0xa0, 0xcb, 0xd5, 0x7f, 0x81,
  0xf2, 0xd2, 0x81, 0xe7, 0x7f, 0x00, 0xf6, 0xee, 0xff, 0xff, 0x04, 0x00, 0x00,
  0x00, 0x31, 0x00, 0x00, 0x00, 0x7f, 0x4c, 0x0a, 0x39, 0x30, 0xf4, 0xa8, 0x7f,
  0xe5, 0x4c, 0x18, 0x70, 0x1a, 0x9d, 0xf2, 0xa2, 0x11, 0x81, 0xe0, 0xe2, 0x08,
  0x2f, 0xe0, 0x18, 0x44, 0x7f, 0x5d, 0x78, 0x47, 0x7f, 0xb1, 0x11, 0xd4, 0x76,
  0xdb, 0x81, 0x3f, 0xca, 0x6f, 0x1e, 0xc4, 0x34, 0xde, 0x1f, 0x7f, 0xd7, 0x1f,
  0x52, 0xdf, 0x00, 0x00, 0x00, 0x36, 0xef, 0xff, 0xff, 0x04, 0x00, 0x00, 0x00,
  0x23, 0x00, 0x00, 0x00, 0xf8, 0xb3, 0xf2, 0xd1, 0x1a, 0xca, 0xe9, 0xec, 0xb4,
  0xd1, 0x4f, 0xda, 0x9e, 0x81, 0x81, 0xac, 0x81, 0x5e, 0x81, 0x81, 0xc6, 0xa1,
  0xd8, 0xd5, 0x7f, 0x9a, 0xe2, 0x1a, 0x2c, 0x81, 0x0f, 0x51, 0x3a, 0xfb, 0x21,
  0x00, 0x66, 0xef, 0xff, 0xff, 0x04, 0x00, 0x00, 0x00, 0x23, 0x00, 0x00, 0x00,
  0x8f, 0x7f, 0xb4, 0xfb, 0xfa, 0x23, 0xd0, 0xe7, 0x23, 0xe4, 0x5c, 0x84, 0xd2,
  0x3c, 0x77, 0x2e, 0x22, 0x7f, 0x81, 0x82, 0x7f, 0x7f, 0x31, 0x4b, 0xe8, 0xee,
  0x81, 0x3e, 0xe0, 0x47, 0x81, 0x35, 0xda, 0x03, 0xea, 0x00, 0x96, 0xef, 0xff,
  0xff, 0x04, 0x00, 0x00, 0x00, 0x3f, 0x00, 0x00, 0x00, 0x18, 0x53, 0xd4, 0x40,
  0x2d, 0x1b, 0x7f, 0x10, 0xff, 0x81, 0xf7, 0xcb, 0x4c, 0x08, 0xee, 0xea, 0x6a,
  0x21, 0xd9, 0x9f, 0x81, 0x27, 0x04, 0x13, 0xbb, 0xe8, 0xee, 0xfa, 0x81, 0xf5,
  0xc7, 0x13, 0x56, 0xf9, 0xba, 0xb2, 0xe7, 0x1d, 0xc4, 0x26, 0x7f, 0x40, 0xe3,
  0xd3, 0x26, 0x09, 0x8c, 0x0b, 0xdd, 0xde, 0x69, 0x23, 0x41, 0x81, 0x05, 0x37,
  0xd6, 0x27, 0xa3, 0x58, 0xf5, 0x4a, 0x81, 0x00, 0xe2, 0xef, 0xff, 0xff, 0x04,
  0x00, 0x00, 0x00, 0x38, 0x00, 0x00, 0x00, 0x00, 0x00, 0x00, 0x00, 0x00, 0x00,
  0x00, 0x00, 0x00, 0x00, 0x00, 0x00, 0x00, 0x00, 0x00, 0x00, 0x00, 0x00, 0x00,
  0x00, 0x00, 0x00, 0x00, 0x00, 0x00, 0x00, 0x00, 0x00, 0x00, 0x00, 0x00, 0x00,
  0x00, 0x00, 0x00, 0x00, 0x00, 0x00, 0x00, 0x00, 0x00, 0x00, 0x00, 0x00, 0x00,
  0x00, 0x00, 0x00, 0x00, 0x00, 0x00, 0x00, 0x00, 0x00, 0x00, 0x00, 0x26, 0xf0,
  0xff, 0xff, 0x04, 0x00, 0x00, 0x00, 0x1b, 0x00, 0x00, 0x00, 0x23, 0x5a, 0x7f,
  0x7f, 0x14, 0x7f, 0x7f, 0x81, 0xdf, 0xb4, 0x7f, 0xd7, 0xbd, 0x81, 0xfd, 0x6a,
  0xde, 0x3a, 0x7f, 0x24, 0x5e, 0x27, 0xd5, 0xb7, 0x65, 0xaf, 0x81, 0x00, 0x4e,
  0xf0, 0xff, 0xff, 0x04, 0x00, 0x00, 0x00, 0x1b, 0x00, 0x00, 0x00, 0xbe, 0xf1,
  0xef, 0xc4, 0x00, 0x2b, 0xc6, 0xb5, 0x3a, 0x7f, 0x7f, 0x8e, 0x0d, 0x7f, 0x7f,
  0x81, 0x7f, 0xfb, 0x20, 0x37, 0x81, 0x81, 0x44, 0xca, 0xf5, 0xa5, 0x7f, 0x00,
  0x76, 0xf0, 0xff, 0xff, 0x04, 0x00, 0x00, 0x00, 0x6c, 0x00, 0x00, 0x00, 0xf2,
  0xb7, 0x16, 0x14, 0x06, 0x61, 0x62, 0x6c, 0x85, 0x11, 0xaf, 0x81, 0x5d, 0xd7,
  0x57, 0x81, 0x41, 0x64, 0x31, 0xce, 0xe2, 0xba, 0xae, 0xeb, 0x50, 0x4e, 0xf9,
  0x59, 0x61, 0x29, 0xa1, 0x37, 0x7f, 0x46, 0xd0, 0x7f, 0xb4, 0x39, 0x81, 0x17,
  0x23, 0x05, 0xd2, 0xd6, 0x11, 0x37, 0x0d, 0xf2, 0x7f, 0xbd, 0x08, 0xd5, 0x64,
  0xb0, 0xbd, 0xe3, 0xdf, 0xfc, 0x2c, 0xe2, 0xfa, 0x1b, 0x12, 0x20, 0x9a, 0x49,
  0x1d, 0x7f, 0x33, 0x21, 0x59, 0xff, 0x3e, 0x23, 0x36, 0x81, 0x14, 0xff, 0xcc,
  0xfd, 0xae, 0xe7, 0x32, 0x44, 0xe0, 0xb0, 0x81, 0xfe, 0x0a, 0x3e, 0x44, 0x1f,
  0xd4, 0x00, 0x17, 0xf5, 0xc6, 0x5c, 0xc6, 0xf6, 0x5e, 0xc0, 0x4f, 0x09, 0x68,
  0x7f, 0x2c, 0x1a, 0xee, 0xf0, 0xff, 0xff, 0x04, 0x00, 0x00, 0x00, 0x24, 0x00,
  0x00, 0x00, 0x31, 0xdf, 0xc7, 0x1a, 0x81, 0x8a, 0x00, 0x2e, 0xf5, 0x7f, 0xf7,
  0x11, 0x81, 0x81, 0x85, 0x81, 0x84, 0x31, 0x81, 0xe9, 0x81, 0x5a, 0x7f, 0xd0,
  0xb7, 0x83, 0x7f, 0xe7, 0xfe, 0x7f, 0xc1, 0x81, 0xde, 0xf9, 0x52, 0x7f, 0x1e,
  0xf1, 0xff, 0xff, 0x04, 0x00, 0x00, 0x00, 0x24, 0x00, 0x00, 0x00, 0x57, 0x15,
  0x81, 0x7f, 0x09, 0x07, 0x01, 0x17, 0x7f, 0x05, 0xc8, 0xab, 0x81, 0x81, 0x0e,
  0xc7, 0x9d, 0x81, 0x81, 0x21, 0xef, 0x7f, 0xd2, 0xd9, 0x93, 0x06, 0xf9, 0xd8,
  0x81, 0xbf, 0xee, 0x7f, 0x02, 0xdd, 0x81, 0x81, 0x4e, 0xf1, 0xff, 0xff, 0x04,
  0x00, 0x00, 0x00, 0x51, 0x00, 0x00, 0x00, 0x7f, 0x02, 0x7a, 0x3b, 0x11, 0xe8,
  0x64, 0xfd, 0x39, 0x28, 0x43, 0x8f, 0x43, 0x7f, 0xea, 0x3f, 0xa3, 0x29, 0x40,
  0xb3, 0x17, 0x81, 0x5a, 0x11, 0xb8, 0x32, 0xc7, 0x98, 0xec, 0x7f, 0x2c, 0x6a,
  0x4e, 0x82, 0x04, 0x2f, 0xb0, 0x0d, 0x20, 0x28, 0xf1, 0xae, 0xf9, 0xf5, 0x81,
  0x29, 0xca, 0x7f, 0xdf, 0xbc, 0x48, 0xf6, 0x5a, 0x0c, 0x34, 0x5e, 0xea, 0x16,
  0x7f, 0x37, 0xba, 0x12, 0x3e, 0x24, 0xe6, 0xf0, 0x61, 0x16, 0x81, 0x05, 0xcb,
  0x4f, 0x18, 0x81, 0x5e, 0x18, 0xd9, 0xb7, 0x01, 0xc4, 0x10, 0x00, 0x00, 0x00,
  0xae, 0xf1, 0xff, 0xff, 0x04, 0x00, 0x00, 0x00, 0x2d, 0x00, 0x00, 0x00, 0x98,
  0x16, 0x81, 0x0e, 0xff, 0x5c, 0xb2, 0x0d, 0x5e, 0xd2, 0x81, 0x5d, 0x49, 0x7f,
  0x7f, 0xc2, 0xe2, 0x30, 0x81, 0x82, 0x20, 0x7f, 0x2b, 0x7a, 0x81, 0x81, 0x09,
  0xd9, 0x2b, 0xa1, 0x3b, 0xb8, 0x65, 0xe1, 0xe1, 0x0b, 0x3d, 0xf0, 0xde, 0x0d,
  0x35, 0x44, 0x82, 0x0e, 0x7f, 0x00, 0x00, 0x00, 0xea, 0xf1, 0xff, 0xff, 0x04,
  0x00, 0x00, 0x00, 0x2d, 0x00, 0x00, 0x00, 0xd1, 0xf1, 0xf4, 0x63, 0xcf, 0x38,
  0x05, 0x81, 0x8d, 0x81, 0xa5, 0x19, 0x7f, 0xc9, 0x4e, 0x63, 0x31, 0xf1, 0xa0,
  0xf0, 0x7f, 0x1b, 0x81, 0x52, 0x18, 0x1a, 0x81, 0xef, 0x7f, 0x30, 0x5b, 0x3a,
  0x7f, 0x7f, 0xe4, 0xf2, 0xdd, 0x3c, 0xf9, 0xe0, 0xef, 0x33, 0xeb, 0xff, 0xa5,
  0x00, 0x00, 0x00, 0x26, 0xf2, 0xff, 0xff, 0x04, 0x00, 0x00, 0x00, 0x6c, 0x00,
  0x00, 0x00, 0xff, 0xfa, 0x30, 0x1a, 0x3a, 0x26, 0x3b, 0x81, 0x1b, 0x43, 0x4d,
  0xb3, 0xed, 0x1e, 0xf1, 0x7f, 0x32, 0x23, 0xb9, 0x55, 0xbb, 0xd4, 0x24, 0xd7,
  0x18, 0x1b, 0x86, 0xd4, 0xd9, 0xf0, 0x00, 0xe2, 0x04, 0x1e, 0x7f, 0xc2, 0xd1,
  0x3f, 0xff, 0x3d, 0xe6, 0xec, 0xaf, 0x4c, 0x81, 0x02, 0x10, 0xac, 0xa7, 0x1b,
  0x6e, 0x04, 0xcb, 0x7f, 0x23, 0xf0, 0xf9, 0x0c, 0xef, 0x5f, 0x7f, 0x03, 0x1e,
  0xc1, 0xd9, 0x06, 0xef, 0x0d, 0x42, 0xf7, 0x21, 0xf0, 0x8e, 0x81, 0x13, 0x24,
  0xa4, 0x0c, 0xfc, 0x36, 0xb2, 0x9c, 0x16, 0xf6, 0x3a, 0xa9, 0xb6, 0x45, 0xce,
  0xc1, 0x51, 0xc0, 0x7a, 0x7f, 0x57, 0xf2, 0x42, 0x47, 0x0f, 0x01, 0x08, 0xc9,
  0x74, 0x25, 0x2a, 0x3c, 0xe4, 0x81, 0x9e, 0xf2, 0xff, 0xff, 0x04, 0x00, 0x00,
  0x00, 0x48, 0x00, 0x00, 0x00, 0x00, 0x00, 0x00, 0x00, 0x00, 0x00, 0x00, 0x00,
  0x00, 0x00, 0x00, 0x00, 0x00, 0x00, 0x00, 0x00, 0x00, 0x00, 0x00, 0x00, 0x00,
  0x00, 0x00, 0x00, 0x00, 0x00, 0x00, 0x00, 0x00, 0x00, 0x00, 0x00, 0x00, 0x00,
  0x00, 0x00, 0x00, 0x00, 0x00, 0x00, 0x00, 0x00, 0x00, 0x00, 0x00, 0x00, 0x00,
  0x00, 0x00, 0x00, 0x00, 0x00, 0x00, 0x00, 0x00, 0x00, 0x00, 0x00, 0x00, 0x00,
  0x00, 0x00, 0x00, 0x00, 0x00, 0x00, 0x00, 0x00, 0x00, 0x00, 0x00, 0x00, 0xf2,
  0xf2, 0xff, 0xff, 0x04, 0x00, 0x00, 0x00, 0x24, 0x00, 0x00, 0x00, 0xe2, 0x19,
  0xe6, 0xe2, 0x06, 0xc8, 0x28, 0xa2, 0xb7, 0xb3, 0x9b, 0xc9, 0x81, 0xe2, 0x5f,
  0xdd, 0xcd, 0x8d, 0x5d, 0x7f, 0x81, 0x81, 0xfe, 0xdc, 0xd0, 0x81, 0x7f, 0x81,
  0x81, 0x81, 0x7f, 0x55, 0xb9, 0xc4, 0x7f, 0x81, 0x22, 0xf3, 0xff, 0xff, 0x04,
  0x00, 0x00, 0x00, 0x24, 0x00, 0x00, 0x00, 0x3b, 0xb3, 0x8e, 0x7f, 0xda, 0x50,
  0xab, 0xf7, 0x7a, 0x48, 0x81, 0xf4, 0x4e, 0x81, 0x81, 0x4e, 0x81, 0x7f, 0x1c,
  0x39, 0x81, 0xc7, 0xab, 0xd2, 0x81, 0x42, 0x14, 0x1f, 0x14, 0x74, 0x7f, 0x81,
  0xc0, 0x7f, 0xdd, 0x7f, 0x52, 0xf3, 0xff, 0xff, 0x04, 0x00, 0x00, 0x00, 0xb4,
  0x00, 0x00, 0x00, 0xbf, 0x2d, 0x64, 0x08, 0x2f, 0xad, 0x48, 0xd0, 0xe3, 0x49,
  0x75, 0xc1, 0x18, 0x1a, 0x7f, 0xbd, 0x3b, 0x81, 0x24, 0x05, 0xff, 0xd2, 0x29,
  0xd6, 0x05, 0xf3, 0xa9, 0xf1, 0xc1, 0x57, 0x96, 0x62, 0x2f, 0x20, 0xf8, 0xb6,
  0x81, 0xcf, 0x3c, 0x58, 0x9c, 0xe9, 0x2b, 0xac, 0x44, 0x7f, 0x07, 0xf7, 0x58,
  0x18, 0x3d, 0xd8, 0xe7, 0x46, 0xaf, 0xd6, 0xc2, 0xde, 0x36, 0xcc, 0x40, 0x5c,
  0x68, 0x7f, 0x6d, 0x4d, 0x0b, 0x09, 0xc7, 0xb2, 0x79, 0x06, 0xdf, 0x29, 0xd7,
  0xe3, 0x2e, 0x04, 0x08, 0x7f, 0x02, 0x14, 0x4e, 0xdf, 0xdf, 0xe5, 0x66, 0x35,
  0xe3, 0x6f, 0x04, 0x0f, 0xfa, 0x20, 0x0d, 0x03, 0xfa, 0x32, 0xd5, 0xde, 0xc7,
  0x81, 0x0c, 0xc5, 0x2b, 0x1a, 0xba, 0xdd, 0x0b, 0xd4, 0xee, 0x08, 0x7f, 0x2b,
  0xa8, 0xdc, 0x1d, 0x0e, 0x0e, 0x06, 0x9e, 0xf0, 0x2c, 0x37, 0x6e, 0xe0, 0x1a,
  0x18, 0x22, 0x30, 0x97, 0x55, 0x7f, 0xe0, 0x57, 0x20, 0x0e, 0xe6, 0x1e, 0xd0,
  0x2e, 0xd8, 0xfd, 0xdc, 0x3f, 0xe3, 0xb8, 0xc2, 0x7f, 0x33, 0xa9, 0xef, 0x26,
  0xf5, 0x01, 0xee, 0xe8, 0xfb, 0x3e, 0x42, 0xc3, 0x7f, 0x17, 0x43, 0x2b, 0x04,
  0x0e, 0xc9, 0xf5, 0xfe, 0x17, 0xef, 0xd6, 0xf3, 0x1e, 0xc8, 0x06, 0xf1, 0xec,
  0x81, 0x12, 0xf4, 0xff, 0xff, 0x04, 0x00, 0x00, 0x00, 0x2d, 0x00, 0x00, 0x00,
  0x81, 0xfb, 0x7f, 0x15, 0x0b, 0x1b, 0x81, 0x19, 0xe4, 0x81, 0x3a, 0x38, 0x27,
  0x5a, 0x92, 0x10, 0xe9, 0xec, 0x7f, 0xc6, 0x7f, 0x53, 0x66, 0xf3, 0xa6, 0x81,
  0xb3, 0x11, 0x1c, 0x7f, 0x41, 0x81, 0xdd, 0x1d, 0x81, 0x39, 0x14, 0x7f, 0x81,
  0xdc, 0xfc, 0x81, 0x7f, 0x7f, 0x0d, 0x00, 0x00, 0x00, 0x4e, 0xf4, 0xff, 0xff,
  0x04, 0x00, 0x00, 0x00, 0x2d, 0x00, 0x00, 0x00, 0xcc, 0x0d, 0xf2, 0x1f, 0xc9,
  0xfb, 0x01, 0x81, 0xd4, 0x7f, 0xb5, 0xd3, 0x7f, 0x27, 0xa4, 0x81, 0x81, 0x81,
  0x0e, 0x81, 0xfb, 0xf5, 0x93, 0x19, 0x63, 0x7f, 0xea, 0x04, 0x9b, 0x7f, 0x1b,
  0xd5, 0xf1, 0x81, 0x5e, 0x7f, 0x7f, 0x41, 0x81, 0x82, 0xe9, 0x7f, 0xf9, 0x7f,
  0x3f, 0x00, 0x00, 0x00, 0x8a, 0xf4, 0xff, 0xff, 0x04, 0x00, 0x00, 0x00, 0x90,
  0x00, 0x00, 0x00, 0x2f, 0xd2, 0xda, 0xd3, 0xc3, 0x06, 0x81, 0xb6, 0x08, 0x30,
  0x5c, 0x18, 0x2c, 0x38, 0x20, 0x20, 0xda, 0xfe, 0xec, 0xef, 0x04, 0xf2, 0xf7,
  0x81, 0x81, 0x18, 0xdc, 0x16, 0xff, 0x18, 0xd9, 0x11, 0xf8, 0x0f, 0xf2, 0x14,
  0x09, 0xdc, 0xe6, 0xb3, 0x1b, 0xa8, 0xd0, 0x81, 0x4b, 0xfc, 0xb6, 0x63, 0xb3,
  0x1e, 0x0d, 0xac, 0xe8, 0x1a, 0xb0, 0x0b, 0x57, 0x19, 0xd7, 0x81, 0x81, 0x05,
  0x0d, 0xd9, 0xff, 0x22, 0xd7, 0x0c, 0x19, 0x2c, 0xff, 0xfa, 0xe3, 0xcf, 0xb9,
  0x10, 0xf7, 0xce, 0xed, 0x81, 0xe7, 0xd4, 0x69, 0xb6, 0xd7, 0xdc, 0x1c, 0xd4,
  0x81, 0xe5, 0xdf, 0x19, 0xd6, 0xbd, 0x1f, 0x79, 0x81, 0x2d, 0xba, 0xec, 0x00,
  0x5e, 0x7f, 0x5a, 0xfd, 0x49, 0x94, 0xd8, 0x81, 0xef, 0x24, 0xcc, 0xf9, 0xe1,
  0x28, 0xf5, 0x4b, 0x0e, 0xfb, 0x17, 0xef, 0x42, 0xe0, 0xe4, 0x1c, 0x44, 0x1a,
  0xf0, 0xdb, 0x64, 0x09, 0x81, 0x0d, 0xff, 0x53, 0x4d, 0x7f, 0x10, 0x44, 0x65,
  0x41, 0xbf, 0xd7, 0x12, 0x26, 0xf5, 0xff, 0xff, 0x04, 0x00, 0x00, 0x00, 0x3c,
  0x00, 0x00, 0x00, 0xc8, 0x56, 0xc0, 0x04, 0xbc, 0xfe, 0xe0, 0xd2, 0xdc, 0x78,
  0x0d, 0xbc, 0x7f, 0xaf, 0xf2, 0x30, 0x0e, 0xeb, 0xd8, 0xab, 0xfe, 0xce, 0x34,
  0x7f, 0xe3, 0x81, 0x81, 0x09, 0x7f, 0xaf, 0x1c, 0x08, 0xff, 0xdd, 0x7f, 0x2a,
  0x33, 0xa3, 0x9a, 0xce, 0x2b, 0x81, 0xbc, 0xe6, 0x81, 0x7f, 0xf7, 0xb7, 0xe4,
  0xf5, 0xc9, 0x81, 0xa6, 0x1e, 0x81, 0x81, 0x87, 0xa3, 0xfb, 0x74, 0x6e, 0xf5,
  0xff, 0xff, 0x04, 0x00, 0x00, 0x00, 0x3c, 0x00, 0x00, 0x00, 0xf1, 0x19, 0x62,
  0xfe, 0x2f, 0xa8, 0x3a, 0x1d, 0x1d, 0x19, 0x41, 0x17, 0x17, 0x2d, 0x7f, 0xe6,
  0x81, 0xea, 0x7f, 0x7f, 0x7f, 0xda, 0x20, 0x81, 0x81, 0x28, 0x66, 0x53, 0x9a,
  0xca, 0x3b, 0x62, 0x5b, 0xb4, 0xb3, 0xce, 0xaa, 0x7f, 0x13, 0x7f, 0x07, 0x8c,
  0x06, 0x51, 0x35, 0x81, 0x81, 0x51, 0x0d, 0xdb, 0x05, 0xde, 0xe8, 0x7f, 0x14,
  0x38, 0x9d, 0xdd, 0x87, 0xc8, 0xb6, 0xf5, 0xff, 0xff, 0x04, 0x00, 0x00, 0x00,
  0xb4, 0x00, 0x00, 0x00, 0xc5, 0xa6, 0x89, 0xab, 0xa4, 0x55, 0x7f, 0xd1, 0x8f,
  0xc2, 0x46, 0x18, 0x9d, 0x1a, 0x88, 0xd0, 0xdd, 0x7f, 0xc4, 0x05, 0xf3, 0xdc,
  0x43, 0x0e, 0x58, 0x08, 0xd7, 0x0c, 0x3d, 0xf8, 0x98, 0x0b, 0x33, 0x75, 0x63,
  0x23, 0xd1, 0x3f, 0x7f, 0xb7, 0xd3, 0x02, 0x69, 0xe3, 0x51, 0x15, 0xce, 0xd6,
  0x46, 0xc4, 0x17, 0xa9, 0x45, 0x2c, 0x09, 0x15, 0x45, 0xbc, 0xfa, 0x7f, 0xff,
  0xda, 0x81, 0xf3, 0xfc, 0xed, 0x03, 0x1d, 0xc0, 0xd3, 0xf8, 0x57, 0xc5, 0x07,
  0x10, 0xb4, 0xae, 0x0f, 0x1c, 0x47, 0x40, 0xd4, 0x7f, 0x53, 0x4e, 0x1d, 0xc2,
  0x3e, 0x54, 0xbf, 0x66, 0x1b, 0x44, 0x76, 0x7f, 0x0a, 0xf0, 0x15, 0x12, 0x90,
  0xc6, 0xd5, 0x01, 0x21, 0xea, 0x27, 0xee, 0x2f, 0xe5, 0x2f, 0xef, 0xae, 0x76,
  0xea, 0xcf, 0xb1, 0x81, 0xcc, 0xe5, 0xee, 0x1b, 0x81, 0x3c, 0x44, 0x3c, 0x45,
  0xf0, 0x3a, 0x49, 0xb1, 0x29, 0xf8, 0x89, 0x7e, 0x50, 0xe7, 0x94, 0xdf, 0x01,
  0xc1, 0x0e, 0x08, 0xe8, 0xba, 0x81, 0x7a, 0xa2, 0x2d, 0xd0, 0xb8, 0x38, 0x0b,
  0xea, 0x51, 0x00, 0x81, 0x28, 0xf8, 0xef, 0x1b, 0x1a, 0xd2, 0x16, 0xb7, 0x02,
  0x3d, 0x26, 0xe3, 0x00, 0x29, 0xc4, 0x7f, 0xfd, 0x5f, 0xf6, 0xf3, 0xd7, 0x04,
  0xfb, 0x19, 0x76, 0xf6, 0xff, 0xff, 0x04, 0x00, 0x00, 0x00, 0x60, 0x00, 0x00,
  0x00, 0x00, 0x00, 0x00, 0x00, 0x00, 0x00, 0x00, 0x00, 0x00, 0x00, 0x00, 0x00,
  0x00, 0x00, 0x00, 0x00, 0x00, 0x00, 0x00, 0x00, 0x00, 0x00, 0x00, 0x00, 0x00,
  0x00, 0x00, 0x00, 0x00, 0x00, 0x00, 0x00, 0x00, 0x00, 0x00, 0x00, 0x00, 0x00,
  0x00, 0x00, 0x00, 0x00, 0x00, 0x00, 0x00, 0x00, 0x00, 0x00, 0x00, 0x00, 0x00,
  0x00, 0x00, 0x00, 0x00, 0x00, 0x00, 0x00, 0x00, 0x00, 0x00, 0x00, 0x00, 0x00,
  0x00, 0x00, 0x00, 0x00, 0x00, 0x00, 0x00, 0x00, 0x00, 0x00, 0x00, 0x00, 0x00,
  0x00, 0x00, 0x00, 0x00, 0x00, 0x00, 0x00, 0x00, 0x00, 0x00, 0x00, 0x00, 0x00,
  0x00, 0x00, 0x00, 0x00, 0x00, 0x00, 0xe2, 0xf6, 0xff, 0xff, 0x04, 0x00, 0x00,
  0x00, 0x2d, 0x00, 0x00, 0x00, 0xd2, 0xd0, 0x81, 0x40, 0x39, 0x12, 0x54, 0x77,
  0xb2, 0x7f, 0x81, 0xa8, 0x81, 0x05, 0x7f, 0x81, 0x7f, 0x28, 0x0d, 0x81, 0x9e,
  0xb5, 0x7f, 0x9a, 0xd5, 0x9e, 0xa8, 0x0f, 0x81, 0x15, 0xae, 0x27, 0x4b, 0x81,
  0xea, 0x81, 0x81, 0x25, 0x81, 0xce, 0xae, 0x7f, 0xdc, 0xdf, 0xcd, 0x00, 0x00,
  0x00, 0x1e, 0xf7, 0xff, 0xff, 0x04, 0x00, 0x00, 0x00, 0x2d, 0x00, 0x00, 0x00,
  0xd7, 0xbc, 0xfc, 0x17, 0x03, 0x81, 0x91, 0x7f, 0xa8, 0x3f, 0x01, 0x30, 0x26,
  0x10, 0x14, 0xba, 0x81, 0x81, 0x81, 0x40, 0xa0, 0x81, 0xa9, 0x1a, 0x7f, 0x81,
  0x7f, 0x7f, 0x81, 0x7f, 0x7f, 0xfc, 0x83, 0x03, 0x81, 0x9b, 0xad, 0x2b, 0x7f,
  0x66, 0xe6, 0xd1, 0xda, 0xe7, 0x8e, 0x00, 0x00, 0x00, 0x5a, 0xf7, 0xff, 0xff,
  0x04, 0x00, 0x00, 0x00, 0x2c, 0x01, 0x00, 0x00, 0x17, 0xe0, 0xce, 0x35, 0x81,
  0xda, 0x07, 0xd8, 0xed, 0x07, 0x20, 0x5e, 0x09, 0xf3, 0x0c, 0x2d, 0x15, 0xe1,
  0xe4, 0x11, 0xf7, 0xe8, 0xdc, 0x3e, 0x23, 0x6a, 0xd7, 0xb0, 0x04, 0x19, 0x62,
  0x81, 0xd6, 0x2e, 0xcb, 0xe1, 0xdd, 0x1e, 0xfd, 0x1e, 0x11, 0x42, 0x05, 0x45,
  0x70, 0x54, 0x30, 0x30, 0x34, 0xf8, 0x1d, 0x23, 0xdc, 0x02, 0x19, 0xa6, 0xb9,
  0xae, 0x1a, 0x81, 0x0d, 0x15, 0xf1, 0xd3, 0x20, 0xcd, 0xc5, 0x1e, 0xc3, 0xfa,
  0x02, 0x81, 0x1b, 0xe9, 0x28, 0x1b, 0x1d, 0x32, 0xf8, 0xf2, 0x7f, 0xdd, 0xf9,
  0x08, 0x41, 0xe4, 0xf5, 0xb4, 0x00, 0x37, 0xf3, 0xc8, 0x0e, 0xb5, 0x18, 0x4e,
  0x08, 0xbd, 0x4c, 0xd0, 0xd2, 0x00, 0x32, 0xcc, 0x00, 0x15, 0x27, 0x40, 0xfc,
  0xf3, 0xe5, 0xd3, 0x09, 0xcf, 0x43, 0x21, 0x66, 0xa4, 0xe4, 0x7f, 0xfa, 0xdd,
  0x07, 0xdb, 0xff, 0x03, 0x13, 0xd8, 0x5e, 0x04, 0xe3, 0xd4, 0xfd, 0x05, 0x81,
  0x1f, 0xdb, 0xfe, 0xae, 0xe2, 0x76, 0x0a, 0x2c, 0xf0, 0x0f, 0xa9, 0x70, 0x02,
  0x44, 0x33, 0xf9, 0xf0, 0x61, 0xbe, 0xf8, 0x6c, 0x02, 0xc5, 0x7f, 0xed, 0x15,
  0xe9, 0x0f, 0xe3, 0xdc, 0x14, 0xfe, 0x04, 0x05, 0x00, 0x0b, 0x81, 0x19, 0xea,
  0xf9, 0x17, 0x13, 0xee, 0x37, 0x28, 0x2a, 0xbb, 0x7f, 0x88, 0x3a, 0xbe, 0x04,
  0xc2, 0x69, 0x11, 0x25, 0x38, 0x24, 0xff, 0x81, 0x2a, 0x1e, 0xd9, 0x3f, 0x37,
  0xee, 0x31, 0xe6, 0x53, 0x9b, 0x6e, 0x39, 0x2c, 0x7f, 0xbb, 0xe7, 0xd5, 0x47,
  0x13, 0x65, 0xdd, 0x3a, 0xda, 0x09, 0x29, 0x38, 0xe9, 0x17, 0xc7, 0x1a, 0xd9,
  0x43, 0x2a, 0x1e, 0x69, 0xfb, 0x9f, 0x41, 0xb6, 0x81, 0xb7, 0x78, 0xbf, 0xf5,
  0xf4, 0x24, 0x49, 0xce, 0xe4, 0x3c, 0x46, 0x4d, 0x7f, 0x27, 0x52, 0x9b, 0x01,
  0x4a, 0xe0, 0xf2, 0x12, 0xc2, 0xc9, 0xce, 0xc3, 0x14, 0xc3, 0x22, 0x3e, 0x28,
  0xef, 0xe2, 0x08, 0x06, 0xd2, 0x28, 0x1f, 0xc3, 0xe1, 0x29, 0x03, 0x19, 0x81,
  0x4b, 0x23, 0x24, 0x12, 0x56, 0xe5, 0x1e, 0x36, 0x46, 0x28, 0xd2, 0xe7, 0x29,
  0xf7, 0xe8, 0xf5, 0x3d, 0x0a, 0x5e, 0xfd, 0x02, 0x7f, 0x92, 0xf8, 0xff, 0xff,
  0x04, 0x00, 0x00, 0x00, 0x3c, 0x00, 0x00, 0x00, 0xb2, 0x87, 0x81, 0x7f, 0x7f,
  0x02, 0x7f, 0x4f, 0xa9, 0xf9, 0x81, 0x98, 0x7f, 0xea, 0x81, 0x5b, 0xb7, 0x64,
  0x7f, 0x08, 0x7f, 0x5a, 0x33, 0xf8, 0xb9, 0x85, 0xf1, 0x32, 0x0e, 0x7f, 0xb6,
  0xa9, 0x64, 0x81, 0x59, 0x81, 0xae, 0x7f, 0xb4, 0x81, 0xd2, 0x7f, 0xa2, 0x0f,
  0xc4, 0x7f, 0xda, 0x81, 0x81, 0xef, 0x9c, 0x7f, 0xf6, 0xe7, 0x60, 0x1f, 0x81,
  0x39, 0xcb, 0xfa, 0xda, 0xf8, 0xff, 0xff, 0x04, 0x00, 0x00, 0x00, 0x3c, 0x00,
  0x00, 0x00, 0xc8, 0x7f, 0x1e, 0xf9, 0x3d, 0x2e, 0x54, 0x81, 0xce, 0x12, 0x51,
  0x54, 0xf0, 0xcf, 0x45, 0x7f, 0x76, 0x81, 0x26, 0x7f, 0xed, 0xc7, 0x06, 0x81,
  0xb9, 0xc0, 0x63, 0xc4, 0xb5, 0xca, 0x81, 0x8c, 0x77, 0xb9, 0x81, 0xf4, 0xe5,
  0x41, 0x7f, 0x00, 0x7f, 0xfe, 0x7f, 0xdf, 0x7f, 0x7f, 0x81, 0x01, 0x7f, 0x7f,
  0x15, 0x81, 0x81, 0x7f, 0x23, 0x92, 0x7f, 0x43, 0x57, 0xf6, 0x22, 0xf9, 0xff,
  0xff, 0x04, 0x00, 0x00, 0x00, 0xe1, 0x00, 0x00, 0x00, 0xff, 0x04, 0x49, 0x48,
  0xde, 0xb6, 0x88, 0x8c, 0xae, 0xf5, 0x81, 0x38, 0xcb, 0x36, 0x90, 0xfe, 0x0e,
  0x21, 0x81, 0x18, 0xd0, 0xc0, 0x1a, 0xd2, 0xfb, 0xf1, 0x27, 0xe7, 0x25, 0xe8,
  0x63, 0x00, 0xfb, 0xf8, 0x29, 0x68, 0xdd, 0x81, 0x7c, 0xcc, 0xe2, 0xef, 0x08,
  0xc1, 0xfd, 0xbf, 0x40, 0x0d, 0x53, 0xad, 0x6c, 0x49, 0x7f, 0xf4, 0xf6, 0x50,
  0x15, 0xe7, 0x5f, 0xd4, 0x0b, 0xdc, 0x10, 0x7f, 0x0c, 0x29, 0xed, 0x13, 0x0e,
  0x17, 0xf4, 0xf8, 0xd3, 0xfe, 0x17, 0x07, 0xf6, 0x07, 0x7f, 0xed, 0x00, 0x21,
  0x0c, 0x0d, 0x16, 0x02, 0xe6, 0xdb, 0x11, 0x07, 0x0e, 0x00, 0x63, 0x2e, 0x22,
  0xd2, 0xe9, 0x4a, 0xf0, 0x29, 0x1b, 0x7f, 0x06, 0x05, 0xfe, 0x36, 0x7f, 0xb8,
  0x75, 0x09, 0xf3, 0x0c, 0x13, 0x2e, 0x1f, 0x0a, 0xe0, 0x17, 0x23, 0x12, 0xf0,
  0xfc, 0x04, 0xf3, 0xb8, 0xd0, 0xfb, 0x47, 0xc7, 0x27, 0x28, 0x23, 0x36, 0xf4,
  0x81, 0xe9, 0xba, 0x8c, 0x7f, 0xef, 0x12, 0x51, 0x54, 0x0c, 0xf0, 0x23, 0xf8,
  0xf7, 0x06, 0x21, 0x1b, 0x81, 0xe1, 0x34, 0x44, 0x22, 0x10, 0xa6, 0x20, 0xee,
  0xe6, 0xee, 0x0f, 0x39, 0x3c, 0x96, 0xc7, 0x25, 0x7c, 0x6b, 0x00, 0x21, 0xea,
  0xbf, 0xbf, 0xad, 0x7f, 0x60, 0x07, 0x2e, 0x14, 0x81, 0x0e, 0x71, 0xf9, 0xd7,
  0xe0, 0x0d, 0x07, 0xe0, 0xd7, 0xfa, 0x31, 0x25, 0x29, 0x07, 0xe2, 0x0b, 0x81,
  0x06, 0x2b, 0x10, 0x9a, 0x1b, 0xcb, 0xbc, 0xfb, 0x35, 0xdd, 0xf4, 0x81, 0x14,
  0x0f, 0xc3, 0x0e, 0xde, 0x2d, 0x09, 0x8d, 0x1f, 0xe3, 0xc1, 0x28, 0xfc, 0x4f,
  0x00, 0x00, 0x00, 0x12, 0xfa, 0xff, 0xff, 0x04, 0x00, 0x00, 0x00, 0x4b, 0x00,
  0x00, 0x00, 0xed, 0xf4, 0x01, 0x26, 0xb3, 0x73, 0xcb, 0xfc, 0x21, 0x37, 0x93,
  0xc0, 0xee, 0xaf, 0x9a, 0x0f, 0x25, 0x00, 0xb8, 0x7f, 0x04, 0x59, 0x05, 0xcc,
  0x54, 0x7f, 0x81, 0xd7, 0x6f, 0x7f, 0x6c, 0x81, 0xee, 0x81, 0x47, 0x18, 0x23,
  0x7f, 0x9b, 0x9c, 0x44, 0x82, 0x81, 0xb6, 0xec, 0x7f, 0xdf, 0x69, 0xaf, 0x8d,
  0xe7, 0x7f, 0x24, 0x81, 0x7f, 0x2e, 0xc4, 0xdb, 0x81, 0xf0, 0x48, 0x29, 0x7f,
  0xee, 0xeb, 0x81, 0x4c, 0xee, 0xbe, 0x12, 0x55, 0x3e, 0xcd, 0xf4, 0xd4, 0x00,
  0x6a, 0xfa, 0xff, 0xff, 0x04, 0x00, 0x00, 0x00, 0x4b, 0x00, 0x00, 0x00, 0xdb,
  0x25, 0x05, 0x7f, 0xf6, 0x34, 0xcb, 0x06, 0xeb, 0xfe, 0x1c, 0x7f, 0xd7, 0xfc,
  0xe8, 0x70, 0x46, 0x22, 0x50, 0x03, 0x7f, 0x7f, 0x07, 0x62, 0x16, 0x4e, 0xf4,
  0x7f, 0x2f, 0xf7, 0x7f, 0x7f, 0x93, 0xf9, 0x45, 0x4e, 0x30, 0x81, 0x7f, 0x81,
  0xdd, 0xa3, 0x53, 0x7f, 0xca, 0x13, 0x50, 0x33, 0x05, 0x7f, 0xd7, 0x67, 0x9d,
  0xf9, 0xd4, 0xbe, 0x3c, 0x4a, 0x0a, 0x81, 0x2b, 0xfe, 0x81, 0x01, 0xd2, 0x21,
  0xd4, 0xf7, 0x27, 0xc6, 0x7f, 0x06, 0x45, 0x67, 0xe4, 0x00, 0xc2, 0xfa, 0xff,
  0xff, 0x04, 0x00, 0x00, 0x00, 0x2c, 0x01, 0x00, 0x00, 0xb2, 0xd9, 0x1d, 0xd4,
  0xe1, 0xf3, 0x1e, 0xc4, 0x7f, 0xf8, 0xd3, 0xb7, 0x54, 0xf8, 0xea, 0x21, 0xd2,
  0xae, 0x50, 0x02, 0xfd, 0x0d, 0x19, 0xf4, 0x27, 0x8f, 0x45, 0x0e, 0x1b, 0x12,
  0x2d, 0x7f, 0x00, 0xf7, 0xfb, 0x19, 0x63, 0x21, 0x04, 0x92, 0x0a, 0xf6, 0xd9,
  0x25, 0x51, 0x16, 0xce, 0x24, 0xd9, 0xee, 0xd2, 0xe0, 0x20, 0x00, 0x7f, 0x56,
  0xe1, 0xbe, 0x12, 0x34, 0xfa, 0x01, 0xdd, 0x2d, 0xec, 0x81, 0x02, 0xfd, 0xff,
  0xd3, 0xfd, 0xfb, 0x2e, 0xb9, 0x3c, 0x39, 0x02, 0x1e, 0xff, 0xe8, 0xed, 0x5b,
  0x39, 0xbc, 0xdd, 0x24, 0x5b, 0x24, 0x45, 0x41, 0x3a, 0x7f, 0xda, 0x16, 0x8b,
  0xba, 0x05, 0x2f, 0x20, 0xd5, 0x0a, 0x6d, 0x94, 0xa4, 0xe6, 0x0f, 0x63, 0x0f,
  0xf2, 0x09, 0x6e, 0x25, 0xcc, 0x7f, 0xfb, 0x4d, 0x4c, 0xeb, 0xf0, 0xe1, 0xd4,
  0x24, 0x37, 0xa2, 0x04, 0xe8, 0x4d, 0x03, 0x54, 0x34, 0x29, 0x18, 0x10, 0x0e,
  0x81, 0x03, 0x09, 0xd1, 0x1c, 0xf1, 0x12, 0xe6, 0x7f, 0x7b, 0x01, 0xf9, 0xd7,
  0xfb, 0x00, 0xf2, 0xf0, 0xf6, 0x03, 0xb9, 0xfd, 0x2b, 0xf0, 0xce, 0xf9, 0x0c,
  0xb1, 0xc5, 0x02, 0xec, 0x37, 0x09, 0x18, 0x81, 0x7e, 0xdc, 0x3f, 0xfe, 0x48,
  0xf9, 0xe2, 0x01, 0x2c, 0xd0, 0x37, 0xf0, 0x10, 0xff, 0xfc, 0x10, 0x7f, 0x1e,
  0xe6, 0xdc, 0xd5, 0x05, 0xa5, 0xd9, 0xf1, 0x09, 0xff, 0x0e, 0xd8, 0xd6, 0x21,
  0x26, 0xfb, 0x17, 0xf8, 0x07, 0x25, 0x72, 0xa6, 0xb7, 0xe9, 0xe4, 0x05, 0x81,
  0xf5, 0x00, 0xe5, 0x10, 0xf6, 0xc5, 0x35, 0x7a, 0xf9, 0x81, 0x18, 0x0f, 0x09,
  0x31, 0xdc, 0xbd, 0x17, 0xff, 0xec, 0xd2, 0x0d, 0xf4, 0xef, 0xc3, 0xe6, 0x12,
  0x21, 0x12, 0x13, 0x11, 0x13, 0x07, 0x17, 0x01, 0x0a, 0x0e, 0xee, 0x0f, 0xf4,
  0x15, 0xeb, 0x00, 0x10, 0x5c, 0xfb, 0x7f, 0xf8, 0x0e, 0xc7, 0x0f, 0xeb, 0xd5,
  0xca, 0x03, 0x26, 0x44, 0xc8, 0xf8, 0x81, 0xe4, 0x1e, 0x13, 0xfd, 0x0c, 0xf9,
  0x72, 0x26, 0xf9, 0xdb, 0x28, 0x81, 0xdc, 0xa9, 0x17, 0x43, 0x1b, 0x37, 0xd5,
  0xf2, 0x13, 0x26, 0x16, 0xed, 0xfa, 0xf1, 0x47, 0x28, 0x06, 0xfa, 0xfb, 0xff,
  0xff, 0x04, 0x00, 0x00, 0x00, 0x78, 0x00, 0x00, 0x00, 0x00, 0x00, 0x00, 0x00,
  0x00, 0x00, 0x00, 0x00, 0x00, 0x00, 0x00, 0x00, 0x00, 0x00, 0x00, 0x00, 0x00,
  0x00, 0x00, 0x00, 0x00, 0x00, 0x00, 0x00, 0x00, 0x00, 0x00, 0x00, 0x00, 0x00,
  0x00, 0x00, 0x00, 0x00, 0x00, 0x00, 0x00, 0x00, 0x00, 0x00, 0x00, 0x00, 0x00,
  0x00, 0x00, 0x00, 0x00, 0x00, 0x00, 0x00, 0x00, 0x00, 0x00, 0x00, 0x00, 0x00,
  0x00, 0x00, 0x00, 0x00, 0x00, 0x00, 0x00, 0x00, 0x00, 0x00, 0x00, 0x00, 0x00,
  0x00, 0x00, 0x00, 0x00, 0x00, 0x00, 0x00, 0x00, 0x00, 0x00, 0x00, 0x00, 0x00,
  0x00, 0x00, 0x00, 0x00, 0x00, 0x00, 0x00, 0x00, 0x00, 0x00, 0x00, 0x00, 0x00,
  0x00, 0x00, 0x00, 0x00, 0x00, 0x00, 0x00, 0x00, 0x00, 0x00, 0x00, 0x00, 0x00,
  0x00, 0x00, 0x00, 0x00, 0x00, 0x00, 0x00, 0x00, 0x00, 0x00, 0x00, 0x00, 0x7e,
  0xfc, 0xff, 0xff, 0x04, 0x00, 0x00, 0x00, 0x3c, 0x00, 0x00, 0x00, 0x9b, 0x77,
  0x48, 0x7f, 0x81, 0x81, 0x81, 0xe8, 0x9c, 0xf3, 0x08, 0x7f, 0x52, 0x7f, 0x7f,
  0x81, 0x7e, 0x00, 0x18, 0x81, 0x7f, 0x81, 0x7f, 0xfb, 0x2d, 0xb2, 0x37, 0xcf,
  0xe1, 0x81, 0x7f, 0xff, 0x81, 0xf6, 0xcd, 0xca, 0x7a, 0x81, 0x81, 0x8b, 0xe9,
  0xac, 0xf4, 0x08, 0x54, 0xfb, 0xeb, 0x7f, 0x7f, 0xe0, 0xfc, 0x46, 0x17, 0x2e,
  0xdd, 0x0d, 0x7f, 0x70, 0x6c, 0xfd, 0xc6, 0xfc, 0xff, 0xff, 0x04, 0x00, 0x00,
  0x00, 0x3c, 0x00, 0x00, 0x00, 0x1a, 0x1c, 0xa3, 0x1c, 0x9f, 0x7f, 0x09, 0x9d,
  0x01, 0x42, 0x98, 0xb8, 0x02, 0x7f, 0x59, 0x2a, 0x14, 0x0a, 0x1e, 0x7f, 0x7f,
  0x22, 0x7f, 0x7f, 0xe4, 0xee, 0x7f, 0x7f, 0x7f, 0x81, 0xee, 0x51, 0x81, 0x23,
  0x81, 0x5e, 0xe6, 0x81, 0x21, 0xfa, 0xe9, 0x81, 0xde, 0x21, 0x7f, 0x17, 0x6d,
  0x04, 0x3e, 0x20, 0x7f, 0x7f, 0xb6, 0x10, 0x1b, 0x81, 0x7f, 0x66, 0x7f, 0x38,
  0x0e, 0xfd, 0xff, 0xff, 0x04, 0x00, 0x00, 0x00, 0x14, 0x00, 0x00, 0x00, 0x7f,
  0x7f, 0x7f, 0x81, 0x81, 0x7f, 0x81, 0x7f, 0x81, 0x7f, 0x7f, 0x7f, 0x81, 0x7f,
  0x7f, 0x7f, 0x7f, 0x81, 0x81, 0x7f, 0x2e, 0xfd, 0xff, 0xff, 0x04, 0x00, 0x00,
  0x00, 0xa0, 0x00, 0x00, 0x00, 0x00, 0x00, 0x00, 0x00, 0x00, 0x00, 0x00, 0x00,
  0x00, 0x00, 0x00, 0x00, 0x00, 0x00, 0x00, 0x00, 0x00, 0x00, 0x00, 0x00, 0x00,
  0x00, 0x00, 0x00, 0x00, 0x00, 0x00, 0x00, 0x00, 0x00, 0x00, 0x00, 0x00, 0x00,
  0x00, 0x00, 0x00, 0x00, 0x00, 0x00, 0x00, 0x00, 0x00, 0x00, 0x00, 0x00, 0x00,
  0x00, 0x00, 0x00, 0x00, 0x00, 0x00, 0x00, 0x00, 0x00, 0x00, 0x00, 0x00, 0x00,
  0x00, 0x00, 0x00, 0x00, 0x00, 0x00, 0x00, 0x00, 0x00, 0x00, 0x00, 0x00, 0x00,
  0x00, 0x00, 0x00, 0x00, 0x00, 0x00, 0x00, 0x00, 0x00, 0x00, 0x00, 0x00, 0x00,
  0x00, 0x00, 0x00, 0x00, 0x00, 0x00, 0x00, 0x00, 0x00, 0x00, 0x00, 0x00, 0x00,
  0x00, 0x00, 0x00, 0x00, 0x00, 0x00, 0x00, 0x00, 0x00, 0x00, 0x00, 0x00, 0x00,
  0x00, 0x00, 0x00, 0x00, 0x00, 0x00, 0x00, 0x00, 0x00, 0x00, 0x00, 0x00, 0x00,
  0x00, 0x00, 0x00, 0x00, 0x00, 0x00, 0x00, 0x00, 0x00, 0x00, 0x00, 0x00, 0x00,
  0x00, 0x00, 0x00, 0x00, 0x00, 0x00, 0x00, 0x00, 0x00, 0x00, 0x00, 0x00, 0x00,
  0x00, 0x00, 0x00, 0x00, 0x00, 0x00, 0x00, 0x00, 0x00, 0xda, 0xfd, 0xff, 0xff,
  0x04, 0x00, 0x00, 0x00, 0x05, 0x00, 0x00, 0x00, 0xff, 0x7f, 0xe1, 0x09, 0xfe,
  0x00, 0x00, 0x00, 0xee, 0xfd, 0xff, 0xff, 0x04, 0x00, 0x00, 0x00, 0x05, 0x00,
  0x00, 0x00, 0xd2, 0x7f, 0x65, 0x05, 0xf7, 0x00, 0x00, 0x00, 0x02, 0xfe, 0xff,
  0xff, 0x04, 0x00, 0x00, 0x00, 0x08, 0x00, 0x00, 0x00, 0x00, 0x00, 0x00, 0x00,
  0x00, 0x00, 0x00, 0x00, 0x16, 0xfe, 0xff, 0xff, 0x04, 0x00, 0x00, 0x00, 0x20,
  0x00, 0x00, 0x00, 0x00, 0x00, 0x00, 0x00, 0x00, 0x00, 0x00, 0x00, 0x02, 0x00,
  0x00, 0x00, 0x02, 0x00, 0x00, 0x00, 0x02, 0x00, 0x00, 0x00, 0x02, 0x00, 0x00,
  0x00, 0x00, 0x00, 0x00, 0x00, 0x00, 0x00, 0x00, 0x00, 0x42, 0xfe, 0xff, 0xff,
  0x04, 0x00, 0x00, 0x00, 0x78, 0x00, 0x00, 0x00, 0xea, 0x29, 0x00, 0x00, 0x00,
  0x00, 0x00, 0x00, 0x5a, 0xe7, 0xfb, 0xff, 0xff, 0xff, 0xff, 0xff, 0xdc, 0xba,
  0x00, 0x00, 0x00, 0x00, 0x00, 0x00, 0x92, 0xdf, 0xff, 0xff, 0xff, 0xff, 0xff,
  0xff, 0x78, 0xa6, 0xff, 0xff, 0xff, 0xff, 0xff, 0xff, 0x36, 0x8f, 0x01, 0x00,
  0x00, 0x00, 0x00, 0x00, 0xd7, 0x5b, 0x00, 0x00, 0x00, 0x00, 0x00, 0x00, 0xfa,
  0x09, 0xff, 0xff, 0xff, 0xff, 0xff, 0xff, 0x93, 0xff, 0xfe, 0xff, 0xff, 0xff,
  0xff, 0xff, 0x39, 0xc8, 0x01, 0x00, 0x00, 0x00, 0x00, 0x00, 0x47, 0x6f, 0x02,
  0x00, 0x00, 0x00, 0x00, 0x00, 0x06, 0x44, 0x00, 0x00, 0x00, 0x00, 0x00, 0x00,
  0x23, 0xab, 0x00, 0x00, 0x00, 0x00, 0x00, 0x00, 0x34, 0x7a, 0xff, 0xff, 0xff,
  0xff, 0xff, 0xff, 0xa2, 0x0b, 0x00, 0x00, 0x00, 0x00, 0x00, 0x00, 0xc6, 0xfe,
  0xff, 0xff, 0x04, 0x00, 0x00, 0x00, 0x60, 0x00, 0x00, 0x00, 0xdd, 0xe0, 0xdb,
  0xff, 0xff, 0xff, 0xff, 0xff, 0xfb, 0xe3, 0xff, 0xff, 0xff, 0xff, 0xff, 0xff,
  0xba, 0x9c, 0xfe, 0xff, 0xff, 0xff, 0xff, 0xff, 0x6e, 0xb5, 0xff, 0xff, 0xff,
  0xff, 0xff, 0xff, 0xa3, 0x26, 0xff, 0xff, 0xff, 0xff, 0xff, 0xff, 0x7c, 0x66,
  0x00, 0x00, 0x00, 0x00, 0x00, 0x00, 0xcd, 0xcf, 0xff, 0xff, 0xff, 0xff, 0xff,
  0xff, 0xe8, 0xa0, 0xff, 0xff, 0xff, 0xff, 0xff, 0xff, 0x83, 0x4f, 0xff, 0xff,
  0xff, 0xff, 0xff, 0xff, 0x86, 0xd1, 0x01, 0x00, 0x00, 0x00, 0x00, 0x00, 0xfe,
  0x87, 0xff, 0xff, 0xff, 0xff, 0xff, 0xff, 0x51, 0x16, 0xfe, 0xff, 0xff, 0xff,
  0xff, 0xff, 0x32, 0xff, 0xff, 0xff, 0x04, 0x00, 0x00, 0x00, 0x48, 0x00, 0x00,
  0x00, 0x3e, 0x30, 0xff, 0xff, 0xff, 0xff, 0xff, 0xff, 0x1c, 0x66, 0xff, 0xff,
  0xff, 0xff, 0xff, 0xff, 0x33, 0x00, 0xff, 0xff, 0xff, 0xff, 0xff, 0xff, 0xe1,
  0x0d, 0x00, 0x00, 0x00, 0x00, 0x00, 0x00, 0x43, 0x0e, 0x00, 0x00, 0x00, 0x00,
  0x00, 0x00, 0x92, 0x54, 0xff, 0xff, 0xff, 0xff, 0xff, 0xff, 0x87, 0x0e, 0x00,
  0x00, 0x00, 0x00, 0x00, 0x00, 0x3c, 0xaa, 0xff, 0xff, 0xff, 0xff, 0xff, 0xff,
  0x88, 0x03, 0x01, 0x00, 0x00, 0x00, 0x00, 0x00, 0x86, 0xff, 0xff, 0xff, 0x04,
  0x00, 0x00, 0x00, 0x38, 0x00, 0x00, 0x00, 0x88, 0x24, 0x00, 0x00, 0x00, 0x00,
  0x00, 0x00, 0x63, 0xf2, 0xff, 0xff, 0xff, 0xff, 0xff, 0xff, 0x4e, 0xdf, 0xfe,
  0xff, 0xff, 0xff, 0xff, 0xff, 0xd9, 0x44, 0x04, 0x00, 0x00, 0x00, 0x00, 0x00,
  0xb7, 0xad, 0x00, 0x00, 0x00, 0x00, 0x00, 0x00, 0xab, 0xfb, 0xf9, 0xff, 0xff,
  0xff, 0xff, 0xff, 0x7d, 0x10, 0x00, 0x00, 0x00, 0x00, 0x00, 0x00, 0xca, 0xff,
  0xff, 0xff, 0x04, 0x00, 0x00, 0x00, 0x28, 0x00, 0x00, 0x00, 0xff, 0xf6, 0x02,
  0x00, 0x00, 0x00, 0x00, 0x00, 0xad, 0xe7, 0x00, 0x00, 0x00, 0x00, 0x00, 0x00,
  0x38, 0x37, 0xfc, 0xff, 0xff, 0xff, 0xff, 0xff, 0xc2, 0xaf, 0xfc, 0xff, 0xff,
  0xff, 0xff, 0xff, 0x4c, 0x8a, 0xf0, 0xff, 0xff, 0xff, 0xff, 0xff, 0x00, 0x00,
  0x06, 0x00, 0x08, 0x00, 0x04, 0x00, 0x06, 0x00, 0x00, 0x00, 0x04, 0x00, 0x00,
  0x00, 0x28, 0x00, 0x00, 0x00, 0x9e, 0x17, 0xfe, 0xff, 0xff, 0xff, 0xff, 0xff,
  0x7f, 0x45, 0x00, 0x00, 0x00, 0x00, 0x00, 0x00, 0xa4, 0xc8, 0xf8, 0xff, 0xff,
  0xff, 0xff, 0xff, 0x68, 0x26, 0xff, 0xff, 0xff, 0xff, 0xff, 0xff, 0xd0, 0x46,
  0xfe, 0xff, 0xff, 0xff, 0xff, 0xff, 0x48, 0x7d, 0xff, 0xff, 0x4c, 0x7d, 0xff,
  0xff, 0x0f, 0x00, 0x00, 0x00, 0x4d, 0x4c, 0x49, 0x52, 0x20, 0x43, 0x6f, 0x6e,
  0x76, 0x65, 0x72, 0x74, 0x65, 0x64, 0x2e, 0x00, 0x01, 0x00, 0x00, 0x00, 0x14,
  0x00, 0x00, 0x00, 0x00, 0x00, 0x0e, 0x00, 0x18, 0x00, 0x14, 0x00, 0x10, 0x00,
  0x0c, 0x00, 0x08, 0x00, 0x04, 0x00, 0x0e, 0x00, 0x00, 0x00, 0x14, 0x00, 0x00,
  0x00, 0x1c, 0x00, 0x00, 0x00, 0x50, 0x11, 0x00, 0x00, 0x54, 0x11, 0x00, 0x00,
  0x58, 0x11, 0x00, 0x00, 0x04, 0x00, 0x00, 0x00, 0x6d, 0x61, 0x69, 0x6e, 0x00,
  0x00, 0x00, 0x00, 0x42, 0x00, 0x00, 0x00, 0x14, 0x11, 0x00, 0x00, 0xd8, 0x10,
  0x00, 0x00, 0x78, 0x10, 0x00, 0x00, 0x24, 0x10, 0x00, 0x00, 0xd8, 0x0f, 0x00,
  0x00, 0x94, 0x0f, 0x00, 0x00, 0x50, 0x0f, 0x00, 0x00, 0x00, 0x0f, 0x00, 0x00,
  0xbc, 0x0e, 0x00, 0x00, 0x78, 0x0e, 0x00, 0x00, 0x38, 0x0e, 0x00, 0x00, 0xf4,
  0x0d, 0x00, 0x00, 0xb0, 0x0d, 0x00, 0x00, 0x70, 0x0d, 0x00, 0x00, 0x30, 0x0d,
  0x00, 0x00, 0xec, 0x0c, 0x00, 0x00, 0xa8, 0x0c, 0x00, 0x00, 0x64, 0x0c, 0x00,
  0x00, 0x20, 0x0c, 0x00, 0x00, 0xdc, 0x0b, 0x00, 0x00, 0x9c, 0x0b, 0x00, 0x00,
  0x58, 0x0b, 0x00, 0x00, 0x14, 0x0b, 0x00, 0x00, 0xd4, 0x0a, 0x00, 0x00, 0x9c,
  0x0a, 0x00, 0x00, 0x58, 0x0a, 0x00, 0x00, 0x14, 0x0a, 0x00, 0x00, 0xd0, 0x09,
  0x00, 0x00, 0x8c, 0x09, 0x00, 0x00, 0x48, 0x09, 0x00, 0x00, 0x08, 0x09, 0x00,
  0x00, 0xc4, 0x08, 0x00, 0x00, 0x80, 0x08, 0x00, 0x00, 0x40, 0x08, 0x00, 0x00,
  0x08, 0x08, 0x00, 0x00, 0xc4, 0x07, 0x00, 0x00, 0x80, 0x07, 0x00, 0x00, 0x3c,
  0x07, 0x00, 0x00, 0xf8, 0x06, 0x00, 0x00, 0xb4, 0x06, 0x00, 0x00, 0x74, 0x06,
  0x00, 0x00, 0x30, 0x06, 0x00, 0x00, 0xec, 0x05, 0x00, 0x00, 0xac, 0x05, 0x00,
  0x00, 0x74, 0x05, 0x00, 0x00, 0x30, 0x05, 0x00, 0x00, 0xec, 0x04, 0x00, 0x00,
  0xa8, 0x04, 0x00, 0x00, 0x64, 0x04, 0x00, 0x00, 0x20, 0x04, 0x00, 0x00, 0xe0,
  0x03, 0x00, 0x00, 0x9c, 0x03, 0x00, 0x00, 0x58, 0x03, 0x00, 0x00, 0x18, 0x03,
  0x00, 0x00, 0xe0, 0x02, 0x00, 0x00, 0x9c, 0x02, 0x00, 0x00, 0x58, 0x02, 0x00,
  0x00, 0x14, 0x02, 0x00, 0x00, 0xd0, 0x01, 0x00, 0x00, 0x8c, 0x01, 0x00, 0x00,
  0x4c, 0x01, 0x00, 0x00, 0x14, 0x01, 0x00, 0x00, 0xc0, 0x00, 0x00, 0x00, 0x78,
  0x00, 0x00, 0x00, 0x28, 0x00, 0x00, 0x00, 0x04, 0x00, 0x00, 0x00, 0xfe, 0xef,
  0xff, 0xff, 0x0c, 0x00, 0x00, 0x00, 0x10, 0x00, 0x00, 0x00, 0x05, 0x00, 0x00,
  0x00, 0x01, 0x00, 0x00, 0x00, 0x91, 0x00, 0x00, 0x00, 0x01, 0x00, 0x00, 0x00,
  0x8f, 0x00, 0x00, 0x00, 0xb6, 0xf0, 0xff, 0xff, 0x20, 0x00, 0x00, 0x00, 0x00,
  0x00, 0x00, 0x01, 0x28, 0x00, 0x00, 0x00, 0x2c, 0x00, 0x00, 0x00, 0x02, 0x00,
  0x00, 0x00, 0x00, 0x00, 0x0a, 0x00, 0x10, 0x00, 0x0f, 0x00, 0x08, 0x00, 0x04,
  0x00, 0x0a, 0x00, 0x00, 0x00, 0x01, 0x00, 0x00, 0x00, 0x01, 0x00, 0x00, 0x00,
  0x00, 0x00, 0x00, 0x01, 0x01, 0x00, 0x00, 0x00, 0x8f, 0x00, 0x00, 0x00, 0x03,
  0x00, 0x00, 0x00, 0x8e, 0x00, 0x00, 0x00, 0x47, 0x00, 0x00, 0x00, 0x4f, 0x00,
  0x00, 0x00, 0x02, 0xf1, 0xff, 0xff, 0x14, 0x00, 0x00, 0x00, 0x00, 0x00, 0x00,
  0x02, 0x20, 0x00, 0x00, 0x00, 0x24, 0x00, 0x00, 0x00, 0x01, 0x00, 0x00, 0x00,
  0xbc, 0xff, 0xff, 0xff, 0x01, 0x00, 0x00, 0x00, 0x01, 0x00, 0x00, 0x00, 0x01,
  0x00, 0x00, 0x00, 0x00, 0x00, 0x00, 0x01, 0x01, 0x00, 0x00, 0x00, 0x8e, 0x00,
  0x00, 0x00, 0x03, 0x00, 0x00, 0x00, 0x8d, 0x00, 0x00, 0x00, 0x46, 0x00, 0x00,
  0x00, 0x37, 0x00, 0x00, 0x00, 0x46, 0xf1, 0xff, 0xff, 0x20, 0x00, 0x00, 0x00,
  0x00, 0x00, 0x00, 0x02, 0x2c, 0x00, 0x00, 0x00, 0x30, 0x00, 0x00, 0x00, 0x01,
  0x00, 0x00, 0x00, 0x0c, 0x00, 0x14, 0x00, 0x13, 0x00, 0x0c, 0x00, 0x08, 0x00,
  0x04, 0x00, 0x0c, 0x00, 0x00, 0x00, 0x01, 0x00, 0x00, 0x00, 0x01, 0x00, 0x00,
  0x00, 0x01, 0x00, 0x00, 0x00, 0x00, 0x00, 0x00, 0x01, 0x01, 0x00, 0x00, 0x00,
  0x8d, 0x00, 0x00, 0x00, 0x03, 0x00, 0x00, 0x00, 0x8c, 0x00, 0x00, 0x00, 0x45,
  0x00, 0x00, 0x00, 0x37, 0x00, 0x00, 0x00, 0x96, 0xf1, 0xff, 0xff, 0x14, 0x00,
  0x00, 0x00, 0x00, 0x00, 0x00, 0x0b, 0x14, 0x00, 0x00, 0x00, 0x18, 0x00, 0x00,
  0x00, 0x03, 0x00, 0x00, 0x00, 0xa0, 0xf4, 0xff, 0xff, 0x00, 0x00, 0x00, 0x00,
  0x01, 0x00, 0x00, 0x00, 0x8c, 0x00, 0x00, 0x00, 0x02, 0x00, 0x00, 0x00, 0x85,
  0x00, 0x00, 0x00, 0x8b, 0x00, 0x00, 0x00, 0xca, 0xf1, 0xff, 0xff, 0x14, 0x00,
  0x00, 0x00, 0x00, 0x00, 0x00, 0x01, 0x18, 0x00, 0x00, 0x00, 0x1c, 0x00, 0x00,
  0x00, 0x02, 0x00, 0x00, 0x00, 0x52, 0xf2, 0xff, 0xff, 0x01, 0x00, 0x00, 0x00,
  0x01, 0x00, 0x00, 0x00, 0x01, 0x00, 0x00, 0x00, 0x8b, 0x00, 0x00, 0x00, 0x03,
  0x00, 0x00, 0x00, 0x8a, 0x00, 0x00, 0x00, 0x44, 0x00, 0x00, 0x00, 0x4e, 0x00,
  0x00, 0x00, 0x06, 0xf2, 0xff, 0xff, 0x14, 0x00, 0x00, 0x00, 0x00, 0x00, 0x00,
  0x02, 0x1c, 0x00, 0x00, 0x00, 0x20, 0x00, 0x00, 0x00, 0x01, 0x00, 0x00, 0x00,
  0xf8, 0xf1, 0xff, 0xff, 0x01, 0x00, 0x00, 0x00, 0x01, 0x00, 0x00, 0x00, 0x01,
  0x00, 0x00, 0x00, 0x01, 0x00, 0x00, 0x00, 0x8a, 0x00, 0x00, 0x00, 0x03, 0x00,
  0x00, 0x00, 0x89, 0x00, 0x00, 0x00, 0x43, 0x00, 0x00, 0x00, 0x37, 0x00, 0x00,
  0x00, 0x46, 0xf2, 0xff, 0xff, 0x14, 0x00, 0x00, 0x00, 0x00, 0x00, 0x00, 0x02,
  0x1c, 0x00, 0x00, 0x00, 0x20, 0x00, 0x00, 0x00, 0x01, 0x00, 0x00, 0x00, 0x38,
  0xf2, 0xff, 0xff, 0x01, 0x00, 0x00, 0x00, 0x01, 0x00, 0x00, 0x00, 0x01, 0x00,
  0x00, 0x00, 0x01, 0x00, 0x00, 0x00, 0x89, 0x00, 0x00, 0x00, 0x03, 0x00, 0x00,
  0x00, 0x88, 0x00, 0x00, 0x00, 0x42, 0x00, 0x00, 0x00, 0x37, 0x00, 0x00, 0x00,
  0x86, 0xf2, 0xff, 0xff, 0x14, 0x00, 0x00, 0x00, 0x00, 0x00, 0x00, 0x01, 0x1c,
  0x00, 0x00, 0x00, 0x20, 0x00, 0x00, 0x00, 0x02, 0x00, 0x00, 0x00, 0xdc, 0xf3,
  0xff, 0xff, 0x00, 0x00, 0x00, 0x01, 0x01, 0x00, 0x00, 0x00, 0x01, 0x00, 0x00,
  0x00, 0x01, 0x00, 0x00, 0x00, 0x88, 0x00, 0x00, 0x00, 0x03, 0x00, 0x00, 0x00,
  0x87, 0x00, 0x00, 0x00, 0x41, 0x00, 0x00, 0x00, 0x01, 0x00, 0x00, 0x00, 0xc6,
  0xf2, 0xff, 0xff, 0x14, 0x00, 0x00, 0x00, 0x00, 0x00, 0x00, 0x02, 0x1c, 0x00,
  0x00, 0x00, 0x20, 0x00, 0x00, 0x00, 0x01, 0x00, 0x00, 0x00, 0xb8, 0xf2, 0xff,
  0xff, 0x01, 0x00, 0x00, 0x00, 0x01, 0x00, 0x00, 0x00, 0x01, 0x00, 0x00, 0x00,
  0x01, 0x00, 0x00, 0x00, 0x87, 0x00, 0x00, 0x00, 0x03, 0x00, 0x00, 0x00, 0x86,
  0x00, 0x00, 0x00, 0x40, 0x00, 0x00, 0x00, 0x37, 0x00, 0x00, 0x00, 0x06, 0xf3,
  0xff, 0xff, 0x14, 0x00, 0x00, 0x00, 0x00, 0x00, 0x00, 0x02, 0x1c, 0x00, 0x00,
  0x00, 0x20, 0x00, 0x00, 0x00, 0x01, 0x00, 0x00, 0x00, 0xf8, 0xf2, 0xff, 0xff,
  0x01, 0x00, 0x00, 0x00, 0x01, 0x00, 0x00, 0x00, 0x01, 0x00, 0x00, 0x00, 0x01,
  0x00, 0x00, 0x00, 0x86, 0x00, 0x00, 0x00, 0x03, 0x00, 0x00, 0x00, 0x85, 0x00,
  0x00, 0x00, 0x3f, 0x00, 0x00, 0x00, 0x37, 0x00, 0x00, 0x00, 0x46, 0xf3, 0xff,
  0xff, 0x14, 0x00, 0x00, 0x00, 0x00, 0x00, 0x00, 0x0b, 0x14, 0x00, 0x00, 0x00,
  0x18, 0x00, 0x00, 0x00, 0x03, 0x00, 0x00, 0x00, 0x50, 0xf6, 0xff, 0xff, 0x00,
  0x00, 0x00, 0x00, 0x01, 0x00, 0x00, 0x00, 0x85, 0x00, 0x00, 0x00, 0x02, 0x00,
  0x00, 0x00, 0x84, 0x00, 0x00, 0x00, 0x81, 0x00, 0x00, 0x00, 0x7a, 0xf3, 0xff,
  0xff, 0x14, 0x00, 0x00, 0x00, 0x00, 0x00, 0x00, 0x01, 0x18, 0x00, 0x00, 0x00,
  0x1c, 0x00, 0x00, 0x00, 0x02, 0x00, 0x00, 0x00, 0x02, 0xf4, 0xff, 0xff, 0x01,
  0x00, 0x00, 0x00, 0x01, 0x00, 0x00, 0x00, 0x01, 0x00, 0x00, 0x00, 0x84, 0x00,
  0x00, 0x00, 0x03, 0x00, 0x00, 0x00, 0x83, 0x00, 0x00, 0x00, 0x3e, 0x00, 0x00,
  0x00, 0x4d, 0x00, 0x00, 0x00, 0xb6, 0xf3, 0xff, 0xff, 0x14, 0x00, 0x00, 0x00,
  0x00, 0x00, 0x00, 0x02, 0x1c, 0x00, 0x00, 0x00, 0x20, 0x00, 0x00, 0x00, 0x01,
  0x00, 0x00, 0x00, 0xa8, 0xf3, 0xff, 0xff, 0x01, 0x00, 0x00, 0x00, 0x01, 0x00,
  0x00, 0x00, 0x01, 0x00, 0x00, 0x00, 0x01, 0x00, 0x00, 0x00, 0x83, 0x00, 0x00,
  0x00, 0x03, 0x00, 0x00, 0x00, 0x82, 0x00, 0x00, 0x00, 0x3d, 0x00, 0x00, 0x00,
  0x2d, 0x00, 0x00, 0x00, 0xf6, 0xf3, 0xff, 0xff, 0x14, 0x00, 0x00, 0x00, 0x00,
  0x00, 0x00, 0x02, 0x1c, 0x00, 0x00, 0x00, 0x20, 0x00, 0x00, 0x00, 0x01, 0x00,
  0x00, 0x00, 0xe8, 0xf3, 0xff, 0xff, 0x01, 0x00, 0x00, 0x00, 0x01, 0x00, 0x00,
  0x00, 0x01, 0x00, 0x00, 0x00, 0x01, 0x00, 0x00, 0x00, 0x82, 0x00, 0x00, 0x00,
  0x03, 0x00, 0x00, 0x00, 0x7b, 0x00, 0x00, 0x00, 0x3c, 0x00, 0x00, 0x00, 0x2d,
  0x00, 0x00, 0x00, 0x36, 0xf4, 0xff, 0xff, 0x14, 0x00, 0x00, 0x00, 0x00, 0x00,
  0x00, 0x01, 0x18, 0x00, 0x00, 0x00, 0x1c, 0x00, 0x00, 0x00, 0x02, 0x00, 0x00,
  0x00, 0xbe, 0xf4, 0xff, 0xff, 0x01, 0x00, 0x00, 0x00, 0x01, 0x00, 0x00, 0x00,
  0x01, 0x00, 0x00, 0x00, 0x81, 0x00, 0x00, 0x00, 0x03, 0x00, 0x00, 0x00, 0x80,
  0x00, 0x00, 0x00, 0x3b, 0x00, 0x00, 0x00, 0x4d, 0x00, 0x00, 0x00, 0x72, 0xf4,
  0xff, 0xff, 0x14, 0x00, 0x00, 0x00, 0x00, 0x00, 0x00, 0x02, 0x1c, 0x00, 0x00,
  0x00, 0x20, 0x00, 0x00, 0x00, 0x01, 0x00, 0x00, 0x00, 0x64, 0xf4, 0xff, 0xff,
  0x01, 0x00, 0x00, 0x00, 0x01, 0x00, 0x00, 0x00, 0x01, 0x00, 0x00, 0x00, 0x01,
  0x00, 0x00, 0x00, 0x80, 0x00, 0x00, 0x00, 0x03, 0x00, 0x00, 0x00, 0x7f, 0x00,
  0x00, 0x00, 0x3a, 0x00, 0x00, 0x00, 0x37, 0x00, 0x00, 0x00, 0xb2, 0xf4, 0xff,
  0xff, 0x14, 0x00, 0x00, 0x00, 0x00, 0x00, 0x00, 0x02, 0x1c, 0x00, 0x00, 0x00,
  0x20, 0x00, 0x00, 0x00, 0x01, 0x00, 0x00, 0x00, 0xa4, 0xf4, 0xff, 0xff, 0x01,
  0x00, 0x00, 0x00, 0x01, 0x00, 0x00, 0x00, 0x01, 0x00, 0x00, 0x00, 0x01, 0x00,
  0x00, 0x00, 0x7f, 0x00, 0x00, 0x00, 0x03, 0x00, 0x00, 0x00, 0x7e, 0x00, 0x00,
  0x00, 0x39, 0x00, 0x00, 0x00, 0x37, 0x00, 0x00, 0x00, 0xf2, 0xf4, 0xff, 0xff,
  0x14, 0x00, 0x00, 0x00, 0x00, 0x00, 0x00, 0x01, 0x1c, 0x00, 0x00, 0x00, 0x20,
  0x00, 0x00, 0x00, 0x02, 0x00, 0x00, 0x00, 0x48, 0xf6, 0xff, 0xff, 0x00, 0x00,
  0x00, 0x01, 0x01, 0x00, 0x00, 0x00, 0x01, 0x00, 0x00, 0x00, 0x01, 0x00, 0x00,
  0x00, 0x7e, 0x00, 0x00, 0x00, 0x03, 0x00, 0x00, 0x00, 0x7d, 0x00, 0x00, 0x00,
  0x38, 0x00, 0x00, 0x00, 0x02, 0x00, 0x00, 0x00, 0x32, 0xf5, 0xff, 0xff, 0x14,
  0x00, 0x00, 0x00, 0x00, 0x00, 0x00, 0x02, 0x1c, 0x00, 0x00, 0x00, 0x20, 0x00,
  0x00, 0x00, 0x01, 0x00, 0x00, 0x00, 0x24, 0xf5, 0xff, 0xff, 0x01, 0x00, 0x00,
  0x00, 0x01, 0x00, 0x00, 0x00, 0x01, 0x00, 0x00, 0x00, 0x01, 0x00, 0x00, 0x00,
  0x7d, 0x00, 0x00, 0x00, 0x03, 0x00, 0x00, 0x00, 0x7c, 0x00, 0x00, 0x00, 0x36,
  0x00, 0x00, 0x00, 0x2d, 0x00, 0x00, 0x00, 0x72, 0xf5, 0xff, 0xff, 0x14, 0x00,
  0x00, 0x00, 0x00, 0x00, 0x00, 0x02, 0x1c, 0x00, 0x00, 0x00, 0x20, 0x00, 0x00,
  0x00, 0x01, 0x00, 0x00, 0x00, 0x64, 0xf5, 0xff, 0xff, 0x01, 0x00, 0x00, 0x00,
  0x01, 0x00, 0x00, 0x00, 0x01, 0x00, 0x00, 0x00, 0x01, 0x00, 0x00, 0x00, 0x7c,
  0x00, 0x00, 0x00, 0x03, 0x00, 0x00, 0x00, 0x7b, 0x00, 0x00, 0x00, 0x35, 0x00,
  0x00, 0x00, 0x2d, 0x00, 0x00, 0x00, 0xb2, 0xf5, 0xff, 0xff, 0x14, 0x00, 0x00,
  0x00, 0x00, 0x00, 0x00, 0x0b, 0x14, 0x00, 0x00, 0x00, 0x18, 0x00, 0x00, 0x00,
  0x03, 0x00, 0x00, 0x00, 0xbc, 0xf8, 0xff, 0xff, 0x00, 0x00, 0x00, 0x00, 0x01,
  0x00, 0x00, 0x00, 0x7b, 0x00, 0x00, 0x00, 0x02, 0x00, 0x00, 0x00, 0x7a, 0x00,
  0x00, 0x00, 0x77, 0x00, 0x00, 0x00, 0xe6, 0xf5, 0xff, 0xff, 0x14, 0x00, 0x00,
  0x00, 0x00, 0x00, 0x00, 0x01, 0x18, 0x00, 0x00, 0x00, 0x1c, 0x00, 0x00, 0x00,
  0x02, 0x00, 0x00, 0x00, 0x6e, 0xf6, 0xff, 0xff, 0x01, 0x00, 0x00, 0x00, 0x01,
  0x00, 0x00, 0x00, 0x01, 0x00, 0x00, 0x00, 0x7a, 0x00, 0x00, 0x00, 0x03, 0x00,
  0x00, 0x00, 0x79, 0x00, 0x00, 0x00, 0x34, 0x00, 0x00, 0x00, 0x4c, 0x00, 0x00,
  0x00, 0x22, 0xf6, 0xff, 0xff, 0x14, 0x00, 0x00, 0x00, 0x00, 0x00, 0x00, 0x02,
  0x1c, 0x00, 0x00, 0x00, 0x20, 0x00, 0x00, 0x00, 0x01, 0x00, 0x00, 0x00, 0x14,
  0xf6, 0xff, 0xff, 0x01, 0x00, 0x00, 0x00, 0x01, 0x00, 0x00, 0x00, 0x01, 0x00,
  0x00, 0x00, 0x01, 0x00, 0x00, 0x00, 0x79, 0x00, 0x00, 0x00, 0x03, 0x00, 0x00,
  0x00, 0x78, 0x00, 0x00, 0x00, 0x33, 0x00, 0x00, 0x00, 0x23, 0x00, 0x00, 0x00,
  0x62, 0xf6, 0xff, 0xff, 0x14, 0x00, 0x00, 0x00, 0x00, 0x00, 0x00, 0x02, 0x1c,
  0x00, 0x00, 0x00, 0x20, 0x00, 0x00, 0x00, 0x01, 0x00, 0x00, 0x00, 0x54, 0xf6,
  0xff, 0xff, 0x01, 0x00, 0x00, 0x00, 0x01, 0x00, 0x00, 0x00, 0x01, 0x00, 0x00,
  0x00, 0x01, 0x00, 0x00, 0x00, 0x78, 0x00, 0x00, 0x00, 0x03, 0x00, 0x00, 0x00,
  0x71, 0x00, 0x00, 0x00, 0x32, 0x00, 0x00, 0x00, 0x23, 0x00, 0x00, 0x00, 0xa2,
  0xf6, 0xff, 0xff, 0x14, 0x00, 0x00, 0x00, 0x00, 0x00, 0x00, 0x01, 0x18, 0x00,
  0x00, 0x00, 0x1c, 0x00, 0x00, 0x00, 0x02, 0x00, 0x00, 0x00, 0x2a, 0xf7, 0xff,
  0xff, 0x01, 0x00, 0x00, 0x00, 0x01, 0x00, 0x00, 0x00, 0x01, 0x00, 0x00, 0x00,
  0x77, 0x00, 0x00, 0x00, 0x03, 0x00, 0x00, 0x00, 0x76, 0x00, 0x00, 0x00, 0x31,
  0x00, 0x00, 0x00, 0x4c, 0x00, 0x00, 0x00, 0xde, 0xf6, 0xff, 0xff, 0x14, 0x00,
  0x00, 0x00, 0x00, 0x00, 0x00, 0x02, 0x1c, 0x00, 0x00, 0x00, 0x20, 0x00, 0x00,
  0x00, 0x01, 0x00, 0x00, 0x00, 0xd0, 0xf6, 0xff, 0xff, 0x01, 0x00, 0x00, 0x00,
  0x01, 0x00, 0x00, 0x00, 0x01, 0x00, 0x00, 0x00, 0x01, 0x00, 0x00, 0x00, 0x76,
  0x00, 0x00, 0x00, 0x03, 0x00, 0x00, 0x00, 0x75, 0x00, 0x00, 0x00, 0x30, 0x00,
  0x00, 0x00, 0x2d, 0x00, 0x00, 0x00, 0x1e, 0xf7, 0xff, 0xff, 0x14, 0x00, 0x00,
  0x00, 0x00, 0x00, 0x00, 0x02, 0x1c, 0x00, 0x00, 0x00, 0x20, 0x00, 0x00, 0x00,
  0x01, 0x00, 0x00, 0x00, 0x10, 0xf7, 0xff, 0xff, 0x01, 0x00, 0x00, 0x00, 0x01,
  0x00, 0x00, 0x00, 0x01, 0x00, 0x00, 0x00, 0x01, 0x00, 0x00, 0x00, 0x75, 0x00,
  0x00, 0x00, 0x03, 0x00, 0x00, 0x00, 0x74, 0x00, 0x00, 0x00, 0x2f, 0x00, 0x00,
  0x00, 0x2d, 0x00, 0x00, 0x00, 0x5e, 0xf7, 0xff, 0xff, 0x14, 0x00, 0x00, 0x00,
  0x00, 0x00, 0x00, 0x01, 0x1c, 0x00, 0x00, 0x00, 0x20, 0x00, 0x00, 0x00, 0x02,
  0x00, 0x00, 0x00, 0xb4, 0xf8, 0xff, 0xff, 0x00, 0x00, 0x00, 0x01, 0x01, 0x00,
  0x00, 0x00, 0x01, 0x00, 0x00, 0x00, 0x01, 0x00, 0x00, 0x00, 0x74, 0x00, 0x00,
  0x00, 0x03, 0x00, 0x00, 0x00, 0x73, 0x00, 0x00, 0x00, 0x2e, 0x00, 0x00, 0x00,
  0x03, 0x00, 0x00, 0x00, 0x9e, 0xf7, 0xff, 0xff, 0x14, 0x00, 0x00, 0x00, 0x00,
  0x00, 0x00, 0x02, 0x1c, 0x00, 0x00, 0x00, 0x20, 0x00, 0x00, 0x00, 0x01, 0x00,
  0x00, 0x00, 0x90, 0xf7, 0xff, 0xff, 0x01, 0x00, 0x00, 0x00, 0x01, 0x00, 0x00,
  0x00, 0x01, 0x00, 0x00, 0x00, 0x01, 0x00, 0x00, 0x00, 0x73, 0x00, 0x00, 0x00,
  0x03, 0x00, 0x00, 0x00, 0x72, 0x00, 0x00, 0x00, 0x2c, 0x00, 0x00, 0x00, 0x23,
  0x00, 0x00, 0x00, 0xde, 0xf7, 0xff, 0xff, 0x14, 0x00, 0x00, 0x00, 0x00, 0x00,
  0x00, 0x02, 0x1c, 0x00, 0x00, 0x00, 0x20, 0x00, 0x00, 0x00, 0x01, 0x00, 0x00,
  0x00, 0xd0, 0xf7, 0xff, 0xff, 0x01, 0x00, 0x00, 0x00, 0x01, 0x00, 0x00, 0x00,
  0x01, 0x00, 0x00, 0x00, 0x01, 0x00, 0x00, 0x00, 0x72, 0x00, 0x00, 0x00, 0x03,
  0x00, 0x00, 0x00, 0x71, 0x00, 0x00, 0x00, 0x2b, 0x00, 0x00, 0x00, 0x23, 0x00,
  0x00, 0x00, 0x1e, 0xf8, 0xff, 0xff, 0x14, 0x00, 0x00, 0x00, 0x00, 0x00, 0x00,
  0x0b, 0x14, 0x00, 0x00, 0x00, 0x18, 0x00, 0x00, 0x00, 0x03, 0x00, 0x00, 0x00,
  0x28, 0xfb, 0xff, 0xff, 0x00, 0x00, 0x00, 0x00, 0x01, 0x00, 0x00, 0x00, 0x71,
  0x00, 0x00, 0x00, 0x02, 0x00, 0x00, 0x00, 0x70, 0x00, 0x00, 0x00, 0x6d, 0x00,
  0x00, 0x00, 0x52, 0xf8, 0xff, 0xff, 0x14, 0x00, 0x00, 0x00, 0x00, 0x00, 0x00,
  0x01, 0x18, 0x00, 0x00, 0x00, 0x1c, 0x00, 0x00, 0x00, 0x02, 0x00, 0x00, 0x00,
  0xda, 0xf8, 0xff, 0xff, 0x01, 0x00, 0x00, 0x00, 0x01, 0x00, 0x00, 0x00, 0x01,
  0x00, 0x00, 0x00, 0x70, 0x00, 0x00, 0x00, 0x03, 0x00, 0x00, 0x00, 0x6f, 0x00,
  0x00, 0x00, 0x2a, 0x00, 0x00, 0x00, 0x4b, 0x00, 0x00, 0x00, 0x8e, 0xf8, 0xff,
  0xff, 0x14, 0x00, 0x00, 0x00, 0x00, 0x00, 0x00, 0x02, 0x1c, 0x00, 0x00, 0x00,
  0x20, 0x00, 0x00, 0x00, 0x01, 0x00, 0x00, 0x00, 0x80, 0xf8, 0xff, 0xff, 0x01,
  0x00, 0x00, 0x00, 0x01, 0x00, 0x00, 0x00, 0x01, 0x00, 0x00, 0x00, 0x01, 0x00,
  0x00, 0x00, 0x6f, 0x00, 0x00, 0x00, 0x03, 0x00, 0x00, 0x00, 0x6e, 0x00, 0x00,
  0x00, 0x29, 0x00, 0x00, 0x00, 0x19, 0x00, 0x00, 0x00, 0xce, 0xf8, 0xff, 0xff,
  0x14, 0x00, 0x00, 0x00, 0x00, 0x00, 0x00, 0x02, 0x1c, 0x00, 0x00, 0x00, 0x20,
  0x00, 0x00, 0x00, 0x01, 0x00, 0x00, 0x00, 0xc0, 0xf8, 0xff, 0xff, 0x01, 0x00,
  0x00, 0x00, 0x01, 0x00, 0x00, 0x00, 0x01, 0x00, 0x00, 0x00, 0x01, 0x00, 0x00,
  0x00, 0x6e, 0x00, 0x00, 0x00, 0x03, 0x00, 0x00, 0x00, 0x67, 0x00, 0x00, 0x00,
  0x28, 0x00, 0x00, 0x00, 0x19, 0x00, 0x00, 0x00, 0x0e, 0xf9, 0xff, 0xff, 0x14,
  0x00, 0x00, 0x00, 0x00, 0x00, 0x00, 0x01, 0x18, 0x00, 0x00, 0x00, 0x1c, 0x00,
  0x00, 0x00, 0x02, 0x00, 0x00, 0x00, 0x96, 0xf9, 0xff, 0xff, 0x01, 0x00, 0x00,
  0x00, 0x01, 0x00, 0x00, 0x00, 0x01, 0x00, 0x00, 0x00, 0x6d, 0x00, 0x00, 0x00,
  0x03, 0x00, 0x00, 0x00, 0x6c, 0x00, 0x00, 0x00, 0x27, 0x00, 0x00, 0x00, 0x4b,
  0x00, 0x00, 0x00, 0x4a, 0xf9, 0xff, 0xff, 0x14, 0x00, 0x00, 0x00, 0x00, 0x00,
  0x00, 0x02, 0x1c, 0x00, 0x00, 0x00, 0x20, 0x00, 0x00, 0x00, 0x01, 0x00, 0x00,
  0x00, 0x3c, 0xf9, 0xff, 0xff, 0x01, 0x00, 0x00, 0x00, 0x01, 0x00, 0x00, 0x00,
  0x01, 0x00, 0x00, 0x00, 0x01, 0x00, 0x00, 0x00, 0x6c, 0x00, 0x00, 0x00, 0x03,
  0x00, 0x00, 0x00, 0x6b, 0x00, 0x00, 0x00, 0x26, 0x00, 0x00, 0x00, 0x23, 0x00,
  0x00, 0x00, 0x8a, 0xf9, 0xff, 0xff, 0x14, 0x00, 0x00, 0x00, 0x00, 0x00, 0x00,
  0x02, 0x1c, 0x00, 0x00, 0x00, 0x20, 0x00, 0x00, 0x00, 0x01, 0x00, 0x00, 0x00,
  0x7c, 0xf9, 0xff, 0xff, 0x01, 0x00, 0x00, 0x00, 0x01, 0x00, 0x00, 0x00, 0x01,
  0x00, 0x00, 0x00, 0x01, 0x00, 0x00, 0x00, 0x6b, 0x00, 0x00, 0x00, 0x03, 0x00,
  0x00, 0x00, 0x6a, 0x00, 0x00, 0x00, 0x25, 0x00, 0x00, 0x00, 0x23, 0x00, 0x00,
  0x00, 0xca, 0xf9, 0xff, 0xff, 0x14, 0x00, 0x00, 0x00, 0x00, 0x00, 0x00, 0x01,
  0x1c, 0x00, 0x00, 0x00, 0x20, 0x00, 0x00, 0x00, 0x02, 0x00, 0x00, 0x00, 0x20,
  0xfb, 0xff, 0xff, 0x00, 0x00, 0x00, 0x01, 0x01, 0x00, 0x00, 0x00, 0x01, 0x00,
  0x00, 0x00, 0x01, 0x00, 0x00, 0x00, 0x6a, 0x00, 0x00, 0x00, 0x03, 0x00, 0x00,
  0x00, 0x69, 0x00, 0x00, 0x00, 0x24, 0x00, 0x00, 0x00, 0x04, 0x00, 0x00, 0x00,
  0x0a, 0xfa, 0xff, 0xff, 0x14, 0x00, 0x00, 0x00, 0x00, 0x00, 0x00, 0x02, 0x1c,
  0x00, 0x00, 0x00, 0x20, 0x00, 0x00, 0x00, 0x01, 0x00, 0x00, 0x00, 0xfc, 0xf9,
  0xff, 0xff, 0x01, 0x00, 0x00, 0x00, 0x01, 0x00, 0x00, 0x00, 0x01, 0x00, 0x00,
  0x00, 0x01, 0x00, 0x00, 0x00, 0x69, 0x00, 0x00, 0x00, 0x03, 0x00, 0x00, 0x00,
  0x68, 0x00, 0x00, 0x00, 0x22, 0x00, 0x00, 0x00, 0x19, 0x00, 0x00, 0x00, 0x4a,
  0xfa, 0xff, 0xff, 0x14, 0x00, 0x00, 0x00, 0x00, 0x00, 0x00, 0x02, 0x1c, 0x00,
  0x00, 0x00, 0x20, 0x00, 0x00, 0x00, 0x01, 0x00, 0x00, 0x00, 0x3c, 0xfa, 0xff,
  0xff, 0x01, 0x00, 0x00, 0x00, 0x01, 0x00, 0x00, 0x00, 0x01, 0x00, 0x00, 0x00,
  0x01, 0x00, 0x00, 0x00, 0x68, 0x00, 0x00, 0x00, 0x03, 0x00, 0x00, 0x00, 0x67,
  0x00, 0x00, 0x00, 0x21, 0x00, 0x00, 0x00, 0x19, 0x00, 0x00, 0x00, 0x8a, 0xfa,
  0xff, 0xff, 0x14, 0x00, 0x00, 0x00, 0x00, 0x00, 0x00, 0x0b, 0x14, 0x00, 0x00,
  0x00, 0x18, 0x00, 0x00, 0x00, 0x03, 0x00, 0x00, 0x00, 0x94, 0xfd, 0xff, 0xff,
  0x00, 0x00, 0x00, 0x00, 0x01, 0x00, 0x00, 0x00, 0x67, 0x00, 0x00, 0x00, 0x02,
  0x00, 0x00, 0x00, 0x66, 0x00, 0x00, 0x00, 0x63, 0x00, 0x00, 0x00, 0xbe, 0xfa,
  0xff, 0xff, 0x14, 0x00, 0x00, 0x00, 0x00, 0x00, 0x00, 0x01, 0x18, 0x00, 0x00,
  0x00, 0x1c, 0x00, 0x00, 0x00, 0x02, 0x00, 0x00, 0x00, 0x46, 0xfb, 0xff, 0xff,
  0x01, 0x00, 0x00, 0x00, 0x01, 0x00, 0x00, 0x00, 0x01, 0x00, 0x00, 0x00, 0x66,
  0x00, 0x00, 0x00, 0x03, 0x00, 0x00, 0x00, 0x65, 0x00, 0x00, 0x00, 0x20, 0x00,
  0x00, 0x00, 0x4a, 0x00, 0x00, 0x00, 0xfa, 0xfa, 0xff, 0xff, 0x14, 0x00, 0x00,
  0x00, 0x00, 0x00, 0x00, 0x02, 0x1c, 0x00, 0x00, 0x00, 0x20, 0x00, 0x00, 0x00,
  0x01, 0x00, 0x00, 0x00, 0xec, 0xfa, 0xff, 0xff, 0x01, 0x00, 0x00, 0x00, 0x01,
  0x00, 0x00, 0x00, 0x01, 0x00, 0x00, 0x00, 0x01, 0x00, 0x00, 0x00, 0x65, 0x00,
  0x00, 0x00, 0x03, 0x00, 0x00, 0x00, 0x64, 0x00, 0x00, 0x00, 0x1f, 0x00, 0x00,
  0x00, 0x0f, 0x00, 0x00, 0x00, 0x3a, 0xfb, 0xff, 0xff, 0x14, 0x00, 0x00, 0x00,
  0x00, 0x00, 0x00, 0x02, 0x1c, 0x00, 0x00, 0x00, 0x20, 0x00, 0x00, 0x00, 0x01,
  0x00, 0x00, 0x00, 0x2c, 0xfb, 0xff, 0xff, 0x01, 0x00, 0x00, 0x00, 0x01, 0x00,
  0x00, 0x00, 0x01, 0x00, 0x00, 0x00, 0x01, 0x00, 0x00, 0x00, 0x64, 0x00, 0x00,
  0x00, 0x03, 0x00, 0x00, 0x00, 0x5d, 0x00, 0x00, 0x00, 0x1e, 0x00, 0x00, 0x00,
  0x0f, 0x00, 0x00, 0x00, 0x7a, 0xfb, 0xff, 0xff, 0x14, 0x00, 0x00, 0x00, 0x00,
  0x00, 0x00, 0x01, 0x18, 0x00, 0x00, 0x00, 0x1c, 0x00, 0x00, 0x00, 0x02, 0x00,
  0x00, 0x00, 0x02, 0xfc, 0xff, 0xff, 0x01, 0x00, 0x00, 0x00, 0x01, 0x00, 0x00,
  0x00, 0x01, 0x00, 0x00, 0x00, 0x63, 0x00, 0x00, 0x00, 0x03, 0x00, 0x00, 0x00,
  0x62, 0x00, 0x00, 0x00, 0x1d, 0x00, 0x00, 0x00, 0x4a, 0x00, 0x00, 0x00, 0xb6,
  0xfb, 0xff, 0xff, 0x14, 0x00, 0x00, 0x00, 0x00, 0x00, 0x00, 0x02, 0x1c, 0x00,
  0x00, 0x00, 0x20, 0x00, 0x00, 0x00, 0x01, 0x00, 0x00, 0x00, 0xa8, 0xfb, 0xff,
  0xff, 0x01, 0x00, 0x00, 0x00, 0x01, 0x00, 0x00, 0x00, 0x01, 0x00, 0x00, 0x00,
  0x01, 0x00, 0x00, 0x00, 0x62, 0x00, 0x00, 0x00, 0x03, 0x00, 0x00, 0x00, 0x61,
  0x00, 0x00, 0x00, 0x1c, 0x00, 0x00, 0x00, 0x19, 0x00, 0x00, 0x00, 0xf6, 0xfb,
  0xff, 0xff, 0x14, 0x00, 0x00, 0x00, 0x00, 0x00, 0x00, 0x02, 0x1c, 0x00, 0x00,
  0x00, 0x20, 0x00, 0x00, 0x00, 0x01, 0x00, 0x00, 0x00, 0xe8, 0xfb, 0xff, 0xff,
  0x01, 0x00, 0x00, 0x00, 0x01, 0x00, 0x00, 0x00, 0x01, 0x00, 0x00, 0x00, 0x01,
  0x00, 0x00, 0x00, 0x61, 0x00, 0x00, 0x00, 0x03, 0x00, 0x00, 0x00, 0x60, 0x00,
  0x00, 0x00, 0x1b, 0x00, 0x00, 0x00, 0x19, 0x00, 0x00, 0x00, 0x36, 0xfc, 0xff,
  0xff, 0x14, 0x00, 0x00, 0x00, 0x00, 0x00, 0x00, 0x01, 0x1c, 0x00, 0x00, 0x00,
  0x20, 0x00, 0x00, 0x00, 0x02, 0x00, 0x00, 0x00, 0x8c, 0xfd, 0xff, 0xff, 0x00,
  0x00, 0x00, 0x01, 0x01, 0x00, 0x00, 0x00, 0x01, 0x00, 0x00, 0x00, 0x01, 0x00,
  0x00, 0x00, 0x60, 0x00, 0x00, 0x00, 0x03, 0x00, 0x00, 0x00, 0x5f, 0x00, 0x00,
  0x00, 0x1a, 0x00, 0x00, 0x00, 0x05, 0x00, 0x00, 0x00, 0x76, 0xfc, 0xff, 0xff,
  0x14, 0x00, 0x00, 0x00, 0x00, 0x00, 0x00, 0x02, 0x1c, 0x00, 0x00, 0x00, 0x20,
  0x00, 0x00, 0x00, 0x01, 0x00, 0x00, 0x00, 0x68, 0xfc, 0xff, 0xff, 0x01, 0x00,
  0x00, 0x00, 0x01, 0x00, 0x00, 0x00, 0x01, 0x00, 0x00, 0x00, 0x01, 0x00, 0x00,
  0x00, 0x5f, 0x00, 0x00, 0x00, 0x03, 0x00, 0x00, 0x00, 0x5e, 0x00, 0x00, 0x00,
  0x18, 0x00, 0x00, 0x00, 0x0f, 0x00, 0x00, 0x00, 0xb6, 0xfc, 0xff, 0xff, 0x14,
  0x00, 0x00, 0x00, 0x00, 0x00, 0x00, 0x02, 0x1c, 0x00, 0x00, 0x00, 0x20, 0x00,
  0x00, 0x00, 0x01, 0x00, 0x00, 0x00, 0xa8, 0xfc, 0xff, 0xff, 0x01, 0x00, 0x00,
  0x00, 0x01, 0x00, 0x00, 0x00, 0x01, 0x00, 0x00, 0x00, 0x01, 0x00, 0x00, 0x00,
  0x5e, 0x00, 0x00, 0x00, 0x03, 0x00, 0x00, 0x00, 0x5d, 0x00, 0x00, 0x00, 0x17,
  0x00, 0x00, 0x00, 0x0f, 0x00, 0x00, 0x00, 0xf6, 0xfc, 0xff, 0xff, 0x1c, 0x00,
  0x00, 0x00, 0x00, 0x00, 0x00, 0x0b, 0x1c, 0x00, 0x00, 0x00, 0x20, 0x00, 0x00,
  0x00, 0x03, 0x00, 0x00, 0x00, 0x08, 0x00, 0x08, 0x00, 0x00, 0x00, 0x07, 0x00,
  0x08, 0x00, 0x00, 0x00, 0x00, 0x00, 0x00, 0x00, 0x01, 0x00, 0x00, 0x00, 0x5d,
  0x00, 0x00, 0x00, 0x02, 0x00, 0x00, 0x00, 0x5c, 0x00, 0x00, 0x00, 0x59, 0x00,
  0x00, 0x00, 0x32, 0xfd, 0xff, 0xff, 0x14, 0x00, 0x00, 0x00, 0x00, 0x00, 0x00,
  0x01, 0x18, 0x00, 0x00, 0x00, 0x1c, 0x00, 0x00, 0x00, 0x02, 0x00, 0x00, 0x00,
  0xba, 0xfd, 0xff, 0xff, 0x01, 0x00, 0x00, 0x00, 0x01, 0x00, 0x00, 0x00, 0x01,
  0x00, 0x00, 0x00, 0x5c, 0x00, 0x00, 0x00, 0x03, 0x00, 0x00, 0x00, 0x5b, 0x00,
  0x00, 0x00, 0x16, 0x00, 0x00, 0x00, 0x49, 0x00, 0x00, 0x00, 0x6e, 0xfd, 0xff,
  0xff, 0x14, 0x00, 0x00, 0x00, 0x00, 0x00, 0x00, 0x02, 0x1c, 0x00, 0x00, 0x00,
  0x20, 0x00, 0x00, 0x00, 0x01, 0x00, 0x00, 0x00, 0x60, 0xfd, 0xff, 0xff, 0x01,
  0x00, 0x00, 0x00, 0x01, 0x00, 0x00, 0x00, 0x01, 0x00, 0x00, 0x00, 0x01, 0x00,
  0x00, 0x00, 0x5b, 0x00, 0x00, 0x00, 0x03, 0x00, 0x00, 0x00, 0x5a, 0x00, 0x00,
  0x00, 0x15, 0x00, 0x00, 0x00, 0x0b, 0x00, 0x00, 0x00, 0xae, 0xfd, 0xff, 0xff,
  0x14, 0x00, 0x00, 0x00, 0x00, 0x00, 0x00, 0x02, 0x1c, 0x00, 0x00, 0x00, 0x20,
  0x00, 0x00, 0x00, 0x01, 0x00, 0x00, 0x00, 0xa0, 0xfd, 0xff, 0xff, 0x01, 0x00,
  0x00, 0x00, 0x01, 0x00, 0x00, 0x00, 0x01, 0x00, 0x00, 0x00, 0x01, 0x00, 0x00,
  0x00, 0x5a, 0x00, 0x00, 0x00, 0x03, 0x00, 0x00, 0x00, 0x53, 0x00, 0x00, 0x00,
  0x14, 0x00, 0x00, 0x00, 0x0b, 0x00, 0x00, 0x00, 0xee, 0xfd, 0xff, 0xff, 0x14,
  0x00, 0x00, 0x00, 0x00, 0x00, 0x00, 0x01, 0x18, 0x00, 0x00, 0x00, 0x1c, 0x00,
  0x00, 0x00, 0x02, 0x00, 0x00, 0x00, 0x76, 0xfe, 0xff, 0xff, 0x01, 0x00, 0x00,
  0x00, 0x01, 0x00, 0x00, 0x00, 0x01, 0x00, 0x00, 0x00, 0x59, 0x00, 0x00, 0x00,
  0x03, 0x00, 0x00, 0x00, 0x58, 0x00, 0x00, 0x00, 0x13, 0x00, 0x00, 0x00, 0x49,
  0x00, 0x00, 0x00, 0x2a, 0xfe, 0xff, 0xff, 0x14, 0x00, 0x00, 0x00, 0x00, 0x00,
  0x00, 0x02, 0x1c, 0x00, 0x00, 0x00, 0x20, 0x00, 0x00, 0x00, 0x01, 0x00, 0x00,
  0x00, 0x1c, 0xfe, 0xff, 0xff, 0x01, 0x00, 0x00, 0x00, 0x01, 0x00, 0x00, 0x00,
  0x01, 0x00, 0x00, 0x00, 0x01, 0x00, 0x00, 0x00, 0x58, 0x00, 0x00, 0x00, 0x03,
  0x00, 0x00, 0x00, 0x57, 0x00, 0x00, 0x00, 0x12, 0x00, 0x00, 0x00, 0x0f, 0x00,
  0x00, 0x00, 0x6a, 0xfe, 0xff, 0xff, 0x14, 0x00, 0x00, 0x00, 0x00, 0x00, 0x00,
  0x02, 0x1c, 0x00, 0x00, 0x00, 0x20, 0x00, 0x00, 0x00, 0x01, 0x00, 0x00, 0x00,
  0x5c, 0xfe, 0xff, 0xff, 0x01, 0x00, 0x00, 0x00, 0x01, 0x00, 0x00, 0x00, 0x01,
  0x00, 0x00, 0x00, 0x01, 0x00, 0x00, 0x00, 0x57, 0x00, 0x00, 0x00, 0x03, 0x00,
  0x00, 0x00, 0x56, 0x00, 0x00, 0x00, 0x11, 0x00, 0x00, 0x00, 0x0f, 0x00, 0x00,
  0x00, 0xaa, 0xfe, 0xff, 0xff, 0x20, 0x00, 0x00, 0x00, 0x00, 0x00, 0x00, 0x01,
  0x28, 0x00, 0x00, 0x00, 0x2c, 0x00, 0x00, 0x00, 0x02, 0x00, 0x00, 0x00, 0x0c,
  0x00, 0x10, 0x00, 0x00, 0x00, 0x0c, 0x00, 0x08, 0x00, 0x07, 0x00, 0x0c, 0x00,
  0x00, 0x00, 0x00, 0x00, 0x00, 0x01, 0x01, 0x00, 0x00, 0x00, 0x01, 0x00, 0x00,
  0x00, 0x01, 0x00, 0x00, 0x00, 0x56, 0x00, 0x00, 0x00, 0x03, 0x00, 0x00, 0x00,
  0x55, 0x00, 0x00, 0x00, 0x10, 0x00, 0x00, 0x00, 0x06, 0x00, 0x00, 0x00, 0xf6,
  0xfe, 0xff, 0xff, 0x14, 0x00, 0x00, 0x00, 0x00, 0x00, 0x00, 0x02, 0x1c, 0x00,
  0x00, 0x00, 0x20, 0x00, 0x00, 0x00, 0x01, 0x00, 0x00, 0x00, 0xe8, 0xfe, 0xff,
  0xff, 0x01, 0x00, 0x00, 0x00, 0x01, 0x00, 0x00, 0x00, 0x01, 0x00, 0x00, 0x00,
  0x01, 0x00, 0x00, 0x00, 0x55, 0x00, 0x00, 0x00, 0x03, 0x00, 0x00, 0x00, 0x54,
  0x00, 0x00, 0x00, 0x0e, 0x00, 0x00, 0x00, 0x0b, 0x00, 0x00, 0x00, 0x36, 0xff,
  0xff, 0xff, 0x14, 0x00, 0x00, 0x00, 0x00, 0x00, 0x00, 0x02, 0x1c, 0x00, 0x00,
  0x00, 0x20, 0x00, 0x00, 0x00, 0x01, 0x00, 0x00, 0x00, 0x28, 0xff, 0xff, 0xff,
  0x01, 0x00, 0x00, 0x00, 0x01, 0x00, 0x00, 0x00, 0x01, 0x00, 0x00, 0x00, 0x01,
  0x00, 0x00, 0x00, 0x54, 0x00, 0x00, 0x00, 0x03, 0x00, 0x00, 0x00, 0x53, 0x00,
  0x00, 0x00, 0x0d, 0x00, 0x00, 0x00, 0x0b, 0x00, 0x00, 0x00, 0x76, 0xff, 0xff,
  0xff, 0x20, 0x00, 0x00, 0x00, 0x00, 0x00, 0x00, 0x01, 0x24, 0x00, 0x00, 0x00,
  0x28, 0x00, 0x00, 0x00, 0x02, 0x00, 0x00, 0x00, 0x00, 0x00, 0x0a, 0x00, 0x0c,
  0x00, 0x00, 0x00, 0x08, 0x00, 0x04, 0x00, 0x0a, 0x00, 0x00, 0x00, 0x01, 0x00,
  0x00, 0x00, 0x01, 0x00, 0x00, 0x00, 0x01, 0x00, 0x00, 0x00, 0x53, 0x00, 0x00,
  0x00, 0x03, 0x00, 0x00, 0x00, 0x52, 0x00, 0x00, 0x00, 0x0c, 0x00, 0x00, 0x00,
  0x48, 0x00, 0x00, 0x00, 0xbe, 0xff, 0xff, 0xff, 0x14, 0x00, 0x00, 0x00, 0x00,
  0x00, 0x00, 0x02, 0x1c, 0x00, 0x00, 0x00, 0x20, 0x00, 0x00, 0x00, 0x01, 0x00,
  0x00, 0x00, 0xb0, 0xff, 0xff, 0xff, 0x01, 0x00, 0x00, 0x00, 0x01, 0x00, 0x00,
  0x00, 0x01, 0x00, 0x00, 0x00, 0x01, 0x00, 0x00, 0x00, 0x52, 0x00, 0x00, 0x00,
  0x03, 0x00, 0x00, 0x00, 0x51, 0x00, 0x00, 0x00, 0x0a, 0x00, 0x00, 0x00, 0x08,
  0x00, 0x00, 0x00, 0x00, 0x00, 0x0e, 0x00, 0x18, 0x00, 0x14, 0x00, 0x10, 0x00,
  0x0c, 0x00, 0x0b, 0x00, 0x04, 0x00, 0x0e, 0x00, 0x00, 0x00, 0x20, 0x00, 0x00,
  0x00, 0x00, 0x00, 0x00, 0x02, 0x28, 0x00, 0x00, 0x00, 0x2c, 0x00, 0x00, 0x00,
  0x01, 0x00, 0x00, 0x00, 0x0c, 0x00, 0x10, 0x00, 0x00, 0x00, 0x0c, 0x00, 0x08,
  0x00, 0x04, 0x00, 0x0c, 0x00, 0x00, 0x00, 0x01, 0x00, 0x00, 0x00, 0x01, 0x00,
  0x00, 0x00, 0x01, 0x00, 0x00, 0x00, 0x01, 0x00, 0x00, 0x00, 0x51, 0x00, 0x00,
  0x00, 0x03, 0x00, 0x00, 0x00, 0x50, 0x00, 0x00, 0x00, 0x09, 0x00, 0x00, 0x00,
  0x08, 0x00, 0x00, 0x00, 0x00, 0x00, 0x0e, 0x00, 0x14, 0x00, 0x00, 0x00, 0x10,
  0x00, 0x0c, 0x00, 0x0b, 0x00, 0x04, 0x00, 0x0e, 0x00, 0x00, 0x00, 0x10, 0x00,
  0x00, 0x00, 0x00, 0x00, 0x00, 0x16, 0x0c, 0x00, 0x00, 0x00, 0x10, 0x00, 0x00,
  0x00, 0x94, 0x8e, 0xff, 0xff, 0x01, 0x00, 0x00, 0x00, 0x50, 0x00, 0x00, 0x00,
  0x02, 0x00, 0x00, 0x00, 0x00, 0x00, 0x00, 0x00, 0x07, 0x00, 0x00, 0x00, 0x00,
  0x00, 0x0a, 0x00, 0x10, 0x00, 0x0c, 0x00, 0x08, 0x00, 0x04, 0x00, 0x0a, 0x00,
  0x00, 0x00, 0x0c, 0x00, 0x00, 0x00, 0x10, 0x00, 0x00, 0x00, 0x04, 0x00, 0x00,
  0x00, 0x01, 0x00, 0x00, 0x00, 0x00, 0x00, 0x00, 0x00, 0x01, 0x00, 0x00, 0x00,
  0x90, 0x00, 0x00, 0x00, 0x01, 0x00, 0x00, 0x00, 0x91, 0x00, 0x00, 0x00, 0x01,
  0x00, 0x00, 0x00, 0x90, 0x00, 0x00, 0x00, 0x92, 0x00, 0x00, 0x00, 0x70, 0x75,
  0x00, 0x00, 0xcc, 0x74, 0x00, 0x00, 0x44, 0x74, 0x00, 0x00, 0xa8, 0x73, 0x00,
  0x00, 0xf4, 0x72, 0x00, 0x00, 0x18, 0x72, 0x00, 0x00, 0x1c, 0x71, 0x00, 0x00,
  0xe0, 0x70, 0x00, 0x00, 0x8c, 0x70, 0x00, 0x00, 0xf8, 0x6f, 0x00, 0x00, 0x78,
  0x6f, 0x00, 0x00, 0x40, 0x6e, 0x00, 0x00, 0x4c, 0x6c, 0x00, 0x00, 0x54, 0x6a,
  0x00, 0x00, 0x58, 0x68, 0x00, 0x00, 0x58, 0x67, 0x00, 0x00, 0xc4, 0x65, 0x00,
  0x00, 0x2c, 0x64, 0x00, 0x00, 0x98, 0x62, 0x00, 0x00, 0x08, 0x61, 0x00, 0x00,
  0x10, 0x5f, 0x00, 0x00, 0x14, 0x5d, 0x00, 0x00, 0x84, 0x5b, 0x00, 0x00, 0xec,
  0x59, 0x00, 0x00, 0x58, 0x58, 0x00, 0x00, 0x78, 0x57, 0x00, 0x00, 0x24, 0x56,
  0x00, 0x00, 0xc4, 0x54, 0x00, 0x00, 0x68, 0x53, 0x00, 0x00, 0x10, 0x52, 0x00,
  0x00, 0x78, 0x50, 0x00, 0x00, 0xdc, 0x4e, 0x00, 0x00, 0x84, 0x4d, 0x00, 0x00,
  0x24, 0x4c, 0x00, 0x00, 0xc8, 0x4a, 0x00, 0x00, 0x10, 0x4a, 0x00, 0x00, 0xf4,
  0x48, 0x00, 0x00, 0xd4, 0x47, 0x00, 0x00, 0xb0, 0x46, 0x00, 0x00, 0x98, 0x45,
  0x00, 0x00, 0x38, 0x44, 0x00, 0x00, 0xdc, 0x42, 0x00, 0x00, 0xc4, 0x41, 0x00,
  0x00, 0xa4, 0x40, 0x00, 0x00, 0x80, 0x3f, 0x00, 0x00, 0xe0, 0x3e, 0x00, 0x00,
  0xec, 0x3d, 0x00, 0x00, 0xf4, 0x3c, 0x00, 0x00, 0xf8, 0x3b, 0x00, 0x00, 0x08,
  0x3b, 0x00, 0x00, 0xe8, 0x39, 0x00, 0x00, 0xc4, 0x38, 0x00, 0x00, 0xd4, 0x37,
  0x00, 0x00, 0xdc, 0x36, 0x00, 0x00, 0xe0, 0x35, 0x00, 0x00, 0x58, 0x35, 0x00,
  0x00, 0x8c, 0x34, 0x00, 0x00, 0xbc, 0x33, 0x00, 0x00, 0xe8, 0x32, 0x00, 0x00,
  0x20, 0x32, 0x00, 0x00, 0x28, 0x31, 0x00, 0x00, 0x2c, 0x30, 0x00, 0x00, 0x64,
  0x2f, 0x00, 0x00, 0x94, 0x2e, 0x00, 0x00, 0xc0, 0x2d, 0x00, 0x00, 0xf8, 0x2c,
  0x00, 0x00, 0x28, 0x2c, 0x00, 0x00, 0x54, 0x2b, 0x00, 0x00, 0x8c, 0x2a, 0x00,
  0x00, 0xbc, 0x29, 0x00, 0x00, 0xe8, 0x28, 0x00, 0x00, 0x70, 0x28, 0x00, 0x00,
  0x1c, 0x27, 0x00, 0x00, 0x00, 0x26, 0x00, 0x00, 0x04, 0x25, 0x00, 0x00, 0x30,
  0x24, 0x00, 0x00, 0x6c, 0x23, 0x00, 0x00, 0xc0, 0x22, 0x00, 0x00, 0x14, 0x22,
  0x00, 0x00, 0xa8, 0x21, 0x00, 0x00, 0x34, 0x21, 0x00, 0x00, 0xb8, 0x20, 0x00,
  0x00, 0x3c, 0x20, 0x00, 0x00, 0xa8, 0x1f, 0x00, 0x00, 0x2c, 0x1f, 0x00, 0x00,
  0xb0, 0x1e, 0x00, 0x00, 0x14, 0x1e, 0x00, 0x00, 0x98, 0x1d, 0x00, 0x00, 0x1c,
  0x1d, 0x00, 0x00, 0x80, 0x1c, 0x00, 0x00, 0x04, 0x1c, 0x00, 0x00, 0x88, 0x1b,
  0x00, 0x00, 0xec, 0x1a, 0x00, 0x00, 0x78, 0x1a, 0x00, 0x00, 0xfc, 0x19, 0x00,
  0x00, 0x80, 0x19, 0x00, 0x00, 0xdc, 0x18, 0x00, 0x00, 0x60, 0x18, 0x00, 0x00,
  0xe4, 0x17, 0x00, 0x00, 0x48, 0x17, 0x00, 0x00, 0xcc, 0x16, 0x00, 0x00, 0x50,
  0x16, 0x00, 0x00, 0xb4, 0x15, 0x00, 0x00, 0x40, 0x15, 0x00, 0x00, 0xc4, 0x14,
  0x00, 0x00, 0x48, 0x14, 0x00, 0x00, 0xa4, 0x13, 0x00, 0x00, 0x28, 0x13, 0x00,
  0x00, 0xac, 0x12, 0x00, 0x00, 0x10, 0x12, 0x00, 0x00, 0x94, 0x11, 0x00, 0x00,
  0x18, 0x11, 0x00, 0x00, 0x7c, 0x10, 0x00, 0x00, 0x08, 0x10, 0x00, 0x00, 0x8c,
  0x0f, 0x00, 0x00, 0x10, 0x0f, 0x00, 0x00, 0x6c, 0x0e, 0x00, 0x00, 0xf0, 0x0d,
  0x00, 0x00, 0x74, 0x0d, 0x00, 0x00, 0xd8, 0x0c, 0x00, 0x00, 0x5c, 0x0c, 0x00,
  0x00, 0xe0, 0x0b, 0x00, 0x00, 0x44, 0x0b, 0x00, 0x00, 0xd0, 0x0a, 0x00, 0x00,
  0x54, 0x0a, 0x00, 0x00, 0xd8, 0x09, 0x00, 0x00, 0x34, 0x09, 0x00, 0x00, 0xb8,
  0x08, 0x00, 0x00, 0x3c, 0x08, 0x00, 0x00, 0xa0, 0x07, 0x00, 0x00, 0x24, 0x07,
  0x00, 0x00, 0xa8, 0x06, 0x00, 0x00, 0x0c, 0x06, 0x00, 0x00, 0x98, 0x05, 0x00,
  0x00, 0x1c, 0x05, 0x00, 0x00, 0xa0, 0x04, 0x00, 0x00, 0xfc, 0x03, 0x00, 0x00,
  0x80, 0x03, 0x00, 0x00, 0x04, 0x03, 0x00, 0x00, 0x68, 0x02, 0x00, 0x00, 0xf4,
  0x01, 0x00, 0x00, 0x78, 0x01, 0x00, 0x00, 0xfc, 0x00, 0x00, 0x00, 0x78, 0x00,
  0x00, 0x00, 0x44, 0x00, 0x00, 0x00, 0x04, 0x00, 0x00, 0x00, 0xd0, 0xff, 0xff,
  0xff, 0x08, 0x00, 0x00, 0x00, 0x14, 0x00, 0x00, 0x00, 0x0a, 0x00, 0x00, 0x00,
  0x42, 0x69, 0x61, 0x73, 0x41, 0x64, 0x64, 0x5f, 0x31, 0x38, 0x00, 0x00, 0x04,
  0x00, 0x00, 0x00, 0x01, 0x00, 0x00, 0x00, 0x38, 0x04, 0x00, 0x00, 0x80, 0x07,
  0x00, 0x00, 0x01, 0x00, 0x00, 0x00, 0x0c, 0x00, 0x0c, 0x00, 0x08, 0x00, 0x00,
  0x00, 0x00, 0x00, 0x04, 0x00, 0x0c, 0x00, 0x00, 0x00, 0x08, 0x00, 0x00, 0x00,
  0x14, 0x00, 0x00, 0x00, 0x0b, 0x00, 0x00, 0x00, 0x50, 0x6c, 0x61, 0x63, 0x65,
  0x68, 0x6f, 0x6c, 0x64, 0x65, 0x72, 0x00, 0x04, 0x00, 0x00, 0x00, 0x01, 0x00,
  0x00, 0x00, 0x38, 0x04, 0x00, 0x00, 0x80, 0x07, 0x00, 0x00, 0x01, 0x00, 0x00,
  0x00, 0x52, 0x8d, 0xff, 0xff, 0x14, 0x00, 0x00, 0x00, 0x4c, 0x00, 0x00, 0x00,
  0x90, 0x00, 0x00, 0x00, 0x00, 0x00, 0x00, 0x07, 0x58, 0x00, 0x00, 0x00, 0x44,
  0x8d, 0xff, 0xff, 0x10, 0x00, 0x00, 0x00, 0x1c, 0x00, 0x00, 0x00, 0x20, 0x00,
  0x00, 0x00, 0x24, 0x00, 0x00, 0x00, 0x01, 0x00, 0x00, 0x00, 0x00, 0x00, 0x00,
  0x00, 0x00, 0x00, 0x00, 0x00, 0x00, 0x00, 0x00, 0x00, 0x01, 0x00, 0x00, 0x00,
  0xb4, 0xda, 0xf9, 0x36, 0x01, 0x00, 0x00, 0x00, 0xc0, 0xd8, 0x79, 0x3e, 0x01,
  0x00, 0x00, 0x00, 0x76, 0x2c, 0x5d, 0xbe, 0x10, 0x00, 0x00, 0x00, 0x42, 0x69,
  0x61, 0x73, 0x41, 0x64, 0x64, 0x5f, 0x31, 0x38, 0x5f, 0x69, 0x6e, 0x74, 0x31,
  0x36, 0x00, 0x00, 0x00, 0x00, 0x04, 0x00, 0x00, 0x00, 0x01, 0x00, 0x00, 0x00,
  0x38, 0x04, 0x00, 0x00, 0x80, 0x07, 0x00, 0x00, 0x01, 0x00, 0x00, 0x00, 0xd2,
  0x8d, 0xff, 0xff, 0x14, 0x00, 0x00, 0x00, 0x48, 0x00, 0x00, 0x00, 0x8f, 0x00,
  0x00, 0x00, 0x00, 0x00, 0x00, 0x07, 0x50, 0x00, 0x00, 0x00, 0xc4, 0x8d, 0xff,
  0xff, 0x10, 0x00, 0x00, 0x00, 0x18, 0x00, 0x00, 0x00, 0x1c, 0x00, 0x00, 0x00,
  0x20, 0x00, 0x00, 0x00, 0x01, 0x00, 0x00, 0x00, 0x00, 0x00, 0x00, 0x00, 0x00,
  0x00, 0x00, 0x00, 0x01, 0x00, 0x00, 0x00, 0x28, 0x2d, 0xc8, 0x38, 0x01, 0x00,
  0x00, 0x00, 0x98, 0x2b, 0x48, 0x40, 0x01, 0x00, 0x00, 0x00, 0xd8, 0x09, 0x37,
  0xc0, 0x0d, 0x00, 0x00, 0x00, 0x64, 0x65, 0x70, 0x74, 0x68, 0x77, 0x69, 0x73,
  0x65, 0x5f, 0x33, 0x37, 0x32, 0x00, 0x00, 0x00, 0x04, 0x00, 0x00, 0x00, 0x01,
  0x00, 0x00, 0x00, 0x38, 0x04, 0x00, 0x00, 0x80, 0x07, 0x00, 0x00, 0x05, 0x00,
  0x00, 0x00, 0x4a, 0x8e, 0xff, 0xff, 0x14, 0x00, 0x00, 0x00, 0x48, 0x00, 0x00,
  0x00, 0x8e, 0x00, 0x00, 0x00, 0x00, 0x00, 0x00, 0x07, 0x50, 0x00, 0x00, 0x00,
  0x3c, 0x8e, 0xff, 0xff, 0x10, 0x00, 0x00, 0x00, 0x18, 0x00, 0x00, 0x00, 0x1c,
  0x00, 0x00, 0x00, 0x20, 0x00, 0x00, 0x00, 0x01, 0x00, 0x00, 0x00, 0x00, 0x00,
  0x00, 0x00, 0x00, 0x00, 0x00, 0x00, 0x01, 0x00, 0x00, 0x00, 0xf7, 0x66, 0x97,
  0x39, 0x01, 0x00, 0x00, 0x00, 0xba, 0x6e, 0x0b, 0x41, 0x01, 0x00, 0x00, 0x00,
  0xc8, 0x65, 0x17, 0xc1, 0x0d, 0x00, 0x00, 0x00, 0x64, 0x65, 0x70, 0x74, 0x68,
  0x77, 0x69, 0x73, 0x65, 0x5f, 0x33, 0x36, 0x31, 0x00, 0x00, 0x00, 0x04, 0x00,
  0x00, 0x00, 0x01, 0x00, 0x00, 0x00, 0x38, 0x04, 0x00, 0x00, 0x84, 0x07, 0x00,
  0x00, 0x05, 0x00, 0x00, 0x00, 0xc2, 0x8e, 0xff, 0xff, 0x14, 0x00, 0x00, 0x00,
  0x48, 0x00, 0x00, 0x00, 0x8d, 0x00, 0x00, 0x00, 0x00, 0x00, 0x00, 0x07, 0x48,
  0x00, 0x00, 0x00, 0xb4, 0x8e, 0xff, 0xff, 0x10, 0x00, 0x00, 0x00, 0x18, 0x00,
  0x00, 0x00, 0x1c, 0x00, 0x00, 0x00, 0x20, 0x00, 0x00, 0x00, 0x01, 0x00, 0x00,
  0x00, 0x00, 0x00, 0x00, 0x00, 0x00, 0x00, 0x00, 0x00, 0x01, 0x00, 0x00, 0x00,
  0x7a, 0xd7, 0x92, 0x3a, 0x01, 0x00, 0x00, 0x00, 0xe5, 0xdf, 0xac, 0x41, 0x01,
  0x00, 0x00, 0x00, 0x54, 0xd6, 0x12, 0xc2, 0x05, 0x00, 0x00, 0x00, 0x41, 0x64,
  0x64, 0x5f, 0x35, 0x00, 0x00, 0x00, 0x04, 0x00, 0x00, 0x00, 0x01, 0x00, 0x00,
  0x00, 0x3c, 0x04, 0x00, 0x00, 0x84, 0x07, 0x00, 0x00, 0x05, 0x00, 0x00, 0x00,
  0x32, 0x8f, 0xff, 0xff, 0x14, 0x00, 0x00, 0x00, 0x48, 0x00, 0x00, 0x00, 0x8c,
  0x00, 0x00, 0x00, 0x00, 0x00, 0x00, 0x07, 0x70, 0x00, 0x00, 0x00, 0x24, 0x8f,
  0xff, 0xff, 0x10, 0x00, 0x00, 0x00, 0x18, 0x00, 0x00, 0x00, 0x1c, 0x00, 0x00,
  0x00, 0x20, 0x00, 0x00, 0x00, 0x01, 0x00, 0x00, 0x00, 0x00, 0x00, 0x00, 0x00,
  0x00, 0x00, 0x00, 0x00, 0x01, 0x00, 0x00, 0x00, 0x56, 0x52, 0x78, 0x3a, 0x01,
  0x00, 0x00, 0x00, 0x5d, 0x56, 0xa2, 0x41, 0x01, 0x00, 0x00, 0x00, 0x65, 0x50,
  0xf8, 0xc1, 0x2d, 0x00, 0x00, 0x00, 0x42, 0x69, 0x61, 0x73, 0x41, 0x64, 0x64,
  0x5f, 0x31, 0x37, 0x3b, 0x64, 0x65, 0x70, 0x74, 0x68, 0x77, 0x69, 0x73, 0x65,
  0x5f, 0x33, 0x37, 0x3b, 0x43, 0x6f, 0x6e, 0x76, 0x32, 0x44, 0x5f, 0x31, 0x37,
  0x3b, 0x63, 0x6f, 0x6e, 0x76, 0x5f, 0x36, 0x5f, 0x31, 0x5f, 0x62, 0x31, 0x00,
  0x00, 0x00, 0x04, 0x00, 0x00, 0x00, 0x01, 0x00, 0x00, 0x00, 0x3c, 0x04, 0x00,
  0x00, 0x84, 0x07, 0x00, 0x00, 0x05, 0x00, 0x00, 0x00, 0xca, 0x8f, 0xff, 0xff,
  0x14, 0x00, 0x00, 0x00, 0x48, 0x00, 0x00, 0x00, 0x8b, 0x00, 0x00, 0x00, 0x00,
  0x00, 0x00, 0x07, 0x50, 0x00, 0x00, 0x00, 0xbc, 0x8f, 0xff, 0xff, 0x10, 0x00,
  0x00, 0x00, 0x18, 0x00, 0x00, 0x00, 0x1c, 0x00, 0x00, 0x00, 0x20, 0x00, 0x00,
  0x00, 0x01, 0x00, 0x00, 0x00, 0x00, 0x00, 0x00, 0x00, 0x00, 0x00, 0x00, 0x00,
  0x01, 0x00, 0x00, 0x00, 0x48, 0xd3, 0xff, 0x39, 0x01, 0x00, 0x00, 0x00, 0x48,
  0xd1, 0x7f, 0x41, 0x01, 0x00, 0x00, 0x00, 0xd5, 0x80, 0x67, 0xc1, 0x0d, 0x00,
  0x00, 0x00, 0x64, 0x65, 0x70, 0x74, 0x68, 0x77, 0x69, 0x73, 0x65, 0x5f, 0x33,
  0x35, 0x31, 0x00, 0x00, 0x00, 0x04, 0x00, 0x00, 0x00, 0x01, 0x00, 0x00, 0x00,
  0x3c, 0x04, 0x00, 0x00, 0x84, 0x07, 0x00, 0x00, 0x05, 0x00, 0x00, 0x00, 0x42,
  0x90, 0xff, 0xff, 0x14, 0x00, 0x00, 0x00, 0x48, 0x00, 0x00, 0x00, 0x8a, 0x00,
  0x00, 0x00, 0x00, 0x00, 0x00, 0x07, 0x50, 0x00, 0x00, 0x00, 0x34, 0x90, 0xff,
  0xff, 0x10, 0x00, 0x00, 0x00, 0x18, 0x00, 0x00, 0x00, 0x1c, 0x00, 0x00, 0x00,
  0x20, 0x00, 0x00, 0x00, 0x01, 0x00, 0x00, 0x00, 0x00, 0x00, 0x00, 0x00, 0x00,
  0x00, 0x00, 0x00, 0x01, 0x00, 0x00, 0x00, 0xb8, 0x6d, 0xce, 0x39, 0x01, 0x00,
  0x00, 0x00, 0x7f, 0x98, 0xbf, 0x40, 0x01, 0x00, 0x00, 0x00, 0x1b, 0x6c, 0x4e,
  0xc1, 0x0d, 0x00, 0x00, 0x00, 0x64, 0x65, 0x70, 0x74, 0x68, 0x77, 0x69, 0x73,
  0x65, 0x5f, 0x33, 0x34, 0x31, 0x00, 0x00, 0x00, 0x04, 0x00, 0x00, 0x00, 0x01,
  0x00, 0x00, 0x00, 0x3c, 0x04, 0x00, 0x00, 0x84, 0x07, 0x00, 0x00, 0x05, 0x00,
  0x00, 0x00, 0xba, 0x90, 0xff, 0xff, 0x14, 0x00, 0x00, 0x00, 0x4c, 0x00, 0x00,
  0x00, 0x89, 0x00, 0x00, 0x00, 0x00, 0x00, 0x00, 0x07, 0x78, 0x00, 0x00, 0x00,
  0xac, 0x90, 0xff, 0xff, 0x10, 0x00, 0x00, 0x00, 0x1c, 0x00, 0x00, 0x00, 0x20,
  0x00, 0x00, 0x00, 0x24, 0x00, 0x00, 0x00, 0x01, 0x00, 0x00, 0x00, 0x00, 0x00,
  0x00, 0x00, 0x00, 0x00, 0x00, 0x00, 0x00, 0x00, 0x00, 0x00, 0x01, 0x00, 0x00,
  0x00, 0xb8, 0x2f, 0xaa, 0x39, 0x01, 0x00, 0x00, 0x00, 0x64, 0x2e, 0x2a, 0x41,
  0x01, 0x00, 0x00, 0x00, 0x00, 0x00, 0x00, 0x00, 0x33, 0x00, 0x00, 0x00, 0x52,
  0x65, 0x6c, 0x75, 0x5f, 0x35, 0x3b, 0x42, 0x69, 0x61, 0x73, 0x41, 0x64, 0x64,
  0x5f, 0x31, 0x36, 0x3b, 0x64, 0x65, 0x70, 0x74, 0x68, 0x77, 0x69, 0x73, 0x65,
  0x5f, 0x33, 0x37, 0x3b, 0x43, 0x6f, 0x6e, 0x76, 0x32, 0x44, 0x5f, 0x31, 0x36,
  0x3b, 0x63, 0x6f, 0x6e, 0x76, 0x5f, 0x36, 0x5f, 0x30, 0x5f, 0x62, 0x00, 0x04,
  0x00, 0x00, 0x00, 0x01, 0x00, 0x00, 0x00, 0x3c, 0x04, 0x00, 0x00, 0x84, 0x07,
  0x00, 0x00, 0x05, 0x00, 0x00, 0x00, 0x5a, 0x91, 0xff, 0xff, 0x14, 0x00, 0x00,
  0x00, 0x48, 0x00, 0x00, 0x00, 0x88, 0x00, 0x00, 0x00, 0x00, 0x00, 0x00, 0x07,
  0x50, 0x00, 0x00, 0x00, 0x4c, 0x91, 0xff, 0xff, 0x10, 0x00, 0x00, 0x00, 0x18,
  0x00, 0x00, 0x00, 0x1c, 0x00, 0x00, 0x00, 0x20, 0x00, 0x00, 0x00, 0x01, 0x00,
  0x00, 0x00, 0x00, 0x00, 0x00, 0x00, 0x00, 0x00, 0x00, 0x00, 0x01, 0x00, 0x00,
  0x00, 0xcf, 0xb7, 0xab, 0x39, 0x01, 0x00, 0x00, 0x00, 0x78, 0xb6, 0x2b, 0x41,
  0x01, 0x00, 0x00, 0x00, 0xb1, 0x43, 0x95, 0xc0, 0x0d, 0x00, 0x00, 0x00, 0x64,
  0x65, 0x70, 0x74, 0x68, 0x77, 0x69, 0x73, 0x65, 0x5f, 0x33, 0x33, 0x31, 0x00,
  0x00, 0x00, 0x04, 0x00, 0x00, 0x00, 0x01, 0x00, 0x00, 0x00, 0x3c, 0x04, 0x00,
  0x00, 0x84, 0x07, 0x00, 0x00, 0x05, 0x00, 0x00, 0x00, 0xd2, 0x91, 0xff, 0xff,
  0x14, 0x00, 0x00, 0x00, 0x48, 0x00, 0x00, 0x00, 0x87, 0x00, 0x00, 0x00, 0x00,
  0x00, 0x00, 0x07, 0x50, 0x00, 0x00, 0x00, 0xc4, 0x91, 0xff, 0xff, 0x10, 0x00,
  0x00, 0x00, 0x18, 0x00, 0x00, 0x00, 0x1c, 0x00, 0x00, 0x00, 0x20, 0x00, 0x00,
  0x00, 0x01, 0x00, 0x00, 0x00, 0x00, 0x00, 0x00, 0x00, 0x00, 0x00, 0x00, 0x00,
  0x01, 0x00, 0x00, 0x00, 0x12, 0xd5, 0x2b, 0x3a, 0x01, 0x00, 0x00, 0x00, 0xba,
  0xd3, 0xab, 0x41, 0x01, 0x00, 0x00, 0x00, 0x8f, 0x28, 0x0d, 0xc1, 0x0d, 0x00,
  0x00, 0x00, 0x64, 0x65, 0x70, 0x74, 0x68, 0x77, 0x69, 0x73, 0x65, 0x5f, 0x33,
  0x32, 0x31, 0x00, 0x00, 0x00, 0x04, 0x00, 0x00, 0x00, 0x01, 0x00, 0x00, 0x00,
  0x3c, 0x04, 0x00, 0x00, 0x84, 0x07, 0x00, 0x00, 0x05, 0x00, 0x00, 0x00, 0x4a,
  0x92, 0xff, 0xff, 0x14, 0x00, 0x00, 0x00, 0x48, 0x00, 0x00, 0x00, 0x86, 0x00,
  0x00, 0x00, 0x00, 0x00, 0x00, 0x07, 0x48, 0x00, 0x00, 0x00, 0x3c, 0x92, 0xff,
  0xff, 0x10, 0x00, 0x00, 0x00, 0x18, 0x00, 0x00, 0x00, 0x1c, 0x00, 0x00, 0x00,
  0x20, 0x00, 0x00, 0x00, 0x01, 0x00, 0x00, 0x00, 0x00, 0x00, 0x00, 0x00, 0x00,
  0x00, 0x00, 0x00, 0x01, 0x00, 0x00, 0x00, 0x9f, 0x3c, 0x21, 0x3a, 0x01, 0x00,
  0x00, 0x00, 0x3a, 0xc0, 0x0b, 0x41, 0x01, 0x00, 0x00, 0x00, 0x5d, 0x3b, 0xa1,
  0xc1, 0x05, 0x00, 0x00, 0x00, 0x41, 0x64, 0x64, 0x5f, 0x34, 0x00, 0x00, 0x00,
  0x04, 0x00, 0x00, 0x00, 0x01, 0x00, 0x00, 0x00, 0x3c, 0x04, 0x00, 0x00, 0x84,
  0x07, 0x00, 0x00, 0x05, 0x00, 0x00, 0x00, 0xba, 0x92, 0xff, 0xff, 0x14, 0x00,
  0x00, 0x00, 0x48, 0x00, 0x00, 0x00, 0x85, 0x00, 0x00, 0x00, 0x00, 0x00, 0x00,
  0x07, 0x70, 0x00, 0x00, 0x00, 0xac, 0x92, 0xff, 0xff, 0x10, 0x00, 0x00, 0x00,
  0x18, 0x00, 0x00, 0x00, 0x1c, 0x00, 0x00, 0x00, 0x20, 0x00, 0x00, 0x00, 0x01,
  0x00, 0x00, 0x00, 0x00, 0x00, 0x00, 0x00, 0x00, 0x00, 0x00, 0x00, 0x01, 0x00,
  0x00, 0x00, 0x1c, 0x1b, 0xf7, 0x39, 0x01, 0x00, 0x00, 0x00, 0x9c, 0x5d, 0xca,
  0x40, 0x01, 0x00, 0x00, 0x00, 0x2e, 0x19, 0x77, 0xc1, 0x2d, 0x00, 0x00, 0x00,
  0x42, 0x69, 0x61, 0x73, 0x41, 0x64, 0x64, 0x5f, 0x31, 0x35, 0x3b, 0x64, 0x65,
  0x70, 0x74, 0x68, 0x77, 0x69, 0x73, 0x65, 0x5f, 0x33, 0x37, 0x3b, 0x43, 0x6f,
  0x6e, 0x76, 0x32, 0x44, 0x5f, 0x31, 0x35, 0x3b, 0x63, 0x6f, 0x6e, 0x76, 0x5f,
  0x35, 0x5f, 0x31, 0x5f, 0x62, 0x31, 0x00, 0x00, 0x00, 0x04, 0x00, 0x00, 0x00,
  0x01, 0x00, 0x00, 0x00, 0x3c, 0x04, 0x00, 0x00, 0x84, 0x07, 0x00, 0x00, 0x05,
  0x00, 0x00, 0x00, 0x52, 0x93, 0xff, 0xff, 0x14, 0x00, 0x00, 0x00, 0x48, 0x00,
  0x00, 0x00, 0x84, 0x00, 0x00, 0x00, 0x00, 0x00, 0x00, 0x07, 0x50, 0x00, 0x00,
  0x00, 0x44, 0x93, 0xff, 0xff, 0x10, 0x00, 0x00, 0x00, 0x18, 0x00, 0x00, 0x00,
  0x1c, 0x00, 0x00, 0x00, 0x20, 0x00, 0x00, 0x00, 0x01, 0x00, 0x00, 0x00, 0x00,
  0x00, 0x00, 0x00, 0x00, 0x00, 0x00, 0x00, 0x01, 0x00, 0x00, 0x00, 0xa5, 0x6a,
  0x7f, 0x39, 0x01, 0x00, 0x00, 0x00, 0x07, 0xa0, 0xde, 0x40, 0x01, 0x00, 0x00,
  0x00, 0xa6, 0x68, 0xff, 0xc0, 0x0d, 0x00, 0x00, 0x00, 0x64, 0x65, 0x70, 0x74,
  0x68, 0x77, 0x69, 0x73, 0x65, 0x5f, 0x33, 0x31, 0x32, 0x00, 0x00, 0x00, 0x04,
  0x00, 0x00, 0x00, 0x01, 0x00, 0x00, 0x00, 0x3c, 0x04, 0x00, 0x00, 0x84, 0x07,
  0x00, 0x00, 0x07, 0x00, 0x00, 0x00, 0xca, 0x93, 0xff, 0xff, 0x14, 0x00, 0x00,
  0x00, 0x48, 0x00, 0x00, 0x00, 0x83, 0x00, 0x00, 0x00, 0x00, 0x00, 0x00, 0x07,
  0x50, 0x00, 0x00, 0x00, 0xbc, 0x93, 0xff, 0xff, 0x10, 0x00, 0x00, 0x00, 0x18,
  0x00, 0x00, 0x00, 0x1c, 0x00, 0x00, 0x00, 0x20, 0x00, 0x00, 0x00, 0x01, 0x00,
  0x00, 0x00, 0x00, 0x00, 0x00, 0x00, 0x00, 0x00, 0x00, 0x00, 0x01, 0x00, 0x00,
  0x00, 0x7b, 0xb3, 0x01, 0x3a, 0x01, 0x00, 0x00, 0x00, 0x78, 0xb2, 0x81, 0x41,
  0x01, 0x00, 0x00, 0x00, 0xef, 0xab, 0x10, 0xc1, 0x0d, 0x00, 0x00, 0x00, 0x64,
  0x65, 0x70, 0x74, 0x68, 0x77, 0x69, 0x73, 0x65, 0x5f, 0x33, 0x30, 0x31, 0x00,
  0x00, 0x00, 0x04, 0x00, 0x00, 0x00, 0x01, 0x00, 0x00, 0x00, 0x3c, 0x04, 0x00,
  0x00, 0x84, 0x07, 0x00, 0x00, 0x07, 0x00, 0x00, 0x00, 0x42, 0x94, 0xff, 0xff,
  0x14, 0x00, 0x00, 0x00, 0x48, 0x00, 0x00, 0x00, 0x82, 0x00, 0x00, 0x00, 0x00,
  0x00, 0x00, 0x07, 0x70, 0x00, 0x00, 0x00, 0x34, 0x94, 0xff, 0xff, 0x10, 0x00,
  0x00, 0x00, 0x18, 0x00, 0x00, 0x00, 0x1c, 0x00, 0x00, 0x00, 0x20, 0x00, 0x00,
  0x00, 0x01, 0x00, 0x00, 0x00, 0x00, 0x00, 0x00, 0x00, 0x00, 0x00, 0x00, 0x00,
  0x01, 0x00, 0x00, 0x00, 0x00, 0xeb, 0xb4, 0x39, 0x01, 0x00, 0x00, 0x00, 0x91,
  0xe6, 0xc7, 0x40, 0x01, 0x00, 0x00, 0x00, 0x96, 0xe9, 0x34, 0xc1, 0x2c, 0x00,
  0x00, 0x00, 0x42, 0x69, 0x61, 0x73, 0x41, 0x64, 0x64, 0x5f, 0x31, 0x34, 0x3b,
  0x64, 0x65, 0x70, 0x74, 0x68, 0x77, 0x69, 0x73, 0x65, 0x5f, 0x33, 0x37, 0x3b,
  0x43, 0x6f, 0x6e, 0x76, 0x32, 0x44, 0x5f, 0x31, 0x34, 0x3b, 0x63, 0x6f, 0x6e,
  0x76, 0x5f, 0x35, 0x5f, 0x31, 0x5f, 0x62, 0x00, 0x00, 0x00, 0x00, 0x04, 0x00,
  0x00, 0x00, 0x01, 0x00, 0x00, 0x00, 0x3c, 0x04, 0x00, 0x00, 0x84, 0x07, 0x00,
  0x00, 0x05, 0x00, 0x00, 0x00, 0xda, 0x94, 0xff, 0xff, 0x14, 0x00, 0x00, 0x00,
  0x48, 0x00, 0x00, 0x00, 0x81, 0x00, 0x00, 0x00, 0x00, 0x00, 0x00, 0x07, 0x50,
  0x00, 0x00, 0x00, 0xcc, 0x94, 0xff, 0xff, 0x10, 0x00, 0x00, 0x00, 0x18, 0x00,
  0x00, 0x00, 0x1c, 0x00, 0x00, 0x00, 0x20, 0x00, 0x00, 0x00, 0x01, 0x00, 0x00,
  0x00, 0x00, 0x00, 0x00, 0x00, 0x00, 0x00, 0x00, 0x00, 0x01, 0x00, 0x00, 0x00,
  0x4f, 0x11, 0x74, 0x39, 0x01, 0x00, 0x00, 0x00, 0x67, 0x0f, 0xf4, 0x40, 0x01,
  0x00, 0x00, 0x00, 0xc6, 0x60, 0xb1, 0xc0, 0x0d, 0x00, 0x00, 0x00, 0x64, 0x65,
  0x70, 0x74, 0x68, 0x77, 0x69, 0x73, 0x65, 0x5f, 0x32, 0x39, 0x31, 0x00, 0x00,
  0x00, 0x04, 0x00, 0x00, 0x00, 0x01, 0x00, 0x00, 0x00, 0x3c, 0x04, 0x00, 0x00,
  0x84, 0x07, 0x00, 0x00, 0x05, 0x00, 0x00, 0x00, 0x52, 0x95, 0xff, 0xff, 0x14,
  0x00, 0x00, 0x00, 0x48, 0x00, 0x00, 0x00, 0x80, 0x00, 0x00, 0x00, 0x00, 0x00,
  0x00, 0x07, 0x50, 0x00, 0x00, 0x00, 0x44, 0x95, 0xff, 0xff, 0x10, 0x00, 0x00,
  0x00, 0x18, 0x00, 0x00, 0x00, 0x1c, 0x00, 0x00, 0x00, 0x20, 0x00, 0x00, 0x00,
  0x01, 0x00, 0x00, 0x00, 0x00, 0x00, 0x00, 0x00, 0x00, 0x00, 0x00, 0x00, 0x01,
  0x00, 0x00, 0x00, 0x4f, 0x7c, 0xc7, 0x39, 0x01, 0x00, 0x00, 0x00, 0xc0, 0x7a,
  0x47, 0x41, 0x01, 0x00, 0x00, 0x00, 0x1a, 0x89, 0xe6, 0xc0, 0x0d, 0x00, 0x00,
  0x00, 0x64, 0x65, 0x70, 0x74, 0x68, 0x77, 0x69, 0x73, 0x65, 0x5f, 0x32, 0x38,
  0x31, 0x00, 0x00, 0x00, 0x04, 0x00, 0x00, 0x00, 0x01, 0x00, 0x00, 0x00, 0x3c,
  0x04, 0x00, 0x00, 0x84, 0x07, 0x00, 0x00, 0x05, 0x00, 0x00, 0x00, 0xca, 0x95,
  0xff, 0xff, 0x14, 0x00, 0x00, 0x00, 0x4c, 0x00, 0x00, 0x00, 0x7f, 0x00, 0x00,
  0x00, 0x00, 0x00, 0x00, 0x07, 0x78, 0x00, 0x00, 0x00, 0xbc, 0x95, 0xff, 0xff,
  0x10, 0x00, 0x00, 0x00, 0x1c, 0x00, 0x00, 0x00, 0x20, 0x00, 0x00, 0x00, 0x24,
  0x00, 0x00, 0x00, 0x01, 0x00, 0x00, 0x00, 0x00, 0x00, 0x00, 0x00, 0x00, 0x00,
  0x00, 0x00, 0x00, 0x00, 0x00, 0x00, 0x01, 0x00, 0x00, 0x00, 0x08, 0xeb, 0xbf,
  0x39, 0x01, 0x00, 0x00, 0x00, 0x88, 0xe9, 0x3f, 0x41, 0x01, 0x00, 0x00, 0x00,
  0x00, 0x00, 0x00, 0x00, 0x33, 0x00, 0x00, 0x00, 0x52, 0x65, 0x6c, 0x75, 0x5f,
  0x34, 0x3b, 0x42, 0x69, 0x61, 0x73, 0x41, 0x64, 0x64, 0x5f, 0x31, 0x33, 0x3b,
  0x64, 0x65, 0x70, 0x74, 0x68, 0x77, 0x69, 0x73, 0x65, 0x5f, 0x33, 0x37, 0x3b,
  0x43, 0x6f, 0x6e, 0x76, 0x32, 0x44, 0x5f, 0x31, 0x33, 0x3b, 0x63, 0x6f, 0x6e,
  0x76, 0x5f, 0x35, 0x5f, 0x30, 0x5f, 0x62, 0x00, 0x04, 0x00, 0x00, 0x00, 0x01,
  0x00, 0x00, 0x00, 0x3c, 0x04, 0x00, 0x00, 0x84, 0x07, 0x00, 0x00, 0x05, 0x00,
  0x00, 0x00, 0x6a, 0x96, 0xff, 0xff, 0x14, 0x00, 0x00, 0x00, 0x48, 0x00, 0x00,
  0x00, 0x7e, 0x00, 0x00, 0x00, 0x00, 0x00, 0x00, 0x07, 0x50, 0x00, 0x00, 0x00,
  0x5c, 0x96, 0xff, 0xff, 0x10, 0x00, 0x00, 0x00, 0x18, 0x00, 0x00, 0x00, 0x1c,
  0x00, 0x00, 0x00, 0x20, 0x00, 0x00, 0x00, 0x01, 0x00, 0x00, 0x00, 0x00, 0x00,
  0x00, 0x00, 0x00, 0x00, 0x00, 0x00, 0x01, 0x00, 0x00, 0x00, 0x4d, 0x7a, 0x9e,
  0x39, 0x01, 0x00, 0x00, 0x00, 0x66, 0x98, 0xf9, 0x40, 0x01, 0x00, 0x00, 0x00,
  0x10, 0x79, 0x1e, 0xc1, 0x0d, 0x00, 0x00, 0x00, 0x64, 0x65, 0x70, 0x74, 0x68,
  0x77, 0x69, 0x73, 0x65, 0x5f, 0x32, 0x37, 0x31, 0x00, 0x00, 0x00, 0x04, 0x00,
  0x00, 0x00, 0x01, 0x00, 0x00, 0x00, 0x3c, 0x04, 0x00, 0x00, 0x84, 0x07, 0x00,
  0x00, 0x07, 0x00, 0x00, 0x00, 0xe2, 0x96, 0xff, 0xff, 0x14, 0x00, 0x00, 0x00,
  0x48, 0x00, 0x00, 0x00, 0x7d, 0x00, 0x00, 0x00, 0x00, 0x00, 0x00, 0x07, 0x50,
  0x00, 0x00, 0x00, 0xd4, 0x96, 0xff, 0xff, 0x10, 0x00, 0x00, 0x00, 0x18, 0x00,
  0x00, 0x00, 0x1c, 0x00, 0x00, 0x00, 0x20, 0x00, 0x00, 0x00, 0x01, 0x00, 0x00,
  0x00, 0x00, 0x00, 0x00, 0x00, 0x00, 0x00, 0x00, 0x00, 0x01, 0x00, 0x00, 0x00,
  0xc4, 0xdf, 0xdc, 0x39, 0x01, 0x00, 0x00, 0x00, 0x0a, 0xde, 0x5c, 0x41, 0x01,
  0x00, 0x00, 0x00, 0x72, 0x32, 0x4f, 0xc1, 0x0d, 0x00, 0x00, 0x00, 0x64, 0x65,
  0x70, 0x74, 0x68, 0x77, 0x69, 0x73, 0x65, 0x5f, 0x32, 0x36, 0x31, 0x00, 0x00,
  0x00, 0x04, 0x00, 0x00, 0x00, 0x01, 0x00, 0x00, 0x00, 0x3c, 0x04, 0x00, 0x00,
  0x84, 0x07, 0x00, 0x00, 0x07, 0x00, 0x00, 0x00, 0x5a, 0x97, 0xff, 0xff, 0x14,
  0x00, 0x00, 0x00, 0x48, 0x00, 0x00, 0x00, 0x7c, 0x00, 0x00, 0x00, 0x00, 0x00,
  0x00, 0x07, 0x48, 0x00, 0x00, 0x00, 0x4c, 0x97, 0xff, 0xff, 0x10, 0x00, 0x00,
  0x00, 0x18, 0x00, 0x00, 0x00, 0x1c, 0x00, 0x00, 0x00, 0x20, 0x00, 0x00, 0x00,
  0x01, 0x00, 0x00, 0x00, 0x00, 0x00, 0x00, 0x00, 0x00, 0x00, 0x00, 0x00, 0x01,
  0x00, 0x00, 0x00, 0x41, 0xb2, 0x72, 0x3a, 0x01, 0x00, 0x00, 0x00, 0xd7, 0x57,
  0xba, 0x41, 0x01, 0x00, 0x00, 0x00, 0x5c, 0xb0, 0xf2, 0xc1, 0x05, 0x00, 0x00,
  0x00, 0x41, 0x64, 0x64, 0x5f, 0x33, 0x00, 0x00, 0x00, 0x04, 0x00, 0x00, 0x00,
  0x01, 0x00, 0x00, 0x00, 0x3c, 0x04, 0x00, 0x00, 0x84, 0x07, 0x00, 0x00, 0x07,
  0x00, 0x00, 0x00, 0xca, 0x97, 0xff, 0xff, 0x14, 0x00, 0x00, 0x00, 0x48, 0x00,
  0x00, 0x00, 0x7b, 0x00, 0x00, 0x00, 0x00, 0x00, 0x00, 0x07, 0x70, 0x00, 0x00,
  0x00, 0xbc, 0x97, 0xff, 0xff, 0x10, 0x00, 0x00, 0x00, 0x18, 0x00, 0x00, 0x00,
  0x1c, 0x00, 0x00, 0x00, 0x20, 0x00, 0x00, 0x00, 0x01, 0x00, 0x00, 0x00, 0x00,
  0x00, 0x00, 0x00, 0x00, 0x00, 0x00, 0x00, 0x01, 0x00, 0x00, 0x00, 0xbf, 0xe0,
  0x57, 0x3a, 0x01, 0x00, 0x00, 0x00, 0x0f, 0xdf, 0xd7, 0x41, 0x01, 0x00, 0x00,
  0x00, 0xab, 0x93, 0xa8, 0xc1, 0x2d, 0x00, 0x00, 0x00, 0x42, 0x69, 0x61, 0x73,
  0x41, 0x64, 0x64, 0x5f, 0x31, 0x32, 0x3b, 0x64, 0x65, 0x70, 0x74, 0x68, 0x77,
  0x69, 0x73, 0x65, 0x5f, 0x33, 0x31, 0x3b, 0x43, 0x6f, 0x6e, 0x76, 0x32, 0x44,
  0x5f, 0x31, 0x32, 0x3b, 0x63, 0x6f, 0x6e, 0x76, 0x5f, 0x34, 0x5f, 0x31, 0x5f,
  0x62, 0x31, 0x00, 0x00, 0x00, 0x04, 0x00, 0x00, 0x00, 0x01, 0x00, 0x00, 0x00,
  0x3c, 0x04, 0x00, 0x00, 0x84, 0x07, 0x00, 0x00, 0x07, 0x00, 0x00, 0x00, 0x62,
  0x98, 0xff, 0xff, 0x14, 0x00, 0x00, 0x00, 0x48, 0x00, 0x00, 0x00, 0x7a, 0x00,
  0x00, 0x00, 0x00, 0x00, 0x00, 0x07, 0x50, 0x00, 0x00, 0x00, 0x54, 0x98, 0xff,
  0xff, 0x10, 0x00, 0x00, 0x00, 0x18, 0x00, 0x00, 0x00, 0x1c, 0x00, 0x00, 0x00,
  0x20, 0x00, 0x00, 0x00, 0x01, 0x00, 0x00, 0x00, 0x00, 0x00, 0x00, 0x00, 0x00,
  0x00, 0x00, 0x00, 0x01, 0x00, 0x00, 0x00, 0x00, 0x95, 0x39, 0x3a, 0x01, 0x00,
  0x00, 0x00, 0x8d, 0x93, 0xb9, 0x41, 0x01, 0x00, 0x00, 0x00, 0x87, 0xd7, 0x91,
  0xc1, 0x0d, 0x00, 0x00, 0x00, 0x64, 0x65, 0x70, 0x74, 0x68, 0x77, 0x69, 0x73,
  0x65, 0x5f, 0x32, 0x35, 0x32, 0x00, 0x00, 0x00, 0x04, 0x00, 0x00, 0x00, 0x01,
  0x00, 0x00, 0x00, 0x3c, 0x04, 0x00, 0x00, 0x84, 0x07, 0x00, 0x00, 0x09, 0x00,
  0x00, 0x00, 0xda, 0x98, 0xff, 0xff, 0x14, 0x00, 0x00, 0x00, 0x48, 0x00, 0x00,
  0x00, 0x79, 0x00, 0x00, 0x00, 0x00, 0x00, 0x00, 0x07, 0x50, 0x00, 0x00, 0x00,
  0xcc, 0x98, 0xff, 0xff, 0x10, 0x00, 0x00, 0x00, 0x18, 0x00, 0x00, 0x00, 0x1c,
  0x00, 0x00, 0x00, 0x20, 0x00, 0x00, 0x00, 0x01, 0x00, 0x00, 0x00, 0x00, 0x00,
  0x00, 0x00, 0x00, 0x00, 0x00, 0x00, 0x01, 0x00, 0x00, 0x00, 0x1a, 0x13, 0xc5,
  0x3a, 0x01, 0x00, 0x00, 0x00, 0x90, 0x11, 0x45, 0x42, 0x01, 0x00, 0x00, 0x00,
  0x98, 0x7c, 0xe6, 0xc1, 0x0d, 0x00, 0x00, 0x00, 0x64, 0x65, 0x70, 0x74, 0x68,
  0x77, 0x69, 0x73, 0x65, 0x5f, 0x32, 0x34, 0x31, 0x00, 0x00, 0x00, 0x04, 0x00,
  0x00, 0x00, 0x01, 0x00, 0x00, 0x00, 0x3c, 0x04, 0x00, 0x00, 0x84, 0x07, 0x00,
  0x00, 0x09, 0x00, 0x00, 0x00, 0x52, 0x99, 0xff, 0xff, 0x14, 0x00, 0x00, 0x00,
  0x48, 0x00, 0x00, 0x00, 0x78, 0x00, 0x00, 0x00, 0x00, 0x00, 0x00, 0x07, 0x70,
  0x00, 0x00, 0x00, 0x44, 0x99, 0xff, 0xff, 0x10, 0x00, 0x00, 0x00, 0x18, 0x00,
  0x00, 0x00, 0x1c, 0x00, 0x00, 0x00, 0x20, 0x00, 0x00, 0x00, 0x01, 0x00, 0x00,
  0x00, 0x00, 0x00, 0x00, 0x00, 0x00, 0x00, 0x00, 0x00, 0x01, 0x00, 0x00, 0x00,
  0x99, 0xd6, 0x73, 0x3a, 0x01, 0x00, 0x00, 0x00, 0xb1, 0xd4, 0xf3, 0x41, 0x01,
  0x00, 0x00, 0x00, 0x9b, 0xae, 0xf3, 0xc1, 0x2c, 0x00, 0x00, 0x00, 0x42, 0x69,
  0x61, 0x73, 0x41, 0x64, 0x64, 0x5f, 0x31, 0x31, 0x3b, 0x64, 0x65, 0x70, 0x74,
  0x68, 0x77, 0x69, 0x73, 0x65, 0x5f, 0x33, 0x31, 0x3b, 0x43, 0x6f, 0x6e, 0x76,
  0x32, 0x44, 0x5f, 0x31, 0x31, 0x3b, 0x63, 0x6f, 0x6e, 0x76, 0x5f, 0x34, 0x5f,
  0x31, 0x5f, 0x62, 0x00, 0x00, 0x00, 0x00, 0x04, 0x00, 0x00, 0x00, 0x01, 0x00,
  0x00, 0x00, 0x3c, 0x04, 0x00, 0x00, 0x84, 0x07, 0x00, 0x00, 0x07, 0x00, 0x00,
  0x00, 0xea, 0x99, 0xff, 0xff, 0x14, 0x00, 0x00, 0x00, 0x48, 0x00, 0x00, 0x00,
  0x77, 0x00, 0x00, 0x00, 0x00, 0x00, 0x00, 0x07, 0x50, 0x00, 0x00, 0x00, 0xdc,
  0x99, 0xff, 0xff, 0x10, 0x00, 0x00, 0x00, 0x18, 0x00, 0x00, 0x00, 0x1c, 0x00,
  0x00, 0x00, 0x20, 0x00, 0x00, 0x00, 0x01, 0x00, 0x00, 0x00, 0x00, 0x00, 0x00,
  0x00, 0x00, 0x00, 0x00, 0x00, 0x01, 0x00, 0x00, 0x00, 0xea, 0xac, 0x86, 0x3a,
  0x01, 0x00, 0x00, 0x00, 0x69, 0x3c, 0xa9, 0x41, 0x01, 0x00, 0x00, 0x00, 0xdd,
  0xab, 0x06, 0xc2, 0x0d, 0x00, 0x00, 0x00, 0x64, 0x65, 0x70, 0x74, 0x68, 0x77,
  0x69, 0x73, 0x65, 0x5f, 0x32, 0x33, 0x31, 0x00, 0x00, 0x00, 0x04, 0x00, 0x00,
  0x00, 0x01, 0x00, 0x00, 0x00, 0x3c, 0x04, 0x00, 0x00, 0x84, 0x07, 0x00, 0x00,
  0x07, 0x00, 0x00, 0x00, 0x62, 0x9a, 0xff, 0xff, 0x14, 0x00, 0x00, 0x00, 0x48,
  0x00, 0x00, 0x00, 0x76, 0x00, 0x00, 0x00, 0x00, 0x00, 0x00, 0x07, 0x50, 0x00,
  0x00, 0x00, 0x54, 0x9a, 0xff, 0xff, 0x10, 0x00, 0x00, 0x00, 0x18, 0x00, 0x00,
  0x00, 0x1c, 0x00, 0x00, 0x00, 0x20, 0x00, 0x00, 0x00, 0x01, 0x00, 0x00, 0x00,
  0x00, 0x00, 0x00, 0x00, 0x00, 0x00, 0x00, 0x00, 0x01, 0x00, 0x00, 0x00, 0xb7,
  0x6c, 0x5c, 0x3a, 0x01, 0x00, 0x00, 0x00, 0xfe, 0x6a, 0xdc, 0x41, 0x01, 0x00,
  0x00, 0x00, 0x4c, 0x0d, 0x90, 0xc1, 0x0d, 0x00, 0x00, 0x00, 0x64, 0x65, 0x70,
  0x74, 0x68, 0x77, 0x69, 0x73, 0x65, 0x5f, 0x32, 0x32, 0x31, 0x00, 0x00, 0x00,
  0x04, 0x00, 0x00, 0x00, 0x01, 0x00, 0x00, 0x00, 0x3c, 0x04, 0x00, 0x00, 0x84,
  0x07, 0x00, 0x00, 0x07, 0x00, 0x00, 0x00, 0xda, 0x9a, 0xff, 0xff, 0x14, 0x00,
  0x00, 0x00, 0x4c, 0x00, 0x00, 0x00, 0x75, 0x00, 0x00, 0x00, 0x00, 0x00, 0x00,
  0x07, 0x78, 0x00, 0x00, 0x00, 0xcc, 0x9a, 0xff, 0xff, 0x10, 0x00, 0x00, 0x00,
  0x1c, 0x00, 0x00, 0x00, 0x20, 0x00, 0x00, 0x00, 0x24, 0x00, 0x00, 0x00, 0x01,
  0x00, 0x00, 0x00, 0x00, 0x00, 0x00, 0x00, 0x00, 0x00, 0x00, 0x00, 0x00, 0x00,
  0x00, 0x00, 0x01, 0x00, 0x00, 0x00, 0xf9, 0xbb, 0x66, 0x3a, 0x01, 0x00, 0x00,
  0x00, 0x2c, 0xba, 0xe6, 0x41, 0x01, 0x00, 0x00, 0x00, 0x00, 0x00, 0x00, 0x00,
  0x33, 0x00, 0x00, 0x00, 0x52, 0x65, 0x6c, 0x75, 0x5f, 0x33, 0x3b, 0x42, 0x69,
  0x61, 0x73, 0x41, 0x64, 0x64, 0x5f, 0x31, 0x30, 0x3b, 0x64, 0x65, 0x70, 0x74,
  0x68, 0x77, 0x69, 0x73, 0x65, 0x5f, 0x33, 0x31, 0x3b, 0x43, 0x6f, 0x6e, 0x76,
  0x32, 0x44, 0x5f, 0x31, 0x30, 0x3b, 0x63, 0x6f, 0x6e, 0x76, 0x5f, 0x34, 0x5f,
  0x30, 0x5f, 0x62, 0x00, 0x04, 0x00, 0x00, 0x00, 0x01, 0x00, 0x00, 0x00, 0x3c,
  0x04, 0x00, 0x00, 0x84, 0x07, 0x00, 0x00, 0x07, 0x00, 0x00, 0x00, 0x7a, 0x9b,
  0xff, 0xff, 0x14, 0x00, 0x00, 0x00, 0x48, 0x00, 0x00, 0x00, 0x74, 0x00, 0x00,
  0x00, 0x00, 0x00, 0x00, 0x07, 0x50, 0x00, 0x00, 0x00, 0x6c, 0x9b, 0xff, 0xff,
  0x10, 0x00, 0x00, 0x00, 0x18, 0x00, 0x00, 0x00, 0x1c, 0x00, 0x00, 0x00, 0x20,
  0x00, 0x00, 0x00, 0x01, 0x00, 0x00, 0x00, 0x00, 0x00, 0x00, 0x00, 0x00, 0x00,
  0x00, 0x00, 0x01, 0x00, 0x00, 0x00, 0xff, 0x7b, 0x29, 0x3a, 0x01, 0x00, 0x00,
  0x00, 0xc0, 0x1c, 0x96, 0x41, 0x01, 0x00, 0x00, 0x00, 0xac, 0x7a, 0xa9, 0xc1,
  0x0d, 0x00, 0x00, 0x00, 0x64, 0x65, 0x70, 0x74, 0x68, 0x77, 0x69, 0x73, 0x65,
  0x5f, 0x32, 0x31, 0x31, 0x00, 0x00, 0x00, 0x04, 0x00, 0x00, 0x00, 0x01, 0x00,
  0x00, 0x00, 0x3c, 0x04, 0x00, 0x00, 0x84, 0x07, 0x00, 0x00, 0x09, 0x00, 0x00,
  0x00, 0xf2, 0x9b, 0xff, 0xff, 0x14, 0x00, 0x00, 0x00, 0x48, 0x00, 0x00, 0x00,
  0x73, 0x00, 0x00, 0x00, 0x00, 0x00, 0x00, 0x07, 0x50, 0x00, 0x00, 0x00, 0xe4,
  0x9b, 0xff, 0xff, 0x10, 0x00, 0x00, 0x00, 0x18, 0x00, 0x00, 0x00, 0x1c, 0x00,
  0x00, 0x00, 0x20, 0x00, 0x00, 0x00, 0x01, 0x00, 0x00, 0x00, 0x00, 0x00, 0x00,
  0x00, 0x00, 0x00, 0x00, 0x00, 0x01, 0x00, 0x00, 0x00, 0xf3, 0x89, 0x83, 0x3a,
  0x01, 0x00, 0x00, 0x00, 0xec, 0x88, 0x03, 0x42, 0x01, 0x00, 0x00, 0x00, 0x33,
  0xf5, 0xf5, 0xc1, 0x0d, 0x00, 0x00, 0x00, 0x64, 0x65, 0x70, 0x74, 0x68, 0x77,
  0x69, 0x73, 0x65, 0x5f, 0x32, 0x30, 0x31, 0x00, 0x00, 0x00, 0x04, 0x00, 0x00,
  0x00, 0x01, 0x00, 0x00, 0x00, 0x3c, 0x04, 0x00, 0x00, 0x84, 0x07, 0x00, 0x00,
  0x09, 0x00, 0x00, 0x00, 0x6a, 0x9c, 0xff, 0xff, 0x14, 0x00, 0x00, 0x00, 0x48,
  0x00, 0x00, 0x00, 0x72, 0x00, 0x00, 0x00, 0x00, 0x00, 0x00, 0x07, 0x48, 0x00,
  0x00, 0x00, 0x5c, 0x9c, 0xff, 0xff, 0x10, 0x00, 0x00, 0x00, 0x18, 0x00, 0x00,
  0x00, 0x1c, 0x00, 0x00, 0x00, 0x20, 0x00, 0x00, 0x00, 0x01, 0x00, 0x00, 0x00,
  0x00, 0x00, 0x00, 0x00, 0x00, 0x00, 0x00, 0x00, 0x01, 0x00, 0x00, 0x00, 0x1f,
