const unsigned char sr2by1ai_2_tflite[] = {
  0x20, 0x00, 0x00, 0x00, 0x54, 0x46, 0x4c, 0x33, 0x00, 0x00, 0x00, 0x00, 0x00,
  0x00, 0x12, 0x00, 0x1c, 0x00, 0x18, 0x00, 0x14, 0x00, 0x10, 0x00, 0x0c, 0x00,
  0x08, 0x00, 0x00, 0x00, 0x04, 0x00, 0x12, 0x00, 0x00, 0x00, 0x18, 0x00, 0x00,
  0x00, 0x70, 0x00, 0x00, 0x00, 0xac, 0x1c, 0x00, 0x00, 0xbc, 0x1c, 0x00, 0x00,
  0x3c, 0xa4, 0x00, 0x00, 0x03, 0x00, 0x00, 0x00, 0x02, 0x00, 0x00, 0x00, 0x34,
  0x00, 0x00, 0x00, 0x04, 0x00, 0x00, 0x00, 0xdc, 0xff, 0xff, 0xff, 0x92, 0x00,
  0x00, 0x00, 0x04, 0x00, 0x00, 0x00, 0x13, 0x00, 0x00, 0x00, 0x43, 0x4f, 0x4e,
  0x56, 0x45, 0x52, 0x53, 0x49, 0x4f, 0x4e, 0x5f, 0x4d, 0x45, 0x54, 0x41, 0x44,
  0x41, 0x54, 0x41, 0x00, 0x08, 0x00, 0x0c, 0x00, 0x08, 0x00, 0x04, 0x00, 0x08,
  0x00, 0x00, 0x00, 0x91, 0x00, 0x00, 0x00, 0x04, 0x00, 0x00, 0x00, 0x13, 0x00,
  0x00, 0x00, 0x6d, 0x69, 0x6e, 0x5f, 0x72, 0x75, 0x6e, 0x74, 0x69, 0x6d, 0x65,
  0x5f, 0x76, 0x65, 0x72, 0x73, 0x69, 0x6f, 0x6e, 0x00, 0x93, 0x00, 0x00, 0x00,
  0x38, 0x1c, 0x00, 0x00, 0x30, 0x1c, 0x00, 0x00, 0xf8, 0x1b, 0x00, 0x00, 0xb8,
  0x1b, 0x00, 0x00, 0x70, 0x1b, 0x00, 0x00, 0x18, 0x1b, 0x00, 0x00, 0xa8, 0x1a,
  0x00, 0x00, 0x20, 0x1a, 0x00, 0x00, 0xf0, 0x19, 0x00, 0x00, 0xd8, 0x19, 0x00,
  0x00, 0xc0, 0x19, 0x00, 0x00, 0xa8, 0x19, 0x00, 0x00, 0xf8, 0x18, 0x00, 0x00,
  0xd4, 0x18, 0x00, 0x00, 0x60, 0x18, 0x00, 0x00, 0xec, 0x17, 0x00, 0x00, 0x64,
  0x17, 0x00, 0x00, 0x28, 0x16, 0x00, 0x00, 0xcc, 0x15, 0x00, 0x00, 0x70, 0x15,
  0x00, 0x00, 0x7c, 0x14, 0x00, 0x00, 0x30, 0x14, 0x00, 0x00, 0xe4, 0x13, 0x00,
  0x00, 0xa8, 0x12, 0x00, 0x00, 0x4c, 0x12, 0x00, 0x00, 0xf0, 0x11, 0x00, 0x00,
  0x80, 0x11, 0x00, 0x00, 0xbc, 0x10, 0x00, 0x00, 0x70, 0x10, 0x00, 0x00, 0x24,
  0x10, 0x00, 0x00, 0x84, 0x0f, 0x00, 0x00, 0x44, 0x0f, 0x00, 0x00, 0x04, 0x0f,
  0x00, 0x00, 0x40, 0x0e, 0x00, 0x00, 0xf4, 0x0d, 0x00, 0x00, 0xa8, 0x0d, 0x00,
  0x00, 0x50, 0x0d, 0x00, 0x00, 0xd4, 0x0c, 0x00, 0x00, 0x94, 0x0c, 0x00, 0x00,
  0x54, 0x0c, 0x00, 0x00, 0xf0, 0x0b, 0x00, 0x00, 0xbc, 0x0b, 0x00, 0x00, 0x88,
  0x0b, 0x00, 0x00, 0x0c, 0x0b, 0x00, 0x00, 0xcc, 0x0a, 0x00, 0x00, 0x8c, 0x0a,
  0x00, 0x00, 0x44, 0x0a, 0x00, 0x00, 0xf4, 0x09, 0x00, 0x00, 0xc0, 0x09, 0x00,
  0x00, 0x8c, 0x09, 0x00, 0x00, 0x48, 0x09, 0x00, 0x00, 0x1c, 0x09, 0x00, 0x00,
  0xf0, 0x08, 0x00, 0x00, 0xa0, 0x08, 0x00, 0x00, 0x6c, 0x08, 0x00, 0x00, 0x38,
  0x08, 0x00, 0x00, 0x00, 0x08, 0x00, 0x00, 0xcc, 0x07, 0x00, 0x00, 0xa0, 0x07,
  0x00, 0x00, 0x74, 0x07, 0x00, 0x00, 0x48, 0x07, 0x00, 0x00, 0x20, 0x07, 0x00,
  0x00, 0xf8, 0x06, 0x00, 0x00, 0xc4, 0x06, 0x00, 0x00, 0x98, 0x06, 0x00, 0x00,
  0x6c, 0x06, 0x00, 0x00, 0x40, 0x06, 0x00, 0x00, 0x14, 0x06, 0x00, 0x00, 0xe8,
  0x05, 0x00, 0x00, 0xbc, 0x05, 0x00, 0x00, 0x90, 0x05, 0x00, 0x00, 0x64, 0x05,
  0x00, 0x00, 0x4c, 0x05, 0x00, 0x00, 0x9c, 0x04, 0x00, 0x00, 0x14, 0x04, 0x00,
  0x00, 0xa4, 0x03, 0x00, 0x00, 0x4c, 0x03, 0x00, 0x00, 0x04, 0x03, 0x00, 0x00,
  0xcc, 0x02, 0x00, 0x00, 0x94, 0x02, 0x00, 0x00, 0x7c, 0x02, 0x00, 0x00, 0x74,
  0x02, 0x00, 0x00, 0x6c, 0x02, 0x00, 0x00, 0x64, 0x02, 0x00, 0x00, 0x5c, 0x02,
  0x00, 0x00, 0x54, 0x02, 0x00, 0x00, 0x4c, 0x02, 0x00, 0x00, 0x44, 0x02, 0x00,
  0x00, 0x3c, 0x02, 0x00, 0x00, 0x34, 0x02, 0x00, 0x00, 0x2c, 0x02, 0x00, 0x00,
  0x24, 0x02, 0x00, 0x00, 0x1c, 0x02, 0x00, 0x00, 0x14, 0x02, 0x00, 0x00, 0x0c,
  0x02, 0x00, 0x00, 0x04, 0x02, 0x00, 0x00, 0xfc, 0x01, 0x00, 0x00, 0xf4, 0x01,
  0x00, 0x00, 0xec, 0x01, 0x00, 0x00, 0xe4, 0x01, 0x00, 0x00, 0xdc, 0x01, 0x00,
  0x00, 0xd4, 0x01, 0x00, 0x00, 0xcc, 0x01, 0x00, 0x00, 0xc4, 0x01, 0x00, 0x00,
  0xbc, 0x01, 0x00, 0x00, 0xb4, 0x01, 0x00, 0x00, 0xac, 0x01, 0x00, 0x00, 0xa4,
  0x01, 0x00, 0x00, 0x9c, 0x01, 0x00, 0x00, 0x94, 0x01, 0x00, 0x00, 0x8c, 0x01,
  0x00, 0x00, 0x84, 0x01, 0x00, 0x00, 0x7c, 0x01, 0x00, 0x00, 0x74, 0x01, 0x00,
  0x00, 0x6c, 0x01, 0x00, 0x00, 0x64, 0x01, 0x00, 0x00, 0x5c, 0x01, 0x00, 0x00,
  0x54, 0x01, 0x00, 0x00, 0x4c, 0x01, 0x00, 0x00, 0x44, 0x01, 0x00, 0x00, 0x3c,
  0x01, 0x00, 0x00, 0x34, 0x01, 0x00, 0x00, 0x2c, 0x01, 0x00, 0x00, 0x24, 0x01,
  0x00, 0x00, 0x1c, 0x01, 0x00, 0x00, 0x14, 0x01, 0x00, 0x00, 0x0c, 0x01, 0x00,
  0x00, 0x04, 0x01, 0x00, 0x00, 0xfc, 0x00, 0x00, 0x00, 0xf4, 0x00, 0x00, 0x00,
  0xec, 0x00, 0x00, 0x00, 0xe4, 0x00, 0x00, 0x00, 0xdc, 0x00, 0x00, 0x00, 0xd4,
  0x00, 0x00, 0x00, 0xcc, 0x00, 0x00, 0x00, 0xc4, 0x00, 0x00, 0x00, 0xbc, 0x00,
  0x00, 0x00, 0xb4, 0x00, 0x00, 0x00, 0xac, 0x00, 0x00, 0x00, 0xa4, 0x00, 0x00,
  0x00, 0x9c, 0x00, 0x00, 0x00, 0x94, 0x00, 0x00, 0x00, 0x8c, 0x00, 0x00, 0x00,
  0x84, 0x00, 0x00, 0x00, 0x7c, 0x00, 0x00, 0x00, 0x5c, 0x00, 0x00, 0x00, 0x04,
  0x00, 0x00, 0x00, 0x52, 0xe6, 0xff, 0xff, 0x04, 0x00, 0x00, 0x00, 0x48, 0x00,
  0x00, 0x00, 0x04, 0x00, 0x00, 0x00, 0xdc, 0xff, 0xff, 0xff, 0x10, 0x00, 0x00,
  0x00, 0x24, 0x00, 0x00, 0x00, 0x00, 0x00, 0x06, 0x00, 0x08, 0x00, 0x04, 0x00,
  0x06, 0x00, 0x00, 0x00, 0x04, 0x00, 0x00, 0x00, 0x01, 0x00, 0x00, 0x00, 0xec,
  0x03, 0x00, 0x00, 0x08, 0x00, 0x0c, 0x00, 0x08, 0x00, 0x04, 0x00, 0x08, 0x00,
  0x00, 0x00, 0x01, 0x00, 0x00, 0x00, 0x04, 0x00, 0x00, 0x00, 0x05, 0x00, 0x00,
  0x00, 0x32, 0x2e, 0x39, 0x2e, 0x30, 0x00, 0x00, 0x00, 0xa6, 0xe6, 0xff, 0xff,
  0x04, 0x00, 0x00, 0x00, 0x10, 0x00, 0x00, 0x00, 0x31, 0x2e, 0x35, 0x2e, 0x30,
  0x00, 0x00, 0x00, 0x00, 0x00, 0x00, 0x00, 0x00, 0x00, 0x00, 0x00, 0xd0, 0x63,
  0xff, 0xff, 0xd4, 0x63, 0xff, 0xff, 0xd8, 0x63, 0xff, 0xff, 0xdc, 0x63, 0xff,
  0xff, 0xe0, 0x63, 0xff, 0xff, 0xe4, 0x63, 0xff, 0xff, 0xe8, 0x63, 0xff, 0xff,
  0xec, 0x63, 0xff, 0xff, 0xf0, 0x63, 0xff, 0xff, 0xf4, 0x63, 0xff, 0xff, 0xf8,
  0x63, 0xff, 0xff, 0xfc, 0x63, 0xff, 0xff, 0x00, 0x64, 0xff, 0xff, 0x04, 0x64,
  0xff, 0xff, 0x08, 0x64, 0xff, 0xff, 0x0c, 0x64, 0xff, 0xff, 0x10, 0x64, 0xff,
  0xff, 0x14, 0x64, 0xff, 0xff, 0x18, 0x64, 0xff, 0xff, 0x1c, 0x64, 0xff, 0xff,
  0x20, 0x64, 0xff, 0xff, 0x24, 0x64, 0xff, 0xff, 0x28, 0x64, 0xff, 0xff, 0x2c,
  0x64, 0xff, 0xff, 0x30, 0x64, 0xff, 0xff, 0x34, 0x64, 0xff, 0xff, 0x38, 0x64,
  0xff, 0xff, 0x3c, 0x64, 0xff, 0xff, 0x40, 0x64, 0xff, 0xff, 0x44, 0x64, 0xff,
  0xff, 0x48, 0x64, 0xff, 0xff, 0x4c, 0x64, 0xff, 0xff, 0x50, 0x64, 0xff, 0xff,
  0x54, 0x64, 0xff, 0xff, 0x58, 0x64, 0xff, 0xff, 0x5c, 0x64, 0xff, 0xff, 0x60,
  0x64, 0xff, 0xff, 0x64, 0x64, 0xff, 0xff, 0x68, 0x64, 0xff, 0xff, 0x6c, 0x64,
  0xff, 0xff, 0x70, 0x64, 0xff, 0xff, 0x74, 0x64, 0xff, 0xff, 0x78, 0x64, 0xff,
  0xff, 0x7c, 0x64, 0xff, 0xff, 0x80, 0x64, 0xff, 0xff, 0x84, 0x64, 0xff, 0xff,
  0x88, 0x64, 0xff, 0xff, 0x8c, 0x64, 0xff, 0xff, 0x90, 0x64, 0xff, 0xff, 0x94,
  0x64, 0xff, 0xff, 0x98, 0x64, 0xff, 0xff, 0x9c, 0x64, 0xff, 0xff, 0xa0, 0x64,
  0xff, 0xff, 0xa4, 0x64, 0xff, 0xff, 0xa8, 0x64, 0xff, 0xff, 0xac, 0x64, 0xff,
  0xff, 0xb0, 0x64, 0xff, 0xff, 0xb4, 0x64, 0xff, 0xff, 0xb8, 0x64, 0xff, 0xff,
  0xbc, 0x64, 0xff, 0xff, 0xc0, 0x64, 0xff, 0xff, 0xc4, 0x64, 0xff, 0xff, 0xc8,
  0x64, 0xff, 0xff, 0xcc, 0x64, 0xff, 0xff, 0xc2, 0xe7, 0xff, 0xff, 0x04, 0x00,
  0x00, 0x00, 0x08, 0x00, 0x00, 0x00, 0x4d, 0x59, 0x00, 0x00, 0x00, 0x00, 0x00,
  0x00, 0xd6, 0xe7, 0xff, 0xff, 0x04, 0x00, 0x00, 0x00, 0x28, 0x00, 0x00, 0x00,
  0x2e, 0x1c, 0xfd, 0xff, 0xff, 0xff, 0xff, 0xff, 0x2a, 0x13, 0xff, 0xff, 0xff,
  0xff, 0xff, 0xff, 0xa5, 0xf0, 0xff, 0xff, 0xff, 0xff, 0xff, 0xff, 0x10, 0x63,
  0x01, 0x00, 0x00, 0x00, 0x00, 0x00, 0x1f, 0x0c, 0x02, 0x00, 0x00, 0x00, 0x00,
  0x00, 0x0a, 0xe8, 0xff, 0xff, 0x04, 0x00, 0x00, 0x00, 0x28, 0x00, 0x00, 0x00,
  0xe3, 0x1e, 0x01, 0x00, 0x00, 0x00, 0x00, 0x00, 0x2d, 0x5a, 0xfe, 0xff, 0xff,
  0xff, 0xff, 0xff, 0x3d, 0x75, 0xff, 0xff, 0xff, 0xff, 0xff, 0xff, 0x70, 0x49,
  0xfe, 0xff, 0xff, 0xff, 0xff, 0xff, 0x6c, 0xf4, 0x00, 0x00, 0x00, 0x00, 0x00,
  0x00, 0x3e, 0xe8, 0xff, 0xff, 0x04, 0x00, 0x00, 0x00, 0x38, 0x00, 0x00, 0x00,
  0x12, 0xcd, 0xff, 0xff, 0xff, 0xff, 0xff, 0xff, 0x2a, 0x55, 0xff, 0xff, 0xff,
  0xff, 0xff, 0xff, 0x16, 0x27, 0x00, 0x00, 0x00, 0x00, 0x00, 0x00, 0x1d, 0xb2,
  0x00, 0x00, 0x00, 0x00, 0x00, 0x00, 0xf8, 0xbf, 0x00, 0x00, 0x00, 0x00, 0x00,
  0x00, 0x24, 0x0a, 0x00, 0x00, 0x00, 0x00, 0x00, 0x00, 0xcc, 0x14, 0x01, 0x00,
  0x00, 0x00, 0x00, 0x00, 0x82, 0xe8, 0xff, 0xff, 0x04, 0x00, 0x00, 0x00, 0x48,
  0x00, 0x00, 0x00, 0xaa, 0x58, 0x01, 0x00, 0x00, 0x00, 0x00, 0x00, 0x0c, 0xcb,
  0xfe, 0xff, 0xff, 0xff, 0xff, 0xff, 0x6c, 0x34, 0x01, 0x00, 0x00, 0x00, 0x00,
  0x00, 0x38, 0x53, 0xff, 0xff, 0xff, 0xff, 0xff, 0xff, 0xf0, 0xc2, 0x00, 0x00,
  0x00, 0x00, 0x00, 0x00, 0xc6, 0xa8, 0xfe, 0xff, 0xff, 0xff, 0xff, 0xff, 0x08,
  0x6f, 0x00, 0x00, 0x00, 0x00, 0x00, 0x00, 0x14, 0x68, 0xff, 0xff, 0xff, 0xff,
  0xff, 0xff, 0xd5, 0x99, 0xff, 0xff, 0xff, 0xff, 0xff, 0xff, 0xd6, 0xe8, 0xff,
  0xff, 0x04, 0x00, 0x00, 0x00, 0x60, 0x00, 0x00, 0x00, 0xec, 0xc7, 0x01, 0x00,
  0x00, 0x00, 0x00, 0x00, 0x0e, 0x64, 0x01, 0x00, 0x00, 0x00, 0x00, 0x00, 0xe4,
  0x54, 0x00, 0x00, 0x00, 0x00, 0x00, 0x00, 0xfb, 0xae, 0xff, 0xff, 0xff, 0xff,
  0xff, 0xff, 0x07, 0xb5, 0x01, 0x00, 0x00, 0x00, 0x00, 0x00, 0x4e, 0x4d, 0xff,
  0xff, 0xff, 0xff, 0xff, 0xff, 0x23, 0xcb, 0xfd, 0xff, 0xff, 0xff, 0xff, 0xff,
  0x1f, 0xfa, 0xfe, 0xff, 0xff, 0xff, 0xff, 0xff, 0x3f, 0x7c, 0xff, 0xff, 0xff,
  0xff, 0xff, 0xff, 0xc6, 0x1a, 0x00, 0x00, 0x00, 0x00, 0x00, 0x00, 0xc1, 0x98,
  0xff, 0xff, 0xff, 0xff, 0xff, 0xff, 0x70, 0x1d, 0xff, 0xff, 0xff, 0xff, 0xff,
  0xff, 0x42, 0xe9, 0xff, 0xff, 0x04, 0x00, 0x00, 0x00, 0x78, 0x00, 0x00, 0x00,
  0x9d, 0xb3, 0x00, 0x00, 0x00, 0x00, 0x00, 0x00, 0x24, 0xd2, 0xff, 0xff, 0xff,
  0xff, 0xff, 0xff, 0x0a, 0x0f, 0x00, 0x00, 0x00, 0x00, 0x00, 0x00, 0xc9, 0xbf,
  0x00, 0x00, 0x00, 0x00, 0x00, 0x00, 0x01, 0xf3, 0xff, 0xff, 0xff, 0xff, 0xff,
  0xff, 0x67, 0x71, 0x00, 0x00, 0x00, 0x00, 0x00, 0x00, 0x75, 0x26, 0x00, 0x00,
  0x00, 0x00, 0x00, 0x00, 0x95, 0xb1, 0xff, 0xff, 0xff, 0xff, 0xff, 0xff, 0x43,
  0x11, 0x00, 0x00, 0x00, 0x00, 0x00, 0x00, 0x13, 0xd1, 0xff, 0xff, 0xff, 0xff,
  0xff, 0xff, 0xe0, 0x30, 0x00, 0x00, 0x00, 0x00, 0x00, 0x00, 0x5d, 0x8f, 0x00,
  0x00, 0x00, 0x00, 0x00, 0x00, 0x78, 0xc4, 0xff, 0xff, 0xff, 0xff, 0xff, 0xff,
  0xc7, 0xcc, 0xff, 0xff, 0xff, 0xff, 0xff, 0xff, 0x4b, 0x51, 0x00, 0x00, 0x00,
  0x00, 0x00, 0x00, 0xc6, 0xe9, 0xff, 0xff, 0x04, 0x00, 0x00, 0x00, 0xa0, 0x00,
  0x00, 0x00, 0x14, 0x79, 0x0e, 0x00, 0x00, 0x00, 0x00, 0x00, 0x37, 0x81, 0xfe,
  0xff, 0xff, 0xff, 0xff, 0xff, 0xd1, 0xcf, 0xef, 0xff, 0xff, 0xff, 0xff, 0xff,
  0x03, 0x76, 0x00, 0x00, 0x00, 0x00, 0x00, 0x00, 0x16, 0xe0, 0xd5, 0xff, 0xff,
  0xff, 0xff, 0xff, 0xa6, 0xf0, 0x00, 0x00, 0x00, 0x00, 0x00, 0x00, 0x5c, 0x38,
  0x0e, 0x00, 0x00, 0x00, 0x00, 0x00, 0xe7, 0xd3, 0xfe, 0xff, 0xff, 0xff, 0xff,
  0xff, 0x99, 0x2f, 0x1a, 0x00, 0x00, 0x00, 0x00, 0x00, 0x16, 0xb8, 0x0c, 0x00,
  0x00, 0x00, 0x00, 0x00, 0x8c, 0x4e, 0x06, 0x00, 0x00, 0x00, 0x00, 0x00, 0x05,
  0x06, 0xfe, 0xff, 0xff, 0xff, 0xff, 0xff, 0x03, 0x36, 0x00, 0x00, 0x00, 0x00,
  0x00, 0x00, 0x9f, 0xd3, 0x18, 0x00, 0x00, 0x00, 0x00, 0x00, 0x77, 0x93, 0x03,
  0x00, 0x00, 0x00, 0x00, 0x00, 0x75, 0x7d, 0x86, 0xff, 0xff, 0xff, 0xff, 0xff,
  0x06, 0xe6, 0xd7, 0xff, 0xff, 0xff, 0xff, 0xff, 0xdc, 0xa1, 0x04, 0x00, 0x00,
  0x00, 0x00, 0x00, 0x1f, 0x3d, 0x03, 0x00, 0x00, 0x00, 0x00, 0x00, 0xdf, 0x60,
  0xfd, 0xff, 0xff, 0xff, 0xff, 0xff, 0x72, 0xea, 0xff, 0xff, 0x04, 0x00, 0x00,
  0x00, 0x05, 0x00, 0x00, 0x00, 0x81, 0xa2, 0xba, 0x98, 0xaa, 0x00, 0x00, 0x00,
  0x86, 0xea, 0xff, 0xff, 0x04, 0x00, 0x00, 0x00, 0x19, 0x00, 0x00, 0x00, 0xf0,
  0x17, 0xae, 0xfd, 0x15, 0xcb, 0xed, 0x81, 0xdc, 0xbb, 0x7f, 0x81, 0x69, 0x81,
  0xd9, 0xd2, 0xae, 0x1c, 0x2a, 0x7f, 0xf6, 0xc0, 0xda, 0xf8, 0xbe, 0x00, 0x00,
  0x00, 0xae, 0xea, 0xff, 0xff, 0x04, 0x00, 0x00, 0x00, 0x19, 0x00, 0x00, 0x00,
  0xfa, 0x03, 0x7f, 0x13, 0x09, 0xed, 0x81, 0xdb, 0x07, 0xf3, 0xc8, 0x7b, 0x84,
  0x85, 0x36, 0x81, 0x47, 0x63, 0x7f, 0x7f, 0xdf, 0x31, 0x5d, 0x49, 0x3d, 0x00,
  0x00, 0x00, 0xd6, 0xea, 0xff, 0xff, 0x04, 0x00, 0x00, 0x00, 0x19, 0x00, 0x00,
  0x00, 0x29, 0xd3, 0x39, 0x2b, 0x81, 0x46, 0x7f, 0x02, 0x2d, 0xf2, 0x0a, 0x19,
  0x7f, 0xe2, 0xf3, 0x15, 0x2e, 0xff, 0x7f, 0xc0, 0xad, 0x81, 0x42, 0x01, 0x21,
  0x00, 0x00, 0x00, 0xfe, 0xea, 0xff, 0xff, 0x04, 0x00, 0x00, 0x00, 0x19, 0x00,
  0x00, 0x00, 0x3d, 0x81, 0x22, 0x2f, 0x81, 0x7f, 0x5b, 0xdc, 0x7f, 0x90, 0xe9,
  0xe9, 0x81, 0x5a, 0xda, 0xeb, 0xe6, 0xa7, 0x0d, 0xfa, 0x1b, 0x0c, 0xbd, 0xfa,
  0x05, 0x00, 0x00, 0x00, 0x26, 0xeb, 0xff, 0xff, 0x04, 0x00, 0x00, 0x00, 0x19,
  0x00, 0x00, 0x00, 0xc0, 0xf0, 0xc2, 0xbb, 0x10, 0x4f, 0x0d, 0x1b, 0x2c, 0xb3,
  0x7f, 0x81, 0x3a, 0x21, 0x7f, 0xd9, 0x46, 0x81, 0x81, 0x98, 0x0d, 0xdd, 0x63,
  0x54, 0x27, 0x00, 0x00, 0x00, 0x4e, 0xeb, 0xff, 0xff, 0x04, 0x00, 0x00, 0x00,
  0x19, 0x00, 0x00, 0x00, 0x1e, 0x53, 0x7f, 0xbb, 0x5a, 0x2c, 0x1c, 0x43, 0x7f,
  0x3c, 0x20, 0xed, 0x83, 0x09, 0x7f, 0x05, 0x36, 0x7f, 0x5a, 0x4a, 0x81, 0x36,
  0xda, 0x29, 0x53, 0x00, 0x00, 0x00, 0x76, 0xeb, 0xff, 0xff, 0x04, 0x00, 0x00,
  0x00, 0x19, 0x00, 0x00, 0x00, 0x06, 0x01, 0xfc, 0xde, 0xe0, 0xfc, 0xd8, 0x0a,
  0x28, 0x2f, 0x0d, 0x38, 0x3b, 0x7f, 0x83, 0x74, 0x3a, 0x7f, 0x26, 0x35, 0x7f,
  0x7f, 0x25, 0x56, 0x81, 0x00, 0x00, 0x00, 0x9e, 0xeb, 0xff, 0xff, 0x04, 0x00,
  0x00, 0x00, 0x19, 0x00, 0x00, 0x00, 0x45, 0xf5, 0x1d, 0x15, 0x3e, 0x25, 0x60,
  0x09, 0x37, 0x14, 0x8a, 0x81, 0x81, 0x44, 0x7f, 0x7f, 0xdb, 0xf2, 0x7f, 0x1c,
  0xd8, 0xee, 0x38, 0x13, 0x06, 0x00, 0x00, 0x00, 0xc6, 0xeb, 0xff, 0xff, 0x04,
  0x00, 0x00, 0x00, 0x23, 0x00, 0x00, 0x00, 0x0c, 0xf9, 0x1d, 0xa9, 0x64, 0x7f,
  0x18, 0x5e, 0xd5, 0x7f, 0xf6, 0x47, 0xd0, 0x09, 0x1c, 0x99, 0xe6, 0x08, 0xff,
  0x89, 0x81, 0xd0, 0xbf, 0xc2, 0x7f, 0x12, 0xa6, 0xae, 0x81, 0x2d, 0x3b, 0x06,
  0xfe, 0xb9, 0x5b, 0x00, 0xf6, 0xeb, 0xff, 0xff, 0x04, 0x00, 0x00, 0x00, 0x15,
  0x00, 0x00, 0x00, 0xff, 0x7f, 0x02, 0x19, 0x47, 0x28, 0x81, 0xb0, 0xe6, 0x81,
  0x81, 0x31, 0x55, 0x6b, 0x7f, 0x4b, 0x1a, 0xeb, 0x7f, 0x7f, 0x21, 0x00, 0x00,
  0x00, 0x1a, 0xec, 0xff, 0xff, 0x04, 0x00, 0x00, 0x00, 0x15, 0x00, 0x00, 0x00,
  0x21, 0xdb, 0xdd, 0x6c, 0x81, 0x7f, 0x06, 0x7f, 0x7f, 0x81, 0x7f, 0x8a, 0x45,
  0x81, 0x1d, 0xd0, 0x04, 0x6b, 0x3e, 0x1c, 0x1d, 0x00, 0x00, 0x00, 0x3e, 0xec,
  0xff, 0xff, 0x04, 0x00, 0x00, 0x00, 0x19, 0x00, 0x00, 0x00, 0xb9, 0x7f, 0x14,
  0x5b, 0xd3, 0x14, 0x81, 0xde, 0xd4, 0xef, 0x28, 0x81, 0xb6, 0x02, 0x54, 0x98,
  0x81, 0x1c, 0x52, 0xd4, 0x17, 0x20, 0x40, 0xda, 0x81, 0x00, 0x00, 0x00, 0x66,
  0xec, 0xff, 0xff, 0x04, 0x00, 0x00, 0x00, 0x19, 0x00, 0x00, 0x00, 0xf9, 0xee,
  0xfd, 0x60, 0xf7, 0x10, 0x47, 0xb0, 0x0b, 0xc2, 0x7f, 0x81, 0x81, 0x81, 0x81,
  0xfe, 0x1a, 0xaa, 0x64, 0xbf, 0x03, 0xfd, 0xe5, 0x74, 0xd0, 0x00, 0x00, 0x00,
  0x8e, 0xec, 0xff, 0xff, 0x04, 0x00, 0x00, 0x00, 0x19, 0x00, 0x00, 0x00, 0xf5,
  0x0b, 0xbd, 0xfe, 0x4c, 0xf3, 0xd0, 0x33, 0x42, 0xcf, 0x7f, 0x7f, 0x7f, 0x7f,
  0x81, 0xea, 0x05, 0xfa, 0x10, 0xfe, 0x03, 0xfe, 0xcf, 0x1e, 0x2a, 0x00, 0x00,
  0x00, 0xb6, 0xec, 0xff, 0xff, 0x04, 0x00, 0x00, 0x00, 0x23, 0x00, 0x00, 0x00,
  0xfe, 0xdb, 0xdf, 0x13, 0x89, 0xd7, 0x81, 0xff, 0xd0, 0xce, 0x13, 0xa5, 0x81,
  0xda, 0x81, 0xf0, 0x0e, 0xe2, 0xf3, 0x1e, 0xfe, 0x18, 0x20, 0xb3, 0xb9, 0x06,
  0x81, 0x50, 0xf2, 0x81, 0x39, 0xbd, 0xff, 0x28, 0x24, 0x00, 0xe6, 0xec, 0xff,
  0xff, 0x04, 0x00, 0x00, 0x00, 0x28, 0x00, 0x00, 0x00, 0x00, 0x00, 0x00, 0x00,
  0x00, 0x00, 0x00, 0x00, 0x00, 0x00, 0x00, 0x00, 0x00, 0x00, 0x00, 0x00, 0x00,
  0x00, 0x00, 0x00, 0x00, 0x00, 0x00, 0x00, 0x00, 0x00, 0x00, 0x00, 0x00, 0x00,
  0x00, 0x00, 0x00, 0x00, 0x00, 0x00, 0x00, 0x00, 0x00, 0x00, 0x1a, 0xed, 0xff,
  0xff, 0x04, 0x00, 0x00, 0x00, 0x23, 0x00, 0x00, 0x00, 0xb8, 0x29, 0x27, 0xeb,
  0x06, 0xd3, 0x45, 0x09, 0x19, 0x3b, 0x7c, 0x48, 0x46, 0x7f, 0x81, 0x7f, 0x7f,
  0x81, 0x60, 0x3d, 0x6a, 0x97, 0x77, 0x55, 0x85, 0x7f, 0x7f, 0x51, 0xd9, 0x3e,
  0x58, 0x04, 0xf6, 0x38, 0x65, 0x00, 0x4a, 0xed, 0xff, 0xff, 0x04, 0x00, 0x00,
  0x00, 0x23, 0x00, 0x00, 0x00, 0x24, 0x4e, 0x47, 0x27, 0x2c, 0x81, 0xe5, 0x9e,
  0xf6, 0x19, 0x00, 0x7f, 0xf3, 0x81, 0x7f, 0x7f, 0x7f, 0x81, 0x70, 0xf0, 0x92,
  0xb7, 0x0f, 0x48, 0xe0, 0x28, 0xc0, 0xab, 0x06, 0x4f, 0x0e, 0x30, 0x03, 0xda,
  0xea, 0x00, 0x7a, 0xed, 0xff, 0xff, 0x04, 0x00, 0x00, 0x00, 0x3f, 0x00, 0x00,
  0x00, 0x28, 0x7f, 0xd1, 0x5c, 0xc5, 0x4d, 0xe3, 0x8b, 0x29, 0x7f, 0x58, 0xe7,
  0xbf, 0x44, 0xdd, 0xc7, 0x48, 0x17, 0xae, 0xf4, 0x6b, 0xf2, 0x3f, 0xef, 0x81,
  0x60, 0x89, 0x28, 0xb9, 0xac, 0xdf, 0xad, 0x6c, 0x06, 0x08, 0x7f, 0xf7, 0x7f,
  0x32, 0x79, 0xc7, 0xe3, 0x1c, 0x2b, 0xfe, 0x89, 0x99, 0x32, 0x35, 0x7f, 0x85,
  0x6a, 0xe2, 0x42, 0x47, 0x81, 0x9c, 0xc9, 0xe0, 0xb6, 0x01, 0xbe, 0xeb, 0x00,
  0xc6, 0xed, 0xff, 0xff, 0x04, 0x00, 0x00, 0x00, 0x1b, 0x00, 0x00, 0x00, 0x0e,
  0x7f, 0x1f, 0x96, 0x26, 0xcb, 0xca, 0xf2, 0xdc, 0x46, 0x22, 0xaa, 0x7f, 0x33,
  0x8a, 0x7f, 0xeb, 0x02, 0x7f, 0x5b, 0x81, 0x3d, 0x7f, 0x81, 0x72, 0x81, 0x81,
  0x00, 0xee, 0xed, 0xff, 0xff, 0x04, 0x00, 0x00, 0x00, 0x1b, 0x00, 0x00, 0x00,
  0xea, 0x3e, 0xb3, 0x7f, 0xac, 0x7f, 0x81, 0xe8, 0x7f, 0x7f, 0x81, 0x9f, 0x1c,
  0x1d, 0x18, 0xe6, 0x81, 0x84, 0x6d, 0x39, 0x81, 0x22, 0x7f, 0x9d, 0x08, 0x4b,
  0x56, 0x00, 0x16, 0xee, 0xff, 0xff, 0x04, 0x00, 0x00, 0x00, 0x31, 0x00, 0x00,
  0x00, 0x2c, 0xf4, 0xc2, 0x2d, 0x42, 0x7f, 0xd7, 0x4e, 0x81, 0xde, 0x00, 0x72,
  0xe9, 0xf1, 0x12, 0x81, 0xbc, 0x6d, 0x28, 0xa5, 0xb4, 0x81, 0xa7, 0x2f, 0xca,
  0xaf, 0xa8, 0x18, 0xfa, 0x1c, 0xc9, 0x28, 0x7f, 0xe4, 0xde, 0x7f, 0x2d, 0xb0,
  0xf4, 0x49, 0xcf, 0xeb, 0xf3, 0x7f, 0xa2, 0x4f, 0xb7, 0xa7, 0x94, 0x00, 0x00,
  0x00, 0x56, 0xee, 0xff, 0xff, 0x04, 0x00, 0x00, 0x00, 0x23, 0x00, 0x00, 0x00,
  0x47, 0x1c, 0x81, 0x2e, 0x3e, 0x11, 0x57, 0x7f, 0xff, 0xcd, 0x81, 0xf4, 0xbb,
  0xb6, 0x48, 0x7f, 0x7a, 0x2d, 0x7f, 0xa1, 0x81, 0x34, 0x1b, 0x35, 0x4b, 0x13,
  0x81, 0x00, 0xe3, 0xdd, 0xbc, 0xc9, 0x62, 0xc4, 0x2a, 0x00, 0x86, 0xee, 0xff,
  0xff, 0x04, 0x00, 0x00, 0x00, 0x23, 0x00, 0x00, 0x00, 0x85, 0xfb, 0xdf, 0xed,
  0x7f, 0x10, 0x0d, 0x7f, 0x06, 0xf7, 0x7f, 0xff, 0x43, 0xa6, 0x22, 0x81, 0x81,
  0x15, 0x36, 0x7f, 0x81, 0x35, 0x4b, 0x02, 0xc7, 0xc7, 0x03, 0x2e, 0x98, 0xee,
  0xf9, 0x1f, 0x78, 0xe7, 0xfa, 0x00, 0xb6, 0xee, 0xff, 0xff, 0x04, 0x00, 0x00,
  0x00, 0x3f, 0x00, 0x00, 0x00, 0x10, 0x3a, 0x7f, 0xfc, 0x47, 0x1f, 0x0e, 0x00,
  0xce, 0x00, 0x31, 0xfc, 0x01, 0x04, 0xf3, 0xee, 0x7f, 0xdf, 0x7f, 0x1b, 0xf7,
  0x05, 0xff, 0xb1, 0xfb, 0x05, 0xf7, 0xec, 0xf9, 0xb1, 0x7f, 0xfc, 0x02, 0x41,
  0x00, 0x7b, 0x00, 0xce, 0xe2, 0xcf, 0x81, 0x1b, 0x00, 0x32, 0xd6, 0x61, 0x03,
  0x7f, 0x0e, 0xff, 0xed, 0x92, 0x11, 0x02, 0xe9, 0x9d, 0x81, 0xdb, 0xe6, 0x23,
  0x77, 0xed, 0x63, 0x00, 0x02, 0xef, 0xff, 0xff, 0x04, 0x00, 0x00, 0x00, 0x38,
  0x00, 0x00, 0x00, 0x00, 0x00, 0x00, 0x00, 0x00, 0x00, 0x00, 0x00, 0x00, 0x00,
  0x00, 0x00, 0x00, 0x00, 0x00, 0x00, 0x00, 0x00, 0x00, 0x00, 0x00, 0x00, 0x00,
  0x00, 0x00, 0x00, 0x00, 0x00, 0x00, 0x00, 0x00, 0x00, 0x00, 0x00, 0x00, 0x00,
  0x00, 0x00, 0x00, 0x00, 0x00, 0x00, 0x00, 0x00, 0x00, 0x00, 0x00, 0x00, 0x00,
  0x00, 0x00, 0x00, 0x00, 0x00, 0x00, 0x00, 0x46, 0xef, 0xff, 0xff, 0x04, 0x00,
  0x00, 0x00, 0x2d, 0x00, 0x00, 0x00, 0x2f, 0x4d, 0x18, 0xb2, 0xe6, 0x98, 0x2f,
  0xf9, 0x09, 0x81, 0x81, 0x7f, 0x7f, 0x05, 0x7f, 0xe0, 0xc4, 0xb2, 0x61, 0xab,
  0x35, 0x48, 0x81, 0xbd, 0x7f, 0x81, 0x15, 0xaa, 0x64, 0x47, 0x9e, 0xaf, 0x88,
  0x4b, 0x8b, 0x7f, 0x3a, 0xa8, 0x40, 0xf4, 0xbf, 0x79, 0x44, 0x95, 0xf3, 0x00,
  0x00, 0x00, 0x82, 0xef, 0xff, 0xff, 0x04, 0x00, 0x00, 0x00, 0x2d, 0x00, 0x00,
  0x00, 0x52, 0x09, 0x56, 0xff, 0x48, 0x0d, 0xec, 0x03, 0xeb, 0x72, 0x68, 0x2e,
  0x13, 0x81, 0x7f, 0x7f, 0xa4, 0xbc, 0xe5, 0x6d, 0x23, 0x7f, 0x45, 0x6d, 0x6d,
  0x81, 0x81, 0x02, 0x7f, 0x1c, 0x2a, 0x2b, 0xe6, 0x17, 0x9d, 0xff, 0x7f, 0xe4,
  0x7f, 0x1e, 0xe6, 0xf9, 0xff, 0x18, 0xd7, 0x00, 0x00, 0x00, 0xbe, 0xef, 0xff,
  0xff, 0x04, 0x00, 0x00, 0x00, 0x6c, 0x00, 0x00, 0x00, 0x00, 0xbe, 0x28, 0xf1,
  0x48, 0x38, 0x37, 0x37, 0x0b, 0x7f, 0x12, 0x04, 0x07, 0x0f, 0xf8, 0x31, 0x06,
  0x81, 0xcd, 0xdd, 0x24, 0xe1, 0x74, 0xe0, 0xe6, 0xd2, 0x7f, 0x27, 0x67, 0x22,
  0xcb, 0x0f, 0xba, 0xff, 0x3c, 0xef, 0xda, 0xda, 0xe7, 0xb2, 0xfd, 0x7f, 0x2f,
  0xdd, 0x0b, 0xd5, 0xd3, 0xe9, 0xc3, 0x64, 0xf4, 0x26, 0x81, 0x26, 0xaa, 0xd7,
  0x52, 0xcd, 0xad, 0x5e, 0xe2, 0xb7, 0xa4, 0xcc, 0x97, 0x58, 0x79, 0x81, 0x66,
  0xb7, 0x11, 0x4b, 0xe7, 0xd6, 0xe4, 0xa2, 0xb4, 0x2d, 0x4b, 0xef, 0x34, 0x0e,
  0xe0, 0x7f, 0x5f, 0xe6, 0xa3, 0xeb, 0x78, 0xfb, 0xd3, 0xc4, 0xce, 0x54, 0xd3,
  0x81, 0x81, 0xb6, 0xed, 0xf3, 0xec, 0x4f, 0x2e, 0xaa, 0x74, 0x02, 0x2c, 0xf2,
  0x36, 0xf0, 0xff, 0xff, 0x04, 0x00, 0x00, 0x00, 0x24, 0x00, 0x00, 0x00, 0x07,
  0xee, 0xa6, 0x81, 0x81, 0x81, 0x2d, 0x81, 0x81, 0xe4, 0xd6, 0x81, 0x81, 0x7f,
  0x81, 0x1b, 0x52, 0xad, 0x7f, 0x90, 0x34, 0x81, 0x81, 0x13, 0x41, 0xe7, 0x01,
  0x20, 0x26, 0x42, 0xd7, 0xb1, 0xd4, 0xd8, 0x8d, 0x2e, 0x66, 0xf0, 0xff, 0xff,
  0x04, 0x00, 0x00, 0x00, 0x24, 0x00, 0x00, 0x00, 0xe3, 0x0d, 0x1c, 0xf8, 0xcc,
  0xab, 0xfd, 0x7f, 0xd9, 0xab, 0x7f, 0xee, 0x7f, 0xa0, 0x81, 0x65, 0x81, 0x15,
  0xed, 0x48, 0x81, 0xfc, 0x55, 0x7f, 0x26, 0x7f, 0xc8, 0x7f, 0xcb, 0x7f, 0x7f,
  0x06, 0xe0, 0x7f, 0x46, 0x6d, 0x96, 0xf0, 0xff, 0xff, 0x04, 0x00, 0x00, 0x00,
  0x51, 0x00, 0x00, 0x00, 0xbd, 0xdd, 0x8e, 0xfb, 0x81, 0xe6, 0xcb, 0xfc, 0xa7,
  0x35, 0x3f, 0x04, 0xb4, 0xf4, 0x7f, 0xea, 0x9e, 0x07, 0x0a, 0xec, 0x26, 0x0f,
  0xf0, 0xec, 0xea, 0xfd, 0x81, 0x7f, 0x35, 0x6a, 0xb8, 0x54, 0x16, 0xc4, 0x1a,
  0xdb, 0xbd, 0x82, 0x5e, 0xb6, 0xd7, 0xf5, 0x7f, 0xcb, 0x11, 0x02, 0xd2, 0x2b,
  0x81, 0xc9, 0xff, 0x1b, 0xa1, 0x27, 0x01, 0x2f, 0xf9, 0xd4, 0xdc, 0x81, 0x10,
  0xfa, 0x1d, 0x7f, 0xdc, 0xb7, 0xcd, 0x21, 0xd5, 0xce, 0xe9, 0x22, 0xf4, 0xd8,
  0xff, 0x07, 0xfb, 0x7f, 0xf0, 0xe9, 0x0e, 0x00, 0x00, 0x00, 0xf6, 0xf0, 0xff,
  0xff, 0x04, 0x00, 0x00, 0x00, 0x2d, 0x00, 0x00, 0x00, 0x81, 0xba, 0xf3, 0x0e,
  0x81, 0x81, 0x57, 0xce, 0x81, 0xe3, 0x17, 0x81, 0x8e, 0xaa, 0xe0, 0x44, 0x5f,
  0x32, 0xf1, 0xa2, 0xd6, 0x81, 0xc4, 0x98, 0x21, 0x7f, 0xb4, 0x0a, 0x81, 0x0c,
  0xcb, 0x17, 0x9d, 0x7f, 0x62, 0xde, 0x88, 0x56, 0xfe, 0x49, 0xb7, 0x0d, 0xfd,
  0xb4, 0x95, 0x00, 0x00, 0x00, 0x32, 0xf1, 0xff, 0xff, 0x04, 0x00, 0x00, 0x00,
  0x2d, 0x00, 0x00, 0x00, 0x32, 0xbb, 0x28, 0x11, 0xa5, 0x09, 0xf1, 0x0b, 0x81,
  0x82, 0x42, 0xf3, 0x75, 0xab, 0xe5, 0xa8, 0x68, 0xc7, 0xe8, 0x7f, 0x81, 0x7f,
  0x11, 0x81, 0x81, 0x7f, 0x81, 0x20, 0x39, 0xc2, 0xfd, 0x81, 0x10, 0xcf, 0xd1,
  0x85, 0x7f, 0x26, 0x41, 0x46, 0xde, 0xa0, 0xef, 0x21, 0xc4, 0x00, 0x00, 0x00,
  0x6e, 0xf1, 0xff, 0xff, 0x04, 0x00, 0x00, 0x00, 0x6c, 0x00, 0x00, 0x00, 0x4f,
  0x2d, 0x70, 0x9a, 0x81, 0x1b, 0xec, 0xe7, 0x7b, 0xb9, 0xc1, 0xc8, 0x48, 0x75,
  0xe8, 0xdf, 0x12, 0xf4, 0xa6, 0x04, 0x14, 0x27, 0x81, 0x00, 0xfa, 0x06, 0x72,
  0xf0, 0xad, 0x0a, 0xf0, 0x00, 0xd3, 0x81, 0x46, 0x06, 0x93, 0x29, 0xe9, 0x5b,
  0x05, 0x81, 0x22, 0x79, 0x02, 0x03, 0xe4, 0xa9, 0x0d, 0xf4, 0x79, 0x08, 0x7f,
  0x0a, 0xb5, 0x1f, 0x58, 0xb5, 0x2d, 0x07, 0x39, 0x15, 0x5e, 0x1f, 0xfe, 0x20,
  0x0a, 0x14, 0x81, 0xf6, 0xca, 0xfe, 0x6d, 0x31, 0xe6, 0xbf, 0x66, 0xc0, 0x81,
  0xfc, 0xff, 0x52, 0x1b, 0xd5, 0xbe, 0x7f, 0x15, 0xc7, 0xd8, 0x5e, 0x33, 0x92,
  0x26, 0xe9, 0x3d, 0x61, 0x1f, 0x10, 0x07, 0x64, 0xf2, 0xc0, 0xe7, 0xa2, 0xcc,
  0x08, 0x16, 0x81, 0xe6, 0xf1, 0xff, 0xff, 0x04, 0x00, 0x00, 0x00, 0x48, 0x00,
  0x00, 0x00, 0x00, 0x00, 0x00, 0x00, 0x00, 0x00, 0x00, 0x00, 0x00, 0x00, 0x00,
  0x00, 0x00, 0x00, 0x00, 0x00, 0x00, 0x00, 0x00, 0x00, 0x00, 0x00, 0x00, 0x00,
  0x00, 0x00, 0x00, 0x00, 0x00, 0x00, 0x00, 0x00, 0x00, 0x00, 0x00, 0x00, 0x00,
  0x00, 0x00, 0x00, 0x00, 0x00, 0x00, 0x00, 0x00, 0x00, 0x00, 0x00, 0x00, 0x00,
  0x00, 0x00, 0x00, 0x00, 0x00, 0x00, 0x00, 0x00, 0x00, 0x00, 0x00, 0x00, 0x00,
  0x00, 0x00, 0x00, 0x00, 0x00, 0x00, 0x00, 0x00, 0x00, 0x3a, 0xf2, 0xff, 0xff,
  0x04, 0x00, 0x00, 0x00, 0x3c, 0x00, 0x00, 0x00, 0x23, 0x81, 0xe3, 0x08, 0x2d,
  0x36, 0x81, 0xa8, 0x07, 0x3b, 0x7f, 0x01, 0x04, 0xb4, 0x55, 0xcc, 0x1d, 0xc5,
  0xa5, 0xce, 0x58, 0x21, 0x45, 0x81, 0xbf, 0x9d, 0x7f, 0x59, 0x39, 0x92, 0x97,
  0x7f, 0x41, 0x7f, 0x40, 0xbe, 0x81, 0x12, 0x69, 0x7f, 0x7f, 0x7f, 0xa3, 0xc0,
  0x7f, 0x7b, 0x67, 0xf9, 0xd8, 0xad, 0x4d, 0xa7, 0xff, 0xd8, 0x28, 0x1e, 0x01,
  0x2f, 0x1f, 0x70, 0x82, 0xf2, 0xff, 0xff, 0x04, 0x00, 0x00, 0x00, 0x3c, 0x00,
  0x00, 0x00, 0xbe, 0x1c, 0xdd, 0x11, 0x88, 0x19, 0xeb, 0xff, 0xea, 0x81, 0x1b,
  0x2b, 0xd5, 0x30, 0x08, 0xfe, 0x7a, 0xf8, 0xb9, 0x12, 0x14, 0xe9, 0xaf, 0x81,
  0x81, 0x7f, 0x14, 0xc3, 0x4a, 0xd9, 0x56, 0xdc, 0x71, 0x12, 0x81, 0x76, 0xf5,
  0x2d, 0x81, 0x81, 0x1f, 0xdf, 0xf1, 0x81, 0x81, 0xf6, 0x0a, 0x23, 0xc8, 0x30,
  0x22, 0x0d, 0x81, 0x81, 0x7f, 0x9d, 0x34, 0x48, 0xcb, 0x32, 0xca, 0xf2, 0xff,
  0xff, 0x04, 0x00, 0x00, 0x00, 0xb4, 0x00, 0x00, 0x00, 0xcb, 0xd3, 0x1d, 0xe2,
  0xd0, 0x7f, 0xa3, 0x33, 0x1b, 0xfa, 0x53, 0x16, 0x0f, 0xe9, 0xe8, 0xed, 0x2f,
  0x0e, 0x27, 0xff, 0x14, 0xf7, 0x7f, 0x0b, 0x42, 0xd8, 0xd7, 0xf1, 0x0e, 0x48,
  0x81, 0xd4, 0xf1, 0x5b, 0x0e, 0xb0, 0xaf, 0xbc, 0x63, 0x0e, 0xbd, 0x41, 0xdd,
  0x87, 0x8a, 0x0d, 0x27, 0x99, 0xe9, 0xce, 0x04, 0xad, 0x36, 0xc8, 0x24, 0xf3,
  0xd3, 0x81, 0x02, 0xa2, 0xf4, 0x17, 0x19, 0xfe, 0x81, 0x01, 0xef, 0xf5, 0x87,
  0xd6, 0x9a, 0xef, 0x16, 0xf6, 0x34, 0xfb, 0xeb, 0xe8, 0x81, 0xce, 0x51, 0xf1,
  0x16, 0x35, 0xe2, 0xf7, 0x21, 0x39, 0xee, 0xdc, 0xd1, 0xda, 0x56, 0x26, 0xec,
  0x2f, 0x03, 0x28, 0x11, 0xc6, 0x95, 0xa2, 0x7f, 0x12, 0x2b, 0xf9, 0xd5, 0x7f,
  0x1c, 0xde, 0xaa, 0x09, 0xac, 0xd7, 0x90, 0x06, 0xc0, 0x29, 0x3a, 0xfe, 0xe6,
  0xcb, 0xe1, 0xe0, 0xd0, 0x02, 0xad, 0x66, 0xf4, 0x54, 0x81, 0x08, 0xd5, 0xf0,
  0xa7, 0xe6, 0x3c, 0x09, 0x24, 0x64, 0xe2, 0x21, 0xb4, 0xcb, 0xf4, 0xc3, 0x74,
  0x4e, 0x81, 0xcd, 0x57, 0x00, 0xde, 0x0f, 0x15, 0x07, 0xa7, 0xfe, 0xd5, 0x38,
  0x08, 0x0f, 0xdd, 0x14, 0x81, 0xfb, 0xd2, 0x4b, 0x86, 0xca, 0x2b, 0xf6, 0xc8,
  0x7f, 0xff, 0x16, 0x0b, 0xc2, 0xf2, 0x12, 0x8a, 0xf3, 0xff, 0xff, 0x04, 0x00,
  0x00, 0x00, 0x2d, 0x00, 0x00, 0x00, 0x7f, 0x7c, 0x7f, 0x81, 0x81, 0xd2, 0xaf,
  0xb8, 0x7f, 0x7f, 0xdf, 0x7f, 0xd3, 0x81, 0x40, 0x15, 0x09, 0x83, 0x8b, 0x02,
  0x81, 0x7f, 0x18, 0xb6, 0x1a, 0x81, 0x5f, 0xc7, 0x3a, 0x81, 0xc4, 0x81, 0xa8,
  0x2b, 0xee, 0x42, 0xca, 0x7f, 0x8d, 0xe2, 0x5d, 0xc0, 0x81, 0xe9, 0x35, 0x00,
  0x00, 0x00, 0xc6, 0xf3, 0xff, 0xff, 0x04, 0x00, 0x00, 0x00, 0x2d, 0x00, 0x00,
  0x00, 0x7f, 0x7f, 0x7f, 0x7f, 0x7f, 0x4a, 0x81, 0x81, 0x7f, 0x3e, 0xd8, 0xf4,
  0x81, 0x99, 0x58, 0x9a, 0x0d, 0xdb, 0xd2, 0x65, 0x7f, 0x06, 0xc8, 0x99, 0x81,
  0xd1, 0xa3, 0x2c, 0x7f, 0x81, 0x17, 0x9c, 0xce, 0x12, 0x1c, 0x22, 0xf5, 0x2e,
  0x7e, 0x32, 0x81, 0x7f, 0xcf, 0xff, 0x14, 0x00, 0x00, 0x00, 0x02, 0xf4, 0xff,
  0xff, 0x04, 0x00, 0x00, 0x00, 0x90, 0x00, 0x00, 0x00, 0x00, 0x1c, 0x06, 0xde,
  0xeb, 0x59, 0xb2, 0xf8, 0xee, 0x81, 0xf8, 0x06, 0xd8, 0x32, 0x53, 0xd5, 0xd9,
  0x1b, 0xcf, 0x81, 0xc2, 0xe3, 0xa4, 0xd9, 0x25, 0xa9, 0xe0, 0x40, 0x85, 0xc2,
  0xf5, 0x9a, 0x30, 0xdb, 0x61, 0x81, 0x2b, 0xe9, 0x20, 0x18, 0x7f, 0xec, 0x0d,
  0xfc, 0xfb, 0x29, 0x33, 0x2e, 0xe1, 0x3d, 0x9a, 0x15, 0xcf, 0x81, 0x17, 0x5a,
  0xbf, 0x0c, 0x99, 0x5e, 0x09, 0xe3, 0x0c, 0x08, 0x81, 0x11, 0x0b, 0xfa, 0x11,
  0x17, 0x09, 0xdf, 0x17, 0x14, 0x82, 0x7b, 0x81, 0x18, 0x47, 0xd2, 0x91, 0x19,
  0xbc, 0xbe, 0x78, 0x98, 0x45, 0x81, 0x61, 0xa5, 0xad, 0x35, 0x1c, 0x7f, 0xcb,
  0x1e, 0x20, 0xca, 0x25, 0xe3, 0x81, 0x21, 0x87, 0x46, 0x3e, 0x1d, 0x1c, 0xd3,
  0x82, 0x10, 0x00, 0x16, 0x81, 0x1d, 0x56, 0x28, 0xf2, 0x08, 0x28, 0x0a, 0x42,
  0x21, 0x5f, 0x3f, 0xf7, 0xd2, 0x3c, 0xe0, 0x19, 0x03, 0x7f, 0xf0, 0xf9, 0xcc,
  0xf5, 0x8d, 0x7f, 0x4a, 0x91, 0xe9, 0xe1, 0xf8, 0x34, 0xea, 0x9e, 0xf4, 0xff,
  0xff, 0x04, 0x00, 0x00, 0x00, 0x3c, 0x00, 0x00, 0x00, 0xf0, 0xdd, 0xfc, 0xb5,
  0x55, 0x00, 0x43, 0xba, 0xea, 0xa2, 0xf1, 0xef, 0x10, 0xc3, 0xe7, 0x67, 0x70,
  0x21, 0x5a, 0x31, 0x35, 0x2d, 0x13, 0x22, 0x7f, 0x81, 0x59, 0x7f, 0x5e, 0x7f,
  0x46, 0xd2, 0x9e, 0x81, 0xc5, 0xfe, 0xd7, 0xad, 0x7f, 0x87, 0x7f, 0x57, 0x7f,
  0xe6, 0x81, 0xb8, 0x81, 0x89, 0x11, 0xb9, 0x28, 0x31, 0x52, 0x06, 0xcf, 0x81,
  0xba, 0x25, 0xf6, 0x81, 0xe6, 0xf4, 0xff, 0xff, 0x04, 0x00, 0x00, 0x00, 0x3c,
  0x00, 0x00, 0x00, 0xbc, 0x06, 0xd5, 0xe4, 0xd7, 0x0a, 0xf6, 0xb6, 0xf7, 0x32,
  0xf4, 0xce, 0x7f, 0x29, 0x7f, 0x7f, 0x81, 0x57, 0x7f, 0xcb, 0x7f, 0x02, 0x33,
  0x7f, 0xf0, 0x7f, 0x38, 0x3b, 0x9d, 0x7f, 0x64, 0xb6, 0x63, 0x81, 0x7f, 0x4e,
  0xcf, 0x40, 0xeb, 0x07, 0xee, 0xca, 0x24, 0x81, 0xf2, 0xe3, 0xc3, 0xdc, 0x14,
  0x0d, 0x19, 0x09, 0x0e, 0xc7, 0x4c, 0xf2, 0x1f, 0x3c, 0xde, 0x10, 0x2e, 0xf5,
  0xff, 0xff, 0x04, 0x00, 0x00, 0x00, 0xb4, 0x00, 0x00, 0x00, 0x46, 0xc2, 0xda,
  0xdb, 0xf4, 0x7f, 0x71, 0xcc, 0xe3, 0x44, 0xe9, 0x64, 0xc9, 0x09, 0xc1, 0xd2,
  0xf8, 0xbe, 0x0a, 0x38, 0x3f, 0x06, 0xb2, 0x81, 0xf3, 0x47, 0x00, 0x06, 0xa4,
  0x26, 0xe6, 0xda, 0xc9, 0x3d, 0x16, 0x81, 0x14, 0x65, 0xce, 0xd2, 0x6d, 0xf8,
  0x07, 0x06, 0xb9, 0xe9, 0xc0, 0x7a, 0xeb, 0x8e, 0x7c, 0xe0, 0x16, 0xc6, 0xd6,
  0x2a, 0x0d, 0x7f, 0x07, 0xf1, 0x66, 0xc1, 0x05, 0xeb, 0x01, 0x5b, 0xd8, 0xf9,
  0x09, 0xfa, 0x03, 0x81, 0xde, 0x0d, 0xf6, 0x39, 0xed, 0x11, 0x0f, 0xc6, 0xb1,
  0x7f, 0xf5, 0x51, 0xfd, 0xe4, 0x07, 0xff, 0x1c, 0xe0, 0xc7, 0xba, 0x81, 0x11,
  0x5d, 0xe6, 0xf8, 0xc8, 0x00, 0xf4, 0x0d, 0x08, 0x83, 0xb8, 0x15, 0x1f, 0xfb,
  0xe4, 0xd9, 0x16, 0x23, 0x0d, 0x1a, 0x81, 0x53, 0x18, 0x20, 0x1d, 0xdb, 0x3b,
  0x10, 0x0d, 0xdf, 0xfe, 0x23, 0xed, 0x22, 0xfc, 0x81, 0xc0, 0x4b, 0x27, 0x0e,
  0x15, 0xb9, 0x24, 0x04, 0xed, 0x81, 0xfd, 0x0b, 0x02, 0x44, 0xd5, 0x3f, 0xf9,
  0x5e, 0x24, 0xfb, 0x14, 0x8d, 0xc0, 0x1d, 0xdd, 0x09, 0x4b, 0xe1, 0x7f, 0x20,
  0x15, 0x05, 0xd2, 0x9c, 0x9d, 0x47, 0xcb, 0x5d, 0x43, 0x5c, 0x78, 0xe5, 0xfc,
  0xd3, 0x02, 0x81, 0x35, 0xcd, 0x27, 0xe3, 0xfd, 0xee, 0xf5, 0xff, 0xff, 0x04,
  0x00, 0x00, 0x00, 0x60, 0x00, 0x00, 0x00, 0x00, 0x00, 0x00, 0x00, 0x00, 0x00,
  0x00, 0x00, 0x00, 0x00, 0x00, 0x00, 0x00, 0x00, 0x00, 0x00, 0x00, 0x00, 0x00,
  0x00, 0x00, 0x00, 0x00, 0x00, 0x00, 0x00, 0x00, 0x00, 0x00, 0x00, 0x00, 0x00,
  0x00, 0x00, 0x00, 0x00, 0x00, 0x00, 0x00, 0x00, 0x00, 0x00, 0x00, 0x00, 0x00,
  0x00, 0x00, 0x00, 0x00, 0x00, 0x00, 0x00, 0x00, 0x00, 0x00, 0x00, 0x00, 0x00,
  0x00, 0x00, 0x00, 0x00, 0x00, 0x00, 0x00, 0x00, 0x00, 0x00, 0x00, 0x00, 0x00,
  0x00, 0x00, 0x00, 0x00, 0x00, 0x00, 0x00, 0x00, 0x00, 0x00, 0x00, 0x00, 0x00,
  0x00, 0x00, 0x00, 0x00, 0x00, 0x00, 0x00, 0x00, 0x00, 0x00, 0x00, 0x00, 0x5a,
  0xf6, 0xff, 0xff, 0x04, 0x00, 0x00, 0x00, 0x4b, 0x00, 0x00, 0x00, 0x81, 0x06,
  0x2d, 0x7f, 0x7f, 0x05, 0x9f, 0x14, 0x62, 0x5b, 0x7f, 0x69, 0x40, 0xd7, 0x39,
  0x97, 0x0a, 0x7f, 0xfa, 0xb8, 0x7f, 0x81, 0xae, 0x5d, 0x7f, 0x2b, 0x7f, 0x81,
  0x81, 0x81, 0xa4, 0x7f, 0x8f, 0xf4, 0xc0, 0xe3, 0xca, 0x8e, 0x7f, 0x15, 0xa0,
  0x36, 0x30, 0x0f, 0xcc, 0xd4, 0x34, 0xfe, 0x09, 0x48, 0xe1, 0x3d, 0x81, 0xeb,
  0xfe, 0xee, 0x30, 0x35, 0x0a, 0x1e, 0x1b, 0xcb, 0xed, 0x11, 0xe3, 0x0e, 0xe9,
  0xe3, 0x28, 0x05, 0xcd, 0xf4, 0x00, 0xff, 0x14, 0x00, 0xb2, 0xf6, 0xff, 0xff,
  0x04, 0x00, 0x00, 0x00, 0x4b, 0x00, 0x00, 0x00, 0x7f, 0x1e, 0x05, 0x06, 0xec,
  0x81, 0x02, 0xff, 0x51, 0xbc, 0xd2, 0x06, 0x02, 0x7f, 0x81, 0x65, 0x81, 0x81,
  0x7f, 0x81, 0x93, 0x28, 0x76, 0x81, 0xa7, 0x69, 0x6f, 0x7f, 0xeb, 0xb9, 0x63,
  0xa2, 0xfb, 0x08, 0xce, 0x95, 0x81, 0x81, 0xdf, 0xbc, 0x7f, 0x7f, 0x18, 0xa7,
  0xc5, 0xf2, 0xed, 0xa5, 0xf3, 0x1f, 0xc0, 0x3d, 0xa5, 0x19, 0x7f, 0xf8, 0x2c,
  0xe4, 0xec, 0x0c, 0xe6, 0x1c, 0x3a, 0x08, 0xed, 0xf4, 0xf4, 0xa7, 0x14, 0xa5,
  0x75, 0xde, 0x19, 0x11, 0x34, 0x00, 0x0a, 0xf7, 0xff, 0xff, 0x04, 0x00, 0x00,
  0x00, 0x2c, 0x01, 0x00, 0x00, 0x9e, 0xce, 0x51, 0x72, 0x81, 0xed, 0x20, 0x10,
  0xc6, 0x75, 0x58, 0xf1, 0x01, 0xe7, 0xef, 0x49, 0x3b, 0x10, 0xf1, 0xd8, 0x7f,
  0x22, 0x26, 0x9d, 0x17, 0x2f, 0x14, 0xe7, 0xf7, 0x37, 0x2f, 0x13, 0x0a, 0x0f,
  0xf8, 0x59, 0xf6, 0x01, 0xee, 0x06, 0xe4, 0xdd, 0x2d, 0x05, 0xfb, 0xe3, 0xd1,
  0xb3, 0x01, 0xef, 0x1a, 0x3d, 0x2d, 0x0d, 0x0b, 0x81, 0xfb, 0x00, 0x28, 0xf9,
  0x26, 0xc1, 0xf5, 0x28, 0xa5, 0x3b, 0xee, 0xed, 0xf6, 0xf2, 0xf0, 0x3c, 0x1f,
  0xf6, 0x0b, 0x7f, 0x2a, 0x03, 0x09, 0x58, 0xb1, 0x09, 0x77, 0xdf, 0xf2, 0xde,
  0x2d, 0xdd, 0x81, 0x3d, 0x43, 0x03, 0x1c, 0xc7, 0x09, 0x7a, 0x08, 0x00, 0x21,
  0xf5, 0xe0, 0x1d, 0x1e, 0x17, 0xe8, 0xf9, 0x7e, 0xec, 0xa6, 0xc1, 0x32, 0xd7,
  0x11, 0xd7, 0x7f, 0xfa, 0x14, 0xf7, 0x95, 0x31, 0x29, 0xdd, 0x27, 0x7f, 0x81,
  0x1a, 0x42, 0xcc, 0x05, 0x25, 0x3a, 0x04, 0x14, 0x25, 0xdf, 0x82, 0xee, 0xf1,
  0xe2, 0x92, 0x2d, 0x3a, 0xf6, 0x09, 0xf7, 0xf3, 0xe6, 0xfa, 0xf8, 0x81, 0x03,
  0xd1, 0x04, 0x22, 0x02, 0x0a, 0x0f, 0xf6, 0x10, 0xd1, 0x61, 0xd3, 0xc2, 0x70,
  0xf4, 0xeb, 0x32, 0x99, 0x19, 0x3b, 0x30, 0x7f, 0x04, 0x6e, 0xf1, 0xdd, 0x49,
  0x01, 0xcd, 0xbc, 0x36, 0x17, 0xc6, 0x2e, 0x7f, 0xbb, 0x34, 0xb8, 0x4f, 0x10,
  0xde, 0x1f, 0xf5, 0xe7, 0xd1, 0xed, 0xef, 0xfd, 0x34, 0x9e, 0xdf, 0x08, 0xdd,
  0x1c, 0xfc, 0xd0, 0xfc, 0x1c, 0x14, 0xfe, 0x0e, 0x0b, 0xea, 0xff, 0x06, 0x81,
  0x1f, 0x02, 0xfc, 0x81, 0xf5, 0x2c, 0x42, 0xc1, 0xef, 0xda, 0x6b, 0xe7, 0xf1,
  0x4e, 0x4d, 0x00, 0xfb, 0xae, 0x04, 0x81, 0x79, 0x02, 0xee, 0x0c, 0x88, 0xa5,
  0x17, 0xce, 0x73, 0xf4, 0x37, 0xf6, 0x3c, 0xf6, 0x7f, 0x50, 0x0b, 0x9c, 0x4a,
  0x0b, 0xd1, 0xff, 0x88, 0x32, 0x46, 0x00, 0xfb, 0xf4, 0x5e, 0xe6, 0x4e, 0x81,
  0xe1, 0xb5, 0x49, 0x94, 0x29, 0x2d, 0x22, 0xd3, 0xf8, 0xfb, 0x8f, 0xa8, 0xc0,
  0xf8, 0xf7, 0x1a, 0x4c, 0xf4, 0xfd, 0x5b, 0xe1, 0xfd, 0x13, 0x21, 0xdf, 0x93,
  0xae, 0x68, 0x81, 0xf3, 0x7a, 0xc8, 0x42, 0xf8, 0xff, 0xff, 0x04, 0x00, 0x00,
  0x00, 0x3c, 0x00, 0x00, 0x00, 0xf5, 0x81, 0xba, 0x81, 0x81, 0x28, 0x11, 0x32,
  0x03, 0x7f, 0x64, 0x7f, 0xe5, 0xcb, 0x81, 0xe8, 0xc0, 0xf7, 0x42, 0x55, 0x7f,
  0x50, 0xf5, 0x4e, 0x52, 0x81, 0x4f, 0x7a, 0xdb, 0x11, 0xe9, 0xa3, 0x96, 0x81,
  0x5f, 0xd0, 0x0a, 0xe6, 0x7f, 0x96, 0x67, 0x21, 0x7f, 0x28, 0x59, 0x61, 0x7f,
  0x81, 0x7f, 0x84, 0x81, 0xf6, 0x7f, 0x91, 0xe9, 0x81, 0x81, 0x7f, 0x0e, 0x81,
  0x8a, 0xf8, 0xff, 0xff, 0x04, 0x00, 0x00, 0x00, 0x3c, 0x00, 0x00, 0x00, 0xe8,
  0xd7, 0x22, 0xbd, 0x15, 0x52, 0xd1, 0x5d, 0x30, 0x45, 0x54, 0x7f, 0xcd, 0xa7,
  0x5b, 0x98, 0x7f, 0x7f, 0x7f, 0xbe, 0x8a, 0x7f, 0xa8, 0xdf, 0x37, 0x54, 0xed,
  0x7f, 0xe1, 0x81, 0xda, 0x17, 0x8b, 0x7f, 0x81, 0xe6, 0x55, 0xc0, 0xfc, 0x7f,
  0x81, 0x39, 0x81, 0x7f, 0x7f, 0x81, 0x7f, 0xc9, 0x81, 0x2e, 0x81, 0xd8, 0x81,
  0x65, 0x18, 0x7f, 0x06, 0x2c, 0x90, 0x95, 0xd2, 0xf8, 0xff, 0xff, 0x04, 0x00,
  0x00, 0x00, 0xe1, 0x00, 0x00, 0x00, 0xeb, 0xf6, 0xf5, 0xab, 0xe2, 0xc3, 0x55,
  0x0e, 0x43, 0x7d, 0xbb, 0xce, 0x81, 0xf0, 0x1b, 0xfb, 0xcb, 0xe3, 0x13, 0xfe,
  0xcd, 0x81, 0x15, 0x32, 0xfa, 0xf5, 0x0c, 0xd7, 0x28, 0x1b, 0xee, 0xfc, 0xdc,
  0xc5, 0xa9, 0xe2, 0x1a, 0x36, 0xe7, 0x08, 0x81, 0x04, 0x32, 0x08, 0x14, 0xea,
  0xe6, 0x81, 0xe4, 0xbd, 0xee, 0xbe, 0x7b, 0x1c, 0x25, 0xb0, 0xe1, 0x03, 0x19,
  0xe9, 0x17, 0xef, 0x2a, 0x05, 0x0a, 0xea, 0xc0, 0xdc, 0xec, 0x7f, 0x95, 0xc5,
  0x3c, 0x15, 0x0d, 0x81, 0x2b, 0x0c, 0x5d, 0xd8, 0xf6, 0xa7, 0xf8, 0x1f, 0xf7,
  0xaa, 0xf2, 0x13, 0x95, 0xb5, 0xc0, 0xd0, 0x27, 0x99, 0xd4, 0xe5, 0x23, 0xeb,
  0x4e, 0x7f, 0xb5, 0xbb, 0xdf, 0xfc, 0x14, 0x4c, 0xee, 0x7f, 0xe2, 0x4b, 0x13,
  0xd3, 0xa3, 0x14, 0x17, 0x2d, 0xe8, 0x58, 0xdb, 0xd4, 0x2b, 0x06, 0x86, 0x10,
  0xc6, 0xe7, 0x2f, 0x7f, 0xf0, 0x21, 0xda, 0x05, 0xe1, 0xed, 0x0c, 0x25, 0x12,
  0x00, 0x4a, 0x1b, 0xde, 0x7f, 0xfe, 0xbd, 0xb0, 0x2a, 0x65, 0x1c, 0x21, 0x4f,
  0x41, 0x59, 0x2b, 0x41, 0xf6, 0xe4, 0x7f, 0xee, 0x19, 0xfb, 0x0c, 0x21, 0xbc,
  0x92, 0xc6, 0x02, 0xd1, 0x0f, 0x60, 0x2a, 0x0d, 0xbe, 0xe1, 0xe2, 0x07, 0xdb,
  0x25, 0x7f, 0x35, 0x1e, 0x81, 0x30, 0x5f, 0xfb, 0x9c, 0xbe, 0xd3, 0xd5, 0x72,
  0xfd, 0xd3, 0x1f, 0x81, 0x20, 0x31, 0x3c, 0x04, 0x43, 0x7f, 0x2e, 0xce, 0xd3,
  0xc8, 0xc7, 0x39, 0xe5, 0xee, 0x34, 0x87, 0xc7, 0x01, 0xde, 0xeb, 0x14, 0x03,
  0xf5, 0x45, 0x15, 0xed, 0xe9, 0x26, 0x2c, 0xb8, 0x7f, 0x7f, 0x00, 0x00, 0x00,
  0xc2, 0xf9, 0xff, 0xff, 0x04, 0x00, 0x00, 0x00, 0x4b, 0x00, 0x00, 0x00, 0x4d,
  0x4a, 0xd3, 0xed, 0x61, 0xdb, 0x0d, 0x2d, 0xe4, 0xe6, 0xff, 0xfc, 0x78, 0xfe,
  0xf6, 0x3e, 0x7f, 0x81, 0x56, 0x7f, 0x09, 0xa2, 0x7f, 0x01, 0xe3, 0x06, 0xfb,
  0xd0, 0x44, 0xbe, 0x7f, 0x6e, 0x9b, 0x7f, 0x3c, 0x7f, 0x81, 0x5d, 0x81, 0x7f,
  0x4e, 0x7f, 0x7f, 0x7f, 0x81, 0x5b, 0xd6, 0x0d, 0x44, 0xf6, 0x42, 0xeb, 0xf4,
  0x02, 0x41, 0x7f, 0x1c, 0xa9, 0x10, 0xf1, 0x11, 0x1b, 0xc5, 0x14, 0x01, 0xf2,
  0xe9, 0x36, 0xe8, 0xfb, 0xf4, 0xf1, 0xda, 0x0a, 0xf5, 0x00, 0x1a, 0xfa, 0xff,
  0xff, 0x04, 0x00, 0x00, 0x00, 0x4b, 0x00, 0x00, 0x00, 0xfb, 0x0e, 0x03, 0x22,
  0x0e, 0xfc, 0x5c, 0x01, 0x7f, 0x0e, 0xf5, 0xfe, 0xfc, 0xd9, 0xd1, 0x7f, 0x08,
  0x23, 0x13, 0xd5, 0x2a, 0x7f, 0xe2, 0x76, 0x25, 0x20, 0xfe, 0x3f, 0x81, 0x87,
  0x7e, 0x7f, 0x7f, 0x81, 0x81, 0x07, 0xf6, 0x81, 0x08, 0x81, 0x7f, 0x15, 0x7f,
  0xa9, 0x81, 0x08, 0x29, 0x59, 0xd1, 0xe0, 0x7f, 0x22, 0xb5, 0x15, 0x85, 0x44,
  0x69, 0x44, 0xf0, 0xe5, 0x06, 0xeb, 0xe8, 0xd6, 0x05, 0x1a, 0x37, 0x1e, 0x0f,
  0x42, 0x15, 0x81, 0x10, 0x1b, 0xfa, 0x00, 0x72, 0xfa, 0xff, 0xff, 0x04, 0x00,
  0x00, 0x00, 0x2c, 0x01, 0x00, 0x00, 0x2e, 0x01, 0xc6, 0x7f, 0x7f, 0x3c, 0xf7,
  0x08, 0x35, 0x2a, 0x14, 0x38, 0x36, 0xdd, 0x21, 0xc4, 0x92, 0xec, 0xd0, 0xf2,
  0xd4, 0xed, 0x06, 0xb9, 0xcf, 0x81, 0xea, 0xee, 0x69, 0x14, 0x5c, 0x32, 0xdb,
  0x05, 0xd7, 0xfa, 0xd1, 0x08, 0x41, 0xcc, 0x35, 0x18, 0x30, 0x17, 0x42, 0xd6,
  0x7e, 0xd9, 0xd5, 0x81, 0x5e, 0x26, 0x1c, 0x89, 0xfd, 0xef, 0xf4, 0xa9, 0x17,
  0x1e, 0x02, 0xf2, 0xfe, 0x7f, 0x08, 0x11, 0x38, 0x1c, 0x30, 0x00, 0x14, 0x00,
  0x27, 0xd1, 0x2e, 0x2c, 0x12, 0x0a, 0xb1, 0xe5, 0x31, 0xee, 0x96, 0xf9, 0x37,
  0xf3, 0x51, 0xe3, 0xf5, 0xdd, 0x04, 0xf4, 0xfb, 0xc0, 0x19, 0x24, 0x12, 0x81,
  0x0d, 0x61, 0x7f, 0x05, 0x69, 0xeb, 0x12, 0xd4, 0xf8, 0x35, 0x14, 0x2d, 0xd5,
  0x09, 0xf8, 0xc8, 0xbb, 0xfb, 0xea, 0xf2, 0x3b, 0x1f, 0xfb, 0x81, 0xd4, 0x34,
  0x91, 0x21, 0x3d, 0x23, 0x1a, 0x22, 0x18, 0x0b, 0x65, 0xde, 0xe0, 0x68, 0x40,
  0xf5, 0x0c, 0xc7, 0x2e, 0x2a, 0xfb, 0x27, 0x11, 0xe0, 0x63, 0xec, 0x03, 0x8d,
  0x6f, 0x1d, 0x2b, 0x81, 0xf7, 0xce, 0xc5, 0xaa, 0x06, 0x33, 0xa5, 0x18, 0x53,
  0x36, 0xf4, 0x05, 0x18, 0x14, 0x81, 0x46, 0x10, 0x03, 0x26, 0x68, 0x35, 0xbb,
  0xef, 0xec, 0xbe, 0x3c, 0x0a, 0x81, 0xdf, 0x11, 0xf8, 0x0e, 0x17, 0x04, 0xea,
  0x00, 0xff, 0x62, 0x27, 0x0d, 0xd9, 0x5e, 0x4c, 0xee, 0xe8, 0xed, 0x1e, 0xdf,
  0xd6, 0x4a, 0xef, 0x08, 0xde, 0xc0, 0x3d, 0x20, 0x0b, 0x26, 0xf0, 0x34, 0x17,
  0x74, 0x81, 0x19, 0x11, 0x0e, 0xea, 0x5d, 0x2e, 0xba, 0xeb, 0xda, 0xf4, 0x3a,
  0xd2, 0xf5, 0x1e, 0x81, 0xdb, 0x33, 0xd1, 0xca, 0x34, 0x04, 0x64, 0xe5, 0xf6,
  0x02, 0xfa, 0x33, 0x51, 0xe0, 0x15, 0x8e, 0x81, 0x3d, 0xe5, 0x17, 0x24, 0xbf,
  0x0b, 0x05, 0x13, 0x18, 0x15, 0x78, 0x0b, 0xfd, 0xf8, 0x0b, 0xfa, 0x64, 0x5c,
  0xe5, 0xfe, 0x0d, 0x0c, 0x08, 0x06, 0xed, 0x81, 0x05, 0xdb, 0x02, 0x27, 0xfd,
  0x0b, 0x02, 0x12, 0x0a, 0xda, 0x61, 0x2c, 0xc2, 0x14, 0x09, 0xf5, 0xfc, 0x01,
  0xfb, 0x81, 0xe9, 0xe8, 0xfb, 0x24, 0x01, 0xaa, 0xfb, 0xff, 0xff, 0x04, 0x00,
  0x00, 0x00, 0x78, 0x00, 0x00, 0x00, 0x00, 0x00, 0x00, 0x00, 0x00, 0x00, 0x00,
  0x00, 0x00, 0x00, 0x00, 0x00, 0x00, 0x00, 0x00, 0x00, 0x00, 0x00, 0x00, 0x00,
  0x00, 0x00, 0x00, 0x00, 0x00, 0x00, 0x00, 0x00, 0x00, 0x00, 0x00, 0x00, 0x00,
  0x00, 0x00, 0x00, 0x00, 0x00, 0x00, 0x00, 0x00, 0x00, 0x00, 0x00, 0x00, 0x00,
  0x00, 0x00, 0x00, 0x00, 0x00, 0x00, 0x00, 0x00, 0x00, 0x00, 0x00, 0x00, 0x00,
  0x00, 0x00, 0x00, 0x00, 0x00, 0x00, 0x00, 0x00, 0x00, 0x00, 0x00, 0x00, 0x00,
  0x00, 0x00, 0x00, 0x00, 0x00, 0x00, 0x00, 0x00, 0x00, 0x00, 0x00, 0x00, 0x00,
  0x00, 0x00, 0x00, 0x00, 0x00, 0x00, 0x00, 0x00, 0x00, 0x00, 0x00, 0x00, 0x00,
  0x00, 0x00, 0x00, 0x00, 0x00, 0x00, 0x00, 0x00, 0x00, 0x00, 0x00, 0x00, 0x00,
  0x00, 0x00, 0x00, 0x00, 0x00, 0x00, 0x00, 0x00, 0x00, 0x2e, 0xfc, 0xff, 0xff,
  0x04, 0x00, 0x00, 0x00, 0x64, 0x00, 0x00, 0x00, 0x7f, 0xc4, 0xe0, 0xe6, 0x32,
  0x0c, 0x7f, 0x26, 0x57, 0xc9, 0x25, 0xdf, 0x37, 0x7f, 0x0e, 0x72, 0xe5, 0x18,
  0xeb, 0x45, 0xc9, 0x42, 0x7f, 0x25, 0xf2, 0xbd, 0xfa, 0x9f, 0x48, 0xe9, 0x1a,
  0x43, 0xac, 0xd3, 0xcf, 0xe7, 0xee, 0xd6, 0x59, 0xf2, 0x84, 0xfe, 0xa3, 0x81,
  0x81, 0x7f, 0xf0, 0x7f, 0x2c, 0xcb, 0x3d, 0x7f, 0x81, 0xfc, 0x7f, 0xdd, 0x53,
  0x03, 0x81, 0x92, 0x98, 0x81, 0xb4, 0xb9, 0x6c, 0x12, 0x31, 0x34, 0x93, 0xf7,
  0x08, 0x05, 0xe1, 0xf1, 0x1d, 0xb7, 0x7f, 0x8d, 0xfb, 0xc7, 0x36, 0xd7, 0x5a,
  0x48, 0x01, 0x1b, 0xe3, 0xc3, 0x7f, 0x7f, 0x81, 0xdd, 0x74, 0xc3, 0x01, 0x7f,
  0x54, 0x7f, 0xd0, 0x7f, 0x9e, 0xfc, 0xff, 0xff, 0x04, 0x00, 0x00, 0x00, 0x64,
  0x00, 0x00, 0x00, 0xad, 0xc2, 0xff, 0x27, 0x95, 0x09, 0xcf, 0xf0, 0xeb, 0xe8,
  0x4c, 0xb4, 0x0f, 0x81, 0xef, 0xd1, 0x45, 0xdb, 0x08, 0xe5, 0x2b, 0x0f, 0xf1,
  0x48, 0xb2, 0x39, 0xdf, 0x21, 0x7f, 0xdb, 0xfe, 0x06, 0xb1, 0x54, 0xd3, 0x4e,
  0x30, 0x30, 0x99, 0xcd, 0x1e, 0x81, 0x81, 0x81, 0x7f, 0x81, 0x6a, 0x81, 0xed,
  0x7f, 0x7f, 0x81, 0x7f, 0x48, 0x56, 0x28, 0x81, 0x81, 0x7f, 0x6e, 0xbd, 0x9a,
  0x12, 0xcb, 0x0f, 0xb5, 0x44, 0x04, 0xe1, 0xfc, 0xfa, 0x1e, 0x28, 0xad, 0x81,
  0x08, 0xf3, 0xb1, 0xe3, 0x7f, 0x7f, 0xf3, 0xf2, 0xea, 0xd4, 0x7e, 0x81, 0x56,
  0xef, 0x1d, 0xa0, 0x1a, 0xf3, 0xbc, 0x6a, 0x7f, 0x2a, 0x0c, 0x1f, 0x78, 0x0e,
  0xfd, 0xff, 0xff, 0x04, 0x00, 0x00, 0x00, 0x14, 0x00, 0x00, 0x00, 0x81, 0x7f,
  0x7f, 0x81, 0x7f, 0x7f, 0x81, 0x81, 0x81, 0x81, 0x81, 0x7f, 0x7f, 0x81, 0x81,
  0x7f, 0x7f, 0x7f, 0x81, 0x7f, 0x2e, 0xfd, 0xff, 0xff, 0x04, 0x00, 0x00, 0x00,
  0xa0, 0x00, 0x00, 0x00, 0x00, 0x00, 0x00, 0x00, 0x00, 0x00, 0x00, 0x00, 0x00,
  0x00, 0x00, 0x00, 0x00, 0x00, 0x00, 0x00, 0x00, 0x00, 0x00, 0x00, 0x00, 0x00,
  0x00, 0x00, 0x00, 0x00, 0x00, 0x00, 0x00, 0x00, 0x00, 0x00, 0x00, 0x00, 0x00,
  0x00, 0x00, 0x00, 0x00, 0x00, 0x00, 0x00, 0x00, 0x00, 0x00, 0x00, 0x00, 0x00,
  0x00, 0x00, 0x00, 0x00, 0x00, 0x00, 0x00, 0x00, 0x00, 0x00, 0x00, 0x00, 0x00,
  0x00, 0x00, 0x00, 0x00, 0x00, 0x00, 0x00, 0x00, 0x00, 0x00, 0x00, 0x00, 0x00,
  0x00, 0x00, 0x00, 0x00, 0x00, 0x00, 0x00, 0x00, 0x00, 0x00, 0x00, 0x00, 0x00,
  0x00, 0x00, 0x00, 0x00, 0x00, 0x00, 0x00, 0x00, 0x00, 0x00, 0x00, 0x00, 0x00,
  0x00, 0x00, 0x00, 0x00, 0x00, 0x00, 0x00, 0x00, 0x00, 0x00, 0x00, 0x00, 0x00,
  0x00, 0x00, 0x00, 0x00, 0x00, 0x00, 0x00, 0x00, 0x00, 0x00, 0x00, 0x00, 0x00,
  0x00, 0x00, 0x00, 0x00, 0x00, 0x00, 0x00, 0x00, 0x00, 0x00, 0x00, 0x00, 0x00,
  0x00, 0x00, 0x00, 0x00, 0x00, 0x00, 0x00, 0x00, 0x00, 0x00, 0x00, 0x00, 0x00,
  0x00, 0x00, 0x00, 0x00, 0x00, 0x00, 0x00, 0x00, 0xda, 0xfd, 0xff, 0xff, 0x04,
  0x00, 0x00, 0x00, 0x05, 0x00, 0x00, 0x00, 0x02, 0xf2, 0x7f, 0xfe, 0x01, 0x00,
  0x00, 0x00, 0xee, 0xfd, 0xff, 0xff, 0x04, 0x00, 0x00, 0x00, 0x05, 0x00, 0x00,
  0x00, 0x00, 0xea, 0x7f, 0x00, 0x02, 0x00, 0x00, 0x00, 0x02, 0xfe, 0xff, 0xff,
  0x04, 0x00, 0x00, 0x00, 0x08, 0x00, 0x00, 0x00, 0x00, 0x00, 0x00, 0x00, 0x00,
  0x00, 0x00, 0x00, 0x16, 0xfe, 0xff, 0xff, 0x04, 0x00, 0x00, 0x00, 0x20, 0x00,
  0x00, 0x00, 0x00, 0x00, 0x00, 0x00, 0x00, 0x00, 0x00, 0x00, 0x02, 0x00, 0x00,
  0x00, 0x02, 0x00, 0x00, 0x00, 0x02, 0x00, 0x00, 0x00, 0x02, 0x00, 0x00, 0x00,
  0x00, 0x00, 0x00, 0x00, 0x00, 0x00, 0x00, 0x00, 0x42, 0xfe, 0xff, 0xff, 0x04,
  0x00, 0x00, 0x00, 0x78, 0x00, 0x00, 0x00, 0xc7, 0x5c, 0xff, 0xff, 0xff, 0xff,
  0xff, 0xff, 0x12, 0x9f, 0xff, 0xff, 0xff, 0xff, 0xff, 0xff, 0xb1, 0xda, 0xfe,
  0xff, 0xff, 0xff, 0xff, 0xff, 0x0e, 0xb1, 0x00, 0x00, 0x00, 0x00, 0x00, 0x00,
  0xb0, 0x3b, 0xff, 0xff, 0xff, 0xff, 0xff, 0xff, 0x7b, 0x65, 0xff, 0xff, 0xff,
  0xff, 0xff, 0xff, 0x8a, 0x3e, 0xff, 0xff, 0xff, 0xff, 0xff, 0xff, 0x03, 0xd2,
  0xff, 0xff, 0xff, 0xff, 0xff, 0xff, 0x5a, 0x5d, 0xff, 0xff, 0xff, 0xff, 0xff,
  0xff, 0xc8, 0x60, 0xff, 0xff, 0xff, 0xff, 0xff, 0xff, 0x12, 0x89, 0xfe, 0xff,
  0xff, 0xff, 0xff, 0xff, 0x12, 0x8f, 0x00, 0x00, 0x00, 0x00, 0x00, 0x00, 0xa3,
  0xb9, 0xff, 0xff, 0xff, 0xff, 0xff, 0xff, 0x56, 0xaf, 0xff, 0xff, 0xff, 0xff,
  0xff, 0xff, 0x19, 0xaf, 0x00, 0x00, 0x00, 0x00, 0x00, 0x00, 0xc6, 0xfe, 0xff,
  0xff, 0x04, 0x00, 0x00, 0x00, 0x60, 0x00, 0x00, 0x00, 0x3b, 0x20, 0x03, 0x00,
  0x00, 0x00, 0x00, 0x00, 0x3a, 0xb1, 0x02, 0x00, 0x00, 0x00, 0x00, 0x00, 0xb6,
  0x34, 0xfb, 0xff, 0xff, 0xff, 0xff, 0xff, 0x7c, 0x24, 0x05, 0x00, 0x00, 0x00,
  0x00, 0x00, 0x31, 0x67, 0xed, 0xff, 0xff, 0xff, 0xff, 0xff, 0x11, 0x1d, 0xfc,
  0xff, 0xff, 0xff, 0xff, 0xff, 0xed, 0xc6, 0xfd, 0xff, 0xff, 0xff, 0xff, 0xff,
  0x98, 0x28, 0x00, 0x00, 0x00, 0x00, 0x00, 0x00, 0x40, 0xae, 0xff, 0xff, 0xff,
  0xff, 0xff, 0xff, 0x85, 0xe9, 0x03, 0x00, 0x00, 0x00, 0x00, 0x00, 0x6f, 0xb6,
  0xfd, 0xff, 0xff, 0xff, 0xff, 0xff, 0x87, 0xc7, 0x01, 0x00, 0x00, 0x00, 0x00,
  0x00, 0x32, 0xff, 0xff, 0xff, 0x04, 0x00, 0x00, 0x00, 0x48, 0x00, 0x00, 0x00,
  0xd4, 0x88, 0xfd, 0xff, 0xff, 0xff, 0xff, 0xff, 0x2a, 0xc7, 0xff, 0xff, 0xff,
  0xff, 0xff, 0xff, 0x94, 0x05, 0xff, 0xff, 0xff, 0xff, 0xff, 0xff, 0x31, 0xe9,
  0xfe, 0xff, 0xff, 0xff, 0xff, 0xff, 0x05, 0xa9, 0x00, 0x00, 0x00, 0x00, 0x00,
  0x00, 0x0b, 0x22, 0xfb, 0xff, 0xff, 0xff, 0xff, 0xff, 0xd8, 0x39, 0x01, 0x00,
  0x00, 0x00, 0x00, 0x00, 0xa2, 0x99, 0xfe, 0xff, 0xff, 0xff, 0xff, 0xff, 0xc3,
  0x41, 0xff, 0xff, 0xff, 0xff, 0xff, 0xff, 0x86, 0xff, 0xff, 0xff, 0x04, 0x00,
  0x00, 0x00, 0x38, 0x00, 0x00, 0x00, 0x8c, 0x05, 0x08, 0x00, 0x00, 0x00, 0x00,
  0x00, 0xc5, 0x95, 0xfc, 0xff, 0xff, 0xff, 0xff, 0xff, 0xfa, 0xb1, 0xfe, 0xff,
  0xff, 0xff, 0xff, 0xff, 0x01, 0x19, 0xfc, 0xff, 0xff, 0xff, 0xff, 0xff, 0xc5,
  0x46, 0x03, 0x00, 0x00, 0x00, 0x00, 0x00, 0x1a, 0x46, 0xfc, 0xff, 0xff, 0xff,
  0xff, 0xff, 0x2b, 0x3d, 0x00, 0x00, 0x00, 0x00, 0x00, 0x00, 0xca, 0xff, 0xff,
  0xff, 0x04, 0x00, 0x00, 0x00, 0x28, 0x00, 0x00, 0x00, 0xce, 0xa2, 0xff, 0xff,
  0xff, 0xff, 0xff, 0xff, 0xf7, 0x0a, 0xee, 0xff, 0xff, 0xff, 0xff, 0xff, 0x37,
  0x05, 0xff, 0xff, 0xff, 0xff, 0xff, 0xff, 0x27, 0x10, 0x00, 0x00, 0x00, 0x00,
  0x00, 0x00, 0xee, 0x0a, 0x00, 0x00, 0x00, 0x00, 0x00, 0x00, 0x00, 0x00, 0x06,
  0x00, 0x08, 0x00, 0x04, 0x00, 0x06, 0x00, 0x00, 0x00, 0x04, 0x00, 0x00, 0x00,
  0x28, 0x00, 0x00, 0x00, 0x02, 0xf7, 0x00, 0x00, 0x00, 0x00, 0x00, 0x00, 0xf6,
  0x94, 0x00, 0x00, 0x00, 0x00, 0x00, 0x00, 0xf2, 0x17, 0xfe, 0xff, 0xff, 0xff,
  0xff, 0xff, 0x69, 0x0c, 0xfe, 0xff, 0xff, 0xff, 0xff, 0xff, 0x52, 0x28, 0xfd,
  0xff, 0xff, 0xff, 0xff, 0xff, 0x48, 0x7d, 0xff, 0xff, 0x4c, 0x7d, 0xff, 0xff,
  0x0f, 0x00, 0x00, 0x00, 0x4d, 0x4c, 0x49, 0x52, 0x20, 0x43, 0x6f, 0x6e, 0x76,
  0x65, 0x72, 0x74, 0x65, 0x64, 0x2e, 0x00, 0x01, 0x00, 0x00, 0x00, 0x14, 0x00,
  0x00, 0x00, 0x00, 0x00, 0x0e, 0x00, 0x18, 0x00, 0x14, 0x00, 0x10, 0x00, 0x0c,
  0x00, 0x08, 0x00, 0x04, 0x00, 0x0e, 0x00, 0x00, 0x00, 0x14, 0x00, 0x00, 0x00,
  0x1c, 0x00, 0x00, 0x00, 0x50, 0x11, 0x00, 0x00, 0x54, 0x11, 0x00, 0x00, 0x58,
  0x11, 0x00, 0x00, 0x04, 0x00, 0x00, 0x00, 0x6d, 0x61, 0x69, 0x6e, 0x00, 0x00,
  0x00, 0x00, 0x42, 0x00, 0x00, 0x00, 0x14, 0x11, 0x00, 0x00, 0xd8, 0x10, 0x00,
  0x00, 0x78, 0x10, 0x00, 0x00, 0x24, 0x10, 0x00, 0x00, 0xd8, 0x0f, 0x00, 0x00,
  0x94, 0x0f, 0x00, 0x00, 0x50, 0x0f, 0x00, 0x00, 0x00, 0x0f, 0x00, 0x00, 0xbc,
  0x0e, 0x00, 0x00, 0x78, 0x0e, 0x00, 0x00, 0x38, 0x0e, 0x00, 0x00, 0xf4, 0x0d,
  0x00, 0x00, 0xb0, 0x0d, 0x00, 0x00, 0x70, 0x0d, 0x00, 0x00, 0x30, 0x0d, 0x00,
  0x00, 0xec, 0x0c, 0x00, 0x00, 0xa8, 0x0c, 0x00, 0x00, 0x64, 0x0c, 0x00, 0x00,
  0x20, 0x0c, 0x00, 0x00, 0xdc, 0x0b, 0x00, 0x00, 0x9c, 0x0b, 0x00, 0x00, 0x58,
  0x0b, 0x00, 0x00, 0x14, 0x0b, 0x00, 0x00, 0xd4, 0x0a, 0x00, 0x00, 0x9c, 0x0a,
  0x00, 0x00, 0x58, 0x0a, 0x00, 0x00, 0x14, 0x0a, 0x00, 0x00, 0xd0, 0x09, 0x00,
  0x00, 0x8c, 0x09, 0x00, 0x00, 0x48, 0x09, 0x00, 0x00, 0x08, 0x09, 0x00, 0x00,
  0xc4, 0x08, 0x00, 0x00, 0x80, 0x08, 0x00, 0x00, 0x40, 0x08, 0x00, 0x00, 0x08,
  0x08, 0x00, 0x00, 0xc4, 0x07, 0x00, 0x00, 0x80, 0x07, 0x00, 0x00, 0x3c, 0x07,
  0x00, 0x00, 0xf8, 0x06, 0x00, 0x00, 0xb4, 0x06, 0x00, 0x00, 0x74, 0x06, 0x00,
  0x00, 0x30, 0x06, 0x00, 0x00, 0xec, 0x05, 0x00, 0x00, 0xac, 0x05, 0x00, 0x00,
  0x74, 0x05, 0x00, 0x00, 0x30, 0x05, 0x00, 0x00, 0xec, 0x04, 0x00, 0x00, 0xa8,
  0x04, 0x00, 0x00, 0x64, 0x04, 0x00, 0x00, 0x20, 0x04, 0x00, 0x00, 0xe0, 0x03,
  0x00, 0x00, 0x9c, 0x03, 0x00, 0x00, 0x58, 0x03, 0x00, 0x00, 0x18, 0x03, 0x00,
  0x00, 0xe0, 0x02, 0x00, 0x00, 0x9c, 0x02, 0x00, 0x00, 0x58, 0x02, 0x00, 0x00,
  0x14, 0x02, 0x00, 0x00, 0xd0, 0x01, 0x00, 0x00, 0x8c, 0x01, 0x00, 0x00, 0x4c,
  0x01, 0x00, 0x00, 0x14, 0x01, 0x00, 0x00, 0xc0, 0x00, 0x00, 0x00, 0x78, 0x00,
  0x00, 0x00, 0x28, 0x00, 0x00, 0x00, 0x04, 0x00, 0x00, 0x00, 0xfe, 0xef, 0xff,
  0xff, 0x0c, 0x00, 0x00, 0x00, 0x10, 0x00, 0x00, 0x00, 0x05, 0x00, 0x00, 0x00,
  0x01, 0x00, 0x00, 0x00, 0x91, 0x00, 0x00, 0x00, 0x01, 0x00, 0x00, 0x00, 0x8f,
  0x00, 0x00, 0x00, 0xb6, 0xf0, 0xff, 0xff, 0x20, 0x00, 0x00, 0x00, 0x00, 0x00,
  0x00, 0x01, 0x28, 0x00, 0x00, 0x00, 0x2c, 0x00, 0x00, 0x00, 0x02, 0x00, 0x00,
  0x00, 0x00, 0x00, 0x0a, 0x00, 0x10, 0x00, 0x0f, 0x00, 0x08, 0x00, 0x04, 0x00,
  0x0a, 0x00, 0x00, 0x00, 0x01, 0x00, 0x00, 0x00, 0x01, 0x00, 0x00, 0x00, 0x00,
  0x00, 0x00, 0x01, 0x01, 0x00, 0x00, 0x00, 0x8f, 0x00, 0x00, 0x00, 0x03, 0x00,
  0x00, 0x00, 0x8e, 0x00, 0x00, 0x00, 0x47, 0x00, 0x00, 0x00, 0x4f, 0x00, 0x00,
  0x00, 0x02, 0xf1, 0xff, 0xff, 0x14, 0x00, 0x00, 0x00, 0x00, 0x00, 0x00, 0x02,
  0x20, 0x00, 0x00, 0x00, 0x24, 0x00, 0x00, 0x00, 0x01, 0x00, 0x00, 0x00, 0xbc,
  0xff, 0xff, 0xff, 0x01, 0x00, 0x00, 0x00, 0x01, 0x00, 0x00, 0x00, 0x01, 0x00,
  0x00, 0x00, 0x00, 0x00, 0x00, 0x01, 0x01, 0x00, 0x00, 0x00, 0x8e, 0x00, 0x00,
  0x00, 0x03, 0x00, 0x00, 0x00, 0x8d, 0x00, 0x00, 0x00, 0x46, 0x00, 0x00, 0x00,
  0x37, 0x00, 0x00, 0x00, 0x46, 0xf1, 0xff, 0xff, 0x20, 0x00, 0x00, 0x00, 0x00,
  0x00, 0x00, 0x02, 0x2c, 0x00, 0x00, 0x00, 0x30, 0x00, 0x00, 0x00, 0x01, 0x00,
  0x00, 0x00, 0x0c, 0x00, 0x14, 0x00, 0x13, 0x00, 0x0c, 0x00, 0x08, 0x00, 0x04,
  0x00, 0x0c, 0x00, 0x00, 0x00, 0x01, 0x00, 0x00, 0x00, 0x01, 0x00, 0x00, 0x00,
  0x01, 0x00, 0x00, 0x00, 0x00, 0x00, 0x00, 0x01, 0x01, 0x00, 0x00, 0x00, 0x8d,
  0x00, 0x00, 0x00, 0x03, 0x00, 0x00, 0x00, 0x8c, 0x00, 0x00, 0x00, 0x45, 0x00,
  0x00, 0x00, 0x37, 0x00, 0x00, 0x00, 0x96, 0xf1, 0xff, 0xff, 0x14, 0x00, 0x00,
  0x00, 0x00, 0x00, 0x00, 0x0b, 0x14, 0x00, 0x00, 0x00, 0x18, 0x00, 0x00, 0x00,
  0x03, 0x00, 0x00, 0x00, 0xa0, 0xf4, 0xff, 0xff, 0x00, 0x00, 0x00, 0x00, 0x01,
  0x00, 0x00, 0x00, 0x8c, 0x00, 0x00, 0x00, 0x02, 0x00, 0x00, 0x00, 0x85, 0x00,
  0x00, 0x00, 0x8b, 0x00, 0x00, 0x00, 0xca, 0xf1, 0xff, 0xff, 0x14, 0x00, 0x00,
  0x00, 0x00, 0x00, 0x00, 0x01, 0x18, 0x00, 0x00, 0x00, 0x1c, 0x00, 0x00, 0x00,
  0x02, 0x00, 0x00, 0x00, 0x52, 0xf2, 0xff, 0xff, 0x01, 0x00, 0x00, 0x00, 0x01,
  0x00, 0x00, 0x00, 0x01, 0x00, 0x00, 0x00, 0x8b, 0x00, 0x00, 0x00, 0x03, 0x00,
  0x00, 0x00, 0x8a, 0x00, 0x00, 0x00, 0x44, 0x00, 0x00, 0x00, 0x4e, 0x00, 0x00,
  0x00, 0x06, 0xf2, 0xff, 0xff, 0x14, 0x00, 0x00, 0x00, 0x00, 0x00, 0x00, 0x02,
  0x1c, 0x00, 0x00, 0x00, 0x20, 0x00, 0x00, 0x00, 0x01, 0x00, 0x00, 0x00, 0xf8,
  0xf1, 0xff, 0xff, 0x01, 0x00, 0x00, 0x00, 0x01, 0x00, 0x00, 0x00, 0x01, 0x00,
  0x00, 0x00, 0x01, 0x00, 0x00, 0x00, 0x8a, 0x00, 0x00, 0x00, 0x03, 0x00, 0x00,
  0x00, 0x89, 0x00, 0x00, 0x00, 0x43, 0x00, 0x00, 0x00, 0x37, 0x00, 0x00, 0x00,
  0x46, 0xf2, 0xff, 0xff, 0x14, 0x00, 0x00, 0x00, 0x00, 0x00, 0x00, 0x02, 0x1c,
  0x00, 0x00, 0x00, 0x20, 0x00, 0x00, 0x00, 0x01, 0x00, 0x00, 0x00, 0x38, 0xf2,
  0xff, 0xff, 0x01, 0x00, 0x00, 0x00, 0x01, 0x00, 0x00, 0x00, 0x01, 0x00, 0x00,
  0x00, 0x01, 0x00, 0x00, 0x00, 0x89, 0x00, 0x00, 0x00, 0x03, 0x00, 0x00, 0x00,
  0x88, 0x00, 0x00, 0x00, 0x42, 0x00, 0x00, 0x00, 0x37, 0x00, 0x00, 0x00, 0x86,
  0xf2, 0xff, 0xff, 0x14, 0x00, 0x00, 0x00, 0x00, 0x00, 0x00, 0x01, 0x1c, 0x00,
  0x00, 0x00, 0x20, 0x00, 0x00, 0x00, 0x02, 0x00, 0x00, 0x00, 0xdc, 0xf3, 0xff,
  0xff, 0x00, 0x00, 0x00, 0x01, 0x01, 0x00, 0x00, 0x00, 0x01, 0x00, 0x00, 0x00,
  0x01, 0x00, 0x00, 0x00, 0x88, 0x00, 0x00, 0x00, 0x03, 0x00, 0x00, 0x00, 0x87,
  0x00, 0x00, 0x00, 0x41, 0x00, 0x00, 0x00, 0x01, 0x00, 0x00, 0x00, 0xc6, 0xf2,
  0xff, 0xff, 0x14, 0x00, 0x00, 0x00, 0x00, 0x00, 0x00, 0x02, 0x1c, 0x00, 0x00,
  0x00, 0x20, 0x00, 0x00, 0x00, 0x01, 0x00, 0x00, 0x00, 0xb8, 0xf2, 0xff, 0xff,
  0x01, 0x00, 0x00, 0x00, 0x01, 0x00, 0x00, 0x00, 0x01, 0x00, 0x00, 0x00, 0x01,
  0x00, 0x00, 0x00, 0x87, 0x00, 0x00, 0x00, 0x03, 0x00, 0x00, 0x00, 0x86, 0x00,
  0x00, 0x00, 0x40, 0x00, 0x00, 0x00, 0x37, 0x00, 0x00, 0x00, 0x06, 0xf3, 0xff,
  0xff, 0x14, 0x00, 0x00, 0x00, 0x00, 0x00, 0x00, 0x02, 0x1c, 0x00, 0x00, 0x00,
  0x20, 0x00, 0x00, 0x00, 0x01, 0x00, 0x00, 0x00, 0xf8, 0xf2, 0xff, 0xff, 0x01,
  0x00, 0x00, 0x00, 0x01, 0x00, 0x00, 0x00, 0x01, 0x00, 0x00, 0x00, 0x01, 0x00,
  0x00, 0x00, 0x86, 0x00, 0x00, 0x00, 0x03, 0x00, 0x00, 0x00, 0x85, 0x00, 0x00,
  0x00, 0x3f, 0x00, 0x00, 0x00, 0x37, 0x00, 0x00, 0x00, 0x46, 0xf3, 0xff, 0xff,
  0x14, 0x00, 0x00, 0x00, 0x00, 0x00, 0x00, 0x0b, 0x14, 0x00, 0x00, 0x00, 0x18,
  0x00, 0x00, 0x00, 0x03, 0x00, 0x00, 0x00, 0x50, 0xf6, 0xff, 0xff, 0x00, 0x00,
  0x00, 0x00, 0x01, 0x00, 0x00, 0x00, 0x85, 0x00, 0x00, 0x00, 0x02, 0x00, 0x00,
  0x00, 0x84, 0x00, 0x00, 0x00, 0x81, 0x00, 0x00, 0x00, 0x7a, 0xf3, 0xff, 0xff,
  0x14, 0x00, 0x00, 0x00, 0x00, 0x00, 0x00, 0x01, 0x18, 0x00, 0x00, 0x00, 0x1c,
  0x00, 0x00, 0x00, 0x02, 0x00, 0x00, 0x00, 0x02, 0xf4, 0xff, 0xff, 0x01, 0x00,
  0x00, 0x00, 0x01, 0x00, 0x00, 0x00, 0x01, 0x00, 0x00, 0x00, 0x84, 0x00, 0x00,
  0x00, 0x03, 0x00, 0x00, 0x00, 0x83, 0x00, 0x00, 0x00, 0x3e, 0x00, 0x00, 0x00,
  0x4d, 0x00, 0x00, 0x00, 0xb6, 0xf3, 0xff, 0xff, 0x14, 0x00, 0x00, 0x00, 0x00,
  0x00, 0x00, 0x02, 0x1c, 0x00, 0x00, 0x00, 0x20, 0x00, 0x00, 0x00, 0x01, 0x00,
  0x00, 0x00, 0xa8, 0xf3, 0xff, 0xff, 0x01, 0x00, 0x00, 0x00, 0x01, 0x00, 0x00,
  0x00, 0x01, 0x00, 0x00, 0x00, 0x01, 0x00, 0x00, 0x00, 0x83, 0x00, 0x00, 0x00,
  0x03, 0x00, 0x00, 0x00, 0x82, 0x00, 0x00, 0x00, 0x3d, 0x00, 0x00, 0x00, 0x2d,
  0x00, 0x00, 0x00, 0xf6, 0xf3, 0xff, 0xff, 0x14, 0x00, 0x00, 0x00, 0x00, 0x00,
  0x00, 0x02, 0x1c, 0x00, 0x00, 0x00, 0x20, 0x00, 0x00, 0x00, 0x01, 0x00, 0x00,
  0x00, 0xe8, 0xf3, 0xff, 0xff, 0x01, 0x00, 0x00, 0x00, 0x01, 0x00, 0x00, 0x00,
  0x01, 0x00, 0x00, 0x00, 0x01, 0x00, 0x00, 0x00, 0x82, 0x00, 0x00, 0x00, 0x03,
  0x00, 0x00, 0x00, 0x7b, 0x00, 0x00, 0x00, 0x3c, 0x00, 0x00, 0x00, 0x2d, 0x00,
  0x00, 0x00, 0x36, 0xf4, 0xff, 0xff, 0x14, 0x00, 0x00, 0x00, 0x00, 0x00, 0x00,
  0x01, 0x18, 0x00, 0x00, 0x00, 0x1c, 0x00, 0x00, 0x00, 0x02, 0x00, 0x00, 0x00,
  0xbe, 0xf4, 0xff, 0xff, 0x01, 0x00, 0x00, 0x00, 0x01, 0x00, 0x00, 0x00, 0x01,
  0x00, 0x00, 0x00, 0x81, 0x00, 0x00, 0x00, 0x03, 0x00, 0x00, 0x00, 0x80, 0x00,
  0x00, 0x00, 0x3b, 0x00, 0x00, 0x00, 0x4d, 0x00, 0x00, 0x00, 0x72, 0xf4, 0xff,
  0xff, 0x14, 0x00, 0x00, 0x00, 0x00, 0x00, 0x00, 0x02, 0x1c, 0x00, 0x00, 0x00,
  0x20, 0x00, 0x00, 0x00, 0x01, 0x00, 0x00, 0x00, 0x64, 0xf4, 0xff, 0xff, 0x01,
  0x00, 0x00, 0x00, 0x01, 0x00, 0x00, 0x00, 0x01, 0x00, 0x00, 0x00, 0x01, 0x00,
  0x00, 0x00, 0x80, 0x00, 0x00, 0x00, 0x03, 0x00, 0x00, 0x00, 0x7f, 0x00, 0x00,
  0x00, 0x3a, 0x00, 0x00, 0x00, 0x37, 0x00, 0x00, 0x00, 0xb2, 0xf4, 0xff, 0xff,
  0x14, 0x00, 0x00, 0x00, 0x00, 0x00, 0x00, 0x02, 0x1c, 0x00, 0x00, 0x00, 0x20,
  0x00, 0x00, 0x00, 0x01, 0x00, 0x00, 0x00, 0xa4, 0xf4, 0xff, 0xff, 0x01, 0x00,
  0x00, 0x00, 0x01, 0x00, 0x00, 0x00, 0x01, 0x00, 0x00, 0x00, 0x01, 0x00, 0x00,
  0x00, 0x7f, 0x00, 0x00, 0x00, 0x03, 0x00, 0x00, 0x00, 0x7e, 0x00, 0x00, 0x00,
  0x39, 0x00, 0x00, 0x00, 0x37, 0x00, 0x00, 0x00, 0xf2, 0xf4, 0xff, 0xff, 0x14,
  0x00, 0x00, 0x00, 0x00, 0x00, 0x00, 0x01, 0x1c, 0x00, 0x00, 0x00, 0x20, 0x00,
  0x00, 0x00, 0x02, 0x00, 0x00, 0x00, 0x48, 0xf6, 0xff, 0xff, 0x00, 0x00, 0x00,
  0x01, 0x01, 0x00, 0x00, 0x00, 0x01, 0x00, 0x00, 0x00, 0x01, 0x00, 0x00, 0x00,
  0x7e, 0x00, 0x00, 0x00, 0x03, 0x00, 0x00, 0x00, 0x7d, 0x00, 0x00, 0x00, 0x38,
  0x00, 0x00, 0x00, 0x02, 0x00, 0x00, 0x00, 0x32, 0xf5, 0xff, 0xff, 0x14, 0x00,
  0x00, 0x00, 0x00, 0x00, 0x00, 0x02, 0x1c, 0x00, 0x00, 0x00, 0x20, 0x00, 0x00,
  0x00, 0x01, 0x00, 0x00, 0x00, 0x24, 0xf5, 0xff, 0xff, 0x01, 0x00, 0x00, 0x00,
  0x01, 0x00, 0x00, 0x00, 0x01, 0x00, 0x00, 0x00, 0x01, 0x00, 0x00, 0x00, 0x7d,
  0x00, 0x00, 0x00, 0x03, 0x00, 0x00, 0x00, 0x7c, 0x00, 0x00, 0x00, 0x36, 0x00,
  0x00, 0x00, 0x2d, 0x00, 0x00, 0x00, 0x72, 0xf5, 0xff, 0xff, 0x14, 0x00, 0x00,
  0x00, 0x00, 0x00, 0x00, 0x02, 0x1c, 0x00, 0x00, 0x00, 0x20, 0x00, 0x00, 0x00,
  0x01, 0x00, 0x00, 0x00, 0x64, 0xf5, 0xff, 0xff, 0x01, 0x00, 0x00, 0x00, 0x01,
  0x00, 0x00, 0x00, 0x01, 0x00, 0x00, 0x00, 0x01, 0x00, 0x00, 0x00, 0x7c, 0x00,
  0x00, 0x00, 0x03, 0x00, 0x00, 0x00, 0x7b, 0x00, 0x00, 0x00, 0x35, 0x00, 0x00,
  0x00, 0x2d, 0x00, 0x00, 0x00, 0xb2, 0xf5, 0xff, 0xff, 0x14, 0x00, 0x00, 0x00,
  0x00, 0x00, 0x00, 0x0b, 0x14, 0x00, 0x00, 0x00, 0x18, 0x00, 0x00, 0x00, 0x03,
  0x00, 0x00, 0x00, 0xbc, 0xf8, 0xff, 0xff, 0x00, 0x00, 0x00, 0x00, 0x01, 0x00,
  0x00, 0x00, 0x7b, 0x00, 0x00, 0x00, 0x02, 0x00, 0x00, 0x00, 0x7a, 0x00, 0x00,
  0x00, 0x77, 0x00, 0x00, 0x00, 0xe6, 0xf5, 0xff, 0xff, 0x14, 0x00, 0x00, 0x00,
  0x00, 0x00, 0x00, 0x01, 0x18, 0x00, 0x00, 0x00, 0x1c, 0x00, 0x00, 0x00, 0x02,
  0x00, 0x00, 0x00, 0x6e, 0xf6, 0xff, 0xff, 0x01, 0x00, 0x00, 0x00, 0x01, 0x00,
  0x00, 0x00, 0x01, 0x00, 0x00, 0x00, 0x7a, 0x00, 0x00, 0x00, 0x03, 0x00, 0x00,
  0x00, 0x79, 0x00, 0x00, 0x00, 0x34, 0x00, 0x00, 0x00, 0x4c, 0x00, 0x00, 0x00,
  0x22, 0xf6, 0xff, 0xff, 0x14, 0x00, 0x00, 0x00, 0x00, 0x00, 0x00, 0x02, 0x1c,
  0x00, 0x00, 0x00, 0x20, 0x00, 0x00, 0x00, 0x01, 0x00, 0x00, 0x00, 0x14, 0xf6,
  0xff, 0xff, 0x01, 0x00, 0x00, 0x00, 0x01, 0x00, 0x00, 0x00, 0x01, 0x00, 0x00,
  0x00, 0x01, 0x00, 0x00, 0x00, 0x79, 0x00, 0x00, 0x00, 0x03, 0x00, 0x00, 0x00,
  0x78, 0x00, 0x00, 0x00, 0x33, 0x00, 0x00, 0x00, 0x23, 0x00, 0x00, 0x00, 0x62,
  0xf6, 0xff, 0xff, 0x14, 0x00, 0x00, 0x00, 0x00, 0x00, 0x00, 0x02, 0x1c, 0x00,
  0x00, 0x00, 0x20, 0x00, 0x00, 0x00, 0x01, 0x00, 0x00, 0x00, 0x54, 0xf6, 0xff,
  0xff, 0x01, 0x00, 0x00, 0x00, 0x01, 0x00, 0x00, 0x00, 0x01, 0x00, 0x00, 0x00,
  0x01, 0x00, 0x00, 0x00, 0x78, 0x00, 0x00, 0x00, 0x03, 0x00, 0x00, 0x00, 0x71,
  0x00, 0x00, 0x00, 0x32, 0x00, 0x00, 0x00, 0x23, 0x00, 0x00, 0x00, 0xa2, 0xf6,
  0xff, 0xff, 0x14, 0x00, 0x00, 0x00, 0x00, 0x00, 0x00, 0x01, 0x18, 0x00, 0x00,
  0x00, 0x1c, 0x00, 0x00, 0x00, 0x02, 0x00, 0x00, 0x00, 0x2a, 0xf7, 0xff, 0xff,
  0x01, 0x00, 0x00, 0x00, 0x01, 0x00, 0x00, 0x00, 0x01, 0x00, 0x00, 0x00, 0x77,
  0x00, 0x00, 0x00, 0x03, 0x00, 0x00, 0x00, 0x76, 0x00, 0x00, 0x00, 0x31, 0x00,
  0x00, 0x00, 0x4c, 0x00, 0x00, 0x00, 0xde, 0xf6, 0xff, 0xff, 0x14, 0x00, 0x00,
  0x00, 0x00, 0x00, 0x00, 0x02, 0x1c, 0x00, 0x00, 0x00, 0x20, 0x00, 0x00, 0x00,
  0x01, 0x00, 0x00, 0x00, 0xd0, 0xf6, 0xff, 0xff, 0x01, 0x00, 0x00, 0x00, 0x01,
  0x00, 0x00, 0x00, 0x01, 0x00, 0x00, 0x00, 0x01, 0x00, 0x00, 0x00, 0x76, 0x00,
  0x00, 0x00, 0x03, 0x00, 0x00, 0x00, 0x75, 0x00, 0x00, 0x00, 0x30, 0x00, 0x00,
  0x00, 0x2d, 0x00, 0x00, 0x00, 0x1e, 0xf7, 0xff, 0xff, 0x14, 0x00, 0x00, 0x00,
  0x00, 0x00, 0x00, 0x02, 0x1c, 0x00, 0x00, 0x00, 0x20, 0x00, 0x00, 0x00, 0x01,
  0x00, 0x00, 0x00, 0x10, 0xf7, 0xff, 0xff, 0x01, 0x00, 0x00, 0x00, 0x01, 0x00,
  0x00, 0x00, 0x01, 0x00, 0x00, 0x00, 0x01, 0x00, 0x00, 0x00, 0x75, 0x00, 0x00,
  0x00, 0x03, 0x00, 0x00, 0x00, 0x74, 0x00, 0x00, 0x00, 0x2f, 0x00, 0x00, 0x00,
  0x2d, 0x00, 0x00, 0x00, 0x5e, 0xf7, 0xff, 0xff, 0x14, 0x00, 0x00, 0x00, 0x00,
  0x00, 0x00, 0x01, 0x1c, 0x00, 0x00, 0x00, 0x20, 0x00, 0x00, 0x00, 0x02, 0x00,
  0x00, 0x00, 0xb4, 0xf8, 0xff, 0xff, 0x00, 0x00, 0x00, 0x01, 0x01, 0x00, 0x00,
  0x00, 0x01, 0x00, 0x00, 0x00, 0x01, 0x00, 0x00, 0x00, 0x74, 0x00, 0x00, 0x00,
  0x03, 0x00, 0x00, 0x00, 0x73, 0x00, 0x00, 0x00, 0x2e, 0x00, 0x00, 0x00, 0x03,
  0x00, 0x00, 0x00, 0x9e, 0xf7, 0xff, 0xff, 0x14, 0x00, 0x00, 0x00, 0x00, 0x00,
  0x00, 0x02, 0x1c, 0x00, 0x00, 0x00, 0x20, 0x00, 0x00, 0x00, 0x01, 0x00, 0x00,
  0x00, 0x90, 0xf7, 0xff, 0xff, 0x01, 0x00, 0x00, 0x00, 0x01, 0x00, 0x00, 0x00,
  0x01, 0x00, 0x00, 0x00, 0x01, 0x00, 0x00, 0x00, 0x73, 0x00, 0x00, 0x00, 0x03,
  0x00, 0x00, 0x00, 0x72, 0x00, 0x00, 0x00, 0x2c, 0x00, 0x00, 0x00, 0x23, 0x00,
  0x00, 0x00, 0xde, 0xf7, 0xff, 0xff, 0x14, 0x00, 0x00, 0x00, 0x00, 0x00, 0x00,
  0x02, 0x1c, 0x00, 0x00, 0x00, 0x20, 0x00, 0x00, 0x00, 0x01, 0x00, 0x00, 0x00,
  0xd0, 0xf7, 0xff, 0xff, 0x01, 0x00, 0x00, 0x00, 0x01, 0x00, 0x00, 0x00, 0x01,
  0x00, 0x00, 0x00, 0x01, 0x00, 0x00, 0x00, 0x72, 0x00, 0x00, 0x00, 0x03, 0x00,
  0x00, 0x00, 0x71, 0x00, 0x00, 0x00, 0x2b, 0x00, 0x00, 0x00, 0x23, 0x00, 0x00,
  0x00, 0x1e, 0xf8, 0xff, 0xff, 0x14, 0x00, 0x00, 0x00, 0x00, 0x00, 0x00, 0x0b,
  0x14, 0x00, 0x00, 0x00, 0x18, 0x00, 0x00, 0x00, 0x03, 0x00, 0x00, 0x00, 0x28,
  0xfb, 0xff, 0xff, 0x00, 0x00, 0x00, 0x00, 0x01, 0x00, 0x00, 0x00, 0x71, 0x00,
  0x00, 0x00, 0x02, 0x00, 0x00, 0x00, 0x70, 0x00, 0x00, 0x00, 0x6d, 0x00, 0x00,
  0x00, 0x52, 0xf8, 0xff, 0xff, 0x14, 0x00, 0x00, 0x00, 0x00, 0x00, 0x00, 0x01,
  0x18, 0x00, 0x00, 0x00, 0x1c, 0x00, 0x00, 0x00, 0x02, 0x00, 0x00, 0x00, 0xda,
  0xf8, 0xff, 0xff, 0x01, 0x00, 0x00, 0x00, 0x01, 0x00, 0x00, 0x00, 0x01, 0x00,
  0x00, 0x00, 0x70, 0x00, 0x00, 0x00, 0x03, 0x00, 0x00, 0x00, 0x6f, 0x00, 0x00,
  0x00, 0x2a, 0x00, 0x00, 0x00, 0x4b, 0x00, 0x00, 0x00, 0x8e, 0xf8, 0xff, 0xff,
  0x14, 0x00, 0x00, 0x00, 0x00, 0x00, 0x00, 0x02, 0x1c, 0x00, 0x00, 0x00, 0x20,
  0x00, 0x00, 0x00, 0x01, 0x00, 0x00, 0x00, 0x80, 0xf8, 0xff, 0xff, 0x01, 0x00,
  0x00, 0x00, 0x01, 0x00, 0x00, 0x00, 0x01, 0x00, 0x00, 0x00, 0x01, 0x00, 0x00,
  0x00, 0x6f, 0x00, 0x00, 0x00, 0x03, 0x00, 0x00, 0x00, 0x6e, 0x00, 0x00, 0x00,
  0x29, 0x00, 0x00, 0x00, 0x19, 0x00, 0x00, 0x00, 0xce, 0xf8, 0xff, 0xff, 0x14,
  0x00, 0x00, 0x00, 0x00, 0x00, 0x00, 0x02, 0x1c, 0x00, 0x00, 0x00, 0x20, 0x00,
  0x00, 0x00, 0x01, 0x00, 0x00, 0x00, 0xc0, 0xf8, 0xff, 0xff, 0x01, 0x00, 0x00,
  0x00, 0x01, 0x00, 0x00, 0x00, 0x01, 0x00, 0x00, 0x00, 0x01, 0x00, 0x00, 0x00,
  0x6e, 0x00, 0x00, 0x00, 0x03, 0x00, 0x00, 0x00, 0x67, 0x00, 0x00, 0x00, 0x28,
  0x00, 0x00, 0x00, 0x19, 0x00, 0x00, 0x00, 0x0e, 0xf9, 0xff, 0xff, 0x14, 0x00,
  0x00, 0x00, 0x00, 0x00, 0x00, 0x01, 0x18, 0x00, 0x00, 0x00, 0x1c, 0x00, 0x00,
  0x00, 0x02, 0x00, 0x00, 0x00, 0x96, 0xf9, 0xff, 0xff, 0x01, 0x00, 0x00, 0x00,
  0x01, 0x00, 0x00, 0x00, 0x01, 0x00, 0x00, 0x00, 0x6d, 0x00, 0x00, 0x00, 0x03,
  0x00, 0x00, 0x00, 0x6c, 0x00, 0x00, 0x00, 0x27, 0x00, 0x00, 0x00, 0x4b, 0x00,
  0x00, 0x00, 0x4a, 0xf9, 0xff, 0xff, 0x14, 0x00, 0x00, 0x00, 0x00, 0x00, 0x00,
  0x02, 0x1c, 0x00, 0x00, 0x00, 0x20, 0x00, 0x00, 0x00, 0x01, 0x00, 0x00, 0x00,
  0x3c, 0xf9, 0xff, 0xff, 0x01, 0x00, 0x00, 0x00, 0x01, 0x00, 0x00, 0x00, 0x01,
  0x00, 0x00, 0x00, 0x01, 0x00, 0x00, 0x00, 0x6c, 0x00, 0x00, 0x00, 0x03, 0x00,
  0x00, 0x00, 0x6b, 0x00, 0x00, 0x00, 0x26, 0x00, 0x00, 0x00, 0x23, 0x00, 0x00,
  0x00, 0x8a, 0xf9, 0xff, 0xff, 0x14, 0x00, 0x00, 0x00, 0x00, 0x00, 0x00, 0x02,
  0x1c, 0x00, 0x00, 0x00, 0x20, 0x00, 0x00, 0x00, 0x01, 0x00, 0x00, 0x00, 0x7c,
  0xf9, 0xff, 0xff, 0x01, 0x00, 0x00, 0x00, 0x01, 0x00, 0x00, 0x00, 0x01, 0x00,
  0x00, 0x00, 0x01, 0x00, 0x00, 0x00, 0x6b, 0x00, 0x00, 0x00, 0x03, 0x00, 0x00,
  0x00, 0x6a, 0x00, 0x00, 0x00, 0x25, 0x00, 0x00, 0x00, 0x23, 0x00, 0x00, 0x00,
  0xca, 0xf9, 0xff, 0xff, 0x14, 0x00, 0x00, 0x00, 0x00, 0x00, 0x00, 0x01, 0x1c,
  0x00, 0x00, 0x00, 0x20, 0x00, 0x00, 0x00, 0x02, 0x00, 0x00, 0x00, 0x20, 0xfb,
  0xff, 0xff, 0x00, 0x00, 0x00, 0x01, 0x01, 0x00, 0x00, 0x00, 0x01, 0x00, 0x00,
  0x00, 0x01, 0x00, 0x00, 0x00, 0x6a, 0x00, 0x00, 0x00, 0x03, 0x00, 0x00, 0x00,
  0x69, 0x00, 0x00, 0x00, 0x24, 0x00, 0x00, 0x00, 0x04, 0x00, 0x00, 0x00, 0x0a,
  0xfa, 0xff, 0xff, 0x14, 0x00, 0x00, 0x00, 0x00, 0x00, 0x00, 0x02, 0x1c, 0x00,
  0x00, 0x00, 0x20, 0x00, 0x00, 0x00, 0x01, 0x00, 0x00, 0x00, 0xfc, 0xf9, 0xff,
  0xff, 0x01, 0x00, 0x00, 0x00, 0x01, 0x00, 0x00, 0x00, 0x01, 0x00, 0x00, 0x00,
  0x01, 0x00, 0x00, 0x00, 0x69, 0x00, 0x00, 0x00, 0x03, 0x00, 0x00, 0x00, 0x68,
  0x00, 0x00, 0x00, 0x22, 0x00, 0x00, 0x00, 0x19, 0x00, 0x00, 0x00, 0x4a, 0xfa,
  0xff, 0xff, 0x14, 0x00, 0x00, 0x00, 0x00, 0x00, 0x00, 0x02, 0x1c, 0x00, 0x00,
  0x00, 0x20, 0x00, 0x00, 0x00, 0x01, 0x00, 0x00, 0x00, 0x3c, 0xfa, 0xff, 0xff,
  0x01, 0x00, 0x00, 0x00, 0x01, 0x00, 0x00, 0x00, 0x01, 0x00, 0x00, 0x00, 0x01,
  0x00, 0x00, 0x00, 0x68, 0x00, 0x00, 0x00, 0x03, 0x00, 0x00, 0x00, 0x67, 0x00,
  0x00, 0x00, 0x21, 0x00, 0x00, 0x00, 0x19, 0x00, 0x00, 0x00, 0x8a, 0xfa, 0xff,
  0xff, 0x14, 0x00, 0x00, 0x00, 0x00, 0x00, 0x00, 0x0b, 0x14, 0x00, 0x00, 0x00,
  0x18, 0x00, 0x00, 0x00, 0x03, 0x00, 0x00, 0x00, 0x94, 0xfd, 0xff, 0xff, 0x00,
  0x00, 0x00, 0x00, 0x01, 0x00, 0x00, 0x00, 0x67, 0x00, 0x00, 0x00, 0x02, 0x00,
  0x00, 0x00, 0x66, 0x00, 0x00, 0x00, 0x63, 0x00, 0x00, 0x00, 0xbe, 0xfa, 0xff,
  0xff, 0x14, 0x00, 0x00, 0x00, 0x00, 0x00, 0x00, 0x01, 0x18, 0x00, 0x00, 0x00,
  0x1c, 0x00, 0x00, 0x00, 0x02, 0x00, 0x00, 0x00, 0x46, 0xfb, 0xff, 0xff, 0x01,
  0x00, 0x00, 0x00, 0x01, 0x00, 0x00, 0x00, 0x01, 0x00, 0x00, 0x00, 0x66, 0x00,
  0x00, 0x00, 0x03, 0x00, 0x00, 0x00, 0x65, 0x00, 0x00, 0x00, 0x20, 0x00, 0x00,
  0x00, 0x4a, 0x00, 0x00, 0x00, 0xfa, 0xfa, 0xff, 0xff, 0x14, 0x00, 0x00, 0x00,
  0x00, 0x00, 0x00, 0x02, 0x1c, 0x00, 0x00, 0x00, 0x20, 0x00, 0x00, 0x00, 0x01,
  0x00, 0x00, 0x00, 0xec, 0xfa, 0xff, 0xff, 0x01, 0x00, 0x00, 0x00, 0x01, 0x00,
  0x00, 0x00, 0x01, 0x00, 0x00, 0x00, 0x01, 0x00, 0x00, 0x00, 0x65, 0x00, 0x00,
  0x00, 0x03, 0x00, 0x00, 0x00, 0x64, 0x00, 0x00, 0x00, 0x1f, 0x00, 0x00, 0x00,
  0x0f, 0x00, 0x00, 0x00, 0x3a, 0xfb, 0xff, 0xff, 0x14, 0x00, 0x00, 0x00, 0x00,
  0x00, 0x00, 0x02, 0x1c, 0x00, 0x00, 0x00, 0x20, 0x00, 0x00, 0x00, 0x01, 0x00,
  0x00, 0x00, 0x2c, 0xfb, 0xff, 0xff, 0x01, 0x00, 0x00, 0x00, 0x01, 0x00, 0x00,
  0x00, 0x01, 0x00, 0x00, 0x00, 0x01, 0x00, 0x00, 0x00, 0x64, 0x00, 0x00, 0x00,
  0x03, 0x00, 0x00, 0x00, 0x5d, 0x00, 0x00, 0x00, 0x1e, 0x00, 0x00, 0x00, 0x0f,
  0x00, 0x00, 0x00, 0x7a, 0xfb, 0xff, 0xff, 0x14, 0x00, 0x00, 0x00, 0x00, 0x00,
  0x00, 0x01, 0x18, 0x00, 0x00, 0x00, 0x1c, 0x00, 0x00, 0x00, 0x02, 0x00, 0x00,
  0x00, 0x02, 0xfc, 0xff, 0xff, 0x01, 0x00, 0x00, 0x00, 0x01, 0x00, 0x00, 0x00,
  0x01, 0x00, 0x00, 0x00, 0x63, 0x00, 0x00, 0x00, 0x03, 0x00, 0x00, 0x00, 0x62,
  0x00, 0x00, 0x00, 0x1d, 0x00, 0x00, 0x00, 0x4a, 0x00, 0x00, 0x00, 0xb6, 0xfb,
  0xff, 0xff, 0x14, 0x00, 0x00, 0x00, 0x00, 0x00, 0x00, 0x02, 0x1c, 0x00, 0x00,
  0x00, 0x20, 0x00, 0x00, 0x00, 0x01, 0x00, 0x00, 0x00, 0xa8, 0xfb, 0xff, 0xff,
  0x01, 0x00, 0x00, 0x00, 0x01, 0x00, 0x00, 0x00, 0x01, 0x00, 0x00, 0x00, 0x01,
  0x00, 0x00, 0x00, 0x62, 0x00, 0x00, 0x00, 0x03, 0x00, 0x00, 0x00, 0x61, 0x00,
  0x00, 0x00, 0x1c, 0x00, 0x00, 0x00, 0x19, 0x00, 0x00, 0x00, 0xf6, 0xfb, 0xff,
  0xff, 0x14, 0x00, 0x00, 0x00, 0x00, 0x00, 0x00, 0x02, 0x1c, 0x00, 0x00, 0x00,
  0x20, 0x00, 0x00, 0x00, 0x01, 0x00, 0x00, 0x00, 0xe8, 0xfb, 0xff, 0xff, 0x01,
  0x00, 0x00, 0x00, 0x01, 0x00, 0x00, 0x00, 0x01, 0x00, 0x00, 0x00, 0x01, 0x00,
  0x00, 0x00, 0x61, 0x00, 0x00, 0x00, 0x03, 0x00, 0x00, 0x00, 0x60, 0x00, 0x00,
  0x00, 0x1b, 0x00, 0x00, 0x00, 0x19, 0x00, 0x00, 0x00, 0x36, 0xfc, 0xff, 0xff,
  0x14, 0x00, 0x00, 0x00, 0x00, 0x00, 0x00, 0x01, 0x1c, 0x00, 0x00, 0x00, 0x20,
  0x00, 0x00, 0x00, 0x02, 0x00, 0x00, 0x00, 0x8c, 0xfd, 0xff, 0xff, 0x00, 0x00,
  0x00, 0x01, 0x01, 0x00, 0x00, 0x00, 0x01, 0x00, 0x00, 0x00, 0x01, 0x00, 0x00,
  0x00, 0x60, 0x00, 0x00, 0x00, 0x03, 0x00, 0x00, 0x00, 0x5f, 0x00, 0x00, 0x00,
  0x1a, 0x00, 0x00, 0x00, 0x05, 0x00, 0x00, 0x00, 0x76, 0xfc, 0xff, 0xff, 0x14,
  0x00, 0x00, 0x00, 0x00, 0x00, 0x00, 0x02, 0x1c, 0x00, 0x00, 0x00, 0x20, 0x00,
  0x00, 0x00, 0x01, 0x00, 0x00, 0x00, 0x68, 0xfc, 0xff, 0xff, 0x01, 0x00, 0x00,
  0x00, 0x01, 0x00, 0x00, 0x00, 0x01, 0x00, 0x00, 0x00, 0x01, 0x00, 0x00, 0x00,
  0x5f, 0x00, 0x00, 0x00, 0x03, 0x00, 0x00, 0x00, 0x5e, 0x00, 0x00, 0x00, 0x18,
  0x00, 0x00, 0x00, 0x0f, 0x00, 0x00, 0x00, 0xb6, 0xfc, 0xff, 0xff, 0x14, 0x00,
  0x00, 0x00, 0x00, 0x00, 0x00, 0x02, 0x1c, 0x00, 0x00, 0x00, 0x20, 0x00, 0x00,
  0x00, 0x01, 0x00, 0x00, 0x00, 0xa8, 0xfc, 0xff, 0xff, 0x01, 0x00, 0x00, 0x00,
  0x01, 0x00, 0x00, 0x00, 0x01, 0x00, 0x00, 0x00, 0x01, 0x00, 0x00, 0x00, 0x5e,
  0x00, 0x00, 0x00, 0x03, 0x00, 0x00, 0x00, 0x5d, 0x00, 0x00, 0x00, 0x17, 0x00,
  0x00, 0x00, 0x0f, 0x00, 0x00, 0x00, 0xf6, 0xfc, 0xff, 0xff, 0x1c, 0x00, 0x00,
  0x00, 0x00, 0x00, 0x00, 0x0b, 0x1c, 0x00, 0x00, 0x00, 0x20, 0x00, 0x00, 0x00,
  0x03, 0x00, 0x00, 0x00, 0x08, 0x00, 0x08, 0x00, 0x00, 0x00, 0x07, 0x00, 0x08,
  0x00, 0x00, 0x00, 0x00, 0x00, 0x00, 0x00, 0x01, 0x00, 0x00, 0x00, 0x5d, 0x00,
  0x00, 0x00, 0x02, 0x00, 0x00, 0x00, 0x5c, 0x00, 0x00, 0x00, 0x59, 0x00, 0x00,
  0x00, 0x32, 0xfd, 0xff, 0xff, 0x14, 0x00, 0x00, 0x00, 0x00, 0x00, 0x00, 0x01,
  0x18, 0x00, 0x00, 0x00, 0x1c, 0x00, 0x00, 0x00, 0x02, 0x00, 0x00, 0x00, 0xba,
  0xfd, 0xff, 0xff, 0x01, 0x00, 0x00, 0x00, 0x01, 0x00, 0x00, 0x00, 0x01, 0x00,
  0x00, 0x00, 0x5c, 0x00, 0x00, 0x00, 0x03, 0x00, 0x00, 0x00, 0x5b, 0x00, 0x00,
  0x00, 0x16, 0x00, 0x00, 0x00, 0x49, 0x00, 0x00, 0x00, 0x6e, 0xfd, 0xff, 0xff,
  0x14, 0x00, 0x00, 0x00, 0x00, 0x00, 0x00, 0x02, 0x1c, 0x00, 0x00, 0x00, 0x20,
  0x00, 0x00, 0x00, 0x01, 0x00, 0x00, 0x00, 0x60, 0xfd, 0xff, 0xff, 0x01, 0x00,
  0x00, 0x00, 0x01, 0x00, 0x00, 0x00, 0x01, 0x00, 0x00, 0x00, 0x01, 0x00, 0x00,
  0x00, 0x5b, 0x00, 0x00, 0x00, 0x03, 0x00, 0x00, 0x00, 0x5a, 0x00, 0x00, 0x00,
  0x15, 0x00, 0x00, 0x00, 0x0b, 0x00, 0x00, 0x00, 0xae, 0xfd, 0xff, 0xff, 0x14,
  0x00, 0x00, 0x00, 0x00, 0x00, 0x00, 0x02, 0x1c, 0x00, 0x00, 0x00, 0x20, 0x00,
  0x00, 0x00, 0x01, 0x00, 0x00, 0x00, 0xa0, 0xfd, 0xff, 0xff, 0x01, 0x00, 0x00,
  0x00, 0x01, 0x00, 0x00, 0x00, 0x01, 0x00, 0x00, 0x00, 0x01, 0x00, 0x00, 0x00,
  0x5a, 0x00, 0x00, 0x00, 0x03, 0x00, 0x00, 0x00, 0x53, 0x00, 0x00, 0x00, 0x14,
  0x00, 0x00, 0x00, 0x0b, 0x00, 0x00, 0x00, 0xee, 0xfd, 0xff, 0xff, 0x14, 0x00,
  0x00, 0x00, 0x00, 0x00, 0x00, 0x01, 0x18, 0x00, 0x00, 0x00, 0x1c, 0x00, 0x00,
  0x00, 0x02, 0x00, 0x00, 0x00, 0x76, 0xfe, 0xff, 0xff, 0x01, 0x00, 0x00, 0x00,
  0x01, 0x00, 0x00, 0x00, 0x01, 0x00, 0x00, 0x00, 0x59, 0x00, 0x00, 0x00, 0x03,
  0x00, 0x00, 0x00, 0x58, 0x00, 0x00, 0x00, 0x13, 0x00, 0x00, 0x00, 0x49, 0x00,
  0x00, 0x00, 0x2a, 0xfe, 0xff, 0xff, 0x14, 0x00, 0x00, 0x00, 0x00, 0x00, 0x00,
  0x02, 0x1c, 0x00, 0x00, 0x00, 0x20, 0x00, 0x00, 0x00, 0x01, 0x00, 0x00, 0x00,
  0x1c, 0xfe, 0xff, 0xff, 0x01, 0x00, 0x00, 0x00, 0x01, 0x00, 0x00, 0x00, 0x01,
  0x00, 0x00, 0x00, 0x01, 0x00, 0x00, 0x00, 0x58, 0x00, 0x00, 0x00, 0x03, 0x00,
  0x00, 0x00, 0x57, 0x00, 0x00, 0x00, 0x12, 0x00, 0x00, 0x00, 0x0f, 0x00, 0x00,
  0x00, 0x6a, 0xfe, 0xff, 0xff, 0x14, 0x00, 0x00, 0x00, 0x00, 0x00, 0x00, 0x02,
  0x1c, 0x00, 0x00, 0x00, 0x20, 0x00, 0x00, 0x00, 0x01, 0x00, 0x00, 0x00, 0x5c,
  0xfe, 0xff, 0xff, 0x01, 0x00, 0x00, 0x00, 0x01, 0x00, 0x00, 0x00, 0x01, 0x00,
  0x00, 0x00, 0x01, 0x00, 0x00, 0x00, 0x57, 0x00, 0x00, 0x00, 0x03, 0x00, 0x00,
  0x00, 0x56, 0x00, 0x00, 0x00, 0x11, 0x00, 0x00, 0x00, 0x0f, 0x00, 0x00, 0x00,
  0xaa, 0xfe, 0xff, 0xff, 0x20, 0x00, 0x00, 0x00, 0x00, 0x00, 0x00, 0x01, 0x28,
  0x00, 0x00, 0x00, 0x2c, 0x00, 0x00, 0x00, 0x02, 0x00, 0x00, 0x00, 0x0c, 0x00,
  0x10, 0x00, 0x00, 0x00, 0x0c, 0x00, 0x08, 0x00, 0x07, 0x00, 0x0c, 0x00, 0x00,
  0x00, 0x00, 0x00, 0x00, 0x01, 0x01, 0x00, 0x00, 0x00, 0x01, 0x00, 0x00, 0x00,
  0x01, 0x00, 0x00, 0x00, 0x56, 0x00, 0x00, 0x00, 0x03, 0x00, 0x00, 0x00, 0x55,
  0x00, 0x00, 0x00, 0x10, 0x00, 0x00, 0x00, 0x06, 0x00, 0x00, 0x00, 0xf6, 0xfe,
  0xff, 0xff, 0x14, 0x00, 0x00, 0x00, 0x00, 0x00, 0x00, 0x02, 0x1c, 0x00, 0x00,
  0x00, 0x20, 0x00, 0x00, 0x00, 0x01, 0x00, 0x00, 0x00, 0xe8, 0xfe, 0xff, 0xff,
  0x01, 0x00, 0x00, 0x00, 0x01, 0x00, 0x00, 0x00, 0x01, 0x00, 0x00, 0x00, 0x01,
  0x00, 0x00, 0x00, 0x55, 0x00, 0x00, 0x00, 0x03, 0x00, 0x00, 0x00, 0x54, 0x00,
  0x00, 0x00, 0x0e, 0x00, 0x00, 0x00, 0x0b, 0x00, 0x00, 0x00, 0x36, 0xff, 0xff,
  0xff, 0x14, 0x00, 0x00, 0x00, 0x00, 0x00, 0x00, 0x02, 0x1c, 0x00, 0x00, 0x00,
  0x20, 0x00, 0x00, 0x00, 0x01, 0x00, 0x00, 0x00, 0x28, 0xff, 0xff, 0xff, 0x01,
  0x00, 0x00, 0x00, 0x01, 0x00, 0x00, 0x00, 0x01, 0x00, 0x00, 0x00, 0x01, 0x00,
  0x00, 0x00, 0x54, 0x00, 0x00, 0x00, 0x03, 0x00, 0x00, 0x00, 0x53, 0x00, 0x00,
  0x00, 0x0d, 0x00, 0x00, 0x00, 0x0b, 0x00, 0x00, 0x00, 0x76, 0xff, 0xff, 0xff,
  0x20, 0x00, 0x00, 0x00, 0x00, 0x00, 0x00, 0x01, 0x24, 0x00, 0x00, 0x00, 0x28,
  0x00, 0x00, 0x00, 0x02, 0x00, 0x00, 0x00, 0x00, 0x00, 0x0a, 0x00, 0x0c, 0x00,
  0x00, 0x00, 0x08, 0x00, 0x04, 0x00, 0x0a, 0x00, 0x00, 0x00, 0x01, 0x00, 0x00,
  0x00, 0x01, 0x00, 0x00, 0x00, 0x01, 0x00, 0x00, 0x00, 0x53, 0x00, 0x00, 0x00,
  0x03, 0x00, 0x00, 0x00, 0x52, 0x00, 0x00, 0x00, 0x0c, 0x00, 0x00, 0x00, 0x48,
  0x00, 0x00, 0x00, 0xbe, 0xff, 0xff, 0xff, 0x14, 0x00, 0x00, 0x00, 0x00, 0x00,
  0x00, 0x02, 0x1c, 0x00, 0x00, 0x00, 0x20, 0x00, 0x00, 0x00, 0x01, 0x00, 0x00,
  0x00, 0xb0, 0xff, 0xff, 0xff, 0x01, 0x00, 0x00, 0x00, 0x01, 0x00, 0x00, 0x00,
  0x01, 0x00, 0x00, 0x00, 0x01, 0x00, 0x00, 0x00, 0x52, 0x00, 0x00, 0x00, 0x03,
  0x00, 0x00, 0x00, 0x51, 0x00, 0x00, 0x00, 0x0a, 0x00, 0x00, 0x00, 0x08, 0x00,
  0x00, 0x00, 0x00, 0x00, 0x0e, 0x00, 0x18, 0x00, 0x14, 0x00, 0x10, 0x00, 0x0c,
  0x00, 0x0b, 0x00, 0x04, 0x00, 0x0e, 0x00, 0x00, 0x00, 0x20, 0x00, 0x00, 0x00,
  0x00, 0x00, 0x00, 0x02, 0x28, 0x00, 0x00, 0x00, 0x2c, 0x00, 0x00, 0x00, 0x01,
  0x00, 0x00, 0x00, 0x0c, 0x00, 0x10, 0x00, 0x00, 0x00, 0x0c, 0x00, 0x08, 0x00,
  0x04, 0x00, 0x0c, 0x00, 0x00, 0x00, 0x01, 0x00, 0x00, 0x00, 0x01, 0x00, 0x00,
  0x00, 0x01, 0x00, 0x00, 0x00, 0x01, 0x00, 0x00, 0x00, 0x51, 0x00, 0x00, 0x00,
  0x03, 0x00, 0x00, 0x00, 0x50, 0x00, 0x00, 0x00, 0x09, 0x00, 0x00, 0x00, 0x08,
  0x00, 0x00, 0x00, 0x00, 0x00, 0x0e, 0x00, 0x14, 0x00, 0x00, 0x00, 0x10, 0x00,
  0x0c, 0x00, 0x0b, 0x00, 0x04, 0x00, 0x0e, 0x00, 0x00, 0x00, 0x10, 0x00, 0x00,
  0x00, 0x00, 0x00, 0x00, 0x16, 0x0c, 0x00, 0x00, 0x00, 0x10, 0x00, 0x00, 0x00,
  0x94, 0x8e, 0xff, 0xff, 0x01, 0x00, 0x00, 0x00, 0x50, 0x00, 0x00, 0x00, 0x02,
  0x00, 0x00, 0x00, 0x00, 0x00, 0x00, 0x00, 0x07, 0x00, 0x00, 0x00, 0x00, 0x00,
  0x0a, 0x00, 0x10, 0x00, 0x0c, 0x00, 0x08, 0x00, 0x04, 0x00, 0x0a, 0x00, 0x00,
  0x00, 0x0c, 0x00, 0x00, 0x00, 0x10, 0x00, 0x00, 0x00, 0x04, 0x00, 0x00, 0x00,
  0x01, 0x00, 0x00, 0x00, 0x00, 0x00, 0x00, 0x00, 0x01, 0x00, 0x00, 0x00, 0x90,
  0x00, 0x00, 0x00, 0x01, 0x00, 0x00, 0x00, 0x91, 0x00, 0x00, 0x00, 0x01, 0x00,
  0x00, 0x00, 0x90, 0x00, 0x00, 0x00, 0x92, 0x00, 0x00, 0x00, 0x70, 0x75, 0x00,
  0x00, 0xcc, 0x74, 0x00, 0x00, 0x44, 0x74, 0x00, 0x00, 0xa8, 0x73, 0x00, 0x00,
  0xf4, 0x72, 0x00, 0x00, 0x18, 0x72, 0x00, 0x00, 0x1c, 0x71, 0x00, 0x00, 0xe0,
  0x70, 0x00, 0x00, 0x8c, 0x70, 0x00, 0x00, 0xf8, 0x6f, 0x00, 0x00, 0x78, 0x6f,
  0x00, 0x00, 0x40, 0x6e, 0x00, 0x00, 0x4c, 0x6c, 0x00, 0x00, 0x54, 0x6a, 0x00,
  0x00, 0x58, 0x68, 0x00, 0x00, 0x58, 0x67, 0x00, 0x00, 0xc4, 0x65, 0x00, 0x00,
  0x2c, 0x64, 0x00, 0x00, 0x98, 0x62, 0x00, 0x00, 0x08, 0x61, 0x00, 0x00, 0x10,
  0x5f, 0x00, 0x00, 0x14, 0x5d, 0x00, 0x00, 0x84, 0x5b, 0x00, 0x00, 0xec, 0x59,
  0x00, 0x00, 0x58, 0x58, 0x00, 0x00, 0x78, 0x57, 0x00, 0x00, 0x24, 0x56, 0x00,
  0x00, 0xc4, 0x54, 0x00, 0x00, 0x68, 0x53, 0x00, 0x00, 0x10, 0x52, 0x00, 0x00,
  0x78, 0x50, 0x00, 0x00, 0xdc, 0x4e, 0x00, 0x00, 0x84, 0x4d, 0x00, 0x00, 0x24,
  0x4c, 0x00, 0x00, 0xc8, 0x4a, 0x00, 0x00, 0x10, 0x4a, 0x00, 0x00, 0xf4, 0x48,
  0x00, 0x00, 0xd4, 0x47, 0x00, 0x00, 0xb0, 0x46, 0x00, 0x00, 0x98, 0x45, 0x00,
  0x00, 0x38, 0x44, 0x00, 0x00, 0xdc, 0x42, 0x00, 0x00, 0xc4, 0x41, 0x00, 0x00,
  0xa4, 0x40, 0x00, 0x00, 0x80, 0x3f, 0x00, 0x00, 0xe0, 0x3e, 0x00, 0x00, 0xec,
  0x3d, 0x00, 0x00, 0xf4, 0x3c, 0x00, 0x00, 0xf8, 0x3b, 0x00, 0x00, 0x08, 0x3b,
  0x00, 0x00, 0xe8, 0x39, 0x00, 0x00, 0xc4, 0x38, 0x00, 0x00, 0xd4, 0x37, 0x00,
  0x00, 0xdc, 0x36, 0x00, 0x00, 0xe0, 0x35, 0x00, 0x00, 0x58, 0x35, 0x00, 0x00,
  0x8c, 0x34, 0x00, 0x00, 0xbc, 0x33, 0x00, 0x00, 0xe8, 0x32, 0x00, 0x00, 0x20,
  0x32, 0x00, 0x00, 0x28, 0x31, 0x00, 0x00, 0x2c, 0x30, 0x00, 0x00, 0x64, 0x2f,
  0x00, 0x00, 0x94, 0x2e, 0x00, 0x00, 0xc0, 0x2d, 0x00, 0x00, 0xf8, 0x2c, 0x00,
  0x00, 0x28, 0x2c, 0x00, 0x00, 0x54, 0x2b, 0x00, 0x00, 0x8c, 0x2a, 0x00, 0x00,
  0xbc, 0x29, 0x00, 0x00, 0xe8, 0x28, 0x00, 0x00, 0x70, 0x28, 0x00, 0x00, 0x1c,
  0x27, 0x00, 0x00, 0x00, 0x26, 0x00, 0x00, 0x04, 0x25, 0x00, 0x00, 0x30, 0x24,
  0x00, 0x00, 0x6c, 0x23, 0x00, 0x00, 0xc0, 0x22, 0x00, 0x00, 0x14, 0x22, 0x00,
  0x00, 0xa8, 0x21, 0x00, 0x00, 0x34, 0x21, 0x00, 0x00, 0xb8, 0x20, 0x00, 0x00,
  0x3c, 0x20, 0x00, 0x00, 0xa8, 0x1f, 0x00, 0x00, 0x2c, 0x1f, 0x00, 0x00, 0xb0,
  0x1e, 0x00, 0x00, 0x14, 0x1e, 0x00, 0x00, 0x98, 0x1d, 0x00, 0x00, 0x1c, 0x1d,
  0x00, 0x00, 0x80, 0x1c, 0x00, 0x00, 0x04, 0x1c, 0x00, 0x00, 0x88, 0x1b, 0x00,
  0x00, 0xec, 0x1a, 0x00, 0x00, 0x78, 0x1a, 0x00, 0x00, 0xfc, 0x19, 0x00, 0x00,
  0x80, 0x19, 0x00, 0x00, 0xdc, 0x18, 0x00, 0x00, 0x60, 0x18, 0x00, 0x00, 0xe4,
  0x17, 0x00, 0x00, 0x48, 0x17, 0x00, 0x00, 0xcc, 0x16, 0x00, 0x00, 0x50, 0x16,
  0x00, 0x00, 0xb4, 0x15, 0x00, 0x00, 0x40, 0x15, 0x00, 0x00, 0xc4, 0x14, 0x00,
  0x00, 0x48, 0x14, 0x00, 0x00, 0xa4, 0x13, 0x00, 0x00, 0x28, 0x13, 0x00, 0x00,
  0xac, 0x12, 0x00, 0x00, 0x10, 0x12, 0x00, 0x00, 0x94, 0x11, 0x00, 0x00, 0x18,
  0x11, 0x00, 0x00, 0x7c, 0x10, 0x00, 0x00, 0x08, 0x10, 0x00, 0x00, 0x8c, 0x0f,
  0x00, 0x00, 0x10, 0x0f, 0x00, 0x00, 0x6c, 0x0e, 0x00, 0x00, 0xf0, 0x0d, 0x00,
  0x00, 0x74, 0x0d, 0x00, 0x00, 0xd8, 0x0c, 0x00, 0x00, 0x5c, 0x0c, 0x00, 0x00,
  0xe0, 0x0b, 0x00, 0x00, 0x44, 0x0b, 0x00, 0x00, 0xd0, 0x0a, 0x00, 0x00, 0x54,
  0x0a, 0x00, 0x00, 0xd8, 0x09, 0x00, 0x00, 0x34, 0x09, 0x00, 0x00, 0xb8, 0x08,
  0x00, 0x00, 0x3c, 0x08, 0x00, 0x00, 0xa0, 0x07, 0x00, 0x00, 0x24, 0x07, 0x00,
  0x00, 0xa8, 0x06, 0x00, 0x00, 0x0c, 0x06, 0x00, 0x00, 0x98, 0x05, 0x00, 0x00,
  0x1c, 0x05, 0x00, 0x00, 0xa0, 0x04, 0x00, 0x00, 0xfc, 0x03, 0x00, 0x00, 0x80,
  0x03, 0x00, 0x00, 0x04, 0x03, 0x00, 0x00, 0x68, 0x02, 0x00, 0x00, 0xf4, 0x01,
  0x00, 0x00, 0x78, 0x01, 0x00, 0x00, 0xfc, 0x00, 0x00, 0x00, 0x78, 0x00, 0x00,
  0x00, 0x44, 0x00, 0x00, 0x00, 0x04, 0x00, 0x00, 0x00, 0xd0, 0xff, 0xff, 0xff,
  0x08, 0x00, 0x00, 0x00, 0x14, 0x00, 0x00, 0x00, 0x0a, 0x00, 0x00, 0x00, 0x42,
  0x69, 0x61, 0x73, 0x41, 0x64, 0x64, 0x5f, 0x31, 0x38, 0x00, 0x00, 0x04, 0x00,
  0x00, 0x00, 0x01, 0x00, 0x00, 0x00, 0x38, 0x04, 0x00, 0x00, 0x80, 0x07, 0x00,
  0x00, 0x01, 0x00, 0x00, 0x00, 0x0c, 0x00, 0x0c, 0x00, 0x08, 0x00, 0x00, 0x00,
  0x00, 0x00, 0x04, 0x00, 0x0c, 0x00, 0x00, 0x00, 0x08, 0x00, 0x00, 0x00, 0x14,
  0x00, 0x00, 0x00, 0x0b, 0x00, 0x00, 0x00, 0x50, 0x6c, 0x61, 0x63, 0x65, 0x68,
  0x6f, 0x6c, 0x64, 0x65, 0x72, 0x00, 0x04, 0x00, 0x00, 0x00, 0x01, 0x00, 0x00,
  0x00, 0x38, 0x04, 0x00, 0x00, 0x80, 0x07, 0x00, 0x00, 0x01, 0x00, 0x00, 0x00,
  0x52, 0x8d, 0xff, 0xff, 0x14, 0x00, 0x00, 0x00, 0x4c, 0x00, 0x00, 0x00, 0x90,
  0x00, 0x00, 0x00, 0x00, 0x00, 0x00, 0x07, 0x58, 0x00, 0x00, 0x00, 0x44, 0x8d,
  0xff, 0xff, 0x10, 0x00, 0x00, 0x00, 0x1c, 0x00, 0x00, 0x00, 0x20, 0x00, 0x00,
  0x00, 0x24, 0x00, 0x00, 0x00, 0x01, 0x00, 0x00, 0x00, 0x00, 0x00, 0x00, 0x00,
  0x00, 0x00, 0x00, 0x00, 0x00, 0x00, 0x00, 0x00, 0x01, 0x00, 0x00, 0x00, 0x3a,
  0xa4, 0xf4, 0x36, 0x01, 0x00, 0x00, 0x00, 0x51, 0xa2, 0x74, 0x3e, 0x01, 0x00,
  0x00, 0x00, 0x3b, 0x3a, 0x6b, 0xbe, 0x10, 0x00, 0x00, 0x00, 0x42, 0x69, 0x61,
  0x73, 0x41, 0x64, 0x64, 0x5f, 0x31, 0x38, 0x5f, 0x69, 0x6e, 0x74, 0x31, 0x36,
  0x00, 0x00, 0x00, 0x00, 0x04, 0x00, 0x00, 0x00, 0x01, 0x00, 0x00, 0x00, 0x38,
  0x04, 0x00, 0x00, 0x80, 0x07, 0x00, 0x00, 0x01, 0x00, 0x00, 0x00, 0xd2, 0x8d,
  0xff, 0xff, 0x14, 0x00, 0x00, 0x00, 0x48, 0x00, 0x00, 0x00, 0x8f, 0x00, 0x00,
  0x00, 0x00, 0x00, 0x00, 0x07, 0x50, 0x00, 0x00, 0x00, 0xc4, 0x8d, 0xff, 0xff,
  0x10, 0x00, 0x00, 0x00, 0x18, 0x00, 0x00, 0x00, 0x1c, 0x00, 0x00, 0x00, 0x20,
  0x00, 0x00, 0x00, 0x01, 0x00, 0x00, 0x00, 0x00, 0x00, 0x00, 0x00, 0x00, 0x00,
  0x00, 0x00, 0x01, 0x00, 0x00, 0x00, 0x3b, 0x64, 0xde, 0x38, 0x01, 0x00, 0x00,
  0x00, 0x7e, 0x62, 0x5e, 0x40, 0x01, 0x00, 0x00, 0x00, 0xf0, 0xad, 0x47, 0xc0,
  0x0d, 0x00, 0x00, 0x00, 0x64, 0x65, 0x70, 0x74, 0x68, 0x77, 0x69, 0x73, 0x65,
  0x5f, 0x33, 0x37, 0x32, 0x00, 0x00, 0x00, 0x04, 0x00, 0x00, 0x00, 0x01, 0x00,
  0x00, 0x00, 0x38, 0x04, 0x00, 0x00, 0x80, 0x07, 0x00, 0x00, 0x05, 0x00, 0x00,
  0x00, 0x4a, 0x8e, 0xff, 0xff, 0x14, 0x00, 0x00, 0x00, 0x48, 0x00, 0x00, 0x00,
  0x8e, 0x00, 0x00, 0x00, 0x00, 0x00, 0x00, 0x07, 0x50, 0x00, 0x00, 0x00, 0x3c,
  0x8e, 0xff, 0xff, 0x10, 0x00, 0x00, 0x00, 0x18, 0x00, 0x00, 0x00, 0x1c, 0x00,
  0x00, 0x00, 0x20, 0x00, 0x00, 0x00, 0x01, 0x00, 0x00, 0x00, 0x00, 0x00, 0x00,
  0x00, 0x00, 0x00, 0x00, 0x00, 0x01, 0x00, 0x00, 0x00, 0x8c, 0xd9, 0x9e, 0x39,
  0x01, 0x00, 0x00, 0x00, 0x4e, 0xd8, 0x1e, 0x41, 0x01, 0x00, 0x00, 0x00, 0x78,
  0x84, 0x00, 0xc1, 0x0d, 0x00, 0x00, 0x00, 0x64, 0x65, 0x70, 0x74, 0x68, 0x77,
  0x69, 0x73, 0x65, 0x5f, 0x33, 0x36, 0x31, 0x00, 0x00, 0x00, 0x04, 0x00, 0x00,
  0x00, 0x01, 0x00, 0x00, 0x00, 0x38, 0x04, 0x00, 0x00, 0x84, 0x07, 0x00, 0x00,
  0x05, 0x00, 0x00, 0x00, 0xc2, 0x8e, 0xff, 0xff, 0x14, 0x00, 0x00, 0x00, 0x48,
  0x00, 0x00, 0x00, 0x8d, 0x00, 0x00, 0x00, 0x00, 0x00, 0x00, 0x07, 0x48, 0x00,
  0x00, 0x00, 0xb4, 0x8e, 0xff, 0xff, 0x10, 0x00, 0x00, 0x00, 0x18, 0x00, 0x00,
  0x00, 0x1c, 0x00, 0x00, 0x00, 0x20, 0x00, 0x00, 0x00, 0x01, 0x00, 0x00, 0x00,
  0x00, 0x00, 0x00, 0x00, 0x00, 0x00, 0x00, 0x00, 0x01, 0x00, 0x00, 0x00, 0xfa,
  0x69, 0xac, 0x3a, 0x01, 0x00, 0x00, 0x00, 0xa1, 0x68, 0x2c, 0x42, 0x01, 0x00,
  0x00, 0x00, 0x20, 0x59, 0xc8, 0xc1, 0x05, 0x00, 0x00, 0x00, 0x41, 0x64, 0x64,
  0x5f, 0x35, 0x00, 0x00, 0x00, 0x04, 0x00, 0x00, 0x00, 0x01, 0x00, 0x00, 0x00,
  0x3c, 0x04, 0x00, 0x00, 0x84, 0x07, 0x00, 0x00, 0x05, 0x00, 0x00, 0x00, 0x32,
  0x8f, 0xff, 0xff, 0x14, 0x00, 0x00, 0x00, 0x48, 0x00, 0x00, 0x00, 0x8c, 0x00,
  0x00, 0x00, 0x00, 0x00, 0x00, 0x07, 0x70, 0x00, 0x00, 0x00, 0x24, 0x8f, 0xff,
  0xff, 0x10, 0x00, 0x00, 0x00, 0x18, 0x00, 0x00, 0x00, 0x1c, 0x00, 0x00, 0x00,
  0x20, 0x00, 0x00, 0x00, 0x01, 0x00, 0x00, 0x00, 0x00, 0x00, 0x00, 0x00, 0x00,
  0x00, 0x00, 0x00, 0x01, 0x00, 0x00, 0x00, 0xdf, 0x88, 0x94, 0x3a, 0x01, 0x00,
  0x00, 0x00, 0xb6, 0x87, 0x14, 0x42, 0x01, 0x00, 0x00, 0x00, 0x05, 0xc2, 0xd7,
  0xc1, 0x2d, 0x00, 0x00, 0x00, 0x42, 0x69, 0x61, 0x73, 0x41, 0x64, 0x64, 0x5f,
  0x31, 0x37, 0x3b, 0x64, 0x65, 0x70, 0x74, 0x68, 0x77, 0x69, 0x73, 0x65, 0x5f,
  0x33, 0x37, 0x3b, 0x43, 0x6f, 0x6e, 0x76, 0x32, 0x44, 0x5f, 0x31, 0x37, 0x3b,
  0x63, 0x6f, 0x6e, 0x76, 0x5f, 0x36, 0x5f, 0x31, 0x5f, 0x62, 0x31, 0x00, 0x00,
  0x00, 0x04, 0x00, 0x00, 0x00, 0x01, 0x00, 0x00, 0x00, 0x3c, 0x04, 0x00, 0x00,
  0x84, 0x07, 0x00, 0x00, 0x05, 0x00, 0x00, 0x00, 0xca, 0x8f, 0xff, 0xff, 0x14,
  0x00, 0x00, 0x00, 0x48, 0x00, 0x00, 0x00, 0x8b, 0x00, 0x00, 0x00, 0x00, 0x00,
  0x00, 0x07, 0x50, 0x00, 0x00, 0x00, 0xbc, 0x8f, 0xff, 0xff, 0x10, 0x00, 0x00,
  0x00, 0x18, 0x00, 0x00, 0x00, 0x1c, 0x00, 0x00, 0x00, 0x20, 0x00, 0x00, 0x00,
  0x01, 0x00, 0x00, 0x00, 0x00, 0x00, 0x00, 0x00, 0x00, 0x00, 0x00, 0x00, 0x01,
  0x00, 0x00, 0x00, 0x09, 0x0e, 0x2e, 0x3a, 0x01, 0x00, 0x00, 0x00, 0xad, 0x95,
  0x8d, 0x41, 0x01, 0x00, 0x00, 0x00, 0xad, 0x0c, 0xae, 0xc1, 0x0d, 0x00, 0x00,
  0x00, 0x64, 0x65, 0x70, 0x74, 0x68, 0x77, 0x69, 0x73, 0x65, 0x5f, 0x33, 0x35,
  0x31, 0x00, 0x00, 0x00, 0x04, 0x00, 0x00, 0x00, 0x01, 0x00, 0x00, 0x00, 0x3c,
  0x04, 0x00, 0x00, 0x84, 0x07, 0x00, 0x00, 0x05, 0x00, 0x00, 0x00, 0x42, 0x90,
  0xff, 0xff, 0x14, 0x00, 0x00, 0x00, 0x48, 0x00, 0x00, 0x00, 0x8a, 0x00, 0x00,
  0x00, 0x00, 0x00, 0x00, 0x07, 0x50, 0x00, 0x00, 0x00, 0x34, 0x90, 0xff, 0xff,
  0x10, 0x00, 0x00, 0x00, 0x18, 0x00, 0x00, 0x00, 0x1c, 0x00, 0x00, 0x00, 0x20,
  0x00, 0x00, 0x00, 0x01, 0x00, 0x00, 0x00, 0x00, 0x00, 0x00, 0x00, 0x00, 0x00,
  0x00, 0x00, 0x01, 0x00, 0x00, 0x00, 0x40, 0x8a, 0x09, 0x3a, 0x01, 0x00, 0x00,
  0x00, 0xab, 0xcb, 0x6e, 0x41, 0x01, 0x00, 0x00, 0x00, 0x2d, 0x89, 0x89, 0xc1,
  0x0d, 0x00, 0x00, 0x00, 0x64, 0x65, 0x70, 0x74, 0x68, 0x77, 0x69, 0x73, 0x65,
  0x5f, 0x33, 0x34, 0x31, 0x00, 0x00, 0x00, 0x04, 0x00, 0x00, 0x00, 0x01, 0x00,
  0x00, 0x00, 0x3c, 0x04, 0x00, 0x00, 0x84, 0x07, 0x00, 0x00, 0x05, 0x00, 0x00,
  0x00, 0xba, 0x90, 0xff, 0xff, 0x14, 0x00, 0x00, 0x00, 0x4c, 0x00, 0x00, 0x00,
  0x89, 0x00, 0x00, 0x00, 0x00, 0x00, 0x00, 0x07, 0x78, 0x00, 0x00, 0x00, 0xac,
  0x90, 0xff, 0xff, 0x10, 0x00, 0x00, 0x00, 0x1c, 0x00, 0x00, 0x00, 0x20, 0x00,
  0x00, 0x00, 0x24, 0x00, 0x00, 0x00, 0x01, 0x00, 0x00, 0x00, 0x00, 0x00, 0x00,
  0x00, 0x00, 0x00, 0x00, 0x00, 0x00, 0x00, 0x00, 0x00, 0x01, 0x00, 0x00, 0x00,
  0xf9, 0x79, 0x45, 0x3a, 0x01, 0x00, 0x00, 0x00, 0x6e, 0x78, 0xc5, 0x41, 0x01,
  0x00, 0x00, 0x00, 0x00, 0x00, 0x00, 0x00, 0x33, 0x00, 0x00, 0x00, 0x52, 0x65,
  0x6c, 0x75, 0x5f, 0x35, 0x3b, 0x42, 0x69, 0x61, 0x73, 0x41, 0x64, 0x64, 0x5f,
  0x31, 0x36, 0x3b, 0x64, 0x65, 0x70, 0x74, 0x68, 0x77, 0x69, 0x73, 0x65, 0x5f,
  0x33, 0x37, 0x3b, 0x43, 0x6f, 0x6e, 0x76, 0x32, 0x44, 0x5f, 0x31, 0x36, 0x3b,
  0x63, 0x6f, 0x6e, 0x76, 0x5f, 0x36, 0x5f, 0x30, 0x5f, 0x62, 0x00, 0x04, 0x00,
  0x00, 0x00, 0x01, 0x00, 0x00, 0x00, 0x3c, 0x04, 0x00, 0x00, 0x84, 0x07, 0x00,
  0x00, 0x05, 0x00, 0x00, 0x00, 0x5a, 0x91, 0xff, 0xff, 0x14, 0x00, 0x00, 0x00,
  0x48, 0x00, 0x00, 0x00, 0x88, 0x00, 0x00, 0x00, 0x00, 0x00, 0x00, 0x07, 0x50,
  0x00, 0x00, 0x00, 0x4c, 0x91, 0xff, 0xff, 0x10, 0x00, 0x00, 0x00, 0x18, 0x00,
  0x00, 0x00, 0x1c, 0x00, 0x00, 0x00, 0x20, 0x00, 0x00, 0x00, 0x01, 0x00, 0x00,
  0x00, 0x00, 0x00, 0x00, 0x00, 0x00, 0x00, 0x00, 0x00, 0x01, 0x00, 0x00, 0x00,
  0x46, 0x6c, 0x41, 0x3a, 0x01, 0x00, 0x00, 0x00, 0xd5, 0x44, 0x80, 0x41, 0x01,
  0x00, 0x00, 0x00, 0xc3, 0x6a, 0xc1, 0xc1, 0x0d, 0x00, 0x00, 0x00, 0x64, 0x65,
  0x70, 0x74, 0x68, 0x77, 0x69, 0x73, 0x65, 0x5f, 0x33, 0x33, 0x31, 0x00, 0x00,
  0x00, 0x04, 0x00, 0x00, 0x00, 0x01, 0x00, 0x00, 0x00, 0x3c, 0x04, 0x00, 0x00,
  0x84, 0x07, 0x00, 0x00, 0x05, 0x00, 0x00, 0x00, 0xd2, 0x91, 0xff, 0xff, 0x14,
  0x00, 0x00, 0x00, 0x48, 0x00, 0x00, 0x00, 0x87, 0x00, 0x00, 0x00, 0x00, 0x00,
  0x00, 0x07, 0x50, 0x00, 0x00, 0x00, 0xc4, 0x91, 0xff, 0xff, 0x10, 0x00, 0x00,
  0x00, 0x18, 0x00, 0x00, 0x00, 0x1c, 0x00, 0x00, 0x00, 0x20, 0x00, 0x00, 0x00,
  0x01, 0x00, 0x00, 0x00, 0x00, 0x00, 0x00, 0x00, 0x00, 0x00, 0x00, 0x00, 0x01,
  0x00, 0x00, 0x00, 0x51, 0xcc, 0x0f, 0x3a, 0x01, 0x00, 0x00, 0x00, 0xff, 0x8f,
  0x38, 0x41, 0x01, 0x00, 0x00, 0x00, 0x31, 0xcb, 0x8f, 0xc1, 0x0d, 0x00, 0x00,
  0x00, 0x64, 0x65, 0x70, 0x74, 0x68, 0x77, 0x69, 0x73, 0x65, 0x5f, 0x33, 0x32,
  0x31, 0x00, 0x00, 0x00, 0x04, 0x00, 0x00, 0x00, 0x01, 0x00, 0x00, 0x00, 0x3c,
  0x04, 0x00, 0x00, 0x84, 0x07, 0x00, 0x00, 0x05, 0x00, 0x00, 0x00, 0x4a, 0x92,
  0xff, 0xff, 0x14, 0x00, 0x00, 0x00, 0x48, 0x00, 0x00, 0x00, 0x86, 0x00, 0x00,
  0x00, 0x00, 0x00, 0x00, 0x07, 0x48, 0x00, 0x00, 0x00, 0x3c, 0x92, 0xff, 0xff,
  0x10, 0x00, 0x00, 0x00, 0x18, 0x00, 0x00, 0x00, 0x1c, 0x00, 0x00, 0x00, 0x20,
  0x00, 0x00, 0x00, 0x01, 0x00, 0x00, 0x00, 0x00, 0x00, 0x00, 0x00, 0x00, 0x00,
  0x00, 0x00, 0x01, 0x00, 0x00, 0x00, 0xab, 0x02, 0xe0, 0x39, 0x01, 0x00, 0x00,
  0x00, 0x05, 0x0c, 0x32, 0x41, 0x01, 0x00, 0x00, 0x00, 0xeb, 0x00, 0x60, 0xc1,
  0x05, 0x00, 0x00, 0x00, 0x41, 0x64, 0x64, 0x5f, 0x34, 0x00, 0x00, 0x00, 0x04,
  0x00, 0x00, 0x00, 0x01, 0x00, 0x00, 0x00, 0x3c, 0x04, 0x00, 0x00, 0x84, 0x07,
  0x00, 0x00, 0x05, 0x00, 0x00, 0x00, 0xba, 0x92, 0xff, 0xff, 0x14, 0x00, 0x00,
  0x00, 0x48, 0x00, 0x00, 0x00, 0x85, 0x00, 0x00, 0x00, 0x00, 0x00, 0x00, 0x07,
  0x70, 0x00, 0x00, 0x00, 0xac, 0x92, 0xff, 0xff, 0x10, 0x00, 0x00, 0x00, 0x18,
  0x00, 0x00, 0x00, 0x1c, 0x00, 0x00, 0x00, 0x20, 0x00, 0x00, 0x00, 0x01, 0x00,
  0x00, 0x00, 0x00, 0x00, 0x00, 0x00, 0x00, 0x00, 0x00, 0x00, 0x01, 0x00, 0x00,
  0x00, 0xf4, 0xc8, 0xd0, 0x39, 0x01, 0x00, 0x00, 0x00, 0x84, 0xb2, 0x38, 0x41,
  0x01, 0x00, 0x00, 0x00, 0x52, 0xc7, 0x50, 0xc1, 0x2d, 0x00, 0x00, 0x00, 0x42,
  0x69, 0x61, 0x73, 0x41, 0x64, 0x64, 0x5f, 0x31, 0x35, 0x3b, 0x64, 0x65, 0x70,
  0x74, 0x68, 0x77, 0x69, 0x73, 0x65, 0x5f, 0x33, 0x37, 0x3b, 0x43, 0x6f, 0x6e,
  0x76, 0x32, 0x44, 0x5f, 0x31, 0x35, 0x3b, 0x63, 0x6f, 0x6e, 0x76, 0x5f, 0x35,
  0x5f, 0x31, 0x5f, 0x62, 0x31, 0x00, 0x00, 0x00, 0x04, 0x00, 0x00, 0x00, 0x01,
  0x00, 0x00, 0x00, 0x3c, 0x04, 0x00, 0x00, 0x84, 0x07, 0x00, 0x00, 0x05, 0x00,
  0x00, 0x00, 0x52, 0x93, 0xff, 0xff, 0x14, 0x00, 0x00, 0x00, 0x48, 0x00, 0x00,
  0x00, 0x84, 0x00, 0x00, 0x00, 0x00, 0x00, 0x00, 0x07, 0x50, 0x00, 0x00, 0x00,
  0x44, 0x93, 0xff, 0xff, 0x10, 0x00, 0x00, 0x00, 0x18, 0x00, 0x00, 0x00, 0x1c,
  0x00, 0x00, 0x00, 0x20, 0x00, 0x00, 0x00, 0x01, 0x00, 0x00, 0x00, 0x00, 0x00,
  0x00, 0x00, 0x00, 0x00, 0x00, 0x00, 0x01, 0x00, 0x00, 0x00, 0xb7, 0x77, 0xba,
  0x39, 0x01, 0x00, 0x00, 0x00, 0xe2, 0xa6, 0x30, 0x41, 0x01, 0x00, 0x00, 0x00,
  0x42, 0x76, 0x3a, 0xc1, 0x0d, 0x00, 0x00, 0x00, 0x64, 0x65, 0x70, 0x74, 0x68,
  0x77, 0x69, 0x73, 0x65, 0x5f, 0x33, 0x31, 0x32, 0x00, 0x00, 0x00, 0x04, 0x00,
  0x00, 0x00, 0x01, 0x00, 0x00, 0x00, 0x3c, 0x04, 0x00, 0x00, 0x84, 0x07, 0x00,
  0x00, 0x07, 0x00, 0x00, 0x00, 0xca, 0x93, 0xff, 0xff, 0x14, 0x00, 0x00, 0x00,
  0x48, 0x00, 0x00, 0x00, 0x83, 0x00, 0x00, 0x00, 0x00, 0x00, 0x00, 0x07, 0x50,
  0x00, 0x00, 0x00, 0xbc, 0x93, 0xff, 0xff, 0x10, 0x00, 0x00, 0x00, 0x18, 0x00,
  0x00, 0x00, 0x1c, 0x00, 0x00, 0x00, 0x20, 0x00, 0x00, 0x00, 0x01, 0x00, 0x00,
  0x00, 0x00, 0x00, 0x00, 0x00, 0x00, 0x00, 0x00, 0x00, 0x01, 0x00, 0x00, 0x00,
  0xc3, 0xbe, 0x5e, 0x3a, 0x01, 0x00, 0x00, 0x00, 0x06, 0xbd, 0xde, 0x41, 0x01,
  0x00, 0x00, 0x00, 0xee, 0x2e, 0xd0, 0xc1, 0x0d, 0x00, 0x00, 0x00, 0x64, 0x65,
  0x70, 0x74, 0x68, 0x77, 0x69, 0x73, 0x65, 0x5f, 0x33, 0x30, 0x31, 0x00, 0x00,
  0x00, 0x04, 0x00, 0x00, 0x00, 0x01, 0x00, 0x00, 0x00, 0x3c, 0x04, 0x00, 0x00,
  0x84, 0x07, 0x00, 0x00, 0x07, 0x00, 0x00, 0x00, 0x42, 0x94, 0xff, 0xff, 0x14,
  0x00, 0x00, 0x00, 0x48, 0x00, 0x00, 0x00, 0x82, 0x00, 0x00, 0x00, 0x00, 0x00,
  0x00, 0x07, 0x70, 0x00, 0x00, 0x00, 0x34, 0x94, 0xff, 0xff, 0x10, 0x00, 0x00,
  0x00, 0x18, 0x00, 0x00, 0x00, 0x1c, 0x00, 0x00, 0x00, 0x20, 0x00, 0x00, 0x00,
  0x01, 0x00, 0x00, 0x00, 0x00, 0x00, 0x00, 0x00, 0x00, 0x00, 0x00, 0x00, 0x01,
  0x00, 0x00, 0x00, 0x98, 0xcf, 0xb6, 0x39, 0x01, 0x00, 0x00, 0x00, 0x2a, 0xce,
  0x36, 0x41, 0x01, 0x00, 0x00, 0x00, 0x4f, 0xbd, 0x2f, 0xc1, 0x2c, 0x00, 0x00,
  0x00, 0x42, 0x69, 0x61, 0x73, 0x41, 0x64, 0x64, 0x5f, 0x31, 0x34, 0x3b, 0x64,
  0x65, 0x70, 0x74, 0x68, 0x77, 0x69, 0x73, 0x65, 0x5f, 0x33, 0x37, 0x3b, 0x43,
  0x6f, 0x6e, 0x76, 0x32, 0x44, 0x5f, 0x31, 0x34, 0x3b, 0x63, 0x6f, 0x6e, 0x76,
  0x5f, 0x35, 0x5f, 0x31, 0x5f, 0x62, 0x00, 0x00, 0x00, 0x00, 0x04, 0x00, 0x00,
  0x00, 0x01, 0x00, 0x00, 0x00, 0x3c, 0x04, 0x00, 0x00, 0x84, 0x07, 0x00, 0x00,
  0x05, 0x00, 0x00, 0x00, 0xda, 0x94, 0xff, 0xff, 0x14, 0x00, 0x00, 0x00, 0x48,
  0x00, 0x00, 0x00, 0x81, 0x00, 0x00, 0x00, 0x00, 0x00, 0x00, 0x07, 0x50, 0x00,
  0x00, 0x00, 0xcc, 0x94, 0xff, 0xff, 0x10, 0x00, 0x00, 0x00, 0x18, 0x00, 0x00,
  0x00, 0x1c, 0x00, 0x00, 0x00, 0x20, 0x00, 0x00, 0x00, 0x01, 0x00, 0x00, 0x00,
  0x00, 0x00, 0x00, 0x00, 0x00, 0x00, 0x00, 0x00, 0x01, 0x00, 0x00, 0x00, 0x44,
  0x90, 0xf3, 0x39, 0x01, 0x00, 0x00, 0x00, 0x5d, 0x8e, 0x73, 0x41, 0x01, 0x00,
  0x00, 0x00, 0x85, 0x0a, 0x04, 0xc1, 0x0d, 0x00, 0x00, 0x00, 0x64, 0x65, 0x70,
  0x74, 0x68, 0x77, 0x69, 0x73, 0x65, 0x5f, 0x32, 0x39, 0x31, 0x00, 0x00, 0x00,
  0x04, 0x00, 0x00, 0x00, 0x01, 0x00, 0x00, 0x00, 0x3c, 0x04, 0x00, 0x00, 0x84,
  0x07, 0x00, 0x00, 0x05, 0x00, 0x00, 0x00, 0x52, 0x95, 0xff, 0xff, 0x14, 0x00,
  0x00, 0x00, 0x48, 0x00, 0x00, 0x00, 0x80, 0x00, 0x00, 0x00, 0x00, 0x00, 0x00,
  0x07, 0x50, 0x00, 0x00, 0x00, 0x44, 0x95, 0xff, 0xff, 0x10, 0x00, 0x00, 0x00,
  0x18, 0x00, 0x00, 0x00, 0x1c, 0x00, 0x00, 0x00, 0x20, 0x00, 0x00, 0x00, 0x01,
  0x00, 0x00, 0x00, 0x00, 0x00, 0x00, 0x00, 0x00, 0x00, 0x00, 0x00, 0x01, 0x00,
  0x00, 0x00, 0x0f, 0xa7, 0x01, 0x3a, 0x01, 0x00, 0x00, 0x00, 0x6d, 0x9b, 0x33,
  0x41, 0x01, 0x00, 0x00, 0x00, 0x0c, 0xa6, 0x81, 0xc1, 0x0d, 0x00, 0x00, 0x00,
  0x64, 0x65, 0x70, 0x74, 0x68, 0x77, 0x69, 0x73, 0x65, 0x5f, 0x32, 0x38, 0x31,
  0x00, 0x00, 0x00, 0x04, 0x00, 0x00, 0x00, 0x01, 0x00, 0x00, 0x00, 0x3c, 0x04,
  0x00, 0x00, 0x84, 0x07, 0x00, 0x00, 0x05, 0x00, 0x00, 0x00, 0xca, 0x95, 0xff,
  0xff, 0x14, 0x00, 0x00, 0x00, 0x4c, 0x00, 0x00, 0x00, 0x7f, 0x00, 0x00, 0x00,
  0x00, 0x00, 0x00, 0x07, 0x78, 0x00, 0x00, 0x00, 0xbc, 0x95, 0xff, 0xff, 0x10,
  0x00, 0x00, 0x00, 0x1c, 0x00, 0x00, 0x00, 0x20, 0x00, 0x00, 0x00, 0x24, 0x00,
  0x00, 0x00, 0x01, 0x00, 0x00, 0x00, 0x00, 0x00, 0x00, 0x00, 0x00, 0x00, 0x00,
  0x00, 0x00, 0x00, 0x00, 0x00, 0x01, 0x00, 0x00, 0x00, 0x29, 0x6c, 0x35, 0x3a,
  0x01, 0x00, 0x00, 0x00, 0xbe, 0x6a, 0xb5, 0x41, 0x01, 0x00, 0x00, 0x00, 0x00,
  0x00, 0x00, 0x00, 0x33, 0x00, 0x00, 0x00, 0x52, 0x65, 0x6c, 0x75, 0x5f, 0x34,
  0x3b, 0x42, 0x69, 0x61, 0x73, 0x41, 0x64, 0x64, 0x5f, 0x31, 0x33, 0x3b, 0x64,
  0x65, 0x70, 0x74, 0x68, 0x77, 0x69, 0x73, 0x65, 0x5f, 0x33, 0x37, 0x3b, 0x43,
  0x6f, 0x6e, 0x76, 0x32, 0x44, 0x5f, 0x31, 0x33, 0x3b, 0x63, 0x6f, 0x6e, 0x76,
  0x5f, 0x35, 0x5f, 0x30, 0x5f, 0x62, 0x00, 0x04, 0x00, 0x00, 0x00, 0x01, 0x00,
  0x00, 0x00, 0x3c, 0x04, 0x00, 0x00, 0x84, 0x07, 0x00, 0x00, 0x05, 0x00, 0x00,
  0x00, 0x6a, 0x96, 0xff, 0xff, 0x14, 0x00, 0x00, 0x00, 0x48, 0x00, 0x00, 0x00,
  0x7e, 0x00, 0x00, 0x00, 0x00, 0x00, 0x00, 0x07, 0x50, 0x00, 0x00, 0x00, 0x5c,
  0x96, 0xff, 0xff, 0x10, 0x00, 0x00, 0x00, 0x18, 0x00, 0x00, 0x00, 0x1c, 0x00,
  0x00, 0x00, 0x20, 0x00, 0x00, 0x00, 0x01, 0x00, 0x00, 0x00, 0x00, 0x00, 0x00,
  0x00, 0x00, 0x00, 0x00, 0x00, 0x01, 0x00, 0x00, 0x00, 0xad, 0x03, 0x33, 0x3a,
  0x01, 0x00, 0x00, 0x00, 0x47, 0x02, 0xb3, 0x41, 0x01, 0x00, 0x00, 0x00, 0x64,
  0xc6, 0xad, 0xc1, 0x0d, 0x00, 0x00, 0x00, 0x64, 0x65, 0x70, 0x74, 0x68, 0x77,
  0x69, 0x73, 0x65, 0x5f, 0x32, 0x37, 0x31, 0x00, 0x00, 0x00, 0x04, 0x00, 0x00,
  0x00, 0x01, 0x00, 0x00, 0x00, 0x3c, 0x04, 0x00, 0x00, 0x84, 0x07, 0x00, 0x00,
  0x07, 0x00, 0x00, 0x00, 0xe2, 0x96, 0xff, 0xff, 0x14, 0x00, 0x00, 0x00, 0x48,
  0x00, 0x00, 0x00, 0x7d, 0x00, 0x00, 0x00, 0x00, 0x00, 0x00, 0x07, 0x50, 0x00,
  0x00, 0x00, 0xd4, 0x96, 0xff, 0xff, 0x10, 0x00, 0x00, 0x00, 0x18, 0x00, 0x00,
  0x00, 0x1c, 0x00, 0x00, 0x00, 0x20, 0x00, 0x00, 0x00, 0x01, 0x00, 0x00, 0x00,
  0x00, 0x00, 0x00, 0x00, 0x00, 0x00, 0x00, 0x00, 0x01, 0x00, 0x00, 0x00, 0x78,
  0x30, 0x7a, 0x3a, 0x01, 0x00, 0x00, 0x00, 0x59, 0xf4, 0xf8, 0x41, 0x01, 0x00,
  0x00, 0x00, 0x84, 0x2e, 0xfa, 0xc1, 0x0d, 0x00, 0x00, 0x00, 0x64, 0x65, 0x70,
  0x74, 0x68, 0x77, 0x69, 0x73, 0x65, 0x5f, 0x32, 0x36, 0x31, 0x00, 0x00, 0x00,
  0x04, 0x00, 0x00, 0x00, 0x01, 0x00, 0x00, 0x00, 0x3c, 0x04, 0x00, 0x00, 0x84,
  0x07, 0x00, 0x00, 0x07, 0x00, 0x00, 0x00, 0x5a, 0x97, 0xff, 0xff, 0x14, 0x00,
  0x00, 0x00, 0x48, 0x00, 0x00, 0x00, 0x7c, 0x00, 0x00, 0x00, 0x00, 0x00, 0x00,
  0x07, 0x48, 0x00, 0x00, 0x00, 0x4c, 0x97, 0xff, 0xff, 0x10, 0x00, 0x00, 0x00,
  0x18, 0x00, 0x00, 0x00, 0x1c, 0x00, 0x00, 0x00, 0x20, 0x00, 0x00, 0x00, 0x01,
  0x00, 0x00, 0x00, 0x00, 0x00, 0x00, 0x00, 0x00, 0x00, 0x00, 0x00, 0x01, 0x00,
  0x00, 0x00, 0xe3, 0xbe, 0x9f, 0x3a, 0x01, 0x00, 0x00, 0x00, 0xd5, 0x2b, 0x0d,
  0x42, 0x01, 0x00, 0x00, 0x00, 0xa4, 0xbd, 0x1f, 0xc2, 0x05, 0x00, 0x00, 0x00,
  0x41, 0x64, 0x64, 0x5f, 0x33, 0x00, 0x00, 0x00, 0x04, 0x00, 0x00, 0x00, 0x01,
  0x00, 0x00, 0x00, 0x3c, 0x04, 0x00, 0x00, 0x84, 0x07, 0x00, 0x00, 0x07, 0x00,
  0x00, 0x00, 0xca, 0x97, 0xff, 0xff, 0x14, 0x00, 0x00, 0x00, 0x48, 0x00, 0x00,
  0x00, 0x7b, 0x00, 0x00, 0x00, 0x00, 0x00, 0x00, 0x07, 0x70, 0x00, 0x00, 0x00,
  0xbc, 0x97, 0xff, 0xff, 0x10, 0x00, 0x00, 0x00, 0x18, 0x00, 0x00, 0x00, 0x1c,
  0x00, 0x00, 0x00, 0x20, 0x00, 0x00, 0x00, 0x01, 0x00, 0x00, 0x00, 0x00, 0x00,
  0x00, 0x00, 0x00, 0x00, 0x00, 0x00, 0x01, 0x00, 0x00, 0x00, 0x9c, 0x8d, 0x69,
  0x3a, 0x01, 0x00, 0x00, 0x00, 0x44, 0x11, 0xa9, 0x41, 0x01, 0x00, 0x00, 0x00,
  0xc9, 0x8b, 0xe9, 0xc1, 0x2d, 0x00, 0x00, 0x00, 0x42, 0x69, 0x61, 0x73, 0x41,
  0x64, 0x64, 0x5f, 0x31, 0x32, 0x3b, 0x64, 0x65, 0x70, 0x74, 0x68, 0x77, 0x69,
  0x73, 0x65, 0x5f, 0x33, 0x31, 0x3b, 0x43, 0x6f, 0x6e, 0x76, 0x32, 0x44, 0x5f,
  0x31, 0x32, 0x3b, 0x63, 0x6f, 0x6e, 0x76, 0x5f, 0x34, 0x5f, 0x31, 0x5f, 0x62,
  0x31, 0x00, 0x00, 0x00, 0x04, 0x00, 0x00, 0x00, 0x01, 0x00, 0x00, 0x00, 0x3c,
  0x04, 0x00, 0x00, 0x84, 0x07, 0x00, 0x00, 0x07, 0x00, 0x00, 0x00, 0x62, 0x98,
  0xff, 0xff, 0x14, 0x00, 0x00, 0x00, 0x48, 0x00, 0x00, 0x00, 0x7a, 0x00, 0x00,
  0x00, 0x00, 0x00, 0x00, 0x07, 0x50, 0x00, 0x00, 0x00, 0x54, 0x98, 0xff, 0xff,
  0x10, 0x00, 0x00, 0x00, 0x18, 0x00, 0x00, 0x00, 0x1c, 0x00, 0x00, 0x00, 0x20,
  0x00, 0x00, 0x00, 0x01, 0x00, 0x00, 0x00, 0x00, 0x00, 0x00, 0x00, 0x00, 0x00,
  0x00, 0x00, 0x01, 0x00, 0x00, 0x00, 0x6f, 0xe0, 0x18, 0x3a, 0x01, 0x00, 0x00,
  0x00, 0x5a, 0x58, 0x8e, 0x41, 0x01, 0x00, 0x00, 0x00, 0x3d, 0xdf, 0x98, 0xc1,
  0x0d, 0x00, 0x00, 0x00, 0x64, 0x65, 0x70, 0x74, 0x68, 0x77, 0x69, 0x73, 0x65,
  0x5f, 0x32, 0x35, 0x32, 0x00, 0x00, 0x00, 0x04, 0x00, 0x00, 0x00, 0x01, 0x00,
  0x00, 0x00, 0x3c, 0x04, 0x00, 0x00, 0x84, 0x07, 0x00, 0x00, 0x09, 0x00, 0x00,
  0x00, 0xda, 0x98, 0xff, 0xff, 0x14, 0x00, 0x00, 0x00, 0x48, 0x00, 0x00, 0x00,
  0x79, 0x00, 0x00, 0x00, 0x00, 0x00, 0x00, 0x07, 0x50, 0x00, 0x00, 0x00, 0xcc,
  0x98, 0xff, 0xff, 0x10, 0x00, 0x00, 0x00, 0x18, 0x00, 0x00, 0x00, 0x1c, 0x00,
  0x00, 0x00, 0x20, 0x00, 0x00, 0x00, 0x01, 0x00, 0x00, 0x00, 0x00, 0x00, 0x00,
  0x00, 0x00, 0x00, 0x00, 0x00, 0x01, 0x00, 0x00, 0x00, 0xa5, 0x8e, 0xb7, 0x3a,
  0x01, 0x00, 0x00, 0x00, 0x36, 0x8d, 0x37, 0x42, 0x01, 0x00, 0x00, 0x00, 0x0c,
  0x8a, 0x0c, 0xc2, 0x0d, 0x00, 0x00, 0x00, 0x64, 0x65, 0x70, 0x74, 0x68, 0x77,
  0x69, 0x73, 0x65, 0x5f, 0x32, 0x34, 0x31, 0x00, 0x00, 0x00, 0x04, 0x00, 0x00,
  0x00, 0x01, 0x00, 0x00, 0x00, 0x3c, 0x04, 0x00, 0x00, 0x84, 0x07, 0x00, 0x00,
  0x09, 0x00, 0x00, 0x00, 0x52, 0x99, 0xff, 0xff, 0x14, 0x00, 0x00, 0x00, 0x48,
  0x00, 0x00, 0x00, 0x78, 0x00, 0x00, 0x00, 0x00, 0x00, 0x00, 0x07, 0x70, 0x00,
  0x00, 0x00, 0x44, 0x99, 0xff, 0xff, 0x10, 0x00, 0x00, 0x00, 0x18, 0x00, 0x00,
  0x00, 0x1c, 0x00, 0x00, 0x00, 0x20, 0x00, 0x00, 0x00, 0x01, 0x00, 0x00, 0x00,
  0x00, 0x00, 0x00, 0x00, 0x00, 0x00, 0x00, 0x00, 0x01, 0x00, 0x00, 0x00, 0x7c,
  0x83, 0x8d, 0x3a, 0x01, 0x00, 0x00, 0x00, 0xe7, 0x94, 0xe3, 0x41, 0x01, 0x00,
  0x00, 0x00, 0x61, 0x82, 0x0d, 0xc2, 0x2c, 0x00, 0x00, 0x00, 0x42, 0x69, 0x61,
  0x73, 0x41, 0x64, 0x64, 0x5f, 0x31, 0x31, 0x3b, 0x64, 0x65, 0x70, 0x74, 0x68,
  0x77, 0x69, 0x73, 0x65, 0x5f, 0x33, 0x31, 0x3b, 0x43, 0x6f, 0x6e, 0x76, 0x32,
  0x44, 0x5f, 0x31, 0x31, 0x3b, 0x63, 0x6f, 0x6e, 0x76, 0x5f, 0x34, 0x5f, 0x31,
  0x5f, 0x62, 0x00, 0x00, 0x00, 0x00, 0x04, 0x00, 0x00, 0x00, 0x01, 0x00, 0x00,
  0x00, 0x3c, 0x04, 0x00, 0x00, 0x84, 0x07, 0x00, 0x00, 0x07, 0x00, 0x00, 0x00,
  0xea, 0x99, 0xff, 0xff, 0x14, 0x00, 0x00, 0x00, 0x48, 0x00, 0x00, 0x00, 0x77,
  0x00, 0x00, 0x00, 0x00, 0x00, 0x00, 0x07, 0x50, 0x00, 0x00, 0x00, 0xdc, 0x99,
  0xff, 0xff, 0x10, 0x00, 0x00, 0x00, 0x18, 0x00, 0x00, 0x00, 0x1c, 0x00, 0x00,
  0x00, 0x20, 0x00, 0x00, 0x00, 0x01, 0x00, 0x00, 0x00, 0x00, 0x00, 0x00, 0x00,
  0x00, 0x00, 0x00, 0x00, 0x01, 0x00, 0x00, 0x00, 0x00, 0xf0, 0x8e, 0x3a, 0x01,
  0x00, 0x00, 0x00, 0xe2, 0xee, 0x0e, 0x42, 0x01, 0x00, 0x00, 0x00, 0x97, 0x04,
  0x9f, 0xc1, 0x0d, 0x00, 0x00, 0x00, 0x64, 0x65, 0x70, 0x74, 0x68, 0x77, 0x69,
  0x73, 0x65, 0x5f, 0x32, 0x33, 0x31, 0x00, 0x00, 0x00, 0x04, 0x00, 0x00, 0x00,
  0x01, 0x00, 0x00, 0x00, 0x3c, 0x04, 0x00, 0x00, 0x84, 0x07, 0x00, 0x00, 0x07,
  0x00, 0x00, 0x00, 0x62, 0x9a, 0xff, 0xff, 0x14, 0x00, 0x00, 0x00, 0x48, 0x00,
  0x00, 0x00, 0x76, 0x00, 0x00, 0x00, 0x00, 0x00, 0x00, 0x07, 0x50, 0x00, 0x00,
  0x00, 0x54, 0x9a, 0xff, 0xff, 0x10, 0x00, 0x00, 0x00, 0x18, 0x00, 0x00, 0x00,
  0x1c, 0x00, 0x00, 0x00, 0x20, 0x00, 0x00, 0x00, 0x01, 0x00, 0x00, 0x00, 0x00,
  0x00, 0x00, 0x00, 0x00, 0x00, 0x00, 0x00, 0x01, 0x00, 0x00, 0x00, 0x65, 0xe7,
  0x93, 0x3a, 0x01, 0x00, 0x00, 0x00, 0x73, 0xa2, 0xec, 0x41, 0x01, 0x00, 0x00,
  0x00, 0x3d, 0xe6, 0x13, 0xc2, 0x0d, 0x00, 0x00, 0x00, 0x64, 0x65, 0x70, 0x74,
  0x68, 0x77, 0x69, 0x73, 0x65, 0x5f, 0x32, 0x32, 0x31, 0x00, 0x00, 0x00, 0x04,
  0x00, 0x00, 0x00, 0x01, 0x00, 0x00, 0x00, 0x3c, 0x04, 0x00, 0x00, 0x84, 0x07,
  0x00, 0x00, 0x07, 0x00, 0x00, 0x00, 0xda, 0x9a, 0xff, 0xff, 0x14, 0x00, 0x00,
  0x00, 0x4c, 0x00, 0x00, 0x00, 0x75, 0x00, 0x00, 0x00, 0x00, 0x00, 0x00, 0x07,
  0x78, 0x00, 0x00, 0x00, 0xcc, 0x9a, 0xff, 0xff, 0x10, 0x00, 0x00, 0x00, 0x1c,
  0x00, 0x00, 0x00, 0x20, 0x00, 0x00, 0x00, 0x24, 0x00, 0x00, 0x00, 0x01, 0x00,
  0x00, 0x00, 0x00, 0x00, 0x00, 0x00, 0x00, 0x00, 0x00, 0x00, 0x00, 0x00, 0x00,
  0x00, 0x01, 0x00, 0x00, 0x00, 0x38, 0x98, 0xe0, 0x3a, 0x01, 0x00, 0x00, 0x00,
  0x77, 0x96, 0x60, 0x42, 0x01, 0x00, 0x00, 0x00, 0x00, 0x00, 0x00, 0x00, 0x33,
  0x00, 0x00, 0x00, 0x52, 0x65, 0x6c, 0x75, 0x5f, 0x33, 0x3b, 0x42, 0x69, 0x61,
  0x73, 0x41, 0x64, 0x64, 0x5f, 0x31, 0x30, 0x3b, 0x64, 0x65, 0x70, 0x74, 0x68,
  0x77, 0x69, 0x73, 0x65, 0x5f, 0x33, 0x31, 0x3b, 0x43, 0x6f, 0x6e, 0x76, 0x32,
  0x44, 0x5f, 0x31, 0x30, 0x3b, 0x63, 0x6f, 0x6e, 0x76, 0x5f, 0x34, 0x5f, 0x30,
  0x5f, 0x62, 0x00, 0x04, 0x00, 0x00, 0x00, 0x01, 0x00, 0x00, 0x00, 0x3c, 0x04,
  0x00, 0x00, 0x84, 0x07, 0x00, 0x00, 0x07, 0x00, 0x00, 0x00, 0x7a, 0x9b, 0xff,
  0xff, 0x14, 0x00, 0x00, 0x00, 0x48, 0x00, 0x00, 0x00, 0x74, 0x00, 0x00, 0x00,
  0x00, 0x00, 0x00, 0x07, 0x50, 0x00, 0x00, 0x00, 0x6c, 0x9b, 0xff, 0xff, 0x10,
