const unsigned char sr2by1ai_3_tflite[] = {
  0x20, 0x00, 0x00, 0x00, 0x54, 0x46, 0x4c, 0x33, 0x00, 0x00, 0x00, 0x00, 0x00,
  0x00, 0x12, 0x00, 0x1c, 0x00, 0x18, 0x00, 0x14, 0x00, 0x10, 0x00, 0x0c, 0x00,
  0x08, 0x00, 0x00, 0x00, 0x04, 0x00, 0x12, 0x00, 0x00, 0x00, 0x18, 0x00, 0x00,
  0x00, 0x70, 0x00, 0x00, 0x00, 0xac, 0x1c, 0x00, 0x00, 0xbc, 0x1c, 0x00, 0x00,
  0x3c, 0xa4, 0x00, 0x00, 0x03, 0x00, 0x00, 0x00, 0x02, 0x00, 0x00, 0x00, 0x34,
  0x00, 0x00, 0x00, 0x04, 0x00, 0x00, 0x00, 0xdc, 0xff, 0xff, 0xff, 0x92, 0x00,
  0x00, 0x00, 0x04, 0x00, 0x00, 0x00, 0x13, 0x00, 0x00, 0x00, 0x43, 0x4f, 0x4e,
  0x56, 0x45, 0x52, 0x53, 0x49, 0x4f, 0x4e, 0x5f, 0x4d, 0x45, 0x54, 0x41, 0x44,
  0x41, 0x54, 0x41, 0x00, 0x08, 0x00, 0x0c, 0x00, 0x08, 0x00, 0x04, 0x00, 0x08,
  0x00, 0x00, 0x00, 0x91, 0x00, 0x00, 0x00, 0x04, 0x00, 0x00, 0x00, 0x13, 0x00,
  0x00, 0x00, 0x6d, 0x69, 0x6e, 0x5f, 0x72, 0x75, 0x6e, 0x74, 0x69, 0x6d, 0x65,
  0x5f, 0x76, 0x65, 0x72, 0x73, 0x69, 0x6f, 0x6e, 0x00, 0x93, 0x00, 0x00, 0x00,
  0x38, 0x1c, 0x00, 0x00, 0x30, 0x1c, 0x00, 0x00, 0xf8, 0x1b, 0x00, 0x00, 0xb8,
  0x1b, 0x00, 0x00, 0x70, 0x1b, 0x00, 0x00, 0x18, 0x1b, 0x00, 0x00, 0xa8, 0x1a,
  0x00, 0x00, 0x20, 0x1a, 0x00, 0x00, 0xf0, 0x19, 0x00, 0x00, 0xd8, 0x19, 0x00,
  0x00, 0xc0, 0x19, 0x00, 0x00, 0xa8, 0x19, 0x00, 0x00, 0xf8, 0x18, 0x00, 0x00,
  0xd4, 0x18, 0x00, 0x00, 0x60, 0x18, 0x00, 0x00, 0xec, 0x17, 0x00, 0x00, 0x64,
  0x17, 0x00, 0x00, 0x28, 0x16, 0x00, 0x00, 0xcc, 0x15, 0x00, 0x00, 0x70, 0x15,
  0x00, 0x00, 0x7c, 0x14, 0x00, 0x00, 0x30, 0x14, 0x00, 0x00, 0xe4, 0x13, 0x00,
  0x00, 0xa8, 0x12, 0x00, 0x00, 0x4c, 0x12, 0x00, 0x00, 0xf0, 0x11, 0x00, 0x00,
  0x80, 0x11, 0x00, 0x00, 0xbc, 0x10, 0x00, 0x00, 0x70, 0x10, 0x00, 0x00, 0x24,
  0x10, 0x00, 0x00, 0x84, 0x0f, 0x00, 0x00, 0x44, 0x0f, 0x00, 0x00, 0x04, 0x0f,
  0x00, 0x00, 0x40, 0x0e, 0x00, 0x00, 0xf4, 0x0d, 0x00, 0x00, 0xa8, 0x0d, 0x00,
  0x00, 0x50, 0x0d, 0x00, 0x00, 0xd4, 0x0c, 0x00, 0x00, 0x94, 0x0c, 0x00, 0x00,
  0x54, 0x0c, 0x00, 0x00, 0xf0, 0x0b, 0x00, 0x00, 0xbc, 0x0b, 0x00, 0x00, 0x88,
  0x0b, 0x00, 0x00, 0x0c, 0x0b, 0x00, 0x00, 0xcc, 0x0a, 0x00, 0x00, 0x8c, 0x0a,
  0x00, 0x00, 0x44, 0x0a, 0x00, 0x00, 0xf4, 0x09, 0x00, 0x00, 0xc0, 0x09, 0x00,
  0x00, 0x8c, 0x09, 0x00, 0x00, 0x48, 0x09, 0x00, 0x00, 0x1c, 0x09, 0x00, 0x00,
  0xf0, 0x08, 0x00, 0x00, 0xa0, 0x08, 0x00, 0x00, 0x6c, 0x08, 0x00, 0x00, 0x38,
  0x08, 0x00, 0x00, 0x00, 0x08, 0x00, 0x00, 0xcc, 0x07, 0x00, 0x00, 0xa0, 0x07,
  0x00, 0x00, 0x74, 0x07, 0x00, 0x00, 0x48, 0x07, 0x00, 0x00, 0x20, 0x07, 0x00,
  0x00, 0xf8, 0x06, 0x00, 0x00, 0xc4, 0x06, 0x00, 0x00, 0x98, 0x06, 0x00, 0x00,
  0x6c, 0x06, 0x00, 0x00, 0x40, 0x06, 0x00, 0x00, 0x14, 0x06, 0x00, 0x00, 0xe8,
  0x05, 0x00, 0x00, 0xbc, 0x05, 0x00, 0x00, 0x90, 0x05, 0x00, 0x00, 0x64, 0x05,
  0x00, 0x00, 0x4c, 0x05, 0x00, 0x00, 0x9c, 0x04, 0x00, 0x00, 0x14, 0x04, 0x00,
  0x00, 0xa4, 0x03, 0x00, 0x00, 0x4c, 0x03, 0x00, 0x00, 0x04, 0x03, 0x00, 0x00,
  0xcc, 0x02, 0x00, 0x00, 0x94, 0x02, 0x00, 0x00, 0x7c, 0x02, 0x00, 0x00, 0x74,
  0x02, 0x00, 0x00, 0x6c, 0x02, 0x00, 0x00, 0x64, 0x02, 0x00, 0x00, 0x5c, 0x02,
  0x00, 0x00, 0x54, 0x02, 0x00, 0x00, 0x4c, 0x02, 0x00, 0x00, 0x44, 0x02, 0x00,
  0x00, 0x3c, 0x02, 0x00, 0x00, 0x34, 0x02, 0x00, 0x00, 0x2c, 0x02, 0x00, 0x00,
  0x24, 0x02, 0x00, 0x00, 0x1c, 0x02, 0x00, 0x00, 0x14, 0x02, 0x00, 0x00, 0x0c,
  0x02, 0x00, 0x00, 0x04, 0x02, 0x00, 0x00, 0xfc, 0x01, 0x00, 0x00, 0xf4, 0x01,
  0x00, 0x00, 0xec, 0x01, 0x00, 0x00, 0xe4, 0x01, 0x00, 0x00, 0xdc, 0x01, 0x00,
  0x00, 0xd4, 0x01, 0x00, 0x00, 0xcc, 0x01, 0x00, 0x00, 0xc4, 0x01, 0x00, 0x00,
  0xbc, 0x01, 0x00, 0x00, 0xb4, 0x01, 0x00, 0x00, 0xac, 0x01, 0x00, 0x00, 0xa4,
  0x01, 0x00, 0x00, 0x9c, 0x01, 0x00, 0x00, 0x94, 0x01, 0x00, 0x00, 0x8c, 0x01,
  0x00, 0x00, 0x84, 0x01, 0x00, 0x00, 0x7c, 0x01, 0x00, 0x00, 0x74, 0x01, 0x00,
  0x00, 0x6c, 0x01, 0x00, 0x00, 0x64, 0x01, 0x00, 0x00, 0x5c, 0x01, 0x00, 0x00,
  0x54, 0x01, 0x00, 0x00, 0x4c, 0x01, 0x00, 0x00, 0x44, 0x01, 0x00, 0x00, 0x3c,
  0x01, 0x00, 0x00, 0x34, 0x01, 0x00, 0x00, 0x2c, 0x01, 0x00, 0x00, 0x24, 0x01,
  0x00, 0x00, 0x1c, 0x01, 0x00, 0x00, 0x14, 0x01, 0x00, 0x00, 0x0c, 0x01, 0x00,
  0x00, 0x04, 0x01, 0x00, 0x00, 0xfc, 0x00, 0x00, 0x00, 0xf4, 0x00, 0x00, 0x00,
  0xec, 0x00, 0x00, 0x00, 0xe4, 0x00, 0x00, 0x00, 0xdc, 0x00, 0x00, 0x00, 0xd4,
  0x00, 0x00, 0x00, 0xcc, 0x00, 0x00, 0x00, 0xc4, 0x00, 0x00, 0x00, 0xbc, 0x00,
  0x00, 0x00, 0xb4, 0x00, 0x00, 0x00, 0xac, 0x00, 0x00, 0x00, 0xa4, 0x00, 0x00,
  0x00, 0x9c, 0x00, 0x00, 0x00, 0x94, 0x00, 0x00, 0x00, 0x8c, 0x00, 0x00, 0x00,
  0x84, 0x00, 0x00, 0x00, 0x7c, 0x00, 0x00, 0x00, 0x5c, 0x00, 0x00, 0x00, 0x04,
  0x00, 0x00, 0x00, 0x52, 0xe6, 0xff, 0xff, 0x04, 0x00, 0x00, 0x00, 0x48, 0x00,
  0x00, 0x00, 0x04, 0x00, 0x00, 0x00, 0xdc, 0xff, 0xff, 0xff, 0x10, 0x00, 0x00,
  0x00, 0x24, 0x00, 0x00, 0x00, 0x00, 0x00, 0x06, 0x00, 0x08, 0x00, 0x04, 0x00,
  0x06, 0x00, 0x00, 0x00, 0x04, 0x00, 0x00, 0x00, 0x01, 0x00, 0x00, 0x00, 0xec,
  0x03, 0x00, 0x00, 0x08, 0x00, 0x0c, 0x00, 0x08, 0x00, 0x04, 0x00, 0x08, 0x00,
  0x00, 0x00, 0x01, 0x00, 0x00, 0x00, 0x04, 0x00, 0x00, 0x00, 0x05, 0x00, 0x00,
  0x00, 0x32, 0x2e, 0x39, 0x2e, 0x30, 0x00, 0x00, 0x00, 0xa6, 0xe6, 0xff, 0xff,
  0x04, 0x00, 0x00, 0x00, 0x10, 0x00, 0x00, 0x00, 0x31, 0x2e, 0x35, 0x2e, 0x30,
  0x00, 0x00, 0x00, 0x00, 0x00, 0x00, 0x00, 0x00, 0x00, 0x00, 0x00, 0xd0, 0x63,
  0xff, 0xff, 0xd4, 0x63, 0xff, 0xff, 0xd8, 0x63, 0xff, 0xff, 0xdc, 0x63, 0xff,
  0xff, 0xe0, 0x63, 0xff, 0xff, 0xe4, 0x63, 0xff, 0xff, 0xe8, 0x63, 0xff, 0xff,
  0xec, 0x63, 0xff, 0xff, 0xf0, 0x63, 0xff, 0xff, 0xf4, 0x63, 0xff, 0xff, 0xf8,
  0x63, 0xff, 0xff, 0xfc, 0x63, 0xff, 0xff, 0x00, 0x64, 0xff, 0xff, 0x04, 0x64,
  0xff, 0xff, 0x08, 0x64, 0xff, 0xff, 0x0c, 0x64, 0xff, 0xff, 0x10, 0x64, 0xff,
  0xff, 0x14, 0x64, 0xff, 0xff, 0x18, 0x64, 0xff, 0xff, 0x1c, 0x64, 0xff, 0xff,
  0x20, 0x64, 0xff, 0xff, 0x24, 0x64, 0xff, 0xff, 0x28, 0x64, 0xff, 0xff, 0x2c,
  0x64, 0xff, 0xff, 0x30, 0x64, 0xff, 0xff, 0x34, 0x64, 0xff, 0xff, 0x38, 0x64,
  0xff, 0xff, 0x3c, 0x64, 0xff, 0xff, 0x40, 0x64, 0xff, 0xff, 0x44, 0x64, 0xff,
  0xff, 0x48, 0x64, 0xff, 0xff, 0x4c, 0x64, 0xff, 0xff, 0x50, 0x64, 0xff, 0xff,
  0x54, 0x64, 0xff, 0xff, 0x58, 0x64, 0xff, 0xff, 0x5c, 0x64, 0xff, 0xff, 0x60,
  0x64, 0xff, 0xff, 0x64, 0x64, 0xff, 0xff, 0x68, 0x64, 0xff, 0xff, 0x6c, 0x64,
  0xff, 0xff, 0x70, 0x64, 0xff, 0xff, 0x74, 0x64, 0xff, 0xff, 0x78, 0x64, 0xff,
  0xff, 0x7c, 0x64, 0xff, 0xff, 0x80, 0x64, 0xff, 0xff, 0x84, 0x64, 0xff, 0xff,
  0x88, 0x64, 0xff, 0xff, 0x8c, 0x64, 0xff, 0xff, 0x90, 0x64, 0xff, 0xff, 0x94,
  0x64, 0xff, 0xff, 0x98, 0x64, 0xff, 0xff, 0x9c, 0x64, 0xff, 0xff, 0xa0, 0x64,
  0xff, 0xff, 0xa4, 0x64, 0xff, 0xff, 0xa8, 0x64, 0xff, 0xff, 0xac, 0x64, 0xff,
  0xff, 0xb0, 0x64, 0xff, 0xff, 0xb4, 0x64, 0xff, 0xff, 0xb8, 0x64, 0xff, 0xff,
  0xbc, 0x64, 0xff, 0xff, 0xc0, 0x64, 0xff, 0xff, 0xc4, 0x64, 0xff, 0xff, 0xc8,
  0x64, 0xff, 0xff, 0xcc, 0x64, 0xff, 0xff, 0xc2, 0xe7, 0xff, 0xff, 0x04, 0x00,
  0x00, 0x00, 0x08, 0x00, 0x00, 0x00, 0xe0, 0xec, 0xff, 0xff, 0xff, 0xff, 0xff,
  0xff, 0xd6, 0xe7, 0xff, 0xff, 0x04, 0x00, 0x00, 0x00, 0x28, 0x00, 0x00, 0x00,
  0xcd, 0xd2, 0x01, 0x00, 0x00, 0x00, 0x00, 0x00, 0xa6, 0x45, 0x00, 0x00, 0x00,
  0x00, 0x00, 0x00, 0x4c, 0xca, 0xff, 0xff, 0xff, 0xff, 0xff, 0xff, 0xfe, 0x49,
  0x00, 0x00, 0x00, 0x00, 0x00, 0x00, 0x93, 0xa8, 0xff, 0xff, 0xff, 0xff, 0xff,
  0xff, 0x0a, 0xe8, 0xff, 0xff, 0x04, 0x00, 0x00, 0x00, 0x28, 0x00, 0x00, 0x00,
  0x14, 0xc1, 0xfe, 0xff, 0xff, 0xff, 0xff, 0xff, 0x6b, 0x21, 0x00, 0x00, 0x00,
  0x00, 0x00, 0x00, 0x6c, 0x45, 0x00, 0x00, 0x00, 0x00, 0x00, 0x00, 0xee, 0xd3,
  0xff, 0xff, 0xff, 0xff, 0xff, 0xff, 0xf8, 0x0e, 0x01, 0x00, 0x00, 0x00, 0x00,
  0x00, 0x3e, 0xe8, 0xff, 0xff, 0x04, 0x00, 0x00, 0x00, 0x38, 0x00, 0x00, 0x00,
  0x57, 0xf1, 0xff, 0xff, 0xff, 0xff, 0xff, 0xff, 0x86, 0xfc, 0xff, 0xff, 0xff,
  0xff, 0xff, 0xff, 0x97, 0xe0, 0x00, 0x00, 0x00, 0x00, 0x00, 0x00, 0x5e, 0x27,
  0x00, 0x00, 0x00, 0x00, 0x00, 0x00, 0x10, 0x48, 0x00, 0x00, 0x00, 0x00, 0x00,
  0x00, 0x46, 0x93, 0xff, 0xff, 0xff, 0xff, 0xff, 0xff, 0xae, 0x1e, 0xff, 0xff,
  0xff, 0xff, 0xff, 0xff, 0x82, 0xe8, 0xff, 0xff, 0x04, 0x00, 0x00, 0x00, 0x48,
  0x00, 0x00, 0x00, 0x5f, 0x08, 0x00, 0x00, 0x00, 0x00, 0x00, 0x00, 0xb9, 0xf9,
  0xff, 0xff, 0xff, 0xff, 0xff, 0xff, 0x9f, 0x5a, 0x00, 0x00, 0x00, 0x00, 0x00,
  0x00, 0x64, 0x37, 0x00, 0x00, 0x00, 0x00, 0x00, 0x00, 0xc6, 0xde, 0xff, 0xff,
  0xff, 0xff, 0xff, 0xff, 0x87, 0x1c, 0x00, 0x00, 0x00, 0x00, 0x00, 0x00, 0x14,
  0xff, 0xff, 0xff, 0xff, 0xff, 0xff, 0xff, 0xca, 0x4c, 0x00, 0x00, 0x00, 0x00,
  0x00, 0x00, 0x3c, 0x6f, 0x00, 0x00, 0x00, 0x00, 0x00, 0x00, 0xd6, 0xe8, 0xff,
  0xff, 0x04, 0x00, 0x00, 0x00, 0x60, 0x00, 0x00, 0x00, 0x9e, 0xfb, 0xff, 0xff,
  0xff, 0xff, 0xff, 0xff, 0x70, 0xf3, 0xff, 0xff, 0xff, 0xff, 0xff, 0xff, 0x24,
  0xd1, 0xfe, 0xff, 0xff, 0xff, 0xff, 0xff, 0xef, 0x14, 0x01, 0x00, 0x00, 0x00,
  0x00, 0x00, 0x42, 0x17, 0x00, 0x00, 0x00, 0x00, 0x00, 0x00, 0xd9, 0xd1, 0xff,
  0xff, 0xff, 0xff, 0xff, 0xff, 0xa7, 0x2a, 0xff, 0xff, 0xff, 0xff, 0xff, 0xff,
  0x78, 0x3c, 0x00, 0x00, 0x00, 0x00, 0x00, 0x00, 0x83, 0xd7, 0xfe, 0xff, 0xff,
  0xff, 0xff, 0xff, 0x55, 0x88, 0xff, 0xff, 0xff, 0xff, 0xff, 0xff, 0x1d, 0xb3,
  0xff, 0xff, 0xff, 0xff, 0xff, 0xff, 0x63, 0xb3, 0xff, 0xff, 0xff, 0xff, 0xff,
  0xff, 0x42, 0xe9, 0xff, 0xff, 0x04, 0x00, 0x00, 0x00, 0x78, 0x00, 0x00, 0x00,
  0x91, 0xed, 0xff, 0xff, 0xff, 0xff, 0xff, 0xff, 0x25, 0x27, 0x00, 0x00, 0x00,
  0x00, 0x00, 0x00, 0x75, 0x37, 0x00, 0x00, 0x00, 0x00, 0x00, 0x00, 0xca, 0x57,
  0x00, 0x00, 0x00, 0x00, 0x00, 0x00, 0x91, 0xba, 0xff, 0xff, 0xff, 0xff, 0xff,
  0xff, 0x6d, 0xd2, 0xff, 0xff, 0xff, 0xff, 0xff, 0xff, 0x2e, 0x0b, 0xff, 0xff,
  0xff, 0xff, 0xff, 0xff, 0x9e, 0xe7, 0xff, 0xff, 0xff, 0xff, 0xff, 0xff, 0x46,
  0xb7, 0xff, 0xff, 0xff, 0xff, 0xff, 0xff, 0x46, 0x6a, 0x00, 0x00, 0x00, 0x00,
  0x00, 0x00, 0xf9, 0x29, 0x01, 0x00, 0x00, 0x00, 0x00, 0x00, 0x0b, 0xa6, 0xff,
  0xff, 0xff, 0xff, 0xff, 0xff, 0xef, 0x0e, 0x00, 0x00, 0x00, 0x00, 0x00, 0x00,
  0xa8, 0xb4, 0xff, 0xff, 0xff, 0xff, 0xff, 0xff, 0xcd, 0xf2, 0xff, 0xff, 0xff,
  0xff, 0xff, 0xff, 0xc6, 0xe9, 0xff, 0xff, 0x04, 0x00, 0x00, 0x00, 0xa0, 0x00,
  0x00, 0x00, 0x4b, 0xc1, 0x02, 0x00, 0x00, 0x00, 0x00, 0x00, 0x9b, 0x58, 0x2a,
  0x00, 0x00, 0x00, 0x00, 0x00, 0x0e, 0x7b, 0x0c, 0x00, 0x00, 0x00, 0x00, 0x00,
  0xb3, 0xad, 0xd4, 0xff, 0xff, 0xff, 0xff, 0xff, 0xe2, 0x82, 0xfc, 0xff, 0xff,
  0xff, 0xff, 0xff, 0x66, 0xe2, 0xe4, 0xff, 0xff, 0xff, 0xff, 0xff, 0xd3, 0xbd,
  0x11, 0x00, 0x00, 0x00, 0x00, 0x00, 0x5f, 0x0a, 0xea, 0xff, 0xff, 0xff, 0xff,
  0xff, 0x84, 0x39, 0x02, 0x00, 0x00, 0x00, 0x00, 0x00, 0xae, 0xb7, 0xf4, 0xff,
  0xff, 0xff, 0xff, 0xff, 0x08, 0x8d, 0x0d, 0x00, 0x00, 0x00, 0x00, 0x00, 0x9b,
  0xf1, 0xf1, 0xff, 0xff, 0xff, 0xff, 0xff, 0x8c, 0x6d, 0xed, 0xff, 0xff, 0xff,
  0xff, 0xff, 0x01, 0xd1, 0xfe, 0xff, 0xff, 0xff, 0xff, 0xff, 0xc0, 0xe1, 0x0d,
  0x00, 0x00, 0x00, 0x00, 0x00, 0x3e, 0xb8, 0xee, 0xff, 0xff, 0xff, 0xff, 0xff,
  0x06, 0x4e, 0xee, 0xff, 0xff, 0xff, 0xff, 0xff, 0xc9, 0x41, 0xf9, 0xff, 0xff,
  0xff, 0xff, 0xff, 0x3d, 0xa2, 0x0d, 0x00, 0x00, 0x00, 0x00, 0x00, 0xb6, 0xa1,
  0x04, 0x00, 0x00, 0x00, 0x00, 0x00, 0x72, 0xea, 0xff, 0xff, 0x04, 0x00, 0x00,
  0x00, 0x05, 0x00, 0x00, 0x00, 0x82, 0xa0, 0x66, 0x7f, 0xb8, 0x00, 0x00, 0x00,
  0x86, 0xea, 0xff, 0xff, 0x04, 0x00, 0x00, 0x00, 0x19, 0x00, 0x00, 0x00, 0x06,
  0x81, 0x60, 0x7f, 0x7f, 0x7f, 0xf1, 0x81, 0x6b, 0xef, 0x6f, 0xd9, 0x9c, 0xb2,
  0xd4, 0x25, 0xb9, 0x28, 0x96, 0x4c, 0x11, 0x96, 0x22, 0xca, 0x23, 0x00, 0x00,
  0x00, 0xae, 0xea, 0xff, 0xff, 0x04, 0x00, 0x00, 0x00, 0x19, 0x00, 0x00, 0x00,
  0x15, 0x2b, 0xf9, 0x0f, 0xae, 0x47, 0x16, 0x07, 0x43, 0xdd, 0x56, 0x81, 0x7f,
  0x7f, 0x63, 0x81, 0xf7, 0x24, 0x17, 0x81, 0xd3, 0x29, 0xf2, 0x08, 0x9c, 0x00,
  0x00, 0x00, 0xd6, 0xea, 0xff, 0xff, 0x04, 0x00, 0x00, 0x00, 0x19, 0x00, 0x00,
  0x00, 0xcd, 0x26, 0xa8, 0x7f, 0xf7, 0x81, 0xf8, 0x52, 0x3e, 0x1d, 0x08, 0x31,
  0x7f, 0x7d, 0xac, 0x81, 0x9a, 0x34, 0xd4, 0x5e, 0xe4, 0x42, 0x7f, 0x26, 0x8d,
  0x00, 0x00, 0x00, 0xfe, 0xea, 0xff, 0xff, 0x04, 0x00, 0x00, 0x00, 0x19, 0x00,
  0x00, 0x00, 0xa1, 0x12, 0x02, 0x14, 0x10, 0x81, 0x12, 0x5a, 0x1e, 0x2c, 0x32,
  0x7f, 0x38, 0xa5, 0x7f, 0x13, 0x04, 0x81, 0x7f, 0x08, 0xe7, 0x2e, 0x70, 0xeb,
  0x35, 0x00, 0x00, 0x00, 0x26, 0xeb, 0xff, 0xff, 0x04, 0x00, 0x00, 0x00, 0x19,
  0x00, 0x00, 0x00, 0xe8, 0xe7, 0x0f, 0x02, 0xe3, 0xf3, 0x09, 0x17, 0xdf, 0x19,
  0x7f, 0x7f, 0x7f, 0x81, 0x7f, 0x14, 0x30, 0xb9, 0xfd, 0x3e, 0xa8, 0xea, 0x1c,
  0xda, 0xe1, 0x00, 0x00, 0x00, 0x4e, 0xeb, 0xff, 0xff, 0x04, 0x00, 0x00, 0x00,
  0x19, 0x00, 0x00, 0x00, 0xaa, 0x81, 0xea, 0x10, 0x8b, 0xb6, 0xc3, 0xc4, 0x7f,
  0xd2, 0x81, 0xe4, 0x97, 0x0e, 0x99, 0x16, 0x5d, 0x1e, 0xab, 0x7f, 0xaf, 0xe4,
  0xb7, 0x7f, 0x12, 0x00, 0x00, 0x00, 0x76, 0xeb, 0xff, 0xff, 0x04, 0x00, 0x00,
  0x00, 0x19, 0x00, 0x00, 0x00, 0x52, 0xad, 0x57, 0x81, 0x19, 0x28, 0x7f, 0x34,
  0x7a, 0x1a, 0xe5, 0xab, 0xc6, 0x33, 0x7f, 0x81, 0x41, 0x81, 0xf1, 0xfe, 0xce,
  0x46, 0xf7, 0xbb, 0x05, 0x00, 0x00, 0x00, 0x9e, 0xeb, 0xff, 0xff, 0x04, 0x00,
  0x00, 0x00, 0x19, 0x00, 0x00, 0x00, 0x00, 0xd7, 0x1d, 0x06, 0x03, 0xc0, 0xaf,
  0x38, 0x4c, 0x48, 0x7f, 0xfc, 0xee, 0x7f, 0x7f, 0x7f, 0x81, 0x81, 0x0c, 0x5d,
  0x66, 0x9f, 0xf0, 0x05, 0xf5, 0x00, 0x00, 0x00, 0xc6, 0xeb, 0xff, 0xff, 0x04,
  0x00, 0x00, 0x00, 0x23, 0x00, 0x00, 0x00, 0xe1, 0x67, 0x9e, 0xdc, 0x07, 0x81,
  0xb3, 0xe6, 0x11, 0x70, 0x22, 0xab, 0x7f, 0x08, 0x81, 0x3a, 0x67, 0x16, 0xc9,
  0x47, 0xbf, 0x85, 0x15, 0x0d, 0x4b, 0x7f, 0xdb, 0x30, 0x1a, 0xc0, 0x26, 0x81,
  0xcc, 0x25, 0xc8, 0x00, 0xf6, 0xeb, 0xff, 0xff, 0x04, 0x00, 0x00, 0x00, 0x15,
  0x00, 0x00, 0x00, 0x81, 0xf4, 0x4d, 0x1b, 0xe3, 0xb8, 0x19, 0x88, 0x81, 0x81,
  0x03, 0x33, 0x81, 0x42, 0xf4, 0x0d, 0x4e, 0x7f, 0x81, 0x0c, 0x7f, 0x00, 0x00,
  0x00, 0x1a, 0xec, 0xff, 0xff, 0x04, 0x00, 0x00, 0x00, 0x15, 0x00, 0x00, 0x00,
  0xc9, 0x7f, 0x81, 0x74, 0x07, 0x81, 0xa2, 0x8b, 0x17, 0x00, 0xda, 0x81, 0x52,
  0x0f, 0x81, 0x22, 0xbc, 0x7f, 0x8a, 0xb9, 0x7f, 0x00, 0x00, 0x00, 0x3e, 0xec,
  0xff, 0xff, 0x04, 0x00, 0x00, 0x00, 0x19, 0x00, 0x00, 0x00, 0x37, 0x81, 0x3a,
  0x8e, 0x00, 0xd4, 0xdc, 0x3b, 0x7f, 0x00, 0x0d, 0x04, 0x2c, 0x7f, 0x00, 0x81,
  0x7f, 0xc4, 0x24, 0x00, 0xdd, 0x91, 0x7f, 0x23, 0x00, 0x00, 0x00, 0x00, 0x66,
  0xec, 0xff, 0xff, 0x04, 0x00, 0x00, 0x00, 0x19, 0x00, 0x00, 0x00, 0x27, 0x31,
  0xcb, 0x0e, 0x81, 0x11, 0xbb, 0xfb, 0x4c, 0x24, 0x81, 0x7f, 0x0b, 0x7f, 0xc4,
  0x1e, 0x6d, 0x0f, 0x14, 0x19, 0x34, 0xd0, 0x81, 0xff, 0x56, 0x00, 0x00, 0x00,
  0x8e, 0xec, 0xff, 0xff, 0x04, 0x00, 0x00, 0x00, 0x19, 0x00, 0x00, 0x00, 0xf4,
  0xfb, 0xe9, 0xf8, 0x04, 0x2f, 0x42, 0xed, 0x4c, 0x48, 0x7f, 0x81, 0x7d, 0x81,
  0x46, 0xd2, 0x63, 0x81, 0xc0, 0x81, 0x10, 0x2b, 0xe4, 0xfd, 0x58, 0x00, 0x00,
  0x00, 0xb6, 0xec, 0xff, 0xff, 0x04, 0x00, 0x00, 0x00, 0x23, 0x00, 0x00, 0x00,
  0x27, 0xa7, 0x32, 0x81, 0x1f, 0x35, 0x09, 0x6e, 0x01, 0x11, 0x81, 0xbf, 0x72,
  0xb6, 0x5b, 0x3c, 0x81, 0xa2, 0xb7, 0x5d, 0xf3, 0x0e, 0xfc, 0xf9, 0xe7, 0x96,
  0x5f, 0x81, 0x00, 0x00, 0x00, 0x00, 0x00, 0x00, 0x00, 0x00, 0xe6, 0xec, 0xff,
  0xff, 0x04, 0x00, 0x00, 0x00, 0x28, 0x00, 0x00, 0x00, 0x00, 0x00, 0x00, 0x00,
  0x00, 0x00, 0x00, 0x00, 0x00, 0x00, 0x00, 0x00, 0x00, 0x00, 0x00, 0x00, 0x00,
  0x00, 0x00, 0x00, 0x00, 0x00, 0x00, 0x00, 0x00, 0x00, 0x00, 0x00, 0x00, 0x00,
  0x00, 0x00, 0x00, 0x00, 0x00, 0x00, 0x00, 0x00, 0x00, 0x00, 0x1a, 0xed, 0xff,
  0xff, 0x04, 0x00, 0x00, 0x00, 0x23, 0x00, 0x00, 0x00, 0x0f, 0x7c, 0x9d, 0x9b,
  0xec, 0x7f, 0x46, 0x81, 0x6a, 0xa8, 0x2d, 0x27, 0xcd, 0x2c, 0x8b, 0x7f, 0x95,
  0xe3, 0xe3, 0x4b, 0x6f, 0x30, 0x8e, 0x7f, 0x81, 0x81, 0x1f, 0x78, 0x15, 0xfe,
  0x93, 0xfb, 0x25, 0x74, 0x7f, 0x00, 0x4a, 0xed, 0xff, 0xff, 0x04, 0x00, 0x00,
  0x00, 0x23, 0x00, 0x00, 0x00, 0x81, 0x18, 0xcc, 0xc3, 0xf7, 0x46, 0x7f, 0xc1,
  0x91, 0x57, 0x38, 0x7f, 0x0a, 0x14, 0x14, 0xe6, 0x18, 0x81, 0xe5, 0x6e, 0x21,
  0xfd, 0x81, 0x81, 0x1e, 0x8f, 0x7f, 0xed, 0xc2, 0xfb, 0x5b, 0xca, 0x34, 0x10,
  0xcb, 0x00, 0x7a, 0xed, 0xff, 0xff, 0x04, 0x00, 0x00, 0x00, 0x3f, 0x00, 0x00,
  0x00, 0xe5, 0xfa, 0x7f, 0x2a, 0xef, 0x45, 0x0f, 0xad, 0xc7, 0x40, 0xf1, 0xec,
  0x0e, 0xf6, 0x3e, 0x81, 0x23, 0xdd, 0x81, 0xf1, 0xe5, 0x90, 0xe6, 0xad, 0x0c,
  0x22, 0x28, 0x30, 0x7f, 0xe4, 0x1b, 0x2e, 0x0b, 0xed, 0x19, 0x3f, 0x81, 0xb2,
  0x1f, 0x6f, 0x33, 0xc4, 0xfd, 0x07, 0xd3, 0x6a, 0x54, 0xa0, 0x0f, 0x27, 0xbf,
  0x0a, 0xa8, 0x81, 0xed, 0x02, 0x20, 0x56, 0xc1, 0x28, 0x17, 0x7f, 0xdc, 0x00,
  0xc6, 0xed, 0xff, 0xff, 0x04, 0x00, 0x00, 0x00, 0x1b, 0x00, 0x00, 0x00, 0xa5,
  0x24, 0x2c, 0x15, 0x4c, 0x7f, 0xf5, 0xa0, 0x27, 0x81, 0xf5, 0xc5, 0x7f, 0x7f,
  0x68, 0x13, 0x7f, 0xb9, 0xbd, 0x81, 0x7f, 0x15, 0x4b, 0x50, 0x81, 0xb3, 0x81,
  0x00, 0xee, 0xed, 0xff, 0xff, 0x04, 0x00, 0x00, 0x00, 0x1b, 0x00, 0x00, 0x00,
  0x7f, 0x7f, 0x81, 0x7f, 0xa5, 0x81, 0x1c, 0x81, 0x1e, 0x79, 0x49, 0xb9, 0x52,
  0x7f, 0x4f, 0x81, 0xa7, 0x8a, 0x61, 0x27, 0xcc, 0x27, 0x2c, 0x83, 0xd5, 0x00,
  0x81, 0x00, 0x16, 0xee, 0xff, 0xff, 0x04, 0x00, 0x00, 0x00, 0x31, 0x00, 0x00,
  0x00, 0x7f, 0x31, 0x12, 0x15, 0x41, 0xda, 0x27, 0x81, 0x28, 0xfe, 0xda, 0xcd,
  0x3f, 0xe9, 0xae, 0x03, 0x81, 0xa2, 0xa2, 0x50, 0x08, 0xfc, 0x7f, 0x01, 0xfb,
  0xd8, 0x3f, 0xf3, 0xfd, 0x1d, 0x1b, 0x27, 0xd5, 0xcd, 0x81, 0xbf, 0xd0, 0x41,
  0x7f, 0x26, 0x48, 0xee, 0x5c, 0xb7, 0x36, 0x7f, 0xe6, 0xc8, 0x0f, 0x00, 0x00,
  0x00, 0x56, 0xee, 0xff, 0xff, 0x04, 0x00, 0x00, 0x00, 0x23, 0x00, 0x00, 0x00,
  0x15, 0x55, 0xdc, 0x1e, 0xb7, 0x04, 0xe3, 0x1b, 0x35, 0xe9, 0x6e, 0x81, 0x44,
  0x81, 0x7f, 0x7f, 0x3a, 0x7f, 0x8d, 0x7f, 0xd4, 0xcc, 0x52, 0x7f, 0x2d, 0xc0,
  0x2a, 0xf0, 0x0e, 0x35, 0x38, 0x28, 0xd1, 0x17, 0xd6, 0x00, 0x86, 0xee, 0xff,
  0xff, 0x04, 0x00, 0x00, 0x00, 0x23, 0x00, 0x00, 0x00, 0x17, 0xf1, 0x3c, 0x06,
  0x4b, 0x01, 0xec, 0xda, 0xf7, 0x7f, 0x7f, 0xcb, 0xc1, 0xc8, 0xde, 0xdf, 0x10,
  0xee, 0x7f, 0x1e, 0x81, 0x7f, 0x7f, 0x17, 0xe2, 0x1d, 0x78, 0x0c, 0x00, 0x68,
  0xfc, 0xf2, 0x39, 0x7f, 0xf2, 0x00, 0xb6, 0xee, 0xff, 0xff, 0x04, 0x00, 0x00,
  0x00, 0x3f, 0x00, 0x00, 0x00, 0x7f, 0xc0, 0xca, 0xe7, 0xea, 0xd2, 0xe9, 0xd1,
  0xa3, 0xd0, 0xd4, 0x7f, 0xc4, 0x96, 0xee, 0xee, 0x35, 0xfc, 0x24, 0x81, 0xf3,
  0x6c, 0x21, 0x09, 0x15, 0x7f, 0x40, 0xb2, 0xf2, 0xff, 0x12, 0xdc, 0x71, 0x22,
  0xc4, 0x81, 0x2d, 0xbc, 0x77, 0x83, 0x7f, 0xeb, 0x04, 0x9a, 0x99, 0xc0, 0xf7,
  0xe0, 0xe2, 0xf3, 0x7f, 0x76, 0x13, 0xa5, 0x07, 0x50, 0xab, 0x81, 0xd4, 0x27,
  0x8e, 0x03, 0xc5, 0x00, 0x02, 0xef, 0xff, 0xff, 0x04, 0x00, 0x00, 0x00, 0x38,
  0x00, 0x00, 0x00, 0x00, 0x00, 0x00, 0x00, 0x00, 0x00, 0x00, 0x00, 0x00, 0x00,
  0x00, 0x00, 0x00, 0x00, 0x00, 0x00, 0x00, 0x00, 0x00, 0x00, 0x00, 0x00, 0x00,
  0x00, 0x00, 0x00, 0x00, 0x00, 0x00, 0x00, 0x00, 0x00, 0x00, 0x00, 0x00, 0x00,
  0x00, 0x00, 0x00, 0x00, 0x00, 0x00, 0x00, 0x00, 0x00, 0x00, 0x00, 0x00, 0x00,
  0x00, 0x00, 0x00, 0x00, 0x00, 0x00, 0x00, 0x46, 0xef, 0xff, 0xff, 0x04, 0x00,
  0x00, 0x00, 0x2d, 0x00, 0x00, 0x00, 0xf1, 0xfe, 0xd7, 0x35, 0x56, 0x2e, 0x0a,
  0xa0, 0x2d, 0x54, 0x0f, 0x52, 0x73, 0x38, 0x42, 0xde, 0x97, 0xdf, 0x81, 0x81,
  0x9f, 0x62, 0x81, 0xff, 0xcb, 0x81, 0xe9, 0x8a, 0xdc, 0x20, 0x7f, 0x72, 0x73,
  0xd9, 0x2d, 0x7f, 0xd7, 0x39, 0x81, 0x9c, 0x65, 0x7f, 0x81, 0x9c, 0x18, 0x00,
  0x00, 0x00, 0x82, 0xef, 0xff, 0xff, 0x04, 0x00, 0x00, 0x00, 0x2d, 0x00, 0x00,
  0x00, 0x13, 0xdc, 0x56, 0x67, 0x81, 0x7f, 0xf1, 0xde, 0xc6, 0x81, 0xba, 0x7f,
  0xf0, 0xe5, 0x06, 0xab, 0xb1, 0x3e, 0x29, 0xdc, 0x64, 0x60, 0xa7, 0x50, 0x81,
  0xb6, 0x7f, 0x21, 0x81, 0x58, 0x7f, 0x1c, 0xdc, 0xa7, 0x20, 0x6c, 0xf2, 0xcd,
  0x22, 0xf3, 0xbf, 0x05, 0xfd, 0x81, 0xb1, 0x00, 0x00, 0x00, 0xbe, 0xef, 0xff,
  0xff, 0x04, 0x00, 0x00, 0x00, 0x6c, 0x00, 0x00, 0x00, 0x61, 0x0a, 0xf9, 0xdc,
  0x22, 0x29, 0xa0, 0x81, 0x7d, 0x49, 0x3e, 0x68, 0xaf, 0x25, 0xed, 0xe5, 0xf4,
  0x7f, 0x30, 0xf6, 0x33, 0x0f, 0xd2, 0xd1, 0x24, 0x32, 0x88, 0xcd, 0x0f, 0xdf,
  0xe8, 0x19, 0xff, 0x79, 0xd1, 0x81, 0xdd, 0x81, 0xeb, 0x1d, 0x2b, 0x05, 0xe5,
  0x2c, 0x16, 0xef, 0x38, 0xd4, 0x37, 0x46, 0x4c, 0x5f, 0x7f, 0x13, 0x48, 0xad,
  0x2f, 0x7a, 0x6d, 0xba, 0xb3, 0xeb, 0xc6, 0x6d, 0xb2, 0x7c, 0x81, 0xd6, 0x0f,
  0xc8, 0x96, 0xf7, 0x2a, 0x2f, 0x81, 0xc9, 0x8f, 0x28, 0x56, 0xae, 0x40, 0xe6,
  0x4a, 0xd5, 0x2c, 0x12, 0x17, 0x7f, 0x2b, 0xf5, 0xec, 0x0d, 0x5d, 0x0e, 0xdc,
  0x56, 0x2a, 0xce, 0x0a, 0x56, 0x11, 0x0b, 0xd6, 0x4d, 0x81, 0x36, 0xde, 0x7a,
  0x36, 0xf0, 0xff, 0xff, 0x04, 0x00, 0x00, 0x00, 0x24, 0x00, 0x00, 0x00, 0x28,
  0x37, 0xb5, 0x5d, 0x17, 0xa7, 0x89, 0x41, 0x7f, 0xe5, 0xe5, 0x89, 0x7f, 0x5b,
  0x81, 0x31, 0x7f, 0x81, 0x81, 0xb5, 0x7d, 0xa8, 0xe8, 0x81, 0xd8, 0x7f, 0x2e,
  0x7f, 0xb0, 0xce, 0xe3, 0x7f, 0x17, 0x81, 0x81, 0x91, 0x66, 0xf0, 0xff, 0xff,
  0x04, 0x00, 0x00, 0x00, 0x24, 0x00, 0x00, 0x00, 0x7f, 0x81, 0x7f, 0xfe, 0x81,
  0x32, 0x13, 0x7f, 0x5f, 0x7f, 0x81, 0x9e, 0x59, 0x9f, 0xcd, 0x7f, 0x0e, 0x6c,
  0x7f, 0x43, 0x7f, 0x1d, 0x62, 0x7f, 0x19, 0xc7, 0xfe, 0x35, 0xe9, 0x7f, 0xfa,
  0x67, 0x75, 0x31, 0xbe, 0x9d, 0x96, 0xf0, 0xff, 0xff, 0x04, 0x00, 0x00, 0x00,
  0x51, 0x00, 0x00, 0x00, 0xe2, 0xcb, 0x30, 0xab, 0x7f, 0x55, 0xb4, 0x8a, 0xb5,
  0xac, 0x81, 0x6d, 0x2e, 0x44, 0x3c, 0x20, 0xf5, 0xce, 0x7f, 0x39, 0xab, 0x08,
  0xd4, 0xb7, 0x57, 0x57, 0xeb, 0xcb, 0x06, 0xde, 0xee, 0x25, 0xf8, 0x7f, 0x24,
  0x15, 0xd3, 0xe8, 0x1b, 0xf0, 0x42, 0x7f, 0x49, 0xcc, 0xe3, 0x3c, 0xb5, 0xfb,
  0x55, 0xd6, 0x9e, 0x81, 0x09, 0x28, 0xe0, 0xbe, 0xef, 0x39, 0x7f, 0x59, 0x3c,
  0xdb, 0xce, 0x06, 0x2b, 0xf8, 0xf6, 0x1f, 0xd3, 0x81, 0xca, 0xe7, 0xfb, 0x02,
  0xc3, 0xe8, 0xfc, 0xec, 0x7f, 0x21, 0x77, 0x00, 0x00, 0x00, 0xf6, 0xf0, 0xff,
  0xff, 0x04, 0x00, 0x00, 0x00, 0x2d, 0x00, 0x00, 0x00, 0xf0, 0xc2, 0xbf, 0x1b,
  0x7e, 0x1b, 0xc4, 0x52, 0xec, 0x7f, 0xba, 0xc4, 0x26, 0x7f, 0x22, 0xa5, 0x7f,
  0xd7, 0x3d, 0xa7, 0x81, 0x7f, 0x57, 0xfe, 0x0f, 0x3a, 0x81, 0xca, 0x81, 0x19,
  0xd9, 0x3e, 0xf3, 0xcf, 0x37, 0x29, 0x17, 0xdc, 0xf4, 0x2e, 0x2f, 0x81, 0x81,
  0xd6, 0xd7, 0x00, 0x00, 0x00, 0x32, 0xf1, 0xff, 0xff, 0x04, 0x00, 0x00, 0x00,
  0x2d, 0x00, 0x00, 0x00, 0xf4, 0xa0, 0xd5, 0x7f, 0x3b, 0xf8, 0xae, 0x5e, 0x81,
  0xdd, 0x48, 0x7f, 0x50, 0xd3, 0x81, 0x81, 0x7f, 0xb9, 0x81, 0xdf, 0x77, 0xf3,
  0x52, 0xd8, 0x9f, 0x2d, 0xa3, 0x10, 0x81, 0x71, 0x49, 0x7f, 0xc8, 0xfa, 0xf3,
  0xdd, 0x08, 0xdd, 0xc8, 0x4f, 0xd3, 0x31, 0xf3, 0xe9, 0xd1, 0x00, 0x00, 0x00,
  0x6e, 0xf1, 0xff, 0xff, 0x04, 0x00, 0x00, 0x00, 0x6c, 0x00, 0x00, 0x00, 0xfa,
  0x81, 0x22, 0x1e, 0xb6, 0xf5, 0x3b, 0x19, 0x0f, 0x1f, 0xcb, 0xa7, 0x45, 0xa9,
  0x01, 0xef, 0x23, 0x7f, 0xab, 0x6f, 0x0f, 0x97, 0xd7, 0xfa, 0xf3, 0xf9, 0x0e,
  0xe9, 0x83, 0xa6, 0x69, 0x65, 0xcf, 0x11, 0xef, 0x81, 0xc5, 0x00, 0xea, 0xd2,
  0x21, 0xc3, 0x7f, 0x14, 0xba, 0xed, 0x23, 0xaa, 0x7f, 0x75, 0x4d, 0xad, 0xb9,
  0x59, 0xda, 0xa8, 0x9a, 0x05, 0xcb, 0x78, 0xd2, 0x11, 0xf7, 0x0f, 0xc3, 0xf7,
  0x0a, 0x24, 0x00, 0x81, 0x65, 0x45, 0x01, 0x01, 0x79, 0xa8, 0xf2, 0xa1, 0x12,
  0x7f, 0x0b, 0x43, 0xf2, 0x13, 0x2f, 0x0c, 0x04, 0xf9, 0xef, 0x0b, 0x27, 0xd7,
  0x7f, 0x07, 0xc7, 0x1a, 0x39, 0xfe, 0xbe, 0x40, 0xe3, 0x97, 0x0c, 0x7f, 0x1a,
  0x59, 0xe3, 0x09, 0xe6, 0xf1, 0xff, 0xff, 0x04, 0x00, 0x00, 0x00, 0x48, 0x00,
  0x00, 0x00, 0x00, 0x00, 0x00, 0x00, 0x00, 0x00, 0x00, 0x00, 0x00, 0x00, 0x00,
  0x00, 0x00, 0x00, 0x00, 0x00, 0x00, 0x00, 0x00, 0x00, 0x00, 0x00, 0x00, 0x00,
  0x00, 0x00, 0x00, 0x00, 0x00, 0x00, 0x00, 0x00, 0x00, 0x00, 0x00, 0x00, 0x00,
  0x00, 0x00, 0x00, 0x00, 0x00, 0x00, 0x00, 0x00, 0x00, 0x00, 0x00, 0x00, 0x00,
  0x00, 0x00, 0x00, 0x00, 0x00, 0x00, 0x00, 0x00, 0x00, 0x00, 0x00, 0x00, 0x00,
  0x00, 0x00, 0x00, 0x00, 0x00, 0x00, 0x00, 0x00, 0x00, 0x3a, 0xf2, 0xff, 0xff,
  0x04, 0x00, 0x00, 0x00, 0x3c, 0x00, 0x00, 0x00, 0xfe, 0xf5, 0x4f, 0xa7, 0xea,
  0x24, 0xc4, 0xc0, 0x22, 0x95, 0xe6, 0x81, 0x39, 0xf6, 0x38, 0xe7, 0x4f, 0xe5,
  0xf3, 0xc8, 0xc6, 0x04, 0x7f, 0xbc, 0xd2, 0x7c, 0x65, 0xf5, 0x7f, 0x81, 0x81,
  0xeb, 0x4f, 0x70, 0xdd, 0x2f, 0x81, 0x7f, 0x7f, 0x81, 0x33, 0xe2, 0x93, 0xdd,
  0x7f, 0xf1, 0xc5, 0xa1, 0x2d, 0x4d, 0x68, 0x27, 0x0f, 0x25, 0x25, 0x81, 0x10,
  0x81, 0x3e, 0xb4, 0x82, 0xf2, 0xff, 0xff, 0x04, 0x00, 0x00, 0x00, 0x3c, 0x00,
  0x00, 0x00, 0x69, 0x61, 0x7f, 0xe1, 0xeb, 0xc8, 0x7f, 0x60, 0xcd, 0x59, 0x1c,
  0x81, 0x54, 0x1d, 0x2a, 0x25, 0x81, 0x7f, 0xba, 0x34, 0x97, 0x11, 0x7f, 0x92,
  0x81, 0x7f, 0x50, 0x7f, 0xf8, 0x45, 0xc7, 0x7f, 0xde, 0x7f, 0x1a, 0xfe, 0x65,
  0x06, 0x2f, 0x4e, 0x1a, 0x0b, 0x2e, 0x16, 0x7f, 0x25, 0xd6, 0x33, 0x08, 0x28,
  0x47, 0x5f, 0xef, 0x1b, 0xe9, 0x20, 0x3b, 0x2e, 0x16, 0x8f, 0xca, 0xf2, 0xff,
  0xff, 0x04, 0x00, 0x00, 0x00, 0xb4, 0x00, 0x00, 0x00, 0xbc, 0x25, 0xd9, 0x81,
  0x28, 0x0e, 0xf3, 0xe8, 0xe8, 0x1b, 0x1b, 0xff, 0xb4, 0x00, 0xf1, 0xb1, 0x0a,
  0xfd, 0x00, 0xfb, 0x81, 0xe1, 0x48, 0x85, 0x91, 0x5e, 0x32, 0x2f, 0x64, 0xfd,
  0xdd, 0xf3, 0x2f, 0xed, 0x18, 0x9c, 0x81, 0x4f, 0x15, 0x5b, 0xed, 0xb4, 0x2c,
  0x27, 0xd2, 0x62, 0xc6, 0xe8, 0x64, 0x0c, 0x33, 0x1c, 0xaf, 0x9a, 0xa7, 0xd2,
  0x81, 0xf3, 0xf7, 0x1a, 0xaa, 0x15, 0x5d, 0x9e, 0xc7, 0xe2, 0x31, 0x58, 0xd5,
  0x7f, 0x95, 0x2d, 0x28, 0xce, 0x45, 0x4d, 0x19, 0x7f, 0xd7, 0xb0, 0x13, 0x68,
  0x37, 0x06, 0xf5, 0xca, 0xf9, 0x57, 0xf7, 0xf0, 0x45, 0x14, 0x1b, 0x91, 0x34,
  0x27, 0xf0, 0xb4, 0xda, 0xea, 0xab, 0x20, 0xae, 0x81, 0xc0, 0x81, 0x54, 0xd6,
  0xff, 0xb0, 0x12, 0xd2, 0x51, 0xf6, 0xbe, 0xe8, 0x2c, 0x25, 0xfd, 0x1a, 0x7f,
  0xf8, 0x47, 0x1a, 0xcc, 0x22, 0x04, 0x9f, 0x3e, 0x38, 0x06, 0xa1, 0xf8, 0x56,
  0x0b, 0xfd, 0x14, 0xf4, 0xea, 0x7f, 0xe5, 0x2d, 0xf9, 0xe3, 0xcd, 0x31, 0xd6,
  0x97, 0xe4, 0x55, 0xcb, 0x46, 0x1d, 0x81, 0xfe, 0xec, 0xe9, 0x0e, 0xfe, 0x0f,
  0x24, 0x06, 0xfc, 0xef, 0x91, 0x16, 0x66, 0x35, 0xdb, 0xfd, 0x3f, 0x34, 0xec,
  0xc7, 0xd2, 0xd2, 0xfd, 0x17, 0x81, 0xd0, 0x8a, 0xf3, 0xff, 0xff, 0x04, 0x00,
  0x00, 0x00, 0x2d, 0x00, 0x00, 0x00, 0x71, 0x7f, 0x08, 0x13, 0xdf, 0x7f, 0x00,
  0xce, 0x53, 0xec, 0x86, 0x81, 0xb0, 0xd7, 0x81, 0x81, 0x76, 0x81, 0x03, 0x09,
  0xbe, 0x81, 0xaa, 0x7f, 0x7f, 0x81, 0x26, 0x70, 0xf0, 0xae, 0xcc, 0x71, 0xa3,
  0x81, 0x7f, 0x32, 0x22, 0x81, 0xf8, 0x96, 0x01, 0xea, 0x7f, 0x81, 0x5f, 0x00,
  0x00, 0x00, 0xc6, 0xf3, 0xff, 0xff, 0x04, 0x00, 0x00, 0x00, 0x2d, 0x00, 0x00,
  0x00, 0xfc, 0x81, 0xee, 0x47, 0x7f, 0x81, 0x7f, 0x7f, 0x5c, 0x81, 0x81, 0xff,
  0xd2, 0x7f, 0xee, 0x7f, 0x3e, 0x7f, 0x7f, 0xa6, 0xe1, 0xd7, 0x2d, 0x7f, 0x01,
  0x4d, 0x7f, 0x26, 0x36, 0x7f, 0x12, 0x7e, 0x63, 0xf9, 0x58, 0xef, 0xf1, 0xf2,
  0xbb, 0x20, 0x92, 0x3b, 0x81, 0x4e, 0x5a, 0x00, 0x00, 0x00, 0x02, 0xf4, 0xff,
  0xff, 0x04, 0x00, 0x00, 0x00, 0x90, 0x00, 0x00, 0x00, 0xfb, 0xe3, 0x4d, 0x15,
  0xd7, 0xf6, 0x0a, 0xca, 0x1f, 0x7f, 0x5b, 0x22, 0xa4, 0x3b, 0x32, 0xdd, 0x88,
  0xf8, 0x81, 0x36, 0x2d, 0x43, 0x42, 0xfe, 0xb7, 0x8a, 0x34, 0x7f, 0x47, 0x17,
  0xa4, 0xa9, 0x50, 0x01, 0x23, 0xf0, 0x0a, 0x3d, 0xb9, 0x01, 0x21, 0x25, 0x7f,
  0xea, 0x2e, 0xe8, 0xf2, 0x29, 0xf2, 0x34, 0x5f, 0xa5, 0x3a, 0xb1, 0x02, 0x77,
  0xd6, 0x81, 0xd1, 0x6e, 0x81, 0xac, 0xee, 0x39, 0xef, 0x2c, 0xf1, 0x28, 0x2e,
  0xe5, 0xfd, 0xfe, 0x31, 0xe4, 0x2d, 0xe4, 0x64, 0xe7, 0xfc, 0xb9, 0xde, 0x7f,
  0x49, 0x8e, 0xb7, 0xed, 0x4e, 0x60, 0xf1, 0xf8, 0x01, 0x81, 0x3f, 0xe8, 0x01,
  0xe0, 0x1a, 0xcd, 0xb8, 0xed, 0x0d, 0x6d, 0xfd, 0xf2, 0x81, 0x15, 0x09, 0x38,
  0x28, 0x81, 0xd7, 0x1c, 0x1f, 0x17, 0x1b, 0x15, 0xf0, 0x0c, 0xfc, 0xed, 0x1a,
  0xff, 0x0a, 0xdb, 0x28, 0x35, 0x3e, 0x03, 0x21, 0xd6, 0xb5, 0x81, 0xeb, 0xdc,
  0x26, 0x5e, 0x81, 0xb7, 0x44, 0xbf, 0xcd, 0x15, 0x39, 0xc3, 0x9e, 0xf4, 0xff,
  0xff, 0x04, 0x00, 0x00, 0x00, 0x3c, 0x00, 0x00, 0x00, 0x7b, 0x10, 0xaa, 0x9e,
  0xa7, 0x44, 0x00, 0xcc, 0x5c, 0xf3, 0x21, 0xb5, 0x4d, 0x88, 0x09, 0xfb, 0xd3,
  0xf5, 0x2d, 0xca, 0xc1, 0x32, 0xe6, 0x2e, 0x7f, 0xb3, 0x81, 0xd1, 0xf9, 0x7f,
  0x9e, 0xf0, 0x45, 0x77, 0x81, 0x8d, 0x48, 0x81, 0x1f, 0x81, 0xf1, 0xfa, 0x81,
  0xcc, 0x7f, 0x7f, 0xca, 0xcc, 0x59, 0xed, 0xea, 0xe3, 0x7f, 0x17, 0xaa, 0x81,
  0xf6, 0x27, 0xbb, 0x81, 0xe6, 0xf4, 0xff, 0xff, 0x04, 0x00, 0x00, 0x00, 0x3c,
  0x00, 0x00, 0x00, 0x6b, 0x19, 0x81, 0xa1, 0xb2, 0x7f, 0x43, 0x60, 0x51, 0x81,
  0x81, 0x12, 0x1c, 0x50, 0x24, 0xac, 0xbc, 0x58, 0x7f, 0xbb, 0x81, 0x1e, 0x11,
  0x7f, 0x10, 0x7f, 0x23, 0xec, 0x8c, 0x48, 0x55, 0x7f, 0x8d, 0x21, 0x3b, 0x34,
  0x10, 0xb6, 0xc5, 0xb9, 0x81, 0x48, 0x05, 0x75, 0xc1, 0x38, 0x2d, 0x3d, 0x7f,
  0x34, 0xf0, 0x81, 0xab, 0x53, 0x27, 0xce, 0xc2, 0x19, 0x24, 0x43, 0x2e, 0xf5,
  0xff, 0xff, 0x04, 0x00, 0x00, 0x00, 0xb4, 0x00, 0x00, 0x00, 0xc7, 0x93, 0x00,
  0xd1, 0x24, 0x11, 0xef, 0x7f, 0x1f, 0xfc, 0x0c, 0xbf, 0x1c, 0xf2, 0x30, 0x3c,
  0xea, 0x8b, 0x08, 0x81, 0x55, 0xe0, 0xd6, 0xc5, 0xcd, 0xc0, 0x01, 0xa8, 0x2a,
  0x1f, 0x0a, 0x56, 0x31, 0x81, 0xf7, 0x17, 0xbb, 0x90, 0x5c, 0x35, 0xeb, 0xdf,
  0x3f, 0xe2, 0xa2, 0xd2, 0x9a, 0xf1, 0xeb, 0x0a, 0x30, 0xd7, 0x0b, 0x23, 0xf2,
  0x7f, 0xe7, 0xfd, 0xff, 0xf4, 0x81, 0xe9, 0x31, 0x2f, 0xbc, 0xed, 0xd6, 0xf0,
  0xd9, 0xf1, 0xf2, 0x81, 0xe3, 0x07, 0xc5, 0xa7, 0x21, 0xe1, 0x9e, 0x05, 0x25,
  0xf5, 0xa5, 0x7f, 0xf5, 0x03, 0x0a, 0xfc, 0xda, 0xd5, 0x22, 0x1a, 0x38, 0x59,
  0xcd, 0xdf, 0x81, 0xfe, 0x32, 0x96, 0x24, 0x0a, 0x48, 0x8e, 0x1f, 0x17, 0xf2,
  0xde, 0x14, 0x81, 0x0d, 0xef, 0xf8, 0xdd, 0xc6, 0xcf, 0x3c, 0x9a, 0x0f, 0x1e,
  0x94, 0x59, 0xd6, 0x3a, 0xfd, 0xe6, 0x61, 0x51, 0xd2, 0x7f, 0xd4, 0x78, 0xd5,
  0xe9, 0xa9, 0xdf, 0xcc, 0xaf, 0xdf, 0xe4, 0x81, 0xf3, 0xe7, 0x3c, 0x65, 0x16,
  0x05, 0xe7, 0x89, 0xe8, 0xc0, 0xfa, 0x04, 0xba, 0x06, 0xbb, 0xeb, 0xe6, 0x2e,
  0x6d, 0x21, 0xf0, 0xcb, 0x0a, 0x7f, 0x08, 0xf6, 0x04, 0xf3, 0xf4, 0x07, 0x81,
  0xb5, 0x43, 0xf1, 0xcd, 0x73, 0x1c, 0x24, 0xe4, 0xee, 0xf5, 0xff, 0xff, 0x04,
  0x00, 0x00, 0x00, 0x60, 0x00, 0x00, 0x00, 0x00, 0x00, 0x00, 0x00, 0x00, 0x00,
  0x00, 0x00, 0x00, 0x00, 0x00, 0x00, 0x00, 0x00, 0x00, 0x00, 0x00, 0x00, 0x00,
  0x00, 0x00, 0x00, 0x00, 0x00, 0x00, 0x00, 0x00, 0x00, 0x00, 0x00, 0x00, 0x00,
  0x00, 0x00, 0x00, 0x00, 0x00, 0x00, 0x00, 0x00, 0x00, 0x00, 0x00, 0x00, 0x00,
  0x00, 0x00, 0x00, 0x00, 0x00, 0x00, 0x00, 0x00, 0x00, 0x00, 0x00, 0x00, 0x00,
  0x00, 0x00, 0x00, 0x00, 0x00, 0x00, 0x00, 0x00, 0x00, 0x00, 0x00, 0x00, 0x00,
  0x00, 0x00, 0x00, 0x00, 0x00, 0x00, 0x00, 0x00, 0x00, 0x00, 0x00, 0x00, 0x00,
  0x00, 0x00, 0x00, 0x00, 0x00, 0x00, 0x00, 0x00, 0x00, 0x00, 0x00, 0x00, 0x5a,
  0xf6, 0xff, 0xff, 0x04, 0x00, 0x00, 0x00, 0x4b, 0x00, 0x00, 0x00, 0x81, 0x1a,
  0x23, 0x27, 0x0d, 0x7f, 0x53, 0xf0, 0xff, 0xe9, 0x01, 0x38, 0xf6, 0x13, 0x3d,
  0xe1, 0x3d, 0xf1, 0x03, 0x02, 0x0c, 0x4a, 0xdd, 0x4c, 0xaf, 0xe1, 0x22, 0x1a,
  0xd8, 0x59, 0x9f, 0x47, 0x54, 0xe2, 0x36, 0x48, 0x9e, 0x81, 0x6d, 0x1f, 0x9e,
  0x7f, 0x08, 0x81, 0x20, 0xe1, 0x7f, 0x81, 0x7f, 0xde, 0xbc, 0x81, 0xd8, 0x71,
  0xfc, 0x81, 0xaf, 0xec, 0x19, 0x52, 0xb9, 0xfe, 0x62, 0x1d, 0x7f, 0xfd, 0xe1,
  0xff, 0x7f, 0x7f, 0x0a, 0x51, 0x7f, 0x08, 0x81, 0x00, 0xb2, 0xf6, 0xff, 0xff,
  0x04, 0x00, 0x00, 0x00, 0x4b, 0x00, 0x00, 0x00, 0x13, 0x02, 0x28, 0xf0, 0xbb,
  0xbe, 0x36, 0x4e, 0x03, 0xce, 0x81, 0x01, 0xe8, 0x4d, 0x5d, 0x6a, 0xf5, 0x63,
  0x2d, 0x81, 0xda, 0xaf, 0x14, 0x6f, 0xfd, 0x2d, 0x11, 0x81, 0xea, 0xf6, 0x81,
  0x81, 0xfb, 0xa8, 0xb8, 0xcd, 0x81, 0x7f, 0xf7, 0x48, 0xff, 0x7f, 0xd8, 0x5e,
  0x7f, 0xe3, 0x22, 0xd9, 0x7f, 0x2d, 0x71, 0x03, 0xc2, 0x81, 0xf1, 0x0c, 0x16,
  0x12, 0x7f, 0x28, 0x2f, 0xb2, 0x7f, 0x42, 0x1f, 0x7f, 0xe6, 0x0e, 0xc9, 0x7f,
  0x5e, 0xf7, 0xe7, 0x60, 0xcc, 0x00, 0x0a, 0xf7, 0xff, 0xff, 0x04, 0x00, 0x00,
  0x00, 0x2c, 0x01, 0x00, 0x00, 0xe6, 0xdb, 0xfb, 0x40, 0xf0, 0x0e, 0x0a, 0x66,
  0xf6, 0x0c, 0xf7, 0x67, 0x27, 0x4b, 0xc4, 0x7f, 0x3d, 0x57, 0x02, 0x16, 0x31,
  0xdf, 0xd4, 0xfd, 0xf1, 0x32, 0x02, 0x18, 0x04, 0xff, 0x0a, 0x29, 0x8b, 0x2b,
  0xff, 0xad, 0x2e, 0x7f, 0xf7, 0xf0, 0x3c, 0x14, 0xdf, 0x0a, 0x14, 0xee, 0xfc,
  0x44, 0x02, 0x7f, 0x14, 0x1d, 0x31, 0x94, 0x52, 0x9c, 0xec, 0xa6, 0xfd, 0xd4,
  0x12, 0xf2, 0xf6, 0x28, 0xda, 0xae, 0xfe, 0x7e, 0x21, 0x1e, 0x33, 0x19, 0xde,
  0x81, 0x36, 0x8e, 0x19, 0x31, 0xf3, 0x4e, 0xa0, 0x63, 0xc1, 0xb0, 0xff, 0x81,
  0xfb, 0x0b, 0x06, 0x06, 0xfa, 0x0f, 0x34, 0x1d, 0xe6, 0x2c, 0x14, 0x55, 0x0a,
  0xe5, 0x12, 0xae, 0x2a, 0x6c, 0xf8, 0x6b, 0xef, 0x86, 0x18, 0xe3, 0x17, 0x14,
  0x51, 0xde, 0x4d, 0x81, 0x37, 0xa3, 0xef, 0xff, 0xe2, 0x10, 0xcc, 0xba, 0x07,
  0x96, 0x09, 0x44, 0x0f, 0xd0, 0x21, 0xe4, 0xa7, 0x0e, 0x7f, 0xcd, 0xcc, 0xd8,
  0xe9, 0x0a, 0x21, 0xfc, 0x33, 0x11, 0xdd, 0x10, 0x08, 0xe2, 0x01, 0x07, 0x03,
  0xc1, 0xad, 0x81, 0x0a, 0x78, 0xf1, 0x21, 0xf4, 0x6b, 0xe4, 0xca, 0x1e, 0x43,
  0xd6, 0x1a, 0xfd, 0xc5, 0x14, 0xf3, 0x0a, 0xa4, 0xdf, 0x07, 0xd1, 0xea, 0xc5,
  0xcd, 0xfd, 0x7f, 0xf0, 0x17, 0x01, 0xe5, 0xfe, 0x7f, 0x0c, 0x04, 0x1c, 0xfa,
  0xf4, 0xf5, 0xf9, 0xfc, 0x02, 0xdf, 0xf9, 0xf7, 0x0d, 0xfd, 0xeb, 0x11, 0x10,
  0xdc, 0x20, 0x56, 0xf2, 0x38, 0x07, 0xed, 0x0c, 0x54, 0xb3, 0x11, 0xbc, 0x04,
  0x4c, 0x7f, 0x01, 0xe5, 0x18, 0xc2, 0x81, 0xfe, 0x01, 0xef, 0x04, 0x12, 0xfe,
  0xf0, 0xfc, 0x32, 0x3c, 0x0c, 0xee, 0xff, 0x28, 0xff, 0x0e, 0xef, 0x5e, 0x1c,
  0x4b, 0x1d, 0xf9, 0x40, 0xfe, 0x14, 0xeb, 0x44, 0xfa, 0x4c, 0xe6, 0x40, 0x36,
  0xb2, 0xe6, 0x81, 0x0a, 0x2b, 0xed, 0xc8, 0x21, 0xf9, 0x00, 0xa1, 0xff, 0xdf,
  0x00, 0x0d, 0xfe, 0x54, 0x29, 0xe1, 0x2c, 0x81, 0x62, 0x07, 0x07, 0x12, 0xcb,
  0xa7, 0x0d, 0x17, 0xff, 0x90, 0xdc, 0xd1, 0xec, 0x90, 0xfe, 0xf4, 0x1f, 0x81,
  0x2d, 0xfc, 0x2e, 0x23, 0x0a, 0x3d, 0x42, 0xf8, 0xff, 0xff, 0x04, 0x00, 0x00,
  0x00, 0x3c, 0x00, 0x00, 0x00, 0x69, 0x2c, 0xe6, 0x33, 0xbe, 0x4e, 0x81, 0x7f,
  0x16, 0xfb, 0xe5, 0x34, 0x28, 0x81, 0x81, 0xd4, 0xac, 0x81, 0x81, 0xd4, 0x22,
  0x81, 0xba, 0x81, 0x7f, 0x02, 0x2d, 0xe5, 0x7f, 0x7f, 0x7f, 0x4e, 0x81, 0x44,
  0x6e, 0x81, 0xd5, 0x30, 0xed, 0x7f, 0x81, 0x4a, 0x81, 0x4b, 0xcc, 0x7f, 0x18,
  0xc9, 0xd9, 0xef, 0xda, 0x81, 0x54, 0x3d, 0x11, 0x29, 0x7f, 0x47, 0x21, 0xb7,
  0x8a, 0xf8, 0xff, 0xff, 0x04, 0x00, 0x00, 0x00, 0x3c, 0x00, 0x00, 0x00, 0xc3,
  0x1c, 0x81, 0x39, 0xd9, 0xc1, 0x4d, 0x32, 0xcd, 0x81, 0x67, 0x7f, 0x7f, 0xcb,
  0xe5, 0xab, 0xdd, 0x7f, 0xe4, 0xef, 0x7f, 0xb9, 0x0b, 0x7f, 0x7f, 0x7f, 0x81,
  0x81, 0x7f, 0x29, 0x81, 0xd3, 0x9c, 0xb9, 0x81, 0xd8, 0xf2, 0x55, 0x24, 0x85,
  0xbb, 0x7f, 0x79, 0x3f, 0xb0, 0xba, 0x39, 0x02, 0xa7, 0xb3, 0xd6, 0x85, 0x1a,
  0x7f, 0xf0, 0x7f, 0x7f, 0x0f, 0x81, 0x7f, 0xd2, 0xf8, 0xff, 0xff, 0x04, 0x00,
  0x00, 0x00, 0xe1, 0x00, 0x00, 0x00, 0x58, 0x00, 0xc6, 0xfc, 0x7f, 0xda, 0xe1,
  0xfb, 0x44, 0xd4, 0x03, 0xeb, 0x00, 0x2b, 0xf0, 0xe2, 0x00, 0xfa, 0xe8, 0x14,
  0xe8, 0x7f, 0x1c, 0x17, 0x15, 0xe8, 0x08, 0x00, 0xaf, 0x3b, 0xe8, 0x00, 0x2d,
  0x69, 0x1b, 0x55, 0x1f, 0x24, 0x81, 0x5e, 0x2e, 0x37, 0x00, 0xd1, 0x08, 0xe0,
  0x00, 0x3c, 0x0f, 0x3d, 0x9f, 0xda, 0x0c, 0x87, 0xe1, 0x81, 0x13, 0x00, 0x07,
  0xea, 0x44, 0x00, 0x2b, 0x8d, 0xe2, 0xf0, 0x26, 0x81, 0x1f, 0x8f, 0xfb, 0x97,
  0x00, 0x0b, 0x06, 0xf0, 0x00, 0x81, 0x2d, 0xfb, 0x3b, 0x61, 0xd5, 0xec, 0xcc,
  0x34, 0xed, 0x00, 0xc4, 0x1b, 0xca, 0x00, 0xef, 0xe4, 0x81, 0x11, 0x02, 0x30,
  0x32, 0x75, 0xfd, 0xe3, 0x00, 0xe9, 0xee, 0xe7, 0x00, 0xc9, 0x04, 0x5e, 0xe2,
  0x81, 0x1a, 0x01, 0x16, 0xf9, 0x18, 0x00, 0x3f, 0xcf, 0xee, 0x00, 0x27, 0x1d,
  0x87, 0x7e, 0x9e, 0xc5, 0x05, 0xef, 0x7f, 0x22, 0x00, 0x3a, 0xc4, 0x81, 0x00,
  0xdd, 0x12, 0xf2, 0xf8, 0xa8, 0x0e, 0x10, 0x21, 0x01, 0x78, 0x00, 0x13, 0xe8,
  0xc2, 0x00, 0x0c, 0xae, 0xc3, 0xa2, 0x19, 0x81, 0xd7, 0xb4, 0xb6, 0x3b, 0x00,
  0xd8, 0x27, 0xc4, 0x00, 0x7f, 0xea, 0x3b, 0xde, 0xd8, 0x5a, 0xbd, 0x5b, 0xe9,
  0x21, 0x00, 0x00, 0xd6, 0x06, 0x00, 0xfd, 0x50, 0xc3, 0x7f, 0xca, 0x21, 0xb2,
  0xcf, 0x2a, 0xfd, 0x00, 0x0f, 0xd8, 0xf2, 0x00, 0xd8, 0xda, 0x81, 0x12, 0x14,
  0x2e, 0xd9, 0x1e, 0x03, 0xd8, 0x00, 0xeb, 0xf5, 0xce, 0x00, 0xa3, 0x20, 0x81,
  0x0f, 0x15, 0x24, 0xdd, 0x10, 0x20, 0x28, 0x00, 0xfc, 0x26, 0x00, 0x00, 0x00,
  0xc2, 0xf9, 0xff, 0xff, 0x04, 0x00, 0x00, 0x00, 0x4b, 0x00, 0x00, 0x00, 0xfb,
  0xbb, 0xf4, 0xfe, 0xda, 0x07, 0x03, 0xd7, 0x3a, 0x25, 0x01, 0x05, 0x81, 0xef,
  0xf4, 0xfc, 0x81, 0x26, 0x09, 0x81, 0x44, 0x0a, 0xa0, 0x7f, 0x1c, 0xf6, 0x08,
  0x31, 0x04, 0x0c, 0xf8, 0x5b, 0xc1, 0x7f, 0xbd, 0x7f, 0x81, 0x17, 0x04, 0x15,
  0x09, 0x7f, 0x9e, 0x7f, 0xe1, 0x81, 0xd4, 0x05, 0x54, 0xe1, 0x0c, 0x9d, 0x81,
  0x0c, 0x7f, 0x41, 0x68, 0x8a, 0x7a, 0x81, 0xa8, 0xd5, 0x81, 0x4c, 0x00, 0xf2,
  0x01, 0xd3, 0xfd, 0x26, 0x7f, 0x2a, 0x6f, 0xf3, 0x39, 0x00, 0x1a, 0xfa, 0xff,
  0xff, 0x04, 0x00, 0x00, 0x00, 0x4b, 0x00, 0x00, 0x00, 0xed, 0x3e, 0x83, 0x76,
  0x7f, 0x85, 0x1a, 0x3a, 0x7f, 0x24, 0x4a, 0xf8, 0x94, 0x12, 0x44, 0x4d, 0x15,
  0xf2, 0x55, 0xb5, 0x81, 0xee, 0x7f, 0x1e, 0x63, 0x7f, 0xb8, 0x57, 0x40, 0x7f,
  0x76, 0x81, 0x7f, 0x7f, 0xc5, 0xc9, 0xa4, 0x57, 0xf8, 0x7f, 0x3f, 0xaf, 0x28,
  0x4c, 0x37, 0x7f, 0x42, 0xc9, 0xe0, 0x05, 0xc2, 0x81, 0xfd, 0xd7, 0xd8, 0x24,
  0x81, 0xc8, 0x81, 0x07, 0xd9, 0xb7, 0x5a, 0x61, 0xf4, 0xee, 0x21, 0xd9, 0x10,
  0xe6, 0x18, 0x2f, 0x81, 0xe3, 0xf2, 0x00, 0x72, 0xfa, 0xff, 0xff, 0x04, 0x00,
  0x00, 0x00, 0x2c, 0x01, 0x00, 0x00, 0x0b, 0xe7, 0xf9, 0x1b, 0xd3, 0x18, 0xd6,
  0xd7, 0x64, 0xa0, 0xd6, 0x94, 0x7f, 0xac, 0xf5, 0xcd, 0xf9, 0xfd, 0xe8, 0xee,
  0x00, 0x00, 0x00, 0x00, 0x00, 0x00, 0x00, 0x00, 0x00, 0x00, 0x00, 0x00, 0x00,
  0x00, 0x00, 0x00, 0x00, 0x00, 0x00, 0x00, 0x28, 0x04, 0x05, 0xf9, 0x81, 0x2c,
  0xef, 0x15, 0xf5, 0x00, 0xe2, 0x2a, 0x23, 0x67, 0x01, 0xf1, 0x0d, 0xf7, 0x11,
  0x0d, 0x0c, 0x02, 0xe0, 0x05, 0xda, 0xbb, 0x45, 0x7f, 0x00, 0xaf, 0xd6, 0xd0,
  0x42, 0x30, 0x10, 0x93, 0x10, 0xeb, 0x49, 0xf7, 0x07, 0xe6, 0xe3, 0xe5, 0xe3,
  0xdc, 0x1a, 0x2e, 0x20, 0x0c, 0x7f, 0xde, 0x33, 0x4f, 0xfa, 0x07, 0xf4, 0xf8,
  0xf2, 0xd6, 0xb9, 0x03, 0xe0, 0x40, 0x13, 0x13, 0x12, 0x1d, 0x7f, 0x05, 0x1c,
  0xe8, 0x0a, 0x5a, 0x28, 0x20, 0xdd, 0xed, 0x12, 0x43, 0x3e, 0xdb, 0x07, 0xde,
  0xe1, 0x07, 0x02, 0xff, 0x7f, 0x02, 0x49, 0x04, 0x06, 0xd6, 0xee, 0x01, 0x13,
  0xe1, 0x0a, 0xb9, 0x0f, 0xe1, 0xf6, 0x25, 0x02, 0x0c, 0xf5, 0xd7, 0x07, 0x28,
  0xee, 0x0f, 0x4f, 0xf4, 0x0f, 0xee, 0xff, 0x7f, 0x48, 0x02, 0x5c, 0xf5, 0x81,
  0xfd, 0x0e, 0x42, 0x29, 0x35, 0x47, 0x26, 0xbb, 0xee, 0xdb, 0x32, 0xef, 0x02,
  0xda, 0x07, 0xa5, 0x27, 0xfd, 0xf0, 0xd7, 0x04, 0x03, 0xe5, 0x20, 0xea, 0xff,
  0x63, 0x00, 0xf5, 0x16, 0x05, 0x00, 0x09, 0xf0, 0x11, 0x7f, 0xf9, 0xfa, 0x09,
  0x23, 0x0a, 0xf2, 0x0a, 0x29, 0x05, 0xf8, 0xd3, 0xfe, 0xf3, 0xc5, 0xff, 0x00,
  0x0b, 0x81, 0x13, 0x3a, 0xfc, 0xfd, 0xd5, 0xfa, 0x08, 0xfd, 0xba, 0x7f, 0x15,
  0xf9, 0xaf, 0xfc, 0xcb, 0x20, 0x13, 0x02, 0x04, 0x2b, 0x15, 0x4d, 0xf2, 0x00,
  0x00, 0x00, 0x00, 0x00, 0x00, 0x00, 0x00, 0x00, 0x00, 0x00, 0x00, 0x00, 0x00,
  0x00, 0x00, 0x00, 0x00, 0x00, 0x00, 0x81, 0xef, 0xf4, 0x08, 0x15, 0x08, 0x44,
  0xec, 0x94, 0x08, 0xee, 0xc8, 0xd7, 0xf2, 0x0b, 0xf5, 0x1b, 0xf4, 0xf4, 0xe6,
  0xfc, 0xfe, 0x0f, 0xfe, 0x06, 0x0b, 0x16, 0x7f, 0xfe, 0x04, 0x00, 0xef, 0x28,
  0xeb, 0x01, 0x67, 0xee, 0x07, 0x04, 0x03, 0xaa, 0xfb, 0xff, 0xff, 0x04, 0x00,
  0x00, 0x00, 0x78, 0x00, 0x00, 0x00, 0x00, 0x00, 0x00, 0x00, 0x00, 0x00, 0x00,
  0x00, 0x00, 0x00, 0x00, 0x00, 0x00, 0x00, 0x00, 0x00, 0x00, 0x00, 0x00, 0x00,
  0x00, 0x00, 0x00, 0x00, 0x00, 0x00, 0x00, 0x00, 0x00, 0x00, 0x00, 0x00, 0x00,
  0x00, 0x00, 0x00, 0x00, 0x00, 0x00, 0x00, 0x00, 0x00, 0x00, 0x00, 0x00, 0x00,
  0x00, 0x00, 0x00, 0x00, 0x00, 0x00, 0x00, 0x00, 0x00, 0x00, 0x00, 0x00, 0x00,
  0x00, 0x00, 0x00, 0x00, 0x00, 0x00, 0x00, 0x00, 0x00, 0x00, 0x00, 0x00, 0x00,
  0x00, 0x00, 0x00, 0x00, 0x00, 0x00, 0x00, 0x00, 0x00, 0x00, 0x00, 0x00, 0x00,
  0x00, 0x00, 0x00, 0x00, 0x00, 0x00, 0x00, 0x00, 0x00, 0x00, 0x00, 0x00, 0x00,
  0x00, 0x00, 0x00, 0x00, 0x00, 0x00, 0x00, 0x00, 0x00, 0x00, 0x00, 0x00, 0x00,
  0x00, 0x00, 0x00, 0x00, 0x00, 0x00, 0x00, 0x00, 0x00, 0x2e, 0xfc, 0xff, 0xff,
  0x04, 0x00, 0x00, 0x00, 0x64, 0x00, 0x00, 0x00, 0xfa, 0x81, 0x81, 0x3d, 0xc5,
  0xb4, 0xe4, 0xd5, 0xd5, 0x7f, 0xde, 0x23, 0x91, 0x09, 0x31, 0x0d, 0x11, 0x45,
  0xa8, 0xb6, 0xd8, 0xf3, 0xef, 0xce, 0xdc, 0x7f, 0x7f, 0xed, 0x43, 0xfa, 0xfa,
  0x75, 0xb2, 0x0c, 0xbb, 0x23, 0x7f, 0xe1, 0x7f, 0x61, 0x7f, 0x3a, 0x65, 0x9a,
  0x81, 0xeb, 0xa0, 0x52, 0xca, 0xa5, 0xef, 0x81, 0x67, 0x81, 0x65, 0x81, 0xc0,
  0xc3, 0xe0, 0x19, 0x04, 0x73, 0x42, 0xd8, 0x2e, 0xc5, 0xf6, 0xb5, 0x81, 0xf2,
  0xf2, 0x93, 0xaa, 0xf1, 0x81, 0xcb, 0xd2, 0x9d, 0x00, 0x81, 0x26, 0xcc, 0xe8,
  0x7f, 0xc1, 0x1b, 0x0a, 0x7f, 0x2c, 0xf0, 0x81, 0x0a, 0x7f, 0xc9, 0x37, 0x1a,
  0xd9, 0x7f, 0xf9, 0x51, 0x9e, 0xfc, 0xff, 0xff, 0x04, 0x00, 0x00, 0x00, 0x64,
  0x00, 0x00, 0x00, 0x06, 0xbc, 0x4b, 0x26, 0x01, 0x06, 0xd0, 0xec, 0xf6, 0x06,
  0x81, 0x34, 0xfb, 0xef, 0xe3, 0xe8, 0x7f, 0xe7, 0x15, 0xf2, 0xc4, 0x7f, 0xbd,
  0xe8, 0xf5, 0xc7, 0x29, 0x0e, 0x29, 0xd7, 0x37, 0x81, 0xe8, 0x61, 0x2c, 0x19,
  0x81, 0xe5, 0xe9, 0xfc, 0x7f, 0xed, 0x7f, 0x81, 0x7a, 0x91, 0x7f, 0x23, 0x81,
  0x7f, 0x28, 0x7f, 0x85, 0x69, 0x7f, 0x81, 0x26, 0x77, 0x7f, 0x9d, 0xca, 0xb4,
  0xc6, 0x70, 0x81, 0x7f, 0xdc, 0x5f, 0x27, 0xe6, 0xea, 0xb9, 0x21, 0x81, 0xe2,
  0x5a, 0xd5, 0x7f, 0x13, 0x7f, 0x00, 0x4a, 0x0d, 0xaa, 0x11, 0x4b, 0x23, 0x81,
  0xf1, 0x03, 0x13, 0x18, 0x7f, 0xc6, 0xa2, 0x24, 0x09, 0x9c, 0xdd, 0xd5, 0x0e,
  0xfd, 0xff, 0xff, 0x04, 0x00, 0x00, 0x00, 0x14, 0x00, 0x00, 0x00, 0x7f, 0x7f,
  0x81, 0x7f, 0x7f, 0x81, 0x7f, 0x81, 0x7f, 0x81, 0x7f, 0x81, 0x81, 0x81, 0x81,
  0x81, 0x81, 0x81, 0x7f, 0x7f, 0x2e, 0xfd, 0xff, 0xff, 0x04, 0x00, 0x00, 0x00,
  0xa0, 0x00, 0x00, 0x00, 0x00, 0x00, 0x00, 0x00, 0x00, 0x00, 0x00, 0x00, 0x00,
  0x00, 0x00, 0x00, 0x00, 0x00, 0x00, 0x00, 0x00, 0x00, 0x00, 0x00, 0x00, 0x00,
  0x00, 0x00, 0x00, 0x00, 0x00, 0x00, 0x00, 0x00, 0x00, 0x00, 0x00, 0x00, 0x00,
  0x00, 0x00, 0x00, 0x00, 0x00, 0x00, 0x00, 0x00, 0x00, 0x00, 0x00, 0x00, 0x00,
  0x00, 0x00, 0x00, 0x00, 0x00, 0x00, 0x00, 0x00, 0x00, 0x00, 0x00, 0x00, 0x00,
  0x00, 0x00, 0x00, 0x00, 0x00, 0x00, 0x00, 0x00, 0x00, 0x00, 0x00, 0x00, 0x00,
  0x00, 0x00, 0x00, 0x00, 0x00, 0x00, 0x00, 0x00, 0x00, 0x00, 0x00, 0x00, 0x00,
  0x00, 0x00, 0x00, 0x00, 0x00, 0x00, 0x00, 0x00, 0x00, 0x00, 0x00, 0x00, 0x00,
  0x00, 0x00, 0x00, 0x00, 0x00, 0x00, 0x00, 0x00, 0x00, 0x00, 0x00, 0x00, 0x00,
  0x00, 0x00, 0x00, 0x00, 0x00, 0x00, 0x00, 0x00, 0x00, 0x00, 0x00, 0x00, 0x00,
  0x00, 0x00, 0x00, 0x00, 0x00, 0x00, 0x00, 0x00, 0x00, 0x00, 0x00, 0x00, 0x00,
  0x00, 0x00, 0x00, 0x00, 0x00, 0x00, 0x00, 0x00, 0x00, 0x00, 0x00, 0x00, 0x00,
  0x00, 0x00, 0x00, 0x00, 0x00, 0x00, 0x00, 0x00, 0xda, 0xfd, 0xff, 0xff, 0x04,
  0x00, 0x00, 0x00, 0x05, 0x00, 0x00, 0x00, 0x01, 0x81, 0x18, 0x01, 0xfe, 0x00,
  0x00, 0x00, 0xee, 0xfd, 0xff, 0xff, 0x04, 0x00, 0x00, 0x00, 0x05, 0x00, 0x00,
  0x00, 0x00, 0x00, 0x05, 0xf6, 0x7f, 0x00, 0x00, 0x00, 0x02, 0xfe, 0xff, 0xff,
  0x04, 0x00, 0x00, 0x00, 0x08, 0x00, 0x00, 0x00, 0x00, 0x00, 0x00, 0x00, 0x00,
  0x00, 0x00, 0x00, 0x16, 0xfe, 0xff, 0xff, 0x04, 0x00, 0x00, 0x00, 0x20, 0x00,
  0x00, 0x00, 0x00, 0x00, 0x00, 0x00, 0x00, 0x00, 0x00, 0x00, 0x02, 0x00, 0x00,
  0x00, 0x02, 0x00, 0x00, 0x00, 0x02, 0x00, 0x00, 0x00, 0x02, 0x00, 0x00, 0x00,
  0x00, 0x00, 0x00, 0x00, 0x00, 0x00, 0x00, 0x00, 0x42, 0xfe, 0xff, 0xff, 0x04,
  0x00, 0x00, 0x00, 0x78, 0x00, 0x00, 0x00, 0x13, 0xdd, 0xfd, 0xff, 0xff, 0xff,
  0xff, 0xff, 0x00, 0x00, 0x00, 0xc0, 0xff, 0xff, 0xff, 0xff, 0x90, 0x07, 0x01,
  0x00, 0x00, 0x00, 0x00, 0x00, 0xe1, 0xe2, 0xff, 0xff, 0xff, 0xff, 0xff, 0xff,
  0xb3, 0x04, 0x00, 0x00, 0x00, 0x00, 0x00, 0x00, 0x4d, 0x63, 0x00, 0x00, 0x00,
  0x00, 0x00, 0x00, 0xbd, 0xca, 0xfe, 0xff, 0xff, 0xff, 0xff, 0xff, 0x3d, 0xb4,
  0xff, 0xff, 0xff, 0xff, 0xff, 0xff, 0x2d, 0xcf, 0x01, 0x00, 0x00, 0x00, 0x00,
  0x00, 0xea, 0x5b, 0x00, 0x00, 0x00, 0x00, 0x00, 0x00, 0xa7, 0xa0, 0xff, 0xff,
  0xff, 0xff, 0xff, 0xff, 0x49, 0xcc, 0x00, 0x00, 0x00, 0x00, 0x00, 0x00, 0x00,
  0x00, 0x00, 0xc0, 0xff, 0xff, 0xff, 0xff, 0xa2, 0x63, 0x01, 0x00, 0x00, 0x00,
  0x00, 0x00, 0xa7, 0x51, 0x00, 0x00, 0x00, 0x00, 0x00, 0x00, 0xc6, 0xfe, 0xff,
  0xff, 0x04, 0x00, 0x00, 0x00, 0x60, 0x00, 0x00, 0x00, 0x8d, 0x55, 0x00, 0x00,
  0x00, 0x00, 0x00, 0x00, 0x24, 0xcc, 0x01, 0x00, 0x00, 0x00, 0x00, 0x00, 0x66,
  0xa7, 0x02, 0x00, 0x00, 0x00, 0x00, 0x00, 0x41, 0xde, 0xff, 0xff, 0xff, 0xff,
  0xff, 0xff, 0x3b, 0x43, 0xfe, 0xff, 0xff, 0xff, 0xff, 0xff, 0x03, 0xed, 0xff,
  0xff, 0xff, 0xff, 0xff, 0xff, 0x41, 0x00, 0xff, 0xff, 0xff, 0xff, 0xff, 0xff,
  0x40, 0xe0, 0xfe, 0xff, 0xff, 0xff, 0xff, 0xff, 0xfa, 0xa1, 0x01, 0x00, 0x00,
  0x00, 0x00, 0x00, 0x18, 0xc5, 0xfe, 0xff, 0xff, 0xff, 0xff, 0xff, 0x82, 0x1d,
  0x01, 0x00, 0x00, 0x00, 0x00, 0x00, 0xef, 0x8f, 0xfe, 0xff, 0xff, 0xff, 0xff,
  0xff, 0x32, 0xff, 0xff, 0xff, 0x04, 0x00, 0x00, 0x00, 0x48, 0x00, 0x00, 0x00,
  0x16, 0x2e, 0x01, 0x00, 0x00, 0x00, 0x00, 0x00, 0x57, 0x73, 0x00, 0x00, 0x00,
  0x00, 0x00, 0x00, 0x56, 0x7e, 0xfc, 0xff, 0xff, 0xff, 0xff, 0xff, 0xe3, 0x51,
  0x00, 0x00, 0x00, 0x00, 0x00, 0x00, 0x27, 0x2f, 0xff, 0xff, 0xff, 0xff, 0xff,
  0xff, 0x0e, 0x29, 0x00, 0x00, 0x00, 0x00, 0x00, 0x00, 0x8f, 0x73, 0xfc, 0xff,
  0xff, 0xff, 0xff, 0xff, 0x2b, 0xb1, 0xff, 0xff, 0xff, 0xff, 0xff, 0xff, 0x1a,
  0x7d, 0xff, 0xff, 0xff, 0xff, 0xff, 0xff, 0x86, 0xff, 0xff, 0xff, 0x04, 0x00,
  0x00, 0x00, 0x38, 0x00, 0x00, 0x00, 0x40, 0x36, 0xf8, 0xff, 0xff, 0xff, 0xff,
  0xff, 0x2b, 0xea, 0xff, 0xff, 0xff, 0xff, 0xff, 0xff, 0xe1, 0x0d, 0x00, 0x00,
  0x00, 0x00, 0x00, 0x00, 0xa7, 0x02, 0xfe, 0xff, 0xff, 0xff, 0xff, 0xff, 0x1f,
  0x12, 0xff, 0xff, 0xff, 0xff, 0xff, 0xff, 0x70, 0xe9, 0x00, 0x00, 0x00, 0x00,
  0x00, 0x00, 0x8d, 0x7f, 0x00, 0x00, 0x00, 0x00, 0x00, 0x00, 0xca, 0xff, 0xff,
  0xff, 0x04, 0x00, 0x00, 0x00, 0x28, 0x00, 0x00, 0x00, 0x9d, 0x3a, 0x00, 0x00,
  0x00, 0x00, 0x00, 0x00, 0x2a, 0xba, 0xfc, 0xff, 0xff, 0xff, 0xff, 0xff, 0x7f,
  0x28, 0xfa, 0xff, 0xff, 0xff, 0xff, 0xff, 0xaf, 0x44, 0x00, 0x00, 0x00, 0x00,
  0x00, 0x00, 0x00, 0x00, 0x00, 0xc0, 0xff, 0xff, 0xff, 0xff, 0x00, 0x00, 0x06,
  0x00, 0x08, 0x00, 0x04, 0x00, 0x06, 0x00, 0x00, 0x00, 0x04, 0x00, 0x00, 0x00,
  0x28, 0x00, 0x00, 0x00, 0xa4, 0x87, 0xef, 0xff, 0xff, 0xff, 0xff, 0xff, 0x7e,
  0x20, 0x01, 0x00, 0x00, 0x00, 0x00, 0x00, 0xd9, 0xe1, 0xf0, 0xff, 0xff, 0xff,
  0xff, 0xff, 0x35, 0xdb, 0xf7, 0xff, 0xff, 0xff, 0xff, 0xff, 0x5a, 0x7f, 0xff,
  0xff, 0xff, 0xff, 0xff, 0xff, 0x48, 0x7d, 0xff, 0xff, 0x4c, 0x7d, 0xff, 0xff,
  0x0f, 0x00, 0x00, 0x00, 0x4d, 0x4c, 0x49, 0x52, 0x20, 0x43, 0x6f, 0x6e, 0x76,
  0x65, 0x72, 0x74, 0x65, 0x64, 0x2e, 0x00, 0x01, 0x00, 0x00, 0x00, 0x14, 0x00,
  0x00, 0x00, 0x00, 0x00, 0x0e, 0x00, 0x18, 0x00, 0x14, 0x00, 0x10, 0x00, 0x0c,
  0x00, 0x08, 0x00, 0x04, 0x00, 0x0e, 0x00, 0x00, 0x00, 0x14, 0x00, 0x00, 0x00,
  0x1c, 0x00, 0x00, 0x00, 0x50, 0x11, 0x00, 0x00, 0x54, 0x11, 0x00, 0x00, 0x58,
  0x11, 0x00, 0x00, 0x04, 0x00, 0x00, 0x00, 0x6d, 0x61, 0x69, 0x6e, 0x00, 0x00,
  0x00, 0x00, 0x42, 0x00, 0x00, 0x00, 0x14, 0x11, 0x00, 0x00, 0xd8, 0x10, 0x00,
  0x00, 0x78, 0x10, 0x00, 0x00, 0x24, 0x10, 0x00, 0x00, 0xd8, 0x0f, 0x00, 0x00,
  0x94, 0x0f, 0x00, 0x00, 0x50, 0x0f, 0x00, 0x00, 0x00, 0x0f, 0x00, 0x00, 0xbc,
  0x0e, 0x00, 0x00, 0x78, 0x0e, 0x00, 0x00, 0x38, 0x0e, 0x00, 0x00, 0xf4, 0x0d,
  0x00, 0x00, 0xb0, 0x0d, 0x00, 0x00, 0x70, 0x0d, 0x00, 0x00, 0x30, 0x0d, 0x00,
  0x00, 0xec, 0x0c, 0x00, 0x00, 0xa8, 0x0c, 0x00, 0x00, 0x64, 0x0c, 0x00, 0x00,
  0x20, 0x0c, 0x00, 0x00, 0xdc, 0x0b, 0x00, 0x00, 0x9c, 0x0b, 0x00, 0x00, 0x58,
  0x0b, 0x00, 0x00, 0x14, 0x0b, 0x00, 0x00, 0xd4, 0x0a, 0x00, 0x00, 0x9c, 0x0a,
  0x00, 0x00, 0x58, 0x0a, 0x00, 0x00, 0x14, 0x0a, 0x00, 0x00, 0xd0, 0x09, 0x00,
  0x00, 0x8c, 0x09, 0x00, 0x00, 0x48, 0x09, 0x00, 0x00, 0x08, 0x09, 0x00, 0x00,
  0xc4, 0x08, 0x00, 0x00, 0x80, 0x08, 0x00, 0x00, 0x40, 0x08, 0x00, 0x00, 0x08,
  0x08, 0x00, 0x00, 0xc4, 0x07, 0x00, 0x00, 0x80, 0x07, 0x00, 0x00, 0x3c, 0x07,
  0x00, 0x00, 0xf8, 0x06, 0x00, 0x00, 0xb4, 0x06, 0x00, 0x00, 0x74, 0x06, 0x00,
  0x00, 0x30, 0x06, 0x00, 0x00, 0xec, 0x05, 0x00, 0x00, 0xac, 0x05, 0x00, 0x00,
  0x74, 0x05, 0x00, 0x00, 0x30, 0x05, 0x00, 0x00, 0xec, 0x04, 0x00, 0x00, 0xa8,
  0x04, 0x00, 0x00, 0x64, 0x04, 0x00, 0x00, 0x20, 0x04, 0x00, 0x00, 0xe0, 0x03,
  0x00, 0x00, 0x9c, 0x03, 0x00, 0x00, 0x58, 0x03, 0x00, 0x00, 0x18, 0x03, 0x00,
  0x00, 0xe0, 0x02, 0x00, 0x00, 0x9c, 0x02, 0x00, 0x00, 0x58, 0x02, 0x00, 0x00,
  0x14, 0x02, 0x00, 0x00, 0xd0, 0x01, 0x00, 0x00, 0x8c, 0x01, 0x00, 0x00, 0x4c,
  0x01, 0x00, 0x00, 0x14, 0x01, 0x00, 0x00, 0xc0, 0x00, 0x00, 0x00, 0x78, 0x00,
  0x00, 0x00, 0x28, 0x00, 0x00, 0x00, 0x04, 0x00, 0x00, 0x00, 0xfe, 0xef, 0xff,
  0xff, 0x0c, 0x00, 0x00, 0x00, 0x10, 0x00, 0x00, 0x00, 0x05, 0x00, 0x00, 0x00,
  0x01, 0x00, 0x00, 0x00, 0x91, 0x00, 0x00, 0x00, 0x01, 0x00, 0x00, 0x00, 0x8f,
  0x00, 0x00, 0x00, 0xb6, 0xf0, 0xff, 0xff, 0x20, 0x00, 0x00, 0x00, 0x00, 0x00,
  0x00, 0x01, 0x28, 0x00, 0x00, 0x00, 0x2c, 0x00, 0x00, 0x00, 0x02, 0x00, 0x00,
  0x00, 0x00, 0x00, 0x0a, 0x00, 0x10, 0x00, 0x0f, 0x00, 0x08, 0x00, 0x04, 0x00,
  0x0a, 0x00, 0x00, 0x00, 0x01, 0x00, 0x00, 0x00, 0x01, 0x00, 0x00, 0x00, 0x00,
  0x00, 0x00, 0x01, 0x01, 0x00, 0x00, 0x00, 0x8f, 0x00, 0x00, 0x00, 0x03, 0x00,
  0x00, 0x00, 0x8e, 0x00, 0x00, 0x00, 0x47, 0x00, 0x00, 0x00, 0x4f, 0x00, 0x00,
  0x00, 0x02, 0xf1, 0xff, 0xff, 0x14, 0x00, 0x00, 0x00, 0x00, 0x00, 0x00, 0x02,
  0x20, 0x00, 0x00, 0x00, 0x24, 0x00, 0x00, 0x00, 0x01, 0x00, 0x00, 0x00, 0xbc,
  0xff, 0xff, 0xff, 0x01, 0x00, 0x00, 0x00, 0x01, 0x00, 0x00, 0x00, 0x01, 0x00,
  0x00, 0x00, 0x00, 0x00, 0x00, 0x01, 0x01, 0x00, 0x00, 0x00, 0x8e, 0x00, 0x00,
  0x00, 0x03, 0x00, 0x00, 0x00, 0x8d, 0x00, 0x00, 0x00, 0x46, 0x00, 0x00, 0x00,
  0x37, 0x00, 0x00, 0x00, 0x46, 0xf1, 0xff, 0xff, 0x20, 0x00, 0x00, 0x00, 0x00,
  0x00, 0x00, 0x02, 0x2c, 0x00, 0x00, 0x00, 0x30, 0x00, 0x00, 0x00, 0x01, 0x00,
  0x00, 0x00, 0x0c, 0x00, 0x14, 0x00, 0x13, 0x00, 0x0c, 0x00, 0x08, 0x00, 0x04,
  0x00, 0x0c, 0x00, 0x00, 0x00, 0x01, 0x00, 0x00, 0x00, 0x01, 0x00, 0x00, 0x00,
  0x01, 0x00, 0x00, 0x00, 0x00, 0x00, 0x00, 0x01, 0x01, 0x00, 0x00, 0x00, 0x8d,
  0x00, 0x00, 0x00, 0x03, 0x00, 0x00, 0x00, 0x8c, 0x00, 0x00, 0x00, 0x45, 0x00,
  0x00, 0x00, 0x37, 0x00, 0x00, 0x00, 0x96, 0xf1, 0xff, 0xff, 0x14, 0x00, 0x00,
  0x00, 0x00, 0x00, 0x00, 0x0b, 0x14, 0x00, 0x00, 0x00, 0x18, 0x00, 0x00, 0x00,
  0x03, 0x00, 0x00, 0x00, 0xa0, 0xf4, 0xff, 0xff, 0x00, 0x00, 0x00, 0x00, 0x01,
  0x00, 0x00, 0x00, 0x8c, 0x00, 0x00, 0x00, 0x02, 0x00, 0x00, 0x00, 0x85, 0x00,
  0x00, 0x00, 0x8b, 0x00, 0x00, 0x00, 0xca, 0xf1, 0xff, 0xff, 0x14, 0x00, 0x00,
  0x00, 0x00, 0x00, 0x00, 0x01, 0x18, 0x00, 0x00, 0x00, 0x1c, 0x00, 0x00, 0x00,
  0x02, 0x00, 0x00, 0x00, 0x52, 0xf2, 0xff, 0xff, 0x01, 0x00, 0x00, 0x00, 0x01,
  0x00, 0x00, 0x00, 0x01, 0x00, 0x00, 0x00, 0x8b, 0x00, 0x00, 0x00, 0x03, 0x00,
  0x00, 0x00, 0x8a, 0x00, 0x00, 0x00, 0x44, 0x00, 0x00, 0x00, 0x4e, 0x00, 0x00,
  0x00, 0x06, 0xf2, 0xff, 0xff, 0x14, 0x00, 0x00, 0x00, 0x00, 0x00, 0x00, 0x02,
  0x1c, 0x00, 0x00, 0x00, 0x20, 0x00, 0x00, 0x00, 0x01, 0x00, 0x00, 0x00, 0xf8,
  0xf1, 0xff, 0xff, 0x01, 0x00, 0x00, 0x00, 0x01, 0x00, 0x00, 0x00, 0x01, 0x00,
  0x00, 0x00, 0x01, 0x00, 0x00, 0x00, 0x8a, 0x00, 0x00, 0x00, 0x03, 0x00, 0x00,
  0x00, 0x89, 0x00, 0x00, 0x00, 0x43, 0x00, 0x00, 0x00, 0x37, 0x00, 0x00, 0x00,
  0x46, 0xf2, 0xff, 0xff, 0x14, 0x00, 0x00, 0x00, 0x00, 0x00, 0x00, 0x02, 0x1c,
  0x00, 0x00, 0x00, 0x20, 0x00, 0x00, 0x00, 0x01, 0x00, 0x00, 0x00, 0x38, 0xf2,
  0xff, 0xff, 0x01, 0x00, 0x00, 0x00, 0x01, 0x00, 0x00, 0x00, 0x01, 0x00, 0x00,
  0x00, 0x01, 0x00, 0x00, 0x00, 0x89, 0x00, 0x00, 0x00, 0x03, 0x00, 0x00, 0x00,
  0x88, 0x00, 0x00, 0x00, 0x42, 0x00, 0x00, 0x00, 0x37, 0x00, 0x00, 0x00, 0x86,
  0xf2, 0xff, 0xff, 0x14, 0x00, 0x00, 0x00, 0x00, 0x00, 0x00, 0x01, 0x1c, 0x00,
  0x00, 0x00, 0x20, 0x00, 0x00, 0x00, 0x02, 0x00, 0x00, 0x00, 0xdc, 0xf3, 0xff,
  0xff, 0x00, 0x00, 0x00, 0x01, 0x01, 0x00, 0x00, 0x00, 0x01, 0x00, 0x00, 0x00,
  0x01, 0x00, 0x00, 0x00, 0x88, 0x00, 0x00, 0x00, 0x03, 0x00, 0x00, 0x00, 0x87,
  0x00, 0x00, 0x00, 0x41, 0x00, 0x00, 0x00, 0x01, 0x00, 0x00, 0x00, 0xc6, 0xf2,
  0xff, 0xff, 0x14, 0x00, 0x00, 0x00, 0x00, 0x00, 0x00, 0x02, 0x1c, 0x00, 0x00,
  0x00, 0x20, 0x00, 0x00, 0x00, 0x01, 0x00, 0x00, 0x00, 0xb8, 0xf2, 0xff, 0xff,
  0x01, 0x00, 0x00, 0x00, 0x01, 0x00, 0x00, 0x00, 0x01, 0x00, 0x00, 0x00, 0x01,
  0x00, 0x00, 0x00, 0x87, 0x00, 0x00, 0x00, 0x03, 0x00, 0x00, 0x00, 0x86, 0x00,
  0x00, 0x00, 0x40, 0x00, 0x00, 0x00, 0x37, 0x00, 0x00, 0x00, 0x06, 0xf3, 0xff,
  0xff, 0x14, 0x00, 0x00, 0x00, 0x00, 0x00, 0x00, 0x02, 0x1c, 0x00, 0x00, 0x00,
  0x20, 0x00, 0x00, 0x00, 0x01, 0x00, 0x00, 0x00, 0xf8, 0xf2, 0xff, 0xff, 0x01,
  0x00, 0x00, 0x00, 0x01, 0x00, 0x00, 0x00, 0x01, 0x00, 0x00, 0x00, 0x01, 0x00,
  0x00, 0x00, 0x86, 0x00, 0x00, 0x00, 0x03, 0x00, 0x00, 0x00, 0x85, 0x00, 0x00,
  0x00, 0x3f, 0x00, 0x00, 0x00, 0x37, 0x00, 0x00, 0x00, 0x46, 0xf3, 0xff, 0xff,
  0x14, 0x00, 0x00, 0x00, 0x00, 0x00, 0x00, 0x0b, 0x14, 0x00, 0x00, 0x00, 0x18,
  0x00, 0x00, 0x00, 0x03, 0x00, 0x00, 0x00, 0x50, 0xf6, 0xff, 0xff, 0x00, 0x00,
  0x00, 0x00, 0x01, 0x00, 0x00, 0x00, 0x85, 0x00, 0x00, 0x00, 0x02, 0x00, 0x00,
  0x00, 0x84, 0x00, 0x00, 0x00, 0x81, 0x00, 0x00, 0x00, 0x7a, 0xf3, 0xff, 0xff,
  0x14, 0x00, 0x00, 0x00, 0x00, 0x00, 0x00, 0x01, 0x18, 0x00, 0x00, 0x00, 0x1c,
  0x00, 0x00, 0x00, 0x02, 0x00, 0x00, 0x00, 0x02, 0xf4, 0xff, 0xff, 0x01, 0x00,
  0x00, 0x00, 0x01, 0x00, 0x00, 0x00, 0x01, 0x00, 0x00, 0x00, 0x84, 0x00, 0x00,
  0x00, 0x03, 0x00, 0x00, 0x00, 0x83, 0x00, 0x00, 0x00, 0x3e, 0x00, 0x00, 0x00,
  0x4d, 0x00, 0x00, 0x00, 0xb6, 0xf3, 0xff, 0xff, 0x14, 0x00, 0x00, 0x00, 0x00,
  0x00, 0x00, 0x02, 0x1c, 0x00, 0x00, 0x00, 0x20, 0x00, 0x00, 0x00, 0x01, 0x00,
  0x00, 0x00, 0xa8, 0xf3, 0xff, 0xff, 0x01, 0x00, 0x00, 0x00, 0x01, 0x00, 0x00,
  0x00, 0x01, 0x00, 0x00, 0x00, 0x01, 0x00, 0x00, 0x00, 0x83, 0x00, 0x00, 0x00,
  0x03, 0x00, 0x00, 0x00, 0x82, 0x00, 0x00, 0x00, 0x3d, 0x00, 0x00, 0x00, 0x2d,
  0x00, 0x00, 0x00, 0xf6, 0xf3, 0xff, 0xff, 0x14, 0x00, 0x00, 0x00, 0x00, 0x00,
  0x00, 0x02, 0x1c, 0x00, 0x00, 0x00, 0x20, 0x00, 0x00, 0x00, 0x01, 0x00, 0x00,
  0x00, 0xe8, 0xf3, 0xff, 0xff, 0x01, 0x00, 0x00, 0x00, 0x01, 0x00, 0x00, 0x00,
  0x01, 0x00, 0x00, 0x00, 0x01, 0x00, 0x00, 0x00, 0x82, 0x00, 0x00, 0x00, 0x03,
  0x00, 0x00, 0x00, 0x7b, 0x00, 0x00, 0x00, 0x3c, 0x00, 0x00, 0x00, 0x2d, 0x00,
  0x00, 0x00, 0x36, 0xf4, 0xff, 0xff, 0x14, 0x00, 0x00, 0x00, 0x00, 0x00, 0x00,
  0x01, 0x18, 0x00, 0x00, 0x00, 0x1c, 0x00, 0x00, 0x00, 0x02, 0x00, 0x00, 0x00,
  0xbe, 0xf4, 0xff, 0xff, 0x01, 0x00, 0x00, 0x00, 0x01, 0x00, 0x00, 0x00, 0x01,
  0x00, 0x00, 0x00, 0x81, 0x00, 0x00, 0x00, 0x03, 0x00, 0x00, 0x00, 0x80, 0x00,
  0x00, 0x00, 0x3b, 0x00, 0x00, 0x00, 0x4d, 0x00, 0x00, 0x00, 0x72, 0xf4, 0xff,
  0xff, 0x14, 0x00, 0x00, 0x00, 0x00, 0x00, 0x00, 0x02, 0x1c, 0x00, 0x00, 0x00,
  0x20, 0x00, 0x00, 0x00, 0x01, 0x00, 0x00, 0x00, 0x64, 0xf4, 0xff, 0xff, 0x01,
  0x00, 0x00, 0x00, 0x01, 0x00, 0x00, 0x00, 0x01, 0x00, 0x00, 0x00, 0x01, 0x00,
  0x00, 0x00, 0x80, 0x00, 0x00, 0x00, 0x03, 0x00, 0x00, 0x00, 0x7f, 0x00, 0x00,
  0x00, 0x3a, 0x00, 0x00, 0x00, 0x37, 0x00, 0x00, 0x00, 0xb2, 0xf4, 0xff, 0xff,
  0x14, 0x00, 0x00, 0x00, 0x00, 0x00, 0x00, 0x02, 0x1c, 0x00, 0x00, 0x00, 0x20,
  0x00, 0x00, 0x00, 0x01, 0x00, 0x00, 0x00, 0xa4, 0xf4, 0xff, 0xff, 0x01, 0x00,
  0x00, 0x00, 0x01, 0x00, 0x00, 0x00, 0x01, 0x00, 0x00, 0x00, 0x01, 0x00, 0x00,
  0x00, 0x7f, 0x00, 0x00, 0x00, 0x03, 0x00, 0x00, 0x00, 0x7e, 0x00, 0x00, 0x00,
  0x39, 0x00, 0x00, 0x00, 0x37, 0x00, 0x00, 0x00, 0xf2, 0xf4, 0xff, 0xff, 0x14,
  0x00, 0x00, 0x00, 0x00, 0x00, 0x00, 0x01, 0x1c, 0x00, 0x00, 0x00, 0x20, 0x00,
  0x00, 0x00, 0x02, 0x00, 0x00, 0x00, 0x48, 0xf6, 0xff, 0xff, 0x00, 0x00, 0x00,
  0x01, 0x01, 0x00, 0x00, 0x00, 0x01, 0x00, 0x00, 0x00, 0x01, 0x00, 0x00, 0x00,
  0x7e, 0x00, 0x00, 0x00, 0x03, 0x00, 0x00, 0x00, 0x7d, 0x00, 0x00, 0x00, 0x38,
  0x00, 0x00, 0x00, 0x02, 0x00, 0x00, 0x00, 0x32, 0xf5, 0xff, 0xff, 0x14, 0x00,
  0x00, 0x00, 0x00, 0x00, 0x00, 0x02, 0x1c, 0x00, 0x00, 0x00, 0x20, 0x00, 0x00,
  0x00, 0x01, 0x00, 0x00, 0x00, 0x24, 0xf5, 0xff, 0xff, 0x01, 0x00, 0x00, 0x00,
  0x01, 0x00, 0x00, 0x00, 0x01, 0x00, 0x00, 0x00, 0x01, 0x00, 0x00, 0x00, 0x7d,
  0x00, 0x00, 0x00, 0x03, 0x00, 0x00, 0x00, 0x7c, 0x00, 0x00, 0x00, 0x36, 0x00,
  0x00, 0x00, 0x2d, 0x00, 0x00, 0x00, 0x72, 0xf5, 0xff, 0xff, 0x14, 0x00, 0x00,
  0x00, 0x00, 0x00, 0x00, 0x02, 0x1c, 0x00, 0x00, 0x00, 0x20, 0x00, 0x00, 0x00,
  0x01, 0x00, 0x00, 0x00, 0x64, 0xf5, 0xff, 0xff, 0x01, 0x00, 0x00, 0x00, 0x01,
  0x00, 0x00, 0x00, 0x01, 0x00, 0x00, 0x00, 0x01, 0x00, 0x00, 0x00, 0x7c, 0x00,
  0x00, 0x00, 0x03, 0x00, 0x00, 0x00, 0x7b, 0x00, 0x00, 0x00, 0x35, 0x00, 0x00,
  0x00, 0x2d, 0x00, 0x00, 0x00, 0xb2, 0xf5, 0xff, 0xff, 0x14, 0x00, 0x00, 0x00,
  0x00, 0x00, 0x00, 0x0b, 0x14, 0x00, 0x00, 0x00, 0x18, 0x00, 0x00, 0x00, 0x03,
  0x00, 0x00, 0x00, 0xbc, 0xf8, 0xff, 0xff, 0x00, 0x00, 0x00, 0x00, 0x01, 0x00,
  0x00, 0x00, 0x7b, 0x00, 0x00, 0x00, 0x02, 0x00, 0x00, 0x00, 0x7a, 0x00, 0x00,
  0x00, 0x77, 0x00, 0x00, 0x00, 0xe6, 0xf5, 0xff, 0xff, 0x14, 0x00, 0x00, 0x00,
  0x00, 0x00, 0x00, 0x01, 0x18, 0x00, 0x00, 0x00, 0x1c, 0x00, 0x00, 0x00, 0x02,
  0x00, 0x00, 0x00, 0x6e, 0xf6, 0xff, 0xff, 0x01, 0x00, 0x00, 0x00, 0x01, 0x00,
  0x00, 0x00, 0x01, 0x00, 0x00, 0x00, 0x7a, 0x00, 0x00, 0x00, 0x03, 0x00, 0x00,
  0x00, 0x79, 0x00, 0x00, 0x00, 0x34, 0x00, 0x00, 0x00, 0x4c, 0x00, 0x00, 0x00,
  0x22, 0xf6, 0xff, 0xff, 0x14, 0x00, 0x00, 0x00, 0x00, 0x00, 0x00, 0x02, 0x1c,
  0x00, 0x00, 0x00, 0x20, 0x00, 0x00, 0x00, 0x01, 0x00, 0x00, 0x00, 0x14, 0xf6,
  0xff, 0xff, 0x01, 0x00, 0x00, 0x00, 0x01, 0x00, 0x00, 0x00, 0x01, 0x00, 0x00,
  0x00, 0x01, 0x00, 0x00, 0x00, 0x79, 0x00, 0x00, 0x00, 0x03, 0x00, 0x00, 0x00,
  0x78, 0x00, 0x00, 0x00, 0x33, 0x00, 0x00, 0x00, 0x23, 0x00, 0x00, 0x00, 0x62,
  0xf6, 0xff, 0xff, 0x14, 0x00, 0x00, 0x00, 0x00, 0x00, 0x00, 0x02, 0x1c, 0x00,
  0x00, 0x00, 0x20, 0x00, 0x00, 0x00, 0x01, 0x00, 0x00, 0x00, 0x54, 0xf6, 0xff,
  0xff, 0x01, 0x00, 0x00, 0x00, 0x01, 0x00, 0x00, 0x00, 0x01, 0x00, 0x00, 0x00,
  0x01, 0x00, 0x00, 0x00, 0x78, 0x00, 0x00, 0x00, 0x03, 0x00, 0x00, 0x00, 0x71,
  0x00, 0x00, 0x00, 0x32, 0x00, 0x00, 0x00, 0x23, 0x00, 0x00, 0x00, 0xa2, 0xf6,
  0xff, 0xff, 0x14, 0x00, 0x00, 0x00, 0x00, 0x00, 0x00, 0x01, 0x18, 0x00, 0x00,
  0x00, 0x1c, 0x00, 0x00, 0x00, 0x02, 0x00, 0x00, 0x00, 0x2a, 0xf7, 0xff, 0xff,
  0x01, 0x00, 0x00, 0x00, 0x01, 0x00, 0x00, 0x00, 0x01, 0x00, 0x00, 0x00, 0x77,
  0x00, 0x00, 0x00, 0x03, 0x00, 0x00, 0x00, 0x76, 0x00, 0x00, 0x00, 0x31, 0x00,
  0x00, 0x00, 0x4c, 0x00, 0x00, 0x00, 0xde, 0xf6, 0xff, 0xff, 0x14, 0x00, 0x00,
  0x00, 0x00, 0x00, 0x00, 0x02, 0x1c, 0x00, 0x00, 0x00, 0x20, 0x00, 0x00, 0x00,
  0x01, 0x00, 0x00, 0x00, 0xd0, 0xf6, 0xff, 0xff, 0x01, 0x00, 0x00, 0x00, 0x01,
  0x00, 0x00, 0x00, 0x01, 0x00, 0x00, 0x00, 0x01, 0x00, 0x00, 0x00, 0x76, 0x00,
  0x00, 0x00, 0x03, 0x00, 0x00, 0x00, 0x75, 0x00, 0x00, 0x00, 0x30, 0x00, 0x00,
  0x00, 0x2d, 0x00, 0x00, 0x00, 0x1e, 0xf7, 0xff, 0xff, 0x14, 0x00, 0x00, 0x00,
  0x00, 0x00, 0x00, 0x02, 0x1c, 0x00, 0x00, 0x00, 0x20, 0x00, 0x00, 0x00, 0x01,
  0x00, 0x00, 0x00, 0x10, 0xf7, 0xff, 0xff, 0x01, 0x00, 0x00, 0x00, 0x01, 0x00,
  0x00, 0x00, 0x01, 0x00, 0x00, 0x00, 0x01, 0x00, 0x00, 0x00, 0x75, 0x00, 0x00,
  0x00, 0x03, 0x00, 0x00, 0x00, 0x74, 0x00, 0x00, 0x00, 0x2f, 0x00, 0x00, 0x00,
  0x2d, 0x00, 0x00, 0x00, 0x5e, 0xf7, 0xff, 0xff, 0x14, 0x00, 0x00, 0x00, 0x00,
  0x00, 0x00, 0x01, 0x1c, 0x00, 0x00, 0x00, 0x20, 0x00, 0x00, 0x00, 0x02, 0x00,
  0x00, 0x00, 0xb4, 0xf8, 0xff, 0xff, 0x00, 0x00, 0x00, 0x01, 0x01, 0x00, 0x00,
  0x00, 0x01, 0x00, 0x00, 0x00, 0x01, 0x00, 0x00, 0x00, 0x74, 0x00, 0x00, 0x00,
  0x03, 0x00, 0x00, 0x00, 0x73, 0x00, 0x00, 0x00, 0x2e, 0x00, 0x00, 0x00, 0x03,
  0x00, 0x00, 0x00, 0x9e, 0xf7, 0xff, 0xff, 0x14, 0x00, 0x00, 0x00, 0x00, 0x00,
  0x00, 0x02, 0x1c, 0x00, 0x00, 0x00, 0x20, 0x00, 0x00, 0x00, 0x01, 0x00, 0x00,
  0x00, 0x90, 0xf7, 0xff, 0xff, 0x01, 0x00, 0x00, 0x00, 0x01, 0x00, 0x00, 0x00,
  0x01, 0x00, 0x00, 0x00, 0x01, 0x00, 0x00, 0x00, 0x73, 0x00, 0x00, 0x00, 0x03,
  0x00, 0x00, 0x00, 0x72, 0x00, 0x00, 0x00, 0x2c, 0x00, 0x00, 0x00, 0x23, 0x00,
  0x00, 0x00, 0xde, 0xf7, 0xff, 0xff, 0x14, 0x00, 0x00, 0x00, 0x00, 0x00, 0x00,
  0x02, 0x1c, 0x00, 0x00, 0x00, 0x20, 0x00, 0x00, 0x00, 0x01, 0x00, 0x00, 0x00,
  0xd0, 0xf7, 0xff, 0xff, 0x01, 0x00, 0x00, 0x00, 0x01, 0x00, 0x00, 0x00, 0x01,
  0x00, 0x00, 0x00, 0x01, 0x00, 0x00, 0x00, 0x72, 0x00, 0x00, 0x00, 0x03, 0x00,
  0x00, 0x00, 0x71, 0x00, 0x00, 0x00, 0x2b, 0x00, 0x00, 0x00, 0x23, 0x00, 0x00,
  0x00, 0x1e, 0xf8, 0xff, 0xff, 0x14, 0x00, 0x00, 0x00, 0x00, 0x00, 0x00, 0x0b,
  0x14, 0x00, 0x00, 0x00, 0x18, 0x00, 0x00, 0x00, 0x03, 0x00, 0x00, 0x00, 0x28,
  0xfb, 0xff, 0xff, 0x00, 0x00, 0x00, 0x00, 0x01, 0x00, 0x00, 0x00, 0x71, 0x00,
  0x00, 0x00, 0x02, 0x00, 0x00, 0x00, 0x70, 0x00, 0x00, 0x00, 0x6d, 0x00, 0x00,
  0x00, 0x52, 0xf8, 0xff, 0xff, 0x14, 0x00, 0x00, 0x00, 0x00, 0x00, 0x00, 0x01,
  0x18, 0x00, 0x00, 0x00, 0x1c, 0x00, 0x00, 0x00, 0x02, 0x00, 0x00, 0x00, 0xda,
  0xf8, 0xff, 0xff, 0x01, 0x00, 0x00, 0x00, 0x01, 0x00, 0x00, 0x00, 0x01, 0x00,
  0x00, 0x00, 0x70, 0x00, 0x00, 0x00, 0x03, 0x00, 0x00, 0x00, 0x6f, 0x00, 0x00,
  0x00, 0x2a, 0x00, 0x00, 0x00, 0x4b, 0x00, 0x00, 0x00, 0x8e, 0xf8, 0xff, 0xff,
  0x14, 0x00, 0x00, 0x00, 0x00, 0x00, 0x00, 0x02, 0x1c, 0x00, 0x00, 0x00, 0x20,
  0x00, 0x00, 0x00, 0x01, 0x00, 0x00, 0x00, 0x80, 0xf8, 0xff, 0xff, 0x01, 0x00,
  0x00, 0x00, 0x01, 0x00, 0x00, 0x00, 0x01, 0x00, 0x00, 0x00, 0x01, 0x00, 0x00,
  0x00, 0x6f, 0x00, 0x00, 0x00, 0x03, 0x00, 0x00, 0x00, 0x6e, 0x00, 0x00, 0x00,
  0x29, 0x00, 0x00, 0x00, 0x19, 0x00, 0x00, 0x00, 0xce, 0xf8, 0xff, 0xff, 0x14,
  0x00, 0x00, 0x00, 0x00, 0x00, 0x00, 0x02, 0x1c, 0x00, 0x00, 0x00, 0x20, 0x00,
  0x00, 0x00, 0x01, 0x00, 0x00, 0x00, 0xc0, 0xf8, 0xff, 0xff, 0x01, 0x00, 0x00,
  0x00, 0x01, 0x00, 0x00, 0x00, 0x01, 0x00, 0x00, 0x00, 0x01, 0x00, 0x00, 0x00,
  0x6e, 0x00, 0x00, 0x00, 0x03, 0x00, 0x00, 0x00, 0x67, 0x00, 0x00, 0x00, 0x28,
  0x00, 0x00, 0x00, 0x19, 0x00, 0x00, 0x00, 0x0e, 0xf9, 0xff, 0xff, 0x14, 0x00,
  0x00, 0x00, 0x00, 0x00, 0x00, 0x01, 0x18, 0x00, 0x00, 0x00, 0x1c, 0x00, 0x00,
  0x00, 0x02, 0x00, 0x00, 0x00, 0x96, 0xf9, 0xff, 0xff, 0x01, 0x00, 0x00, 0x00,
  0x01, 0x00, 0x00, 0x00, 0x01, 0x00, 0x00, 0x00, 0x6d, 0x00, 0x00, 0x00, 0x03,
  0x00, 0x00, 0x00, 0x6c, 0x00, 0x00, 0x00, 0x27, 0x00, 0x00, 0x00, 0x4b, 0x00,
  0x00, 0x00, 0x4a, 0xf9, 0xff, 0xff, 0x14, 0x00, 0x00, 0x00, 0x00, 0x00, 0x00,
  0x02, 0x1c, 0x00, 0x00, 0x00, 0x20, 0x00, 0x00, 0x00, 0x01, 0x00, 0x00, 0x00,
  0x3c, 0xf9, 0xff, 0xff, 0x01, 0x00, 0x00, 0x00, 0x01, 0x00, 0x00, 0x00, 0x01,
  0x00, 0x00, 0x00, 0x01, 0x00, 0x00, 0x00, 0x6c, 0x00, 0x00, 0x00, 0x03, 0x00,
  0x00, 0x00, 0x6b, 0x00, 0x00, 0x00, 0x26, 0x00, 0x00, 0x00, 0x23, 0x00, 0x00,
  0x00, 0x8a, 0xf9, 0xff, 0xff, 0x14, 0x00, 0x00, 0x00, 0x00, 0x00, 0x00, 0x02,
  0x1c, 0x00, 0x00, 0x00, 0x20, 0x00, 0x00, 0x00, 0x01, 0x00, 0x00, 0x00, 0x7c,
  0xf9, 0xff, 0xff, 0x01, 0x00, 0x00, 0x00, 0x01, 0x00, 0x00, 0x00, 0x01, 0x00,
  0x00, 0x00, 0x01, 0x00, 0x00, 0x00, 0x6b, 0x00, 0x00, 0x00, 0x03, 0x00, 0x00,
  0x00, 0x6a, 0x00, 0x00, 0x00, 0x25, 0x00, 0x00, 0x00, 0x23, 0x00, 0x00, 0x00,
  0xca, 0xf9, 0xff, 0xff, 0x14, 0x00, 0x00, 0x00, 0x00, 0x00, 0x00, 0x01, 0x1c,
  0x00, 0x00, 0x00, 0x20, 0x00, 0x00, 0x00, 0x02, 0x00, 0x00, 0x00, 0x20, 0xfb,
  0xff, 0xff, 0x00, 0x00, 0x00, 0x01, 0x01, 0x00, 0x00, 0x00, 0x01, 0x00, 0x00,
  0x00, 0x01, 0x00, 0x00, 0x00, 0x6a, 0x00, 0x00, 0x00, 0x03, 0x00, 0x00, 0x00,
  0x69, 0x00, 0x00, 0x00, 0x24, 0x00, 0x00, 0x00, 0x04, 0x00, 0x00, 0x00, 0x0a,
  0xfa, 0xff, 0xff, 0x14, 0x00, 0x00, 0x00, 0x00, 0x00, 0x00, 0x02, 0x1c, 0x00,
  0x00, 0x00, 0x20, 0x00, 0x00, 0x00, 0x01, 0x00, 0x00, 0x00, 0xfc, 0xf9, 0xff,
  0xff, 0x01, 0x00, 0x00, 0x00, 0x01, 0x00, 0x00, 0x00, 0x01, 0x00, 0x00, 0x00,
  0x01, 0x00, 0x00, 0x00, 0x69, 0x00, 0x00, 0x00, 0x03, 0x00, 0x00, 0x00, 0x68,
  0x00, 0x00, 0x00, 0x22, 0x00, 0x00, 0x00, 0x19, 0x00, 0x00, 0x00, 0x4a, 0xfa,
  0xff, 0xff, 0x14, 0x00, 0x00, 0x00, 0x00, 0x00, 0x00, 0x02, 0x1c, 0x00, 0x00,
  0x00, 0x20, 0x00, 0x00, 0x00, 0x01, 0x00, 0x00, 0x00, 0x3c, 0xfa, 0xff, 0xff,
  0x01, 0x00, 0x00, 0x00, 0x01, 0x00, 0x00, 0x00, 0x01, 0x00, 0x00, 0x00, 0x01,
  0x00, 0x00, 0x00, 0x68, 0x00, 0x00, 0x00, 0x03, 0x00, 0x00, 0x00, 0x67, 0x00,
  0x00, 0x00, 0x21, 0x00, 0x00, 0x00, 0x19, 0x00, 0x00, 0x00, 0x8a, 0xfa, 0xff,
  0xff, 0x14, 0x00, 0x00, 0x00, 0x00, 0x00, 0x00, 0x0b, 0x14, 0x00, 0x00, 0x00,
  0x18, 0x00, 0x00, 0x00, 0x03, 0x00, 0x00, 0x00, 0x94, 0xfd, 0xff, 0xff, 0x00,
  0x00, 0x00, 0x00, 0x01, 0x00, 0x00, 0x00, 0x67, 0x00, 0x00, 0x00, 0x02, 0x00,
  0x00, 0x00, 0x66, 0x00, 0x00, 0x00, 0x63, 0x00, 0x00, 0x00, 0xbe, 0xfa, 0xff,
  0xff, 0x14, 0x00, 0x00, 0x00, 0x00, 0x00, 0x00, 0x01, 0x18, 0x00, 0x00, 0x00,
  0x1c, 0x00, 0x00, 0x00, 0x02, 0x00, 0x00, 0x00, 0x46, 0xfb, 0xff, 0xff, 0x01,
  0x00, 0x00, 0x00, 0x01, 0x00, 0x00, 0x00, 0x01, 0x00, 0x00, 0x00, 0x66, 0x00,
  0x00, 0x00, 0x03, 0x00, 0x00, 0x00, 0x65, 0x00, 0x00, 0x00, 0x20, 0x00, 0x00,
  0x00, 0x4a, 0x00, 0x00, 0x00, 0xfa, 0xfa, 0xff, 0xff, 0x14, 0x00, 0x00, 0x00,
  0x00, 0x00, 0x00, 0x02, 0x1c, 0x00, 0x00, 0x00, 0x20, 0x00, 0x00, 0x00, 0x01,
  0x00, 0x00, 0x00, 0xec, 0xfa, 0xff, 0xff, 0x01, 0x00, 0x00, 0x00, 0x01, 0x00,
  0x00, 0x00, 0x01, 0x00, 0x00, 0x00, 0x01, 0x00, 0x00, 0x00, 0x65, 0x00, 0x00,
  0x00, 0x03, 0x00, 0x00, 0x00, 0x64, 0x00, 0x00, 0x00, 0x1f, 0x00, 0x00, 0x00,
  0x0f, 0x00, 0x00, 0x00, 0x3a, 0xfb, 0xff, 0xff, 0x14, 0x00, 0x00, 0x00, 0x00,
  0x00, 0x00, 0x02, 0x1c, 0x00, 0x00, 0x00, 0x20, 0x00, 0x00, 0x00, 0x01, 0x00,
  0x00, 0x00, 0x2c, 0xfb, 0xff, 0xff, 0x01, 0x00, 0x00, 0x00, 0x01, 0x00, 0x00,
  0x00, 0x01, 0x00, 0x00, 0x00, 0x01, 0x00, 0x00, 0x00, 0x64, 0x00, 0x00, 0x00,
  0x03, 0x00, 0x00, 0x00, 0x5d, 0x00, 0x00, 0x00, 0x1e, 0x00, 0x00, 0x00, 0x0f,
  0x00, 0x00, 0x00, 0x7a, 0xfb, 0xff, 0xff, 0x14, 0x00, 0x00, 0x00, 0x00, 0x00,
  0x00, 0x01, 0x18, 0x00, 0x00, 0x00, 0x1c, 0x00, 0x00, 0x00, 0x02, 0x00, 0x00,
  0x00, 0x02, 0xfc, 0xff, 0xff, 0x01, 0x00, 0x00, 0x00, 0x01, 0x00, 0x00, 0x00,
  0x01, 0x00, 0x00, 0x00, 0x63, 0x00, 0x00, 0x00, 0x03, 0x00, 0x00, 0x00, 0x62,
  0x00, 0x00, 0x00, 0x1d, 0x00, 0x00, 0x00, 0x4a, 0x00, 0x00, 0x00, 0xb6, 0xfb,
  0xff, 0xff, 0x14, 0x00, 0x00, 0x00, 0x00, 0x00, 0x00, 0x02, 0x1c, 0x00, 0x00,
  0x00, 0x20, 0x00, 0x00, 0x00, 0x01, 0x00, 0x00, 0x00, 0xa8, 0xfb, 0xff, 0xff,
  0x01, 0x00, 0x00, 0x00, 0x01, 0x00, 0x00, 0x00, 0x01, 0x00, 0x00, 0x00, 0x01,
  0x00, 0x00, 0x00, 0x62, 0x00, 0x00, 0x00, 0x03, 0x00, 0x00, 0x00, 0x61, 0x00,
  0x00, 0x00, 0x1c, 0x00, 0x00, 0x00, 0x19, 0x00, 0x00, 0x00, 0xf6, 0xfb, 0xff,
  0xff, 0x14, 0x00, 0x00, 0x00, 0x00, 0x00, 0x00, 0x02, 0x1c, 0x00, 0x00, 0x00,
  0x20, 0x00, 0x00, 0x00, 0x01, 0x00, 0x00, 0x00, 0xe8, 0xfb, 0xff, 0xff, 0x01,
  0x00, 0x00, 0x00, 0x01, 0x00, 0x00, 0x00, 0x01, 0x00, 0x00, 0x00, 0x01, 0x00,
  0x00, 0x00, 0x61, 0x00, 0x00, 0x00, 0x03, 0x00, 0x00, 0x00, 0x60, 0x00, 0x00,
  0x00, 0x1b, 0x00, 0x00, 0x00, 0x19, 0x00, 0x00, 0x00, 0x36, 0xfc, 0xff, 0xff,
  0x14, 0x00, 0x00, 0x00, 0x00, 0x00, 0x00, 0x01, 0x1c, 0x00, 0x00, 0x00, 0x20,
  0x00, 0x00, 0x00, 0x02, 0x00, 0x00, 0x00, 0x8c, 0xfd, 0xff, 0xff, 0x00, 0x00,
  0x00, 0x01, 0x01, 0x00, 0x00, 0x00, 0x01, 0x00, 0x00, 0x00, 0x01, 0x00, 0x00,
  0x00, 0x60, 0x00, 0x00, 0x00, 0x03, 0x00, 0x00, 0x00, 0x5f, 0x00, 0x00, 0x00,
  0x1a, 0x00, 0x00, 0x00, 0x05, 0x00, 0x00, 0x00, 0x76, 0xfc, 0xff, 0xff, 0x14,
  0x00, 0x00, 0x00, 0x00, 0x00, 0x00, 0x02, 0x1c, 0x00, 0x00, 0x00, 0x20, 0x00,
  0x00, 0x00, 0x01, 0x00, 0x00, 0x00, 0x68, 0xfc, 0xff, 0xff, 0x01, 0x00, 0x00,
  0x00, 0x01, 0x00, 0x00, 0x00, 0x01, 0x00, 0x00, 0x00, 0x01, 0x00, 0x00, 0x00,
  0x5f, 0x00, 0x00, 0x00, 0x03, 0x00, 0x00, 0x00, 0x5e, 0x00, 0x00, 0x00, 0x18,
  0x00, 0x00, 0x00, 0x0f, 0x00, 0x00, 0x00, 0xb6, 0xfc, 0xff, 0xff, 0x14, 0x00,
  0x00, 0x00, 0x00, 0x00, 0x00, 0x02, 0x1c, 0x00, 0x00, 0x00, 0x20, 0x00, 0x00,
  0x00, 0x01, 0x00, 0x00, 0x00, 0xa8, 0xfc, 0xff, 0xff, 0x01, 0x00, 0x00, 0x00,
  0x01, 0x00, 0x00, 0x00, 0x01, 0x00, 0x00, 0x00, 0x01, 0x00, 0x00, 0x00, 0x5e,
  0x00, 0x00, 0x00, 0x03, 0x00, 0x00, 0x00, 0x5d, 0x00, 0x00, 0x00, 0x17, 0x00,
  0x00, 0x00, 0x0f, 0x00, 0x00, 0x00, 0xf6, 0xfc, 0xff, 0xff, 0x1c, 0x00, 0x00,
  0x00, 0x00, 0x00, 0x00, 0x0b, 0x1c, 0x00, 0x00, 0x00, 0x20, 0x00, 0x00, 0x00,
  0x03, 0x00, 0x00, 0x00, 0x08, 0x00, 0x08, 0x00, 0x00, 0x00, 0x07, 0x00, 0x08,
  0x00, 0x00, 0x00, 0x00, 0x00, 0x00, 0x00, 0x01, 0x00, 0x00, 0x00, 0x5d, 0x00,
  0x00, 0x00, 0x02, 0x00, 0x00, 0x00, 0x5c, 0x00, 0x00, 0x00, 0x59, 0x00, 0x00,
  0x00, 0x32, 0xfd, 0xff, 0xff, 0x14, 0x00, 0x00, 0x00, 0x00, 0x00, 0x00, 0x01,
  0x18, 0x00, 0x00, 0x00, 0x1c, 0x00, 0x00, 0x00, 0x02, 0x00, 0x00, 0x00, 0xba,
  0xfd, 0xff, 0xff, 0x01, 0x00, 0x00, 0x00, 0x01, 0x00, 0x00, 0x00, 0x01, 0x00,
  0x00, 0x00, 0x5c, 0x00, 0x00, 0x00, 0x03, 0x00, 0x00, 0x00, 0x5b, 0x00, 0x00,
  0x00, 0x16, 0x00, 0x00, 0x00, 0x49, 0x00, 0x00, 0x00, 0x6e, 0xfd, 0xff, 0xff,
  0x14, 0x00, 0x00, 0x00, 0x00, 0x00, 0x00, 0x02, 0x1c, 0x00, 0x00, 0x00, 0x20,
  0x00, 0x00, 0x00, 0x01, 0x00, 0x00, 0x00, 0x60, 0xfd, 0xff, 0xff, 0x01, 0x00,
  0x00, 0x00, 0x01, 0x00, 0x00, 0x00, 0x01, 0x00, 0x00, 0x00, 0x01, 0x00, 0x00,
  0x00, 0x5b, 0x00, 0x00, 0x00, 0x03, 0x00, 0x00, 0x00, 0x5a, 0x00, 0x00, 0x00,
  0x15, 0x00, 0x00, 0x00, 0x0b, 0x00, 0x00, 0x00, 0xae, 0xfd, 0xff, 0xff, 0x14,
  0x00, 0x00, 0x00, 0x00, 0x00, 0x00, 0x02, 0x1c, 0x00, 0x00, 0x00, 0x20, 0x00,
  0x00, 0x00, 0x01, 0x00, 0x00, 0x00, 0xa0, 0xfd, 0xff, 0xff, 0x01, 0x00, 0x00,
  0x00, 0x01, 0x00, 0x00, 0x00, 0x01, 0x00, 0x00, 0x00, 0x01, 0x00, 0x00, 0x00,
  0x5a, 0x00, 0x00, 0x00, 0x03, 0x00, 0x00, 0x00, 0x53, 0x00, 0x00, 0x00, 0x14,
  0x00, 0x00, 0x00, 0x0b, 0x00, 0x00, 0x00, 0xee, 0xfd, 0xff, 0xff, 0x14, 0x00,
  0x00, 0x00, 0x00, 0x00, 0x00, 0x01, 0x18, 0x00, 0x00, 0x00, 0x1c, 0x00, 0x00,
  0x00, 0x02, 0x00, 0x00, 0x00, 0x76, 0xfe, 0xff, 0xff, 0x01, 0x00, 0x00, 0x00,
  0x01, 0x00, 0x00, 0x00, 0x01, 0x00, 0x00, 0x00, 0x59, 0x00, 0x00, 0x00, 0x03,
  0x00, 0x00, 0x00, 0x58, 0x00, 0x00, 0x00, 0x13, 0x00, 0x00, 0x00, 0x49, 0x00,
  0x00, 0x00, 0x2a, 0xfe, 0xff, 0xff, 0x14, 0x00, 0x00, 0x00, 0x00, 0x00, 0x00,
  0x02, 0x1c, 0x00, 0x00, 0x00, 0x20, 0x00, 0x00, 0x00, 0x01, 0x00, 0x00, 0x00,
  0x1c, 0xfe, 0xff, 0xff, 0x01, 0x00, 0x00, 0x00, 0x01, 0x00, 0x00, 0x00, 0x01,
  0x00, 0x00, 0x00, 0x01, 0x00, 0x00, 0x00, 0x58, 0x00, 0x00, 0x00, 0x03, 0x00,
  0x00, 0x00, 0x57, 0x00, 0x00, 0x00, 0x12, 0x00, 0x00, 0x00, 0x0f, 0x00, 0x00,
  0x00, 0x6a, 0xfe, 0xff, 0xff, 0x14, 0x00, 0x00, 0x00, 0x00, 0x00, 0x00, 0x02,
  0x1c, 0x00, 0x00, 0x00, 0x20, 0x00, 0x00, 0x00, 0x01, 0x00, 0x00, 0x00, 0x5c,
  0xfe, 0xff, 0xff, 0x01, 0x00, 0x00, 0x00, 0x01, 0x00, 0x00, 0x00, 0x01, 0x00,
  0x00, 0x00, 0x01, 0x00, 0x00, 0x00, 0x57, 0x00, 0x00, 0x00, 0x03, 0x00, 0x00,
  0x00, 0x56, 0x00, 0x00, 0x00, 0x11, 0x00, 0x00, 0x00, 0x0f, 0x00, 0x00, 0x00,
  0xaa, 0xfe, 0xff, 0xff, 0x20, 0x00, 0x00, 0x00, 0x00, 0x00, 0x00, 0x01, 0x28,
  0x00, 0x00, 0x00, 0x2c, 0x00, 0x00, 0x00, 0x02, 0x00, 0x00, 0x00, 0x0c, 0x00,
  0x10, 0x00, 0x00, 0x00, 0x0c, 0x00, 0x08, 0x00, 0x07, 0x00, 0x0c, 0x00, 0x00,
  0x00, 0x00, 0x00, 0x00, 0x01, 0x01, 0x00, 0x00, 0x00, 0x01, 0x00, 0x00, 0x00,
  0x01, 0x00, 0x00, 0x00, 0x56, 0x00, 0x00, 0x00, 0x03, 0x00, 0x00, 0x00, 0x55,
  0x00, 0x00, 0x00, 0x10, 0x00, 0x00, 0x00, 0x06, 0x00, 0x00, 0x00, 0xf6, 0xfe,
  0xff, 0xff, 0x14, 0x00, 0x00, 0x00, 0x00, 0x00, 0x00, 0x02, 0x1c, 0x00, 0x00,
  0x00, 0x20, 0x00, 0x00, 0x00, 0x01, 0x00, 0x00, 0x00, 0xe8, 0xfe, 0xff, 0xff,
  0x01, 0x00, 0x00, 0x00, 0x01, 0x00, 0x00, 0x00, 0x01, 0x00, 0x00, 0x00, 0x01,
  0x00, 0x00, 0x00, 0x55, 0x00, 0x00, 0x00, 0x03, 0x00, 0x00, 0x00, 0x54, 0x00,
  0x00, 0x00, 0x0e, 0x00, 0x00, 0x00, 0x0b, 0x00, 0x00, 0x00, 0x36, 0xff, 0xff,
  0xff, 0x14, 0x00, 0x00, 0x00, 0x00, 0x00, 0x00, 0x02, 0x1c, 0x00, 0x00, 0x00,
  0x20, 0x00, 0x00, 0x00, 0x01, 0x00, 0x00, 0x00, 0x28, 0xff, 0xff, 0xff, 0x01,
  0x00, 0x00, 0x00, 0x01, 0x00, 0x00, 0x00, 0x01, 0x00, 0x00, 0x00, 0x01, 0x00,
  0x00, 0x00, 0x54, 0x00, 0x00, 0x00, 0x03, 0x00, 0x00, 0x00, 0x53, 0x00, 0x00,
  0x00, 0x0d, 0x00, 0x00, 0x00, 0x0b, 0x00, 0x00, 0x00, 0x76, 0xff, 0xff, 0xff,
  0x20, 0x00, 0x00, 0x00, 0x00, 0x00, 0x00, 0x01, 0x24, 0x00, 0x00, 0x00, 0x28,
  0x00, 0x00, 0x00, 0x02, 0x00, 0x00, 0x00, 0x00, 0x00, 0x0a, 0x00, 0x0c, 0x00,
  0x00, 0x00, 0x08, 0x00, 0x04, 0x00, 0x0a, 0x00, 0x00, 0x00, 0x01, 0x00, 0x00,
  0x00, 0x01, 0x00, 0x00, 0x00, 0x01, 0x00, 0x00, 0x00, 0x53, 0x00, 0x00, 0x00,
  0x03, 0x00, 0x00, 0x00, 0x52, 0x00, 0x00, 0x00, 0x0c, 0x00, 0x00, 0x00, 0x48,
  0x00, 0x00, 0x00, 0xbe, 0xff, 0xff, 0xff, 0x14, 0x00, 0x00, 0x00, 0x00, 0x00,
  0x00, 0x02, 0x1c, 0x00, 0x00, 0x00, 0x20, 0x00, 0x00, 0x00, 0x01, 0x00, 0x00,
  0x00, 0xb0, 0xff, 0xff, 0xff, 0x01, 0x00, 0x00, 0x00, 0x01, 0x00, 0x00, 0x00,
  0x01, 0x00, 0x00, 0x00, 0x01, 0x00, 0x00, 0x00, 0x52, 0x00, 0x00, 0x00, 0x03,
  0x00, 0x00, 0x00, 0x51, 0x00, 0x00, 0x00, 0x0a, 0x00, 0x00, 0x00, 0x08, 0x00,
  0x00, 0x00, 0x00, 0x00, 0x0e, 0x00, 0x18, 0x00, 0x14, 0x00, 0x10, 0x00, 0x0c,
  0x00, 0x0b, 0x00, 0x04, 0x00, 0x0e, 0x00, 0x00, 0x00, 0x20, 0x00, 0x00, 0x00,
  0x00, 0x00, 0x00, 0x02, 0x28, 0x00, 0x00, 0x00, 0x2c, 0x00, 0x00, 0x00, 0x01,
  0x00, 0x00, 0x00, 0x0c, 0x00, 0x10, 0x00, 0x00, 0x00, 0x0c, 0x00, 0x08, 0x00,
  0x04, 0x00, 0x0c, 0x00, 0x00, 0x00, 0x01, 0x00, 0x00, 0x00, 0x01, 0x00, 0x00,
  0x00, 0x01, 0x00, 0x00, 0x00, 0x01, 0x00, 0x00, 0x00, 0x51, 0x00, 0x00, 0x00,
  0x03, 0x00, 0x00, 0x00, 0x50, 0x00, 0x00, 0x00, 0x09, 0x00, 0x00, 0x00, 0x08,
  0x00, 0x00, 0x00, 0x00, 0x00, 0x0e, 0x00, 0x14, 0x00, 0x00, 0x00, 0x10, 0x00,
  0x0c, 0x00, 0x0b, 0x00, 0x04, 0x00, 0x0e, 0x00, 0x00, 0x00, 0x10, 0x00, 0x00,
  0x00, 0x00, 0x00, 0x00, 0x16, 0x0c, 0x00, 0x00, 0x00, 0x10, 0x00, 0x00, 0x00,
  0x94, 0x8e, 0xff, 0xff, 0x01, 0x00, 0x00, 0x00, 0x50, 0x00, 0x00, 0x00, 0x02,
  0x00, 0x00, 0x00, 0x00, 0x00, 0x00, 0x00, 0x07, 0x00, 0x00, 0x00, 0x00, 0x00,
  0x0a, 0x00, 0x10, 0x00, 0x0c, 0x00, 0x08, 0x00, 0x04, 0x00, 0x0a, 0x00, 0x00,
  0x00, 0x0c, 0x00, 0x00, 0x00, 0x10, 0x00, 0x00, 0x00, 0x04, 0x00, 0x00, 0x00,
  0x01, 0x00, 0x00, 0x00, 0x00, 0x00, 0x00, 0x00, 0x01, 0x00, 0x00, 0x00, 0x90,
  0x00, 0x00, 0x00, 0x01, 0x00, 0x00, 0x00, 0x91, 0x00, 0x00, 0x00, 0x01, 0x00,
  0x00, 0x00, 0x90, 0x00, 0x00, 0x00, 0x92, 0x00, 0x00, 0x00, 0x70, 0x75, 0x00,
  0x00, 0xcc, 0x74, 0x00, 0x00, 0x44, 0x74, 0x00, 0x00, 0xa8, 0x73, 0x00, 0x00,
  0xf4, 0x72, 0x00, 0x00, 0x18, 0x72, 0x00, 0x00, 0x1c, 0x71, 0x00, 0x00, 0xe0,
  0x70, 0x00, 0x00, 0x8c, 0x70, 0x00, 0x00, 0xf8, 0x6f, 0x00, 0x00, 0x78, 0x6f,
  0x00, 0x00, 0x40, 0x6e, 0x00, 0x00, 0x4c, 0x6c, 0x00, 0x00, 0x54, 0x6a, 0x00,
  0x00, 0x58, 0x68, 0x00, 0x00, 0x58, 0x67, 0x00, 0x00, 0xc4, 0x65, 0x00, 0x00,
  0x2c, 0x64, 0x00, 0x00, 0x98, 0x62, 0x00, 0x00, 0x08, 0x61, 0x00, 0x00, 0x10,
  0x5f, 0x00, 0x00, 0x14, 0x5d, 0x00, 0x00, 0x84, 0x5b, 0x00, 0x00, 0xec, 0x59,
  0x00, 0x00, 0x58, 0x58, 0x00, 0x00, 0x78, 0x57, 0x00, 0x00, 0x24, 0x56, 0x00,
  0x00, 0xc4, 0x54, 0x00, 0x00, 0x68, 0x53, 0x00, 0x00, 0x10, 0x52, 0x00, 0x00,
  0x78, 0x50, 0x00, 0x00, 0xdc, 0x4e, 0x00, 0x00, 0x84, 0x4d, 0x00, 0x00, 0x24,
  0x4c, 0x00, 0x00, 0xc8, 0x4a, 0x00, 0x00, 0x10, 0x4a, 0x00, 0x00, 0xf4, 0x48,
  0x00, 0x00, 0xd4, 0x47, 0x00, 0x00, 0xb0, 0x46, 0x00, 0x00, 0x98, 0x45, 0x00,
  0x00, 0x38, 0x44, 0x00, 0x00, 0xdc, 0x42, 0x00, 0x00, 0xc4, 0x41, 0x00, 0x00,
  0xa4, 0x40, 0x00, 0x00, 0x80, 0x3f, 0x00, 0x00, 0xe0, 0x3e, 0x00, 0x00, 0xec,
  0x3d, 0x00, 0x00, 0xf4, 0x3c, 0x00, 0x00, 0xf8, 0x3b, 0x00, 0x00, 0x08, 0x3b,
  0x00, 0x00, 0xe8, 0x39, 0x00, 0x00, 0xc4, 0x38, 0x00, 0x00, 0xd4, 0x37, 0x00,
  0x00, 0xdc, 0x36, 0x00, 0x00, 0xe0, 0x35, 0x00, 0x00, 0x58, 0x35, 0x00, 0x00,
  0x8c, 0x34, 0x00, 0x00, 0xbc, 0x33, 0x00, 0x00, 0xe8, 0x32, 0x00, 0x00, 0x20,
  0x32, 0x00, 0x00, 0x28, 0x31, 0x00, 0x00, 0x2c, 0x30, 0x00, 0x00, 0x64, 0x2f,
  0x00, 0x00, 0x94, 0x2e, 0x00, 0x00, 0xc0, 0x2d, 0x00, 0x00, 0xf8, 0x2c, 0x00,
  0x00, 0x28, 0x2c, 0x00, 0x00, 0x54, 0x2b, 0x00, 0x00, 0x8c, 0x2a, 0x00, 0x00,
  0xbc, 0x29, 0x00, 0x00, 0xe8, 0x28, 0x00, 0x00, 0x70, 0x28, 0x00, 0x00, 0x1c,
  0x27, 0x00, 0x00, 0x00, 0x26, 0x00, 0x00, 0x04, 0x25, 0x00, 0x00, 0x30, 0x24,
  0x00, 0x00, 0x6c, 0x23, 0x00, 0x00, 0xc0, 0x22, 0x00, 0x00, 0x14, 0x22, 0x00,
  0x00, 0xa8, 0x21, 0x00, 0x00, 0x34, 0x21, 0x00, 0x00, 0xb8, 0x20, 0x00, 0x00,
  0x3c, 0x20, 0x00, 0x00, 0xa8, 0x1f, 0x00, 0x00, 0x2c, 0x1f, 0x00, 0x00, 0xb0,
  0x1e, 0x00, 0x00, 0x14, 0x1e, 0x00, 0x00, 0x98, 0x1d, 0x00, 0x00, 0x1c, 0x1d,
  0x00, 0x00, 0x80, 0x1c, 0x00, 0x00, 0x04, 0x1c, 0x00, 0x00, 0x88, 0x1b, 0x00,
  0x00, 0xec, 0x1a, 0x00, 0x00, 0x78, 0x1a, 0x00, 0x00, 0xfc, 0x19, 0x00, 0x00,
  0x80, 0x19, 0x00, 0x00, 0xdc, 0x18, 0x00, 0x00, 0x60, 0x18, 0x00, 0x00, 0xe4,
  0x17, 0x00, 0x00, 0x48, 0x17, 0x00, 0x00, 0xcc, 0x16, 0x00, 0x00, 0x50, 0x16,
  0x00, 0x00, 0xb4, 0x15, 0x00, 0x00, 0x40, 0x15, 0x00, 0x00, 0xc4, 0x14, 0x00,
  0x00, 0x48, 0x14, 0x00, 0x00, 0xa4, 0x13, 0x00, 0x00, 0x28, 0x13, 0x00, 0x00,
  0xac, 0x12, 0x00, 0x00, 0x10, 0x12, 0x00, 0x00, 0x94, 0x11, 0x00, 0x00, 0x18,
  0x11, 0x00, 0x00, 0x7c, 0x10, 0x00, 0x00, 0x08, 0x10, 0x00, 0x00, 0x8c, 0x0f,
  0x00, 0x00, 0x10, 0x0f, 0x00, 0x00, 0x6c, 0x0e, 0x00, 0x00, 0xf0, 0x0d, 0x00,
  0x00, 0x74, 0x0d, 0x00, 0x00, 0xd8, 0x0c, 0x00, 0x00, 0x5c, 0x0c, 0x00, 0x00,
  0xe0, 0x0b, 0x00, 0x00, 0x44, 0x0b, 0x00, 0x00, 0xd0, 0x0a, 0x00, 0x00, 0x54,
  0x0a, 0x00, 0x00, 0xd8, 0x09, 0x00, 0x00, 0x34, 0x09, 0x00, 0x00, 0xb8, 0x08,
  0x00, 0x00, 0x3c, 0x08, 0x00, 0x00, 0xa0, 0x07, 0x00, 0x00, 0x24, 0x07, 0x00,
  0x00, 0xa8, 0x06, 0x00, 0x00, 0x0c, 0x06, 0x00, 0x00, 0x98, 0x05, 0x00, 0x00,
  0x1c, 0x05, 0x00, 0x00, 0xa0, 0x04, 0x00, 0x00, 0xfc, 0x03, 0x00, 0x00, 0x80,
  0x03, 0x00, 0x00, 0x04, 0x03, 0x00, 0x00, 0x68, 0x02, 0x00, 0x00, 0xf4, 0x01,
  0x00, 0x00, 0x78, 0x01, 0x00, 0x00, 0xfc, 0x00, 0x00, 0x00, 0x78, 0x00, 0x00,
  0x00, 0x44, 0x00, 0x00, 0x00, 0x04, 0x00, 0x00, 0x00, 0xd0, 0xff, 0xff, 0xff,
  0x08, 0x00, 0x00, 0x00, 0x14, 0x00, 0x00, 0x00, 0x0a, 0x00, 0x00, 0x00, 0x42,
  0x69, 0x61, 0x73, 0x41, 0x64, 0x64, 0x5f, 0x31, 0x38, 0x00, 0x00, 0x04, 0x00,
  0x00, 0x00, 0x01, 0x00, 0x00, 0x00, 0x38, 0x04, 0x00, 0x00, 0x80, 0x07, 0x00,
  0x00, 0x01, 0x00, 0x00, 0x00, 0x0c, 0x00, 0x0c, 0x00, 0x08, 0x00, 0x00, 0x00,
  0x00, 0x00, 0x04, 0x00, 0x0c, 0x00, 0x00, 0x00, 0x08, 0x00, 0x00, 0x00, 0x14,
  0x00, 0x00, 0x00, 0x0b, 0x00, 0x00, 0x00, 0x50, 0x6c, 0x61, 0x63, 0x65, 0x68,
  0x6f, 0x6c, 0x64, 0x65, 0x72, 0x00, 0x04, 0x00, 0x00, 0x00, 0x01, 0x00, 0x00,
  0x00, 0x38, 0x04, 0x00, 0x00, 0x80, 0x07, 0x00, 0x00, 0x01, 0x00, 0x00, 0x00,
  0x52, 0x8d, 0xff, 0xff, 0x14, 0x00, 0x00, 0x00, 0x4c, 0x00, 0x00, 0x00, 0x90,
  0x00, 0x00, 0x00, 0x00, 0x00, 0x00, 0x07, 0x58, 0x00, 0x00, 0x00, 0x44, 0x8d,
  0xff, 0xff, 0x10, 0x00, 0x00, 0x00, 0x1c, 0x00, 0x00, 0x00, 0x20, 0x00, 0x00,
  0x00, 0x24, 0x00, 0x00, 0x00, 0x01, 0x00, 0x00, 0x00, 0x00, 0x00, 0x00, 0x00,
  0x00, 0x00, 0x00, 0x00, 0x00, 0x00, 0x00, 0x00, 0x01, 0x00, 0x00, 0x00, 0x9d,
  0xe8, 0xf9, 0x36, 0x01, 0x00, 0x00, 0x00, 0xfa, 0x17, 0x5a, 0x3e, 0x01, 0x00,
  0x00, 0x00, 0xa9, 0xe6, 0x79, 0xbe, 0x10, 0x00, 0x00, 0x00, 0x42, 0x69, 0x61,
  0x73, 0x41, 0x64, 0x64, 0x5f, 0x31, 0x38, 0x5f, 0x69, 0x6e, 0x74, 0x31, 0x36,
  0x00, 0x00, 0x00, 0x00, 0x04, 0x00, 0x00, 0x00, 0x01, 0x00, 0x00, 0x00, 0x38,
  0x04, 0x00, 0x00, 0x80, 0x07, 0x00, 0x00, 0x01, 0x00, 0x00, 0x00, 0xd2, 0x8d,
  0xff, 0xff, 0x14, 0x00, 0x00, 0x00, 0x48, 0x00, 0x00, 0x00, 0x8f, 0x00, 0x00,
  0x00, 0x00, 0x00, 0x00, 0x07, 0x50, 0x00, 0x00, 0x00, 0xc4, 0x8d, 0xff, 0xff,
  0x10, 0x00, 0x00, 0x00, 0x18, 0x00, 0x00, 0x00, 0x1c, 0x00, 0x00, 0x00, 0x20,
  0x00, 0x00, 0x00, 0x01, 0x00, 0x00, 0x00, 0x00, 0x00, 0x00, 0x00, 0x00, 0x00,
  0x00, 0x00, 0x01, 0x00, 0x00, 0x00, 0xa7, 0xb8, 0x07, 0x39, 0x01, 0x00, 0x00,
  0x00, 0x98, 0xb7, 0x87, 0x40, 0x01, 0x00, 0x00, 0x00, 0x72, 0xcf, 0x49, 0xc0,
  0x0d, 0x00, 0x00, 0x00, 0x64, 0x65, 0x70, 0x74, 0x68, 0x77, 0x69, 0x73, 0x65,
  0x5f, 0x33, 0x37, 0x32, 0x00, 0x00, 0x00, 0x04, 0x00, 0x00, 0x00, 0x01, 0x00,
  0x00, 0x00, 0x38, 0x04, 0x00, 0x00, 0x80, 0x07, 0x00, 0x00, 0x05, 0x00, 0x00,
  0x00, 0x4a, 0x8e, 0xff, 0xff, 0x14, 0x00, 0x00, 0x00, 0x48, 0x00, 0x00, 0x00,
  0x8e, 0x00, 0x00, 0x00, 0x00, 0x00, 0x00, 0x07, 0x50, 0x00, 0x00, 0x00, 0x3c,
  0x8e, 0xff, 0xff, 0x10, 0x00, 0x00, 0x00, 0x18, 0x00, 0x00, 0x00, 0x1c, 0x00,
  0x00, 0x00, 0x20, 0x00, 0x00, 0x00, 0x01, 0x00, 0x00, 0x00, 0x00, 0x00, 0x00,
  0x00, 0x00, 0x00, 0x00, 0x00, 0x01, 0x00, 0x00, 0x00, 0x1d, 0x01, 0xbd, 0x39,
  0x01, 0x00, 0x00, 0x00, 0xa3, 0xff, 0x3c, 0x41, 0x01, 0x00, 0x00, 0x00, 0xae,
  0x46, 0x3b, 0xc1, 0x0d, 0x00, 0x00, 0x00, 0x64, 0x65, 0x70, 0x74, 0x68, 0x77,
  0x69, 0x73, 0x65, 0x5f, 0x33, 0x36, 0x31, 0x00, 0x00, 0x00, 0x04, 0x00, 0x00,
  0x00, 0x01, 0x00, 0x00, 0x00, 0x38, 0x04, 0x00, 0x00, 0x84, 0x07, 0x00, 0x00,
  0x05, 0x00, 0x00, 0x00, 0xc2, 0x8e, 0xff, 0xff, 0x14, 0x00, 0x00, 0x00, 0x48,
  0x00, 0x00, 0x00, 0x8d, 0x00, 0x00, 0x00, 0x00, 0x00, 0x00, 0x07, 0x48, 0x00,
  0x00, 0x00, 0xb4, 0x8e, 0xff, 0xff, 0x10, 0x00, 0x00, 0x00, 0x18, 0x00, 0x00,
  0x00, 0x1c, 0x00, 0x00, 0x00, 0x20, 0x00, 0x00, 0x00, 0x01, 0x00, 0x00, 0x00,
  0x00, 0x00, 0x00, 0x00, 0x00, 0x00, 0x00, 0x00, 0x01, 0x00, 0x00, 0x00, 0x54,
  0x73, 0xcf, 0x3a, 0x01, 0x00, 0x00, 0x00, 0x76, 0x2d, 0x07, 0x42, 0x01, 0x00,
  0x00, 0x00, 0xb5, 0x71, 0x4f, 0xc2, 0x05, 0x00, 0x00, 0x00, 0x41, 0x64, 0x64,
  0x5f, 0x35, 0x00, 0x00, 0x00, 0x04, 0x00, 0x00, 0x00, 0x01, 0x00, 0x00, 0x00,
  0x3c, 0x04, 0x00, 0x00, 0x84, 0x07, 0x00, 0x00, 0x05, 0x00, 0x00, 0x00, 0x32,
  0x8f, 0xff, 0xff, 0x14, 0x00, 0x00, 0x00, 0x48, 0x00, 0x00, 0x00, 0x8c, 0x00,
  0x00, 0x00, 0x00, 0x00, 0x00, 0x07, 0x70, 0x00, 0x00, 0x00, 0x24, 0x8f, 0xff,
  0xff, 0x10, 0x00, 0x00, 0x00, 0x18, 0x00, 0x00, 0x00, 0x1c, 0x00, 0x00, 0x00,
  0x20, 0x00, 0x00, 0x00, 0x01, 0x00, 0x00, 0x00, 0x00, 0x00, 0x00, 0x00, 0x00,
  0x00, 0x00, 0x00, 0x01, 0x00, 0x00, 0x00, 0xdd, 0x77, 0xf0, 0x3a, 0x01, 0x00,
  0x00, 0x00, 0x14, 0x1b, 0x1d, 0x42, 0x01, 0x00, 0x00, 0x00, 0xfc, 0x75, 0x70,
  0xc2, 0x2d, 0x00, 0x00, 0x00, 0x42, 0x69, 0x61, 0x73, 0x41, 0x64, 0x64, 0x5f,
  0x31, 0x37, 0x3b, 0x64, 0x65, 0x70, 0x74, 0x68, 0x77, 0x69, 0x73, 0x65, 0x5f,
  0x33, 0x37, 0x3b, 0x43, 0x6f, 0x6e, 0x76, 0x32, 0x44, 0x5f, 0x31, 0x37, 0x3b,
  0x63, 0x6f, 0x6e, 0x76, 0x5f, 0x36, 0x5f, 0x31, 0x5f, 0x62, 0x31, 0x00, 0x00,
  0x00, 0x04, 0x00, 0x00, 0x00, 0x01, 0x00, 0x00, 0x00, 0x3c, 0x04, 0x00, 0x00,
  0x84, 0x07, 0x00, 0x00, 0x05, 0x00, 0x00, 0x00, 0xca, 0x8f, 0xff, 0xff, 0x14,
  0x00, 0x00, 0x00, 0x48, 0x00, 0x00, 0x00, 0x8b, 0x00, 0x00, 0x00, 0x00, 0x00,
  0x00, 0x07, 0x50, 0x00, 0x00, 0x00, 0xbc, 0x8f, 0xff, 0xff, 0x10, 0x00, 0x00,
  0x00, 0x18, 0x00, 0x00, 0x00, 0x1c, 0x00, 0x00, 0x00, 0x20, 0x00, 0x00, 0x00,
  0x01, 0x00, 0x00, 0x00, 0x00, 0x00, 0x00, 0x00, 0x00, 0x00, 0x00, 0x00, 0x01,
  0x00, 0x00, 0x00, 0xd6, 0xc6, 0xca, 0x3a, 0x01, 0x00, 0x00, 0x00, 0x40, 0xc5,
  0x4a, 0x42, 0x01, 0x00, 0x00, 0x00, 0xcb, 0x75, 0xd5, 0xc1, 0x0d, 0x00, 0x00,
  0x00, 0x64, 0x65, 0x70, 0x74, 0x68, 0x77, 0x69, 0x73, 0x65, 0x5f, 0x33, 0x35,
  0x31, 0x00, 0x00, 0x00, 0x04, 0x00, 0x00, 0x00, 0x01, 0x00, 0x00, 0x00, 0x3c,
  0x04, 0x00, 0x00, 0x84, 0x07, 0x00, 0x00, 0x05, 0x00, 0x00, 0x00, 0x42, 0x90,
  0xff, 0xff, 0x14, 0x00, 0x00, 0x00, 0x48, 0x00, 0x00, 0x00, 0x8a, 0x00, 0x00,
  0x00, 0x00, 0x00, 0x00, 0x07, 0x50, 0x00, 0x00, 0x00, 0x34, 0x90, 0xff, 0xff,
  0x10, 0x00, 0x00, 0x00, 0x18, 0x00, 0x00, 0x00, 0x1c, 0x00, 0x00, 0x00, 0x20,
  0x00, 0x00, 0x00, 0x01, 0x00, 0x00, 0x00, 0x00, 0x00, 0x00, 0x00, 0x00, 0x00,
  0x00, 0x00, 0x01, 0x00, 0x00, 0x00, 0xbe, 0xd5, 0x9e, 0x3a, 0x01, 0x00, 0x00,
  0x00, 0x80, 0xd4, 0x1e, 0x42, 0x01, 0x00, 0x00, 0x00, 0xeb, 0xc8, 0x8d, 0xc1,
  0x0d, 0x00, 0x00, 0x00, 0x64, 0x65, 0x70, 0x74, 0x68, 0x77, 0x69, 0x73, 0x65,
  0x5f, 0x33, 0x34, 0x31, 0x00, 0x00, 0x00, 0x04, 0x00, 0x00, 0x00, 0x01, 0x00,
  0x00, 0x00, 0x3c, 0x04, 0x00, 0x00, 0x84, 0x07, 0x00, 0x00, 0x05, 0x00, 0x00,
  0x00, 0xba, 0x90, 0xff, 0xff, 0x14, 0x00, 0x00, 0x00, 0x4c, 0x00, 0x00, 0x00,
  0x89, 0x00, 0x00, 0x00, 0x00, 0x00, 0x00, 0x07, 0x78, 0x00, 0x00, 0x00, 0xac,
  0x90, 0xff, 0xff, 0x10, 0x00, 0x00, 0x00, 0x1c, 0x00, 0x00, 0x00, 0x20, 0x00,
  0x00, 0x00, 0x24, 0x00, 0x00, 0x00, 0x01, 0x00, 0x00, 0x00, 0x00, 0x00, 0x00,
  0x00, 0x00, 0x00, 0x00, 0x00, 0x00, 0x00, 0x00, 0x00, 0x01, 0x00, 0x00, 0x00,
  0xfa, 0xae, 0x9e, 0x3a, 0x01, 0x00, 0x00, 0x00, 0xbd, 0xad, 0x1e, 0x42, 0x01,
  0x00, 0x00, 0x00, 0x00, 0x00, 0x00, 0x00, 0x33, 0x00, 0x00, 0x00, 0x52, 0x65,
  0x6c, 0x75, 0x5f, 0x35, 0x3b, 0x42, 0x69, 0x61, 0x73, 0x41, 0x64, 0x64, 0x5f,
  0x31, 0x36, 0x3b, 0x64, 0x65, 0x70, 0x74, 0x68, 0x77, 0x69, 0x73, 0x65, 0x5f,
  0x33, 0x37, 0x3b, 0x43, 0x6f, 0x6e, 0x76, 0x32, 0x44, 0x5f, 0x31, 0x36, 0x3b,
  0x63, 0x6f, 0x6e, 0x76, 0x5f, 0x36, 0x5f, 0x30, 0x5f, 0x62, 0x00, 0x04, 0x00,
  0x00, 0x00, 0x01, 0x00, 0x00, 0x00, 0x3c, 0x04, 0x00, 0x00, 0x84, 0x07, 0x00,
  0x00, 0x05, 0x00, 0x00, 0x00, 0x5a, 0x91, 0xff, 0xff, 0x14, 0x00, 0x00, 0x00,
  0x48, 0x00, 0x00, 0x00, 0x88, 0x00, 0x00, 0x00, 0x00, 0x00, 0x00, 0x07, 0x50,
  0x00, 0x00, 0x00, 0x4c, 0x91, 0xff, 0xff, 0x10, 0x00, 0x00, 0x00, 0x18, 0x00,
  0x00, 0x00, 0x1c, 0x00, 0x00, 0x00, 0x20, 0x00, 0x00, 0x00, 0x01, 0x00, 0x00,
  0x00, 0x00, 0x00, 0x00, 0x00, 0x00, 0x00, 0x00, 0x00, 0x01, 0x00, 0x00, 0x00,
  0xd6, 0x1d, 0x74, 0x3a, 0x01, 0x00, 0x00, 0x00, 0x66, 0xd4, 0xc6, 0x41, 0x01,
  0x00, 0x00, 0x00, 0xee, 0x1b, 0xf4, 0xc1, 0x0d, 0x00, 0x00, 0x00, 0x64, 0x65,
  0x70, 0x74, 0x68, 0x77, 0x69, 0x73, 0x65, 0x5f, 0x33, 0x33, 0x31, 0x00, 0x00,
  0x00, 0x04, 0x00, 0x00, 0x00, 0x01, 0x00, 0x00, 0x00, 0x3c, 0x04, 0x00, 0x00,
  0x84, 0x07, 0x00, 0x00, 0x05, 0x00, 0x00, 0x00, 0xd2, 0x91, 0xff, 0xff, 0x14,
  0x00, 0x00, 0x00, 0x48, 0x00, 0x00, 0x00, 0x87, 0x00, 0x00, 0x00, 0x00, 0x00,
  0x00, 0x07, 0x50, 0x00, 0x00, 0x00, 0xc4, 0x91, 0xff, 0xff, 0x10, 0x00, 0x00,
  0x00, 0x18, 0x00, 0x00, 0x00, 0x1c, 0x00, 0x00, 0x00, 0x20, 0x00, 0x00, 0x00,
  0x01, 0x00, 0x00, 0x00, 0x00, 0x00, 0x00, 0x00, 0x00, 0x00, 0x00, 0x00, 0x01,
  0x00, 0x00, 0x00, 0x7d, 0x52, 0x8c, 0x3a, 0x01, 0x00, 0x00, 0x00, 0x64, 0x51,
  0x0c, 0x42, 0x01, 0x00, 0x00, 0x00, 0xe2, 0xf6, 0xb0, 0xc1, 0x0d, 0x00, 0x00,
  0x00, 0x64, 0x65, 0x70, 0x74, 0x68, 0x77, 0x69, 0x73, 0x65, 0x5f, 0x33, 0x32,
  0x31, 0x00, 0x00, 0x00, 0x04, 0x00, 0x00, 0x00, 0x01, 0x00, 0x00, 0x00, 0x3c,
  0x04, 0x00, 0x00, 0x84, 0x07, 0x00, 0x00, 0x05, 0x00, 0x00, 0x00, 0x4a, 0x92,
  0xff, 0xff, 0x14, 0x00, 0x00, 0x00, 0x48, 0x00, 0x00, 0x00, 0x86, 0x00, 0x00,
  0x00, 0x00, 0x00, 0x00, 0x07, 0x48, 0x00, 0x00, 0x00, 0x3c, 0x92, 0xff, 0xff,
  0x10, 0x00, 0x00, 0x00, 0x18, 0x00, 0x00, 0x00, 0x1c, 0x00, 0x00, 0x00, 0x20,
  0x00, 0x00, 0x00, 0x01, 0x00, 0x00, 0x00, 0x00, 0x00, 0x00, 0x00, 0x00, 0x00,
  0x00, 0x00, 0x01, 0x00, 0x00, 0x00, 0xf6, 0xb5, 0x67, 0x3a, 0x01, 0x00, 0x00,
  0x00, 0x64, 0x30, 0xd2, 0x41, 0x01, 0x00, 0x00, 0x00, 0x27, 0xb4, 0xe7, 0xc1,
  0x05, 0x00, 0x00, 0x00, 0x41, 0x64, 0x64, 0x5f, 0x34, 0x00, 0x00, 0x00, 0x04,
  0x00, 0x00, 0x00, 0x01, 0x00, 0x00, 0x00, 0x3c, 0x04, 0x00, 0x00, 0x84, 0x07,
  0x00, 0x00, 0x05, 0x00, 0x00, 0x00, 0xba, 0x92, 0xff, 0xff, 0x14, 0x00, 0x00,
  0x00, 0x48, 0x00, 0x00, 0x00, 0x85, 0x00, 0x00, 0x00, 0x00, 0x00, 0x00, 0x07,
  0x70, 0x00, 0x00, 0x00, 0xac, 0x92, 0xff, 0xff, 0x10, 0x00, 0x00, 0x00, 0x18,
  0x00, 0x00, 0x00, 0x1c, 0x00, 0x00, 0x00, 0x20, 0x00, 0x00, 0x00, 0x01, 0x00,
  0x00, 0x00, 0x00, 0x00, 0x00, 0x00, 0x00, 0x00, 0x00, 0x00, 0x01, 0x00, 0x00,
  0x00, 0x1d, 0x95, 0x5a, 0x3a, 0x01, 0x00, 0x00, 0x00, 0x68, 0x93, 0xda, 0x41,
  0x01, 0x00, 0x00, 0x00, 0x20, 0xb1, 0x8f, 0xc1, 0x2d, 0x00, 0x00, 0x00, 0x42,
  0x69, 0x61, 0x73, 0x41, 0x64, 0x64, 0x5f, 0x31, 0x35, 0x3b, 0x64, 0x65, 0x70,
  0x74, 0x68, 0x77, 0x69, 0x73, 0x65, 0x5f, 0x33, 0x37, 0x3b, 0x43, 0x6f, 0x6e,
  0x76, 0x32, 0x44, 0x5f, 0x31, 0x35, 0x3b, 0x63, 0x6f, 0x6e, 0x76, 0x5f, 0x35,
  0x5f, 0x31, 0x5f, 0x62, 0x31, 0x00, 0x00, 0x00, 0x04, 0x00, 0x00, 0x00, 0x01,
  0x00, 0x00, 0x00, 0x3c, 0x04, 0x00, 0x00, 0x84, 0x07, 0x00, 0x00, 0x05, 0x00,
  0x00, 0x00, 0x52, 0x93, 0xff, 0xff, 0x14, 0x00, 0x00, 0x00, 0x48, 0x00, 0x00,
  0x00, 0x84, 0x00, 0x00, 0x00, 0x00, 0x00, 0x00, 0x07, 0x50, 0x00, 0x00, 0x00,
  0x44, 0x93, 0xff, 0xff, 0x10, 0x00, 0x00, 0x00, 0x18, 0x00, 0x00, 0x00, 0x1c,
  0x00, 0x00, 0x00, 0x20, 0x00, 0x00, 0x00, 0x01, 0x00, 0x00, 0x00, 0x00, 0x00,
  0x00, 0x00, 0x00, 0x00, 0x00, 0x00, 0x01, 0x00, 0x00, 0x00, 0x9b, 0x8a, 0xa4,
  0x3a, 0x01, 0x00, 0x00, 0x00, 0x52, 0x89, 0x24, 0x42, 0x01, 0x00, 0x00, 0x00,
  0x30, 0x9a, 0x04, 0xc2, 0x0d, 0x00, 0x00, 0x00, 0x64, 0x65, 0x70, 0x74, 0x68,
  0x77, 0x69, 0x73, 0x65, 0x5f, 0x33, 0x31, 0x32, 0x00, 0x00, 0x00, 0x04, 0x00,
  0x00, 0x00, 0x01, 0x00, 0x00, 0x00, 0x3c, 0x04, 0x00, 0x00, 0x84, 0x07, 0x00,
  0x00, 0x07, 0x00, 0x00, 0x00, 0xca, 0x93, 0xff, 0xff, 0x14, 0x00, 0x00, 0x00,
  0x48, 0x00, 0x00, 0x00, 0x83, 0x00, 0x00, 0x00, 0x00, 0x00, 0x00, 0x07, 0x50,
  0x00, 0x00, 0x00, 0xbc, 0x93, 0xff, 0xff, 0x10, 0x00, 0x00, 0x00, 0x18, 0x00,
  0x00, 0x00, 0x1c, 0x00, 0x00, 0x00, 0x20, 0x00, 0x00, 0x00, 0x01, 0x00, 0x00,
  0x00, 0x00, 0x00, 0x00, 0x00, 0x00, 0x00, 0x00, 0x00, 0x01, 0x00, 0x00, 0x00,
  0xd2, 0x8c, 0x72, 0x3b, 0x01, 0x00, 0x00, 0x00, 0x28, 0x56, 0xb9, 0x42, 0x01,
  0x00, 0x00, 0x00, 0xed, 0x8a, 0xf2, 0xc2, 0x0d, 0x00, 0x00, 0x00, 0x64, 0x65,
  0x70, 0x74, 0x68, 0x77, 0x69, 0x73, 0x65, 0x5f, 0x33, 0x30, 0x31, 0x00, 0x00,
  0x00, 0x04, 0x00, 0x00, 0x00, 0x01, 0x00, 0x00, 0x00, 0x3c, 0x04, 0x00, 0x00,
  0x84, 0x07, 0x00, 0x00, 0x07, 0x00, 0x00, 0x00, 0x42, 0x94, 0xff, 0xff, 0x14,
  0x00, 0x00, 0x00, 0x48, 0x00, 0x00, 0x00, 0x82, 0x00, 0x00, 0x00, 0x00, 0x00,
  0x00, 0x07, 0x70, 0x00, 0x00, 0x00, 0x34, 0x94, 0xff, 0xff, 0x10, 0x00, 0x00,
  0x00, 0x18, 0x00, 0x00, 0x00, 0x1c, 0x00, 0x00, 0x00, 0x20, 0x00, 0x00, 0x00,
  0x01, 0x00, 0x00, 0x00, 0x00, 0x00, 0x00, 0x00, 0x00, 0x00, 0x00, 0x00, 0x01,
  0x00, 0x00, 0x00, 0x44, 0x6c, 0x49, 0x3a, 0x01, 0x00, 0x00, 0x00, 0xb1, 0x6a,
  0xc9, 0x41, 0x01, 0x00, 0x00, 0x00, 0x5f, 0x53, 0xb8, 0xc1, 0x2c, 0x00, 0x00,
  0x00, 0x42, 0x69, 0x61, 0x73, 0x41, 0x64, 0x64, 0x5f, 0x31, 0x34, 0x3b, 0x64,
  0x65, 0x70, 0x74, 0x68, 0x77, 0x69, 0x73, 0x65, 0x5f, 0x33, 0x37, 0x3b, 0x43,
  0x6f, 0x6e, 0x76, 0x32, 0x44, 0x5f, 0x31, 0x34, 0x3b, 0x63, 0x6f, 0x6e, 0x76,
  0x5f, 0x35, 0x5f, 0x31, 0x5f, 0x62, 0x00, 0x00, 0x00, 0x00, 0x04, 0x00, 0x00,
  0x00, 0x01, 0x00, 0x00, 0x00, 0x3c, 0x04, 0x00, 0x00, 0x84, 0x07, 0x00, 0x00,
  0x05, 0x00, 0x00, 0x00, 0xda, 0x94, 0xff, 0xff, 0x14, 0x00, 0x00, 0x00, 0x48,
  0x00, 0x00, 0x00, 0x81, 0x00, 0x00, 0x00, 0x00, 0x00, 0x00, 0x07, 0x50, 0x00,
  0x00, 0x00, 0xcc, 0x94, 0xff, 0xff, 0x10, 0x00, 0x00, 0x00, 0x18, 0x00, 0x00,
  0x00, 0x1c, 0x00, 0x00, 0x00, 0x20, 0x00, 0x00, 0x00, 0x01, 0x00, 0x00, 0x00,
  0x00, 0x00, 0x00, 0x00, 0x00, 0x00, 0x00, 0x00, 0x01, 0x00, 0x00, 0x00, 0xec,
  0x35, 0xc5, 0x3a, 0x01, 0x00, 0x00, 0x00, 0x44, 0x38, 0x42, 0x42, 0x01, 0x00,
  0x00, 0x00, 0x62, 0x34, 0x45, 0xc2, 0x0d, 0x00, 0x00, 0x00, 0x64, 0x65, 0x70,
  0x74, 0x68, 0x77, 0x69, 0x73, 0x65, 0x5f, 0x32, 0x39, 0x31, 0x00, 0x00, 0x00,
  0x04, 0x00, 0x00, 0x00, 0x01, 0x00, 0x00, 0x00, 0x3c, 0x04, 0x00, 0x00, 0x84,
  0x07, 0x00, 0x00, 0x05, 0x00, 0x00, 0x00, 0x52, 0x95, 0xff, 0xff, 0x14, 0x00,
  0x00, 0x00, 0x48, 0x00, 0x00, 0x00, 0x80, 0x00, 0x00, 0x00, 0x00, 0x00, 0x00,
  0x07, 0x50, 0x00, 0x00, 0x00, 0x44, 0x95, 0xff, 0xff, 0x10, 0x00, 0x00, 0x00,
  0x18, 0x00, 0x00, 0x00, 0x1c, 0x00, 0x00, 0x00, 0x20, 0x00, 0x00, 0x00, 0x01,
  0x00, 0x00, 0x00, 0x00, 0x00, 0x00, 0x00, 0x00, 0x00, 0x00, 0x00, 0x01, 0x00,
  0x00, 0x00, 0xe6, 0x3d, 0x3f, 0x3b, 0x01, 0x00, 0x00, 0x00, 0xf8, 0xc1, 0x60,
  0x42, 0x01, 0x00, 0x00, 0x00, 0x68, 0x3c, 0xbf, 0xc2, 0x0d, 0x00, 0x00, 0x00,
  0x64, 0x65, 0x70, 0x74, 0x68, 0x77, 0x69, 0x73, 0x65, 0x5f, 0x32, 0x38, 0x31,
  0x00, 0x00, 0x00, 0x04, 0x00, 0x00, 0x00, 0x01, 0x00, 0x00, 0x00, 0x3c, 0x04,
  0x00, 0x00, 0x84, 0x07, 0x00, 0x00, 0x05, 0x00, 0x00, 0x00, 0xca, 0x95, 0xff,
  0xff, 0x14, 0x00, 0x00, 0x00, 0x4c, 0x00, 0x00, 0x00, 0x7f, 0x00, 0x00, 0x00,
  0x00, 0x00, 0x00, 0x07, 0x78, 0x00, 0x00, 0x00, 0xbc, 0x95, 0xff, 0xff, 0x10,
  0x00, 0x00, 0x00, 0x1c, 0x00, 0x00, 0x00, 0x20, 0x00, 0x00, 0x00, 0x24, 0x00,
  0x00, 0x00, 0x01, 0x00, 0x00, 0x00, 0x00, 0x00, 0x00, 0x00, 0x00, 0x00, 0x00,
  0x00, 0x00, 0x00, 0x00, 0x00, 0x01, 0x00, 0x00, 0x00, 0xe7, 0x1c, 0xa5, 0x3b,
  0x01, 0x00, 0x00, 0x00, 0x9d, 0x1b, 0x25, 0x43, 0x01, 0x00, 0x00, 0x00, 0x00,
  0x00, 0x00, 0x00, 0x33, 0x00, 0x00, 0x00, 0x52, 0x65, 0x6c, 0x75, 0x5f, 0x34,
  0x3b, 0x42, 0x69, 0x61, 0x73, 0x41, 0x64, 0x64, 0x5f, 0x31, 0x33, 0x3b, 0x64,
  0x65, 0x70, 0x74, 0x68, 0x77, 0x69, 0x73, 0x65, 0x5f, 0x33, 0x37, 0x3b, 0x43,
  0x6f, 0x6e, 0x76, 0x32, 0x44, 0x5f, 0x31, 0x33, 0x3b, 0x63, 0x6f, 0x6e, 0x76,
  0x5f, 0x35, 0x5f, 0x30, 0x5f, 0x62, 0x00, 0x04, 0x00, 0x00, 0x00, 0x01, 0x00,
  0x00, 0x00, 0x3c, 0x04, 0x00, 0x00, 0x84, 0x07, 0x00, 0x00, 0x05, 0x00, 0x00,
  0x00, 0x6a, 0x96, 0xff, 0xff, 0x14, 0x00, 0x00, 0x00, 0x48, 0x00, 0x00, 0x00,
  0x7e, 0x00, 0x00, 0x00, 0x00, 0x00, 0x00, 0x07, 0x50, 0x00, 0x00, 0x00, 0x5c,
  0x96, 0xff, 0xff, 0x10, 0x00, 0x00, 0x00, 0x18, 0x00, 0x00, 0x00, 0x1c, 0x00,
  0x00, 0x00, 0x20, 0x00, 0x00, 0x00, 0x01, 0x00, 0x00, 0x00, 0x00, 0x00, 0x00,
  0x00, 0x00, 0x00, 0x00, 0x00, 0x01, 0x00, 0x00, 0x00, 0x47, 0x84, 0xe0, 0x3b,
  0x01, 0x00, 0x00, 0x00, 0x86, 0x82, 0x60, 0x43, 0x01, 0x00, 0x00, 0x00, 0x36,
  0x37, 0x44, 0xc3, 0x0d, 0x00, 0x00, 0x00, 0x64, 0x65, 0x70, 0x74, 0x68, 0x77,
  0x69, 0x73, 0x65, 0x5f, 0x32, 0x37, 0x31, 0x00, 0x00, 0x00, 0x04, 0x00, 0x00,
  0x00, 0x01, 0x00, 0x00, 0x00, 0x3c, 0x04, 0x00, 0x00, 0x84, 0x07, 0x00, 0x00,
  0x07, 0x00, 0x00, 0x00, 0xe2, 0x96, 0xff, 0xff, 0x14, 0x00, 0x00, 0x00, 0x48,
  0x00, 0x00, 0x00, 0x7d, 0x00, 0x00, 0x00, 0x00, 0x00, 0x00, 0x07, 0x50, 0x00,
  0x00, 0x00, 0xd4, 0x96, 0xff, 0xff, 0x10, 0x00, 0x00, 0x00, 0x18, 0x00, 0x00,
  0x00, 0x1c, 0x00, 0x00, 0x00, 0x20, 0x00, 0x00, 0x00, 0x01, 0x00, 0x00, 0x00,
  0x00, 0x00, 0x00, 0x00, 0x00, 0x00, 0x00, 0x00, 0x01, 0x00, 0x00, 0x00, 0xb6,
  0x35, 0x0c, 0x3c, 0x01, 0x00, 0x00, 0x00, 0x9e, 0x34, 0x8c, 0x43, 0x01, 0x00,
  0x00, 0x00, 0x99, 0x46, 0x80, 0xc3, 0x0d, 0x00, 0x00, 0x00, 0x64, 0x65, 0x70,
  0x74, 0x68, 0x77, 0x69, 0x73, 0x65, 0x5f, 0x32, 0x36, 0x31, 0x00, 0x00, 0x00,
  0x04, 0x00, 0x00, 0x00, 0x01, 0x00, 0x00, 0x00, 0x3c, 0x04, 0x00, 0x00, 0x84,
  0x07, 0x00, 0x00, 0x07, 0x00, 0x00, 0x00, 0x5a, 0x97, 0xff, 0xff, 0x14, 0x00,
  0x00, 0x00, 0x48, 0x00, 0x00, 0x00, 0x7c, 0x00, 0x00, 0x00, 0x00, 0x00, 0x00,
  0x07, 0x48, 0x00, 0x00, 0x00, 0x4c, 0x97, 0xff, 0xff, 0x10, 0x00, 0x00, 0x00,
  0x18, 0x00, 0x00, 0x00, 0x1c, 0x00, 0x00, 0x00, 0x20, 0x00, 0x00, 0x00, 0x01,
  0x00, 0x00, 0x00, 0x00, 0x00, 0x00, 0x00, 0x00, 0x00, 0x00, 0x00, 0x01, 0x00,
  0x00, 0x00, 0xb1, 0x9f, 0x0d, 0x3c, 0x01, 0x00, 0x00, 0x00, 0x33, 0xf3, 0x67,
  0x43, 0x01, 0x00, 0x00, 0x00, 0x96, 0x9e, 0x8d, 0xc3, 0x05, 0x00, 0x00, 0x00,
  0x41, 0x64, 0x64, 0x5f, 0x33, 0x00, 0x00, 0x00, 0x04, 0x00, 0x00, 0x00, 0x01,
  0x00, 0x00, 0x00, 0x3c, 0x04, 0x00, 0x00, 0x84, 0x07, 0x00, 0x00, 0x07, 0x00,
  0x00, 0x00, 0xca, 0x97, 0xff, 0xff, 0x14, 0x00, 0x00, 0x00, 0x48, 0x00, 0x00,
  0x00, 0x7b, 0x00, 0x00, 0x00, 0x00, 0x00, 0x00, 0x07, 0x70, 0x00, 0x00, 0x00,
  0xbc, 0x97, 0xff, 0xff, 0x10, 0x00, 0x00, 0x00, 0x18, 0x00, 0x00, 0x00, 0x1c,
  0x00, 0x00, 0x00, 0x20, 0x00, 0x00, 0x00, 0x01, 0x00, 0x00, 0x00, 0x00, 0x00,
  0x00, 0x00, 0x00, 0x00, 0x00, 0x00, 0x01, 0x00, 0x00, 0x00, 0x25, 0xf0, 0x19,
  0x3c, 0x01, 0x00, 0x00, 0x00, 0xbc, 0x3e, 0x65, 0x43, 0x01, 0x00, 0x00, 0x00,
  0xf1, 0xee, 0x99, 0xc3, 0x2d, 0x00, 0x00, 0x00, 0x42, 0x69, 0x61, 0x73, 0x41,
  0x64, 0x64, 0x5f, 0x31, 0x32, 0x3b, 0x64, 0x65, 0x70, 0x74, 0x68, 0x77, 0x69,
  0x73, 0x65, 0x5f, 0x33, 0x31, 0x3b, 0x43, 0x6f, 0x6e, 0x76, 0x32, 0x44, 0x5f,
  0x31, 0x32, 0x3b, 0x63, 0x6f, 0x6e, 0x76, 0x5f, 0x34, 0x5f, 0x31, 0x5f, 0x62,
  0x31, 0x00, 0x00, 0x00, 0x04, 0x00, 0x00, 0x00, 0x01, 0x00, 0x00, 0x00, 0x3c,
  0x04, 0x00, 0x00, 0x84, 0x07, 0x00, 0x00, 0x07, 0x00, 0x00, 0x00, 0x62, 0x98,
  0xff, 0xff, 0x14, 0x00, 0x00, 0x00, 0x48, 0x00, 0x00, 0x00, 0x7a, 0x00, 0x00,
  0x00, 0x00, 0x00, 0x00, 0x07, 0x50, 0x00, 0x00, 0x00, 0x54, 0x98, 0xff, 0xff,
  0x10, 0x00, 0x00, 0x00, 0x18, 0x00, 0x00, 0x00, 0x1c, 0x00, 0x00, 0x00, 0x20,
  0x00, 0x00, 0x00, 0x01, 0x00, 0x00, 0x00, 0x00, 0x00, 0x00, 0x00, 0x00, 0x00,
  0x00, 0x00, 0x01, 0x00, 0x00, 0x00, 0x4a, 0x2d, 0xb4, 0x3b, 0x01, 0x00, 0x00,
  0x00, 0xe2, 0x2b, 0x34, 0x43, 0x01, 0x00, 0x00, 0x00, 0xd0, 0x3e, 0x15, 0xc3,
  0x0d, 0x00, 0x00, 0x00, 0x64, 0x65, 0x70, 0x74, 0x68, 0x77, 0x69, 0x73, 0x65,
  0x5f, 0x32, 0x35, 0x32, 0x00, 0x00, 0x00, 0x04, 0x00, 0x00, 0x00, 0x01, 0x00,
  0x00, 0x00, 0x3c, 0x04, 0x00, 0x00, 0x84, 0x07, 0x00, 0x00, 0x09, 0x00, 0x00,
  0x00, 0xda, 0x98, 0xff, 0xff, 0x14, 0x00, 0x00, 0x00, 0x48, 0x00, 0x00, 0x00,
  0x79, 0x00, 0x00, 0x00, 0x00, 0x00, 0x00, 0x07, 0x50, 0x00, 0x00, 0x00, 0xcc,
  0x98, 0xff, 0xff, 0x10, 0x00, 0x00, 0x00, 0x18, 0x00, 0x00, 0x00, 0x1c, 0x00,
  0x00, 0x00, 0x20, 0x00, 0x00, 0x00, 0x01, 0x00, 0x00, 0x00, 0x00, 0x00, 0x00,
  0x00, 0x00, 0x00, 0x00, 0x00, 0x01, 0x00, 0x00, 0x00, 0x28, 0x03, 0x0f, 0x3c,
  0x01, 0x00, 0x00, 0x00, 0x4d, 0x4b, 0x71, 0x43, 0x01, 0x00, 0x00, 0x00, 0x0a,
  0x02, 0x8f, 0xc3, 0x0d, 0x00, 0x00, 0x00, 0x64, 0x65, 0x70, 0x74, 0x68, 0x77,
  0x69, 0x73, 0x65, 0x5f, 0x32, 0x34, 0x31, 0x00, 0x00, 0x00, 0x04, 0x00, 0x00,
  0x00, 0x01, 0x00, 0x00, 0x00, 0x3c, 0x04, 0x00, 0x00, 0x84, 0x07, 0x00, 0x00,
  0x09, 0x00, 0x00, 0x00, 0x52, 0x99, 0xff, 0xff, 0x14, 0x00, 0x00, 0x00, 0x48,
  0x00, 0x00, 0x00, 0x78, 0x00, 0x00, 0x00, 0x00, 0x00, 0x00, 0x07, 0x70, 0x00,
  0x00, 0x00, 0x44, 0x99, 0xff, 0xff, 0x10, 0x00, 0x00, 0x00, 0x18, 0x00, 0x00,
  0x00, 0x1c, 0x00, 0x00, 0x00, 0x20, 0x00, 0x00, 0x00, 0x01, 0x00, 0x00, 0x00,
  0x00, 0x00, 0x00, 0x00, 0x00, 0x00, 0x00, 0x00, 0x01, 0x00, 0x00, 0x00, 0x49,
  0x99, 0xbb, 0x3b, 0x01, 0x00, 0x00, 0x00, 0x7e, 0x5d, 0x3b, 0x43, 0x01, 0x00,
  0x00, 0x00, 0xd2, 0x97, 0x3b, 0xc3, 0x2c, 0x00, 0x00, 0x00, 0x42, 0x69, 0x61,
  0x73, 0x41, 0x64, 0x64, 0x5f, 0x31, 0x31, 0x3b, 0x64, 0x65, 0x70, 0x74, 0x68,
  0x77, 0x69, 0x73, 0x65, 0x5f, 0x33, 0x31, 0x3b, 0x43, 0x6f, 0x6e, 0x76, 0x32,
  0x44, 0x5f, 0x31, 0x31, 0x3b, 0x63, 0x6f, 0x6e, 0x76, 0x5f, 0x34, 0x5f, 0x31,
  0x5f, 0x62, 0x00, 0x00, 0x00, 0x00, 0x04, 0x00, 0x00, 0x00, 0x01, 0x00, 0x00,
  0x00, 0x3c, 0x04, 0x00, 0x00, 0x84, 0x07, 0x00, 0x00, 0x07, 0x00, 0x00, 0x00,
  0xea, 0x99, 0xff, 0xff, 0x14, 0x00, 0x00, 0x00, 0x48, 0x00, 0x00, 0x00, 0x77,
  0x00, 0x00, 0x00, 0x00, 0x00, 0x00, 0x07, 0x50, 0x00, 0x00, 0x00, 0xdc, 0x99,
  0xff, 0xff, 0x10, 0x00, 0x00, 0x00, 0x18, 0x00, 0x00, 0x00, 0x1c, 0x00, 0x00,
  0x00, 0x20, 0x00, 0x00, 0x00, 0x01, 0x00, 0x00, 0x00, 0x00, 0x00, 0x00, 0x00,
  0x00, 0x00, 0x00, 0x00, 0x01, 0x00, 0x00, 0x00, 0xbc, 0xbe, 0xd0, 0x3b, 0x01,
  0x00, 0x00, 0x00, 0x1b, 0xbd, 0x50, 0x43, 0x01, 0x00, 0x00, 0x00, 0xa8, 0x95,
  0x81, 0xc2, 0x0d, 0x00, 0x00, 0x00, 0x64, 0x65, 0x70, 0x74, 0x68, 0x77, 0x69,
  0x73, 0x65, 0x5f, 0x32, 0x33, 0x31, 0x00, 0x00, 0x00, 0x04, 0x00, 0x00, 0x00,
  0x01, 0x00, 0x00, 0x00, 0x3c, 0x04, 0x00, 0x00, 0x84, 0x07, 0x00, 0x00, 0x07,
  0x00, 0x00, 0x00, 0x62, 0x9a, 0xff, 0xff, 0x14, 0x00, 0x00, 0x00, 0x48, 0x00,
  0x00, 0x00, 0x76, 0x00, 0x00, 0x00, 0x00, 0x00, 0x00, 0x07, 0x50, 0x00, 0x00,
  0x00, 0x54, 0x9a, 0xff, 0xff, 0x10, 0x00, 0x00, 0x00, 0x18, 0x00, 0x00, 0x00,
  0x1c, 0x00, 0x00, 0x00, 0x20, 0x00, 0x00, 0x00, 0x01, 0x00, 0x00, 0x00, 0x00,
  0x00, 0x00, 0x00, 0x00, 0x00, 0x00, 0x00, 0x01, 0x00, 0x00, 0x00, 0x8e, 0x0d,
  0xf0, 0x3b, 0x01, 0x00, 0x00, 0x00, 0xae, 0x0b, 0x70, 0x43, 0x01, 0x00, 0x00,
  0x00, 0x76, 0x46, 0x57, 0xc3, 0x0d, 0x00, 0x00, 0x00, 0x64, 0x65, 0x70, 0x74,
  0x68, 0x77, 0x69, 0x73, 0x65, 0x5f, 0x32, 0x32, 0x31, 0x00, 0x00, 0x00, 0x04,
  0x00, 0x00, 0x00, 0x01, 0x00, 0x00, 0x00, 0x3c, 0x04, 0x00, 0x00, 0x84, 0x07,
  0x00, 0x00, 0x07, 0x00, 0x00, 0x00, 0xda, 0x9a, 0xff, 0xff, 0x14, 0x00, 0x00,
  0x00, 0x4c, 0x00, 0x00, 0x00, 0x75, 0x00, 0x00, 0x00, 0x00, 0x00, 0x00, 0x07,
  0x78, 0x00, 0x00, 0x00, 0xcc, 0x9a, 0xff, 0xff, 0x10, 0x00, 0x00, 0x00, 0x1c,
  0x00, 0x00, 0x00, 0x20, 0x00, 0x00, 0x00, 0x24, 0x00, 0x00, 0x00, 0x01, 0x00,
  0x00, 0x00, 0x00, 0x00, 0x00, 0x00, 0x00, 0x00, 0x00, 0x00, 0x00, 0x00, 0x00,
  0x00, 0x01, 0x00, 0x00, 0x00, 0x7c, 0x12, 0x16, 0x3c, 0x01, 0x00, 0x00, 0x00,
  0x50, 0x11, 0x96, 0x43, 0x01, 0x00, 0x00, 0x00, 0x00, 0x00, 0x00, 0x00, 0x33,
  0x00, 0x00, 0x00, 0x52, 0x65, 0x6c, 0x75, 0x5f, 0x33, 0x3b, 0x42, 0x69, 0x61,
  0x73, 0x41, 0x64, 0x64, 0x5f, 0x31, 0x30, 0x3b, 0x64, 0x65, 0x70, 0x74, 0x68,
  0x77, 0x69, 0x73, 0x65, 0x5f, 0x33, 0x31, 0x3b, 0x43, 0x6f, 0x6e, 0x76, 0x32,
  0x44, 0x5f, 0x31, 0x30, 0x3b, 0x63, 0x6f, 0x6e, 0x76, 0x5f, 0x34, 0x5f, 0x30,
  0x5f, 0x62, 0x00, 0x04, 0x00, 0x00, 0x00, 0x01, 0x00, 0x00, 0x00, 0x3c, 0x04,
  0x00, 0x00, 0x84, 0x07, 0x00, 0x00, 0x07, 0x00, 0x00, 0x00, 0x7a, 0x9b, 0xff,
  0xff, 0x14, 0x00, 0x00, 0x00, 0x48, 0x00, 0x00, 0x00, 0x74, 0x00, 0x00, 0x00,
  0x00, 0x00, 0x00, 0x07, 0x50, 0x00, 0x00, 0x00, 0x6c, 0x9b, 0xff, 0xff, 0x10,
