const unsigned char sr3by2ai_3_tflite[] = {
  0x1c, 0x00, 0x00, 0x00, 0x54, 0x46, 0x4c, 0x33, 0x00, 0x00, 0x12, 0x00, 0x1c,
  0x00, 0x18, 0x00, 0x14, 0x00, 0x10, 0x00, 0x0c, 0x00, 0x08, 0x00, 0x00, 0x00,
  0x04, 0x00, 0x12, 0x00, 0x00, 0x00, 0x18, 0x00, 0x00, 0x00, 0x70, 0x00, 0x00,
  0x00, 0x6c, 0x12, 0x00, 0x00, 0x7c, 0x12, 0x00, 0x00, 0x38, 0x71, 0x00, 0x00,
  0x03, 0x00, 0x00, 0x00, 0x02, 0x00, 0x00, 0x00, 0x34, 0x00, 0x00, 0x00, 0x04,
  0x00, 0x00, 0x00, 0xdc, 0xff, 0xff, 0xff, 0x68, 0x00, 0x00, 0x00, 0x04, 0x00,
  0x00, 0x00, 0x13, 0x00, 0x00, 0x00, 0x43, 0x4f, 0x4e, 0x56, 0x45, 0x52, 0x53,
  0x49, 0x4f, 0x4e, 0x5f, 0x4d, 0x45, 0x54, 0x41, 0x44, 0x41, 0x54, 0x41, 0x00,
  0x08, 0x00, 0x0c, 0x00, 0x08, 0x00, 0x04, 0x00, 0x08, 0x00, 0x00, 0x00, 0x67,
  0x00, 0x00, 0x00, 0x04, 0x00, 0x00, 0x00, 0x13, 0x00, 0x00, 0x00, 0x6d, 0x69,
  0x6e, 0x5f, 0x72, 0x75, 0x6e, 0x74, 0x69, 0x6d, 0x65, 0x5f, 0x76, 0x65, 0x72,
  0x73, 0x69, 0x6f, 0x6e, 0x00, 0x69, 0x00, 0x00, 0x00, 0xf8, 0x11, 0x00, 0x00,
  0xf0, 0x11, 0x00, 0x00, 0x80, 0x11, 0x00, 0x00, 0x18, 0x11, 0x00, 0x00, 0xc8,
  0x10, 0x00, 0x00, 0x78, 0x10, 0x00, 0x00, 0xe8, 0x0f, 0x00, 0x00, 0x78, 0x0f,
  0x00, 0x00, 0x18, 0x0f, 0x00, 0x00, 0xc8, 0x0e, 0x00, 0x00, 0x78, 0x0e, 0x00,
  0x00, 0x60, 0x0e, 0x00, 0x00, 0x48, 0x0e, 0x00, 0x00, 0x34, 0x0e, 0x00, 0x00,
  0x20, 0x0e, 0x00, 0x00, 0x90, 0x0d, 0x00, 0x00, 0x70, 0x0d, 0x00, 0x00, 0x30,
  0x0d, 0x00, 0x00, 0xf0, 0x0c, 0x00, 0x00, 0x80, 0x0c, 0x00, 0x00, 0xb0, 0x0b,
  0x00, 0x00, 0x7c, 0x0b, 0x00, 0x00, 0x48, 0x0b, 0x00, 0x00, 0xa8, 0x0a, 0x00,
  0x00, 0x68, 0x0a, 0x00, 0x00, 0x28, 0x0a, 0x00, 0x00, 0x58, 0x09, 0x00, 0x00,
  0x24, 0x09, 0x00, 0x00, 0xf0, 0x08, 0x00, 0x00, 0x90, 0x08, 0x00, 0x00, 0x08,
  0x08, 0x00, 0x00, 0xd8, 0x07, 0x00, 0x00, 0xa8, 0x07, 0x00, 0x00, 0x34, 0x07,
  0x00, 0x00, 0x00, 0x07, 0x00, 0x00, 0xcc, 0x06, 0x00, 0x00, 0x44, 0x06, 0x00,
  0x00, 0x14, 0x06, 0x00, 0x00, 0xe4, 0x05, 0x00, 0x00, 0x94, 0x05, 0x00, 0x00,
  0x34, 0x05, 0x00, 0x00, 0x0c, 0x05, 0x00, 0x00, 0xe4, 0x04, 0x00, 0x00, 0x94,
  0x04, 0x00, 0x00, 0x64, 0x04, 0x00, 0x00, 0x34, 0x04, 0x00, 0x00, 0xd4, 0x03,
  0x00, 0x00, 0xac, 0x03, 0x00, 0x00, 0x84, 0x03, 0x00, 0x00, 0x34, 0x03, 0x00,
  0x00, 0x0c, 0x03, 0x00, 0x00, 0xe4, 0x02, 0x00, 0x00, 0x94, 0x02, 0x00, 0x00,
  0x6c, 0x02, 0x00, 0x00, 0x44, 0x02, 0x00, 0x00, 0x2c, 0x02, 0x00, 0x00, 0x14,
  0x02, 0x00, 0x00, 0xe4, 0x01, 0x00, 0x00, 0xdc, 0x01, 0x00, 0x00, 0xd4, 0x01,
  0x00, 0x00, 0xcc, 0x01, 0x00, 0x00, 0xc4, 0x01, 0x00, 0x00, 0xbc, 0x01, 0x00,
  0x00, 0xb4, 0x01, 0x00, 0x00, 0xac, 0x01, 0x00, 0x00, 0xa4, 0x01, 0x00, 0x00,
  0x9c, 0x01, 0x00, 0x00, 0x94, 0x01, 0x00, 0x00, 0x8c, 0x01, 0x00, 0x00, 0x84,
  0x01, 0x00, 0x00, 0x7c, 0x01, 0x00, 0x00, 0x74, 0x01, 0x00, 0x00, 0x6c, 0x01,
  0x00, 0x00, 0x64, 0x01, 0x00, 0x00, 0x5c, 0x01, 0x00, 0x00, 0x54, 0x01, 0x00,
  0x00, 0x4c, 0x01, 0x00, 0x00, 0x44, 0x01, 0x00, 0x00, 0x3c, 0x01, 0x00, 0x00,
  0x34, 0x01, 0x00, 0x00, 0x2c, 0x01, 0x00, 0x00, 0x24, 0x01, 0x00, 0x00, 0x1c,
  0x01, 0x00, 0x00, 0x14, 0x01, 0x00, 0x00, 0x0c, 0x01, 0x00, 0x00, 0x04, 0x01,
  0x00, 0x00, 0xfc, 0x00, 0x00, 0x00, 0xf4, 0x00, 0x00, 0x00, 0xec, 0x00, 0x00,
  0x00, 0xe4, 0x00, 0x00, 0x00, 0xdc, 0x00, 0x00, 0x00, 0xd4, 0x00, 0x00, 0x00,
  0xcc, 0x00, 0x00, 0x00, 0xc4, 0x00, 0x00, 0x00, 0xbc, 0x00, 0x00, 0x00, 0xb4,
  0x00, 0x00, 0x00, 0xac, 0x00, 0x00, 0x00, 0xa4, 0x00, 0x00, 0x00, 0x9c, 0x00,
  0x00, 0x00, 0x94, 0x00, 0x00, 0x00, 0x8c, 0x00, 0x00, 0x00, 0x84, 0x00, 0x00,
  0x00, 0x7c, 0x00, 0x00, 0x00, 0x5c, 0x00, 0x00, 0x00, 0x04, 0x00, 0x00, 0x00,
  0x22, 0xf0, 0xff, 0xff, 0x04, 0x00, 0x00, 0x00, 0x48, 0x00, 0x00, 0x00, 0x04,
  0x00, 0x00, 0x00, 0xdc, 0xff, 0xff, 0xff, 0x10, 0x00, 0x00, 0x00, 0x24, 0x00,
  0x00, 0x00, 0x00, 0x00, 0x06, 0x00, 0x08, 0x00, 0x04, 0x00, 0x06, 0x00, 0x00,
  0x00, 0x04, 0x00, 0x00, 0x00, 0x01, 0x00, 0x00, 0x00, 0xec, 0x03, 0x00, 0x00,
  0x08, 0x00, 0x0c, 0x00, 0x08, 0x00, 0x04, 0x00, 0x08, 0x00, 0x00, 0x00, 0x01,
  0x00, 0x00, 0x00, 0x04, 0x00, 0x00, 0x00, 0x06, 0x00, 0x00, 0x00, 0x32, 0x2e,
  0x31, 0x30, 0x2e, 0x30, 0x00, 0x00, 0x76, 0xf0, 0xff, 0xff, 0x04, 0x00, 0x00,
  0x00, 0x10, 0x00, 0x00, 0x00, 0x31, 0x2e, 0x37, 0x2e, 0x30, 0x00, 0x00, 0x00,
  0x00, 0x00, 0x00, 0x00, 0x00, 0x00, 0x00, 0x00, 0x8c, 0xca, 0xff, 0xff, 0x90,
  0xca, 0xff, 0xff, 0x94, 0xca, 0xff, 0xff, 0x98, 0xca, 0xff, 0xff, 0x9c, 0xca,
  0xff, 0xff, 0xa0, 0xca, 0xff, 0xff, 0xa4, 0xca, 0xff, 0xff, 0xa8, 0xca, 0xff,
  0xff, 0xac, 0xca, 0xff, 0xff, 0xb0, 0xca, 0xff, 0xff, 0xb4, 0xca, 0xff, 0xff,
  0xb8, 0xca, 0xff, 0xff, 0xbc, 0xca, 0xff, 0xff, 0xc0, 0xca, 0xff, 0xff, 0xc4,
  0xca, 0xff, 0xff, 0xc8, 0xca, 0xff, 0xff, 0xcc, 0xca, 0xff, 0xff, 0xd0, 0xca,
  0xff, 0xff, 0xd4, 0xca, 0xff, 0xff, 0xd8, 0xca, 0xff, 0xff, 0xdc, 0xca, 0xff,
  0xff, 0xe0, 0xca, 0xff, 0xff, 0xe4, 0xca, 0xff, 0xff, 0xe8, 0xca, 0xff, 0xff,
  0xec, 0xca, 0xff, 0xff, 0xf0, 0xca, 0xff, 0xff, 0xf4, 0xca, 0xff, 0xff, 0xf8,
  0xca, 0xff, 0xff, 0xfc, 0xca, 0xff, 0xff, 0x00, 0xcb, 0xff, 0xff, 0x04, 0xcb,
  0xff, 0xff, 0x08, 0xcb, 0xff, 0xff, 0x0c, 0xcb, 0xff, 0xff, 0x10, 0xcb, 0xff,
  0xff, 0x14, 0xcb, 0xff, 0xff, 0x18, 0xcb, 0xff, 0xff, 0x1c, 0xcb, 0xff, 0xff,
  0x20, 0xcb, 0xff, 0xff, 0x24, 0xcb, 0xff, 0xff, 0x28, 0xcb, 0xff, 0xff, 0x2c,
  0xcb, 0xff, 0xff, 0x30, 0xcb, 0xff, 0xff, 0x34, 0xcb, 0xff, 0xff, 0x38, 0xcb,
  0xff, 0xff, 0x3c, 0xcb, 0xff, 0xff, 0x46, 0xf1, 0xff, 0xff, 0x04, 0x00, 0x00,
  0x00, 0x20, 0x00, 0x00, 0x00, 0x00, 0x00, 0x00, 0x00, 0x00, 0x00, 0x00, 0x00,
  0x01, 0x00, 0x00, 0x00, 0x01, 0x00, 0x00, 0x00, 0x01, 0x00, 0x00, 0x00, 0x01,
  0x00, 0x00, 0x00, 0x00, 0x00, 0x00, 0x00, 0x00, 0x00, 0x00, 0x00, 0x72, 0xf1,
  0xff, 0xff, 0x04, 0x00, 0x00, 0x00, 0x08, 0x00, 0x00, 0x00, 0x3a, 0x04, 0x00,
  0x00, 0x82, 0x07, 0x00, 0x00, 0x86, 0xf1, 0xff, 0xff, 0x04, 0x00, 0x00, 0x00,
  0x08, 0x00, 0x00, 0x00, 0x6a, 0x59, 0x7f, 0x3e, 0x2a, 0xbb, 0xbb, 0x9b, 0x9a,
  0xf1, 0xff, 0xff, 0x04, 0x00, 0x00, 0x00, 0x18, 0x00, 0x00, 0x00, 0xc9, 0x7f,
  0x0c, 0x1a, 0x60, 0x8e, 0x07, 0x15, 0x81, 0x52, 0x81, 0x47, 0x81, 0x81, 0x7f,
  0x1a, 0xa2, 0x1b, 0xd6, 0x81, 0x3f, 0x14, 0x97, 0x81, 0xbe, 0xf1, 0xff, 0xff,
  0x04, 0x00, 0x00, 0x00, 0x18, 0x00, 0x00, 0x00, 0x9a, 0x38, 0x3d, 0x7f, 0xb2,
  0xc4, 0x81, 0x81, 0x72, 0x81, 0x7f, 0x1b, 0xa7, 0x7f, 0xec, 0xd9, 0x81, 0x0e,
  0x41, 0x48, 0x81, 0x96, 0xbc, 0x02, 0xe2, 0xf1, 0xff, 0xff, 0x04, 0x00, 0x00,
  0x00, 0x40, 0x00, 0x00, 0x00, 0x13, 0x0d, 0xe4, 0xf7, 0x81, 0x16, 0xcf, 0xe8,
  0x3c, 0xbc, 0x01, 0x2d, 0x9f, 0x7f, 0xdf, 0xb9, 0xf7, 0x03, 0x74, 0x40, 0xba,
  0xdf, 0x7f, 0x9f, 0x23, 0x3c, 0xe3, 0x8c, 0xea, 0x40, 0x7f, 0x00, 0x01, 0x81,
  0xba, 0x62, 0xb2, 0xaa, 0xfe, 0x15, 0xd5, 0x16, 0xbf, 0x54, 0x34, 0x7f, 0xc5,
  0x30, 0xf0, 0xfd, 0x10, 0x1a, 0x0c, 0x32, 0x6d, 0x7f, 0xfd, 0xe1, 0x06, 0x14,
  0xfc, 0xd7, 0x81, 0xc7, 0x2e, 0xf2, 0xff, 0xff, 0x04, 0x00, 0x00, 0x00, 0x18,
  0x00, 0x00, 0x00, 0x0f, 0xff, 0x27, 0xd4, 0xeb, 0x12, 0x81, 0x81, 0x81, 0xe5,
  0x7f, 0x81, 0x7f, 0x81, 0xad, 0x7c, 0x11, 0x81, 0x01, 0xaf, 0xf0, 0x15, 0x07,
  0xea, 0x52, 0xf2, 0xff, 0xff, 0x04, 0x00, 0x00, 0x00, 0x18, 0x00, 0x00, 0x00,
  0x20, 0x5c, 0xd6, 0x7f, 0x7f, 0xe9, 0x7f, 0x07, 0x7f, 0x72, 0x81, 0x3c, 0xfc,
  0xda, 0x87, 0x81, 0x0f, 0x7f, 0x7b, 0xd5, 0xfd, 0x7f, 0x12, 0x1a, 0x76, 0xf2,
  0xff, 0xff, 0x04, 0x00, 0x00, 0x00, 0x40, 0x00, 0x00, 0x00, 0xdc, 0xe9, 0x11,
  0x2f, 0x81, 0x47, 0x97, 0xda, 0x14, 0xd6, 0xc6, 0xc9, 0x12, 0xa9, 0x7f, 0xe5,
  0xdb, 0x30, 0xdb, 0xb0, 0xcf, 0x2d, 0x81, 0x21, 0x3e, 0xab, 0xd4, 0x07, 0x22,
  0x8d, 0x7f, 0x8c, 0x7f, 0xe4, 0x09, 0xfe, 0xfd, 0xf8, 0x04, 0xf1, 0x10, 0x03,
  0xf1, 0xae, 0x81, 0xc5, 0x47, 0xec, 0x31, 0xb5, 0x81, 0x14, 0x23, 0xca, 0x6e,
  0xdb, 0x0a, 0x81, 0xc4, 0xde, 0x04, 0xcf, 0x1c, 0x5e, 0xc2, 0xf2, 0xff, 0xff,
  0x04, 0x00, 0x00, 0x00, 0x18, 0x00, 0x00, 0x00, 0xd6, 0x12, 0x5b, 0x32, 0x26,
  0xca, 0xe7, 0x36, 0x81, 0x7f, 0x59, 0x7f, 0x7f, 0x81, 0x81, 0x49, 0xea, 0x10,
  0x7f, 0x20, 0x2b, 0xce, 0x13, 0x7f, 0xe6, 0xf2, 0xff, 0xff, 0x04, 0x00, 0x00,
  0x00, 0x18, 0x00, 0x00, 0x00, 0xfa, 0x03, 0xfd, 0x26, 0x7f, 0x36, 0x0b, 0xb4,
  0xe8, 0x7f, 0x81, 0x7f, 0xeb, 0x7f, 0x7f, 0x81, 0x81, 0xfb, 0xcc, 0x47, 0xff,
  0x1d, 0xe4, 0xfd, 0x0a, 0xf3, 0xff, 0xff, 0x04, 0x00, 0x00, 0x00, 0x50, 0x00,
  0x00, 0x00, 0x44, 0xd8, 0x09, 0x39, 0x3e, 0x29, 0x7f, 0x7a, 0xfe, 0xeb, 0xfc,
  0x22, 0x24, 0x63, 0x4e, 0xfe, 0x25, 0x3a, 0x7f, 0x0c, 0x3d, 0x1b, 0x62, 0x23,
  0x4e, 0x41, 0x4d, 0x7f, 0xbf, 0xe4, 0xed, 0xa3, 0x81, 0x26, 0x5c, 0xb6, 0xe9,
  0x6b, 0xf8, 0x70, 0x1d, 0x81, 0xdc, 0xad, 0x10, 0x0a, 0x4b, 0x04, 0x97, 0xc5,
  0xf2, 0x13, 0x00, 0x2f, 0x20, 0x8d, 0xd9, 0xe5, 0x03, 0x7f, 0xfe, 0x5c, 0x30,
  0x00, 0xc6, 0x81, 0xab, 0xd3, 0xa2, 0x46, 0xaa, 0xbe, 0x17, 0x16, 0xe0, 0x7f,
  0x2d, 0xdf, 0xff, 0x9e, 0x66, 0xf3, 0xff, 0xff, 0x04, 0x00, 0x00, 0x00, 0x1e,
  0x00, 0x00, 0x00, 0x81, 0x3d, 0x0a, 0x29, 0xd6, 0x2a, 0x7f, 0x81, 0x75, 0x15,
  0xd9, 0x81, 0x81, 0x7f, 0x7f, 0x7f, 0x56, 0x1f, 0x7f, 0x81, 0xbb, 0xca, 0x0d,
  0xcf, 0xa9, 0x3f, 0x03, 0xeb, 0x2f, 0xf5, 0x00, 0x00, 0x92, 0xf3, 0xff, 0xff,
  0x04, 0x00, 0x00, 0x00, 0x1e, 0x00, 0x00, 0x00, 0xd6, 0x33, 0x57, 0x17, 0xc7,
  0x81, 0x81, 0x02, 0x42, 0xca, 0x81, 0x7f, 0x81, 0x7f, 0x81, 0x67, 0x3e, 0x81,
  0x7f, 0x7f, 0xb0, 0x38, 0x05, 0x0d, 0xc8, 0x40, 0xeb, 0x42, 0x4d, 0x07, 0x00,
  0x00, 0xbe, 0xf3, 0xff, 0xff, 0x04, 0x00, 0x00, 0x00, 0x40, 0x00, 0x00, 0x00,
  0x96, 0xa7, 0xb8, 0x33, 0x2e, 0x65, 0x7f, 0x04, 0xdf, 0x1d, 0x81, 0xfd, 0x44,
  0x3d, 0x44, 0x92, 0xa9, 0x0e, 0x81, 0x15, 0x1e, 0x1a, 0x6b, 0x1a, 0xe1, 0xd7,
  0x81, 0x2a, 0xf9, 0xfc, 0xd8, 0x2e, 0x11, 0xce, 0x10, 0x41, 0x31, 0x7f, 0x11,
  0x23, 0x11, 0x19, 0xbc, 0xd1, 0x81, 0xc1, 0xde, 0x55, 0x21, 0xee, 0x26, 0xc7,
  0x8a, 0xf8, 0xef, 0x7f, 0xfb, 0xdb, 0x25, 0xb6, 0xe0, 0x7f, 0x16, 0xec, 0x0a,
  0xf4, 0xff, 0xff, 0x04, 0x00, 0x00, 0x00, 0x18, 0x00, 0x00, 0x00, 0x53, 0xef,
  0x3c, 0x20, 0x0e, 0x05, 0x0b, 0x04, 0x81, 0xd9, 0x81, 0x81, 0x81, 0xcd, 0x81,
  0x81, 0x5f, 0x7f, 0x0a, 0xf5, 0xfc, 0x7f, 0xd4, 0xfb, 0x2e, 0xf4, 0xff, 0xff,
  0x04, 0x00, 0x00, 0x00, 0x18, 0x00, 0x00, 0x00, 0x04, 0xfc, 0xf0, 0x0c, 0xf1,
  0xfc, 0x96, 0x04, 0x81, 0x81, 0x7f, 0x15, 0x8c, 0xef, 0x22, 0x81, 0x09, 0xf0,
  0x00, 0x81, 0x81, 0x7f, 0x7f, 0xe9, 0x52, 0xf4, 0xff, 0xff, 0x04, 0x00, 0x00,
  0x00, 0x50, 0x00, 0x00, 0x00, 0x56, 0x70, 0x07, 0x2a, 0xde, 0x7f, 0xe1, 0x11,
  0x5d, 0x1a, 0x37, 0x40, 0xfc, 0x7f, 0x46, 0x38, 0x1f, 0x46, 0x4f, 0x23, 0xc1,
  0xba, 0xa3, 0xa7, 0x44, 0x81, 0x6f, 0x5a, 0x45, 0x98, 0x81, 0x61, 0x48, 0x3e,
  0xd9, 0x10, 0xcc, 0xb8, 0x15, 0x4a, 0xd8, 0xe0, 0xca, 0xd3, 0x7f, 0xdf, 0x57,
  0x78, 0xfe, 0xb3, 0x01, 0xd1, 0xb7, 0x0f, 0x81, 0x04, 0x06, 0x45, 0xe0, 0x9f,
  0x7e, 0x0b, 0x81, 0xf9, 0x17, 0x1e, 0x08, 0x17, 0x01, 0x36, 0x4b, 0xda, 0x30,
  0x14, 0x58, 0x11, 0x7d, 0x7c, 0x81, 0xf1, 0xae, 0xf4, 0xff, 0xff, 0x04, 0x00,
  0x00, 0x00, 0x40, 0x00, 0x00, 0x00, 0x00, 0x00, 0x00, 0x00, 0x00, 0x00, 0x00,
  0x00, 0x00, 0x00, 0x00, 0x00, 0x00, 0x00, 0x00, 0x00, 0x00, 0x00, 0x00, 0x00,
  0x00, 0x00, 0x00, 0x00, 0x00, 0x00, 0x00, 0x00, 0x00, 0x00, 0x00, 0x00, 0x00,
  0x00, 0x00, 0x00, 0x00, 0x00, 0x00, 0x00, 0x00, 0x00, 0x00, 0x00, 0x00, 0x00,
  0x00, 0x00, 0x00, 0x00, 0x00, 0x00, 0x00, 0x00, 0x00, 0x00, 0x00, 0x00, 0x00,
  0x00, 0x00, 0x00, 0x00, 0x00, 0xfa, 0xf4, 0xff, 0xff, 0x04, 0x00, 0x00, 0x00,
  0x1e, 0x00, 0x00, 0x00, 0xde, 0x81, 0x81, 0xdc, 0x19, 0xc5, 0x81, 0x81, 0x81,
  0x7f, 0x81, 0x01, 0xb0, 0x7f, 0x81, 0x81, 0x96, 0xa2, 0x8d, 0x6c, 0xea, 0x9d,
  0xe0, 0x4d, 0xfc, 0xed, 0xf5, 0xd0, 0xc8, 0x1b, 0x00, 0x00, 0x26, 0xf5, 0xff,
  0xff, 0x04, 0x00, 0x00, 0x00, 0x1e, 0x00, 0x00, 0x00, 0x81, 0x17, 0x7f, 0xec,
  0x9e, 0xdc, 0xd2, 0x0c, 0x7f, 0xaa, 0x8e, 0x7f, 0x08, 0x81, 0x81, 0x81, 0x01,
  0x43, 0x71, 0x81, 0x10, 0x52, 0x1c, 0xdd, 0xe9, 0xd9, 0x7f, 0x7f, 0x59, 0x5f,
  0x00, 0x00, 0x52, 0xf5, 0xff, 0xff, 0x04, 0x00, 0x00, 0x00, 0x78, 0x00, 0x00,
  0x00, 0xa0, 0xa8, 0xd2, 0x37, 0x0d, 0xeb, 0xc8, 0x81, 0x3d, 0xc8, 0xf3, 0x40,
  0x17, 0xdf, 0x3d, 0xf5, 0x81, 0xfc, 0xf0, 0xf4, 0xd0, 0x03, 0xd3, 0xdf, 0xb8,
  0xd4, 0x3b, 0xaa, 0x7f, 0x31, 0x02, 0xfc, 0x9a, 0xc8, 0x00, 0x7b, 0x0c, 0xba,
  0xc3, 0xfc, 0xc7, 0xea, 0x81, 0xd2, 0x34, 0xae, 0x5b, 0xf9, 0xc3, 0xdc, 0x1d,
  0x83, 0xaf, 0x01, 0x60, 0x6c, 0x20, 0x81, 0x20, 0xf4, 0x61, 0x52, 0xcb, 0x1d,
  0xbc, 0x19, 0xa9, 0x7f, 0x29, 0x10, 0x01, 0xb9, 0x54, 0xcd, 0x07, 0x8c, 0x01,
  0x69, 0xe3, 0x81, 0x09, 0xfb, 0x27, 0xeb, 0xb6, 0x40, 0xef, 0xcb, 0x26, 0x81,
  0xfc, 0x28, 0xa7, 0x8f, 0x28, 0xc9, 0xcd, 0xb1, 0x4d, 0x4e, 0x50, 0x81, 0x23,
  0xec, 0xa1, 0xd4, 0x08, 0x62, 0xe2, 0xcf, 0x7f, 0xf6, 0xb3, 0xdd, 0x42, 0xfc,
  0xdd, 0x50, 0x93, 0x07, 0xd6, 0xf5, 0xff, 0xff, 0x04, 0x00, 0x00, 0x00, 0x24,
  0x00, 0x00, 0x00, 0x0d, 0x3f, 0x9f, 0x81, 0x37, 0x56, 0x81, 0x9b, 0x41, 0x41,
  0x3b, 0xe0, 0x7f, 0x7f, 0x81, 0xd1, 0x7f, 0x90, 0x24, 0x7f, 0x7f, 0x7f, 0x7f,
  0x7f, 0x2a, 0x2e, 0x1f, 0x0c, 0x37, 0x7f, 0x0a, 0x3f, 0x6a, 0xf2, 0x55, 0x07,
  0x06, 0xf6, 0xff, 0xff, 0x04, 0x00, 0x00, 0x00, 0x24, 0x00, 0x00, 0x00, 0x24,
  0x9e, 0x17, 0x0f, 0xed, 0xdf, 0x1e, 0xf5, 0x20, 0x5b, 0x81, 0xfe, 0x81, 0x81,
  0x81, 0x81, 0x39, 0x81, 0x81, 0x81, 0x81, 0x81, 0x0f, 0x81, 0x03, 0x8d, 0xdc,
  0xe6, 0x81, 0xd6, 0xea, 0x14, 0xf8, 0xe5, 0xfa, 0xf6, 0x36, 0xf6, 0xff, 0xff,
  0x04, 0x00, 0x00, 0x00, 0x64, 0x00, 0x00, 0x00, 0x7f, 0xbf, 0x7b, 0xdf, 0xb9,
  0xd7, 0x60, 0xf4, 0xf3, 0x06, 0xe5, 0x0a, 0x24, 0xef, 0x5f, 0x7f, 0xee, 0x0e,
  0x12, 0x39, 0x0b, 0x63, 0x69, 0xbd, 0xa5, 0xf1, 0xb8, 0x47, 0x23, 0x7f, 0xa7,
  0x7f, 0x39, 0xdd, 0x12, 0xe3, 0x85, 0x0c, 0x29, 0xdc, 0xaf, 0xd1, 0x25, 0x1b,
  0x41, 0x78, 0x3e, 0x16, 0x81, 0xa3, 0xc9, 0x3e, 0xf5, 0x65, 0x7f, 0x18, 0xab,
  0xb3, 0xe9, 0xd4, 0xde, 0x9e, 0x11, 0xda, 0x2c, 0xfd, 0x7f, 0x38, 0x0a, 0x20,
  0xf9, 0x7f, 0xd3, 0xfe, 0x07, 0x37, 0x91, 0xe0, 0x9d, 0xb1, 0x7f, 0xe4, 0x21,
  0xd1, 0xc2, 0xf1, 0x30, 0xed, 0x17, 0x41, 0x34, 0xf4, 0x1a, 0x0b, 0xd8, 0xe9,
  0xf6, 0x05, 0x81, 0x09, 0xa6, 0xf6, 0xff, 0xff, 0x04, 0x00, 0x00, 0x00, 0x1e,
  0x00, 0x00, 0x00, 0x81, 0x81, 0x62, 0x52, 0x18, 0x36, 0x81, 0x68, 0xd8, 0x1d,
  0x16, 0x4f, 0x7f, 0x18, 0x7f, 0x7f, 0x7c, 0xd4, 0x81, 0x81, 0x39, 0x6d, 0x08,
  0x7f, 0x45, 0x2f, 0x77, 0x7f, 0xbf, 0xc2, 0x00, 0x00, 0xd2, 0xf6, 0xff, 0xff,
  0x04, 0x00, 0x00, 0x00, 0x1e, 0x00, 0x00, 0x00, 0xe9, 0xc7, 0x5f, 0xec, 0x08,
  0x81, 0xcf, 0xe0, 0x22, 0x62, 0x81, 0xe7, 0x46, 0x81, 0xd0, 0x28, 0xdf, 0x81,
  0x7f, 0x7f, 0xb0, 0x7f, 0x7f, 0xe8, 0x7f, 0xca, 0x7f, 0xdd, 0x22, 0x7b, 0x00,
  0x00, 0xfe, 0xf6, 0xff, 0xff, 0x04, 0x00, 0x00, 0x00, 0x78, 0x00, 0x00, 0x00,
  0x29, 0x12, 0xeb, 0x81, 0x44, 0x04, 0x0d, 0x24, 0xfd, 0xc4, 0x05, 0xf0, 0xfc,
  0xfe, 0xa8, 0x00, 0x33, 0xe7, 0xec, 0x12, 0x7f, 0xd3, 0x13, 0x50, 0xf5, 0x81,
  0x01, 0xeb, 0xe0, 0xb0, 0xfb, 0x13, 0xc4, 0x3b, 0x0b, 0x34, 0xba, 0xd2, 0x7f,
  0x3d, 0xd6, 0xbc, 0xd2, 0x71, 0x11, 0x10, 0x16, 0x45, 0x9f, 0xce, 0xed, 0x90,
  0x37, 0xa9, 0x39, 0xd7, 0xb9, 0x8a, 0x7f, 0x28, 0xee, 0xf9, 0xca, 0xbd, 0x08,
  0xad, 0x1f, 0xeb, 0xe2, 0xe3, 0x7f, 0x1a, 0xf2, 0xf5, 0x94, 0xdb, 0x59, 0x27,
  0xe6, 0x11, 0x7f, 0xca, 0x1e, 0x7c, 0x93, 0xd3, 0x39, 0xdc, 0x7f, 0xe3, 0xef,
  0x65, 0x17, 0x50, 0x0a, 0x0c, 0x02, 0x7f, 0x42, 0x65, 0x92, 0xde, 0x8e, 0x2d,
  0xdb, 0x0f, 0xfb, 0x6e, 0x17, 0xf6, 0x3b, 0x09, 0xc6, 0xf6, 0x7f, 0x2a, 0xf1,
  0x69, 0xd9, 0x32, 0x82, 0xf7, 0xff, 0xff, 0x04, 0x00, 0x00, 0x00, 0x50, 0x00,
  0x00, 0x00, 0x00, 0x00, 0x00, 0x00, 0x00, 0x00, 0x00, 0x00, 0x00, 0x00, 0x00,
  0x00, 0x00, 0x00, 0x00, 0x00, 0x00, 0x00, 0x00, 0x00, 0x00, 0x00, 0x00, 0x00,
  0x00, 0x00, 0x00, 0x00, 0x00, 0x00, 0x00, 0x00, 0x00, 0x00, 0x00, 0x00, 0x00,
  0x00, 0x00, 0x00, 0x00, 0x00, 0x00, 0x00, 0x00, 0x00, 0x00, 0x00, 0x00, 0x00,
  0x00, 0x00, 0x00, 0x00, 0x00, 0x00, 0x00, 0x00, 0x00, 0x00, 0x00, 0x00, 0x00,
  0x00, 0x00, 0x00, 0x00, 0x00, 0x00, 0x00, 0x00, 0x00, 0x00, 0x00, 0x00, 0x00,
  0x00, 0x00, 0x00, 0x00, 0xde, 0xf7, 0xff, 0xff, 0x04, 0x00, 0x00, 0x00, 0x24,
  0x00, 0x00, 0x00, 0x5e, 0xe8, 0x39, 0x28, 0xb7, 0x81, 0x08, 0xca, 0xf2, 0x48,
  0x18, 0x11, 0x81, 0x81, 0x7f, 0x7f, 0xe2, 0xb5, 0xb5, 0x81, 0xc0, 0x7f, 0x7f,
  0x81, 0x9d, 0xd9, 0xe1, 0xe2, 0x7f, 0x22, 0x81, 0xb0, 0x81, 0xc2, 0xe0, 0xc3,
  0x0e, 0xf8, 0xff, 0xff, 0x04, 0x00, 0x00, 0x00, 0x24, 0x00, 0x00, 0x00, 0xf4,
  0xad, 0x81, 0xdf, 0x09, 0x55, 0xfe, 0xe0, 0x81, 0xfa, 0xe1, 0x81, 0x81, 0x81,
  0x92, 0x7f, 0x81, 0x04, 0x81, 0x7f, 0x11, 0x81, 0x7f, 0x10, 0xda, 0xc7, 0x39,
  0x0c, 0xda, 0x81, 0x02, 0xdc, 0x2b, 0xff, 0x56, 0x2f, 0x3e, 0xf8, 0xff, 0xff,
  0x04, 0x00, 0x00, 0x00, 0xc0, 0x00, 0x00, 0x00, 0x07, 0x0f, 0x01, 0xb4, 0xeb,
  0x41, 0x02, 0x12, 0x57, 0x81, 0x50, 0xd9, 0xef, 0x60, 0x05, 0xd5, 0x00, 0xcd,
  0x14, 0x7f, 0x8f, 0xf5, 0x0a, 0xb2, 0xcf, 0x31, 0xc6, 0x16, 0xba, 0x99, 0xf0,
  0x0d, 0xe9, 0xf1, 0x32, 0xec, 0x34, 0x7f, 0xda, 0x23, 0x34, 0xf5, 0xab, 0x1a,
  0xfa, 0x39, 0xf2, 0x08, 0x29, 0xbb, 0x12, 0xea, 0xca, 0x05, 0x13, 0x16, 0xf0,
  0xf1, 0x81, 0xed, 0x22, 0x01, 0x0c, 0xcf, 0xeb, 0xff, 0xb9, 0x0c, 0xc8, 0x02,
  0x38, 0x12, 0x37, 0xe7, 0x81, 0xe0, 0x21, 0x03, 0x03, 0xf8, 0xcb, 0x38, 0xe9,
  0x26, 0xaf, 0x60, 0xf1, 0x0a, 0x2c, 0xe2, 0x7f, 0xe2, 0xba, 0x2e, 0xef, 0x00,
  0x27, 0x46, 0x14, 0x24, 0x26, 0xef, 0xa9, 0x42, 0xf1, 0x2b, 0x81, 0xf0, 0x7f,
  0xcb, 0x08, 0x06, 0xcc, 0x0e, 0xf1, 0x23, 0x92, 0x54, 0x7f, 0xed, 0x04, 0xd5,
  0x60, 0xba, 0xac, 0xf6, 0x11, 0x02, 0xfb, 0xf0, 0x16, 0xfd, 0x81, 0x2d, 0x31,
  0xec, 0x00, 0x24, 0xd5, 0xc7, 0x22, 0xea, 0x10, 0xb3, 0x2c, 0x28, 0xba, 0x1a,
  0xe8, 0xde, 0x20, 0x4f, 0x7f, 0x2f, 0xc7, 0x41, 0x32, 0x9e, 0x0f, 0xdc, 0x28,
  0xf6, 0x31, 0x59, 0xcd, 0x3c, 0x20, 0xba, 0x27, 0xca, 0x81, 0xef, 0xd3, 0xd4,
  0x11, 0xf6, 0x17, 0x0b, 0xe8, 0x49, 0x81, 0x70, 0xf9, 0xc8, 0x2a, 0x0f, 0xbd,
  0xe3, 0x9a, 0xe3, 0xf6, 0xf9, 0x0a, 0xf9, 0xff, 0xff, 0x04, 0x00, 0x00, 0x00,
  0x30, 0x00, 0x00, 0x00, 0x7f, 0x02, 0xc1, 0xfe, 0x81, 0xc6, 0x53, 0xcc, 0x95,
  0xd9, 0xd4, 0x81, 0xf2, 0x0d, 0x7b, 0x96, 0x02, 0x81, 0x7f, 0x7f, 0x62, 0x7f,
  0x21, 0xc2, 0x7f, 0xe7, 0x7f, 0x72, 0x81, 0x7f, 0x81, 0xb1, 0x4a, 0x55, 0x0e,
  0xe5, 0x22, 0xd2, 0x81, 0x7f, 0xed, 0x7f, 0x90, 0xeb, 0xc6, 0x12, 0x00, 0x7f,
  0x46, 0xf9, 0xff, 0xff, 0x04, 0x00, 0x00, 0x00, 0x30, 0x00, 0x00, 0x00, 0x4c,
  0xb4, 0x81, 0xd8, 0x7f, 0x1c, 0xbd, 0x7f, 0x48, 0x07, 0xc8, 0x0b, 0x81, 0x0f,
  0xb7, 0xc0, 0x61, 0x81, 0x35, 0x7f, 0x14, 0x81, 0x81, 0x8a, 0x81, 0x06, 0xb2,
  0x81, 0x5a, 0x79, 0x81, 0x7f, 0x81, 0xf8, 0x4c, 0xa8, 0xb1, 0x7a, 0xd7, 0x45,
  0x44, 0x81, 0x7f, 0xb9, 0xeb, 0x81, 0x9c, 0xf9, 0x82, 0xf9, 0xff, 0xff, 0x04,
  0x00, 0x00, 0x00, 0x90, 0x00, 0x00, 0x00, 0x77, 0xc6, 0x23, 0x6c, 0xaf, 0xcf,
  0x7f, 0xeb, 0x9f, 0x31, 0xbf, 0x11, 0x81, 0x0e, 0x22, 0x07, 0xf1, 0xdb, 0xa5,
  0x34, 0x64, 0xed, 0x5b, 0xf8, 0x3e, 0x01, 0xfc, 0x81, 0xfb, 0xfe, 0x3f, 0x03,
  0xcd, 0xe0, 0xbf, 0x0b, 0x2e, 0x14, 0xf5, 0x81, 0xfe, 0xf1, 0xf9, 0xfd, 0x1a,
  0x1f, 0xe3, 0x35, 0x5e, 0xf3, 0x60, 0x87, 0x01, 0xa9, 0x81, 0x08, 0xd8, 0x4a,
  0xca, 0x64, 0xcd, 0xb1, 0x2f, 0x23, 0x7f, 0x6e, 0x0a, 0x38, 0xb5, 0xee, 0xfd,
  0x2d, 0xd1, 0x34, 0xa5, 0x34, 0x13, 0xdf, 0x81, 0xfb, 0x5b, 0xf9, 0x02, 0xe8,
  0x1a, 0xa6, 0x7f, 0x21, 0x01, 0x1b, 0x04, 0x0c, 0xf8, 0x4f, 0x10, 0x17, 0x41,
  0xd0, 0xf0, 0xe3, 0x1b, 0x90, 0xe1, 0xdf, 0x35, 0x7b, 0x39, 0x7f, 0x0f, 0x26,
  0xed, 0x7f, 0x64, 0x08, 0x9e, 0xc2, 0x51, 0xea, 0xdb, 0xe1, 0xcc, 0x0c, 0x11,
  0x69, 0xc7, 0x0b, 0x81, 0x6f, 0x6c, 0x2b, 0x04, 0xd6, 0xc4, 0xe3, 0x36, 0x7f,
  0xee, 0x0e, 0xd0, 0x3a, 0x26, 0x02, 0x03, 0xed, 0x1e, 0xfa, 0xff, 0xff, 0x04,
  0x00, 0x00, 0x00, 0x24, 0x00, 0x00, 0x00, 0x7f, 0x02, 0x03, 0x7f, 0x01, 0x53,
  0x06, 0xb9, 0xe2, 0x7f, 0xf8, 0x81, 0x7a, 0x06, 0x73, 0x14, 0x50, 0x7f, 0x81,
  0x81, 0x81, 0x38, 0x81, 0xe9, 0x2d, 0x7f, 0x81, 0xf3, 0x7f, 0xcd, 0x0b, 0xb2,
  0xc5, 0x14, 0xce, 0x45, 0x4e, 0xfa, 0xff, 0xff, 0x04, 0x00, 0x00, 0x00, 0x24,
  0x00, 0x00, 0x00, 0xff, 0x13, 0x30, 0xec, 0x43, 0x07, 0xf4, 0x1a, 0xe3, 0x2a,
  0xe8, 0x14, 0x05, 0x7f, 0x7f, 0xc1, 0x73, 0x7f, 0x81, 0x32, 0x81, 0x7f, 0x0d,
  0x7f, 0x7f, 0x0c, 0x50, 0x81, 0x7f, 0x05, 0x33, 0x7f, 0xf4, 0x42, 0x81, 0xe0,
  0x7e, 0xfa, 0xff, 0xff, 0x04, 0x00, 0x00, 0x00, 0xc0, 0x00, 0x00, 0x00, 0xcd,
  0xb2, 0xea, 0x02, 0x7f, 0x27, 0xe6, 0xd7, 0xc1, 0xbf, 0x12, 0x06, 0x06, 0xf8,
  0x0f, 0xf2, 0xfa, 0xcf, 0x52, 0x00, 0xad, 0xf7, 0xf1, 0x15, 0x2c, 0x7f, 0xfe,
  0xde, 0x0b, 0xf4, 0xff, 0x03, 0x3d, 0x00, 0x19, 0x06, 0x04, 0x38, 0x53, 0x5a,
  0xc0, 0x00, 0xb7, 0xf3, 0x81, 0x02, 0x2e, 0xe3, 0x03, 0xe9, 0xda, 0xfa, 0xb1,
  0x0a, 0xff, 0xe7, 0xe2, 0x7f, 0xa8, 0xf9, 0xc2, 0xf5, 0xfa, 0xff, 0x01, 0x49,
  0xee, 0x00, 0x37, 0x3a, 0x7f, 0xe3, 0xf0, 0x20, 0x5f, 0xd4, 0xfb, 0xd0, 0x08,
  0xf9, 0xce, 0x12, 0x1c, 0xfb, 0x0e, 0x31, 0xce, 0x81, 0xdb, 0xa1, 0x17, 0x3a,
  0x0f, 0x8b, 0x13, 0x2a, 0x2a, 0x02, 0x0c, 0x00, 0xfa, 0xff, 0xf8, 0xf6, 0x03,
  0xf8, 0x02, 0xfc, 0x81, 0x02, 0x3d, 0x02, 0x99, 0x4d, 0x01, 0x00, 0x04, 0xea,
  0x02, 0x3e, 0x81, 0x01, 0x06, 0xfd, 0x04, 0xfc, 0xf8, 0x0f, 0x09, 0x4e, 0x1f,
  0x00, 0x7f, 0x06, 0x0d, 0x09, 0xee, 0x09, 0x00, 0xfb, 0xf7, 0xfc, 0xf6, 0x9b,
  0xfa, 0x2e, 0x35, 0x01, 0xd9, 0xea, 0x7f, 0x64, 0x57, 0x32, 0x97, 0x08, 0x05,
  0x71, 0x1a, 0xfd, 0xfb, 0xb1, 0xf9, 0xff, 0x2e, 0xb4, 0x2c, 0x11, 0xf6, 0xc2,
  0x7f, 0x2f, 0x08, 0xe9, 0x1d, 0x2e, 0x4c, 0x7f, 0x2c, 0xfe, 0xb5, 0x2d, 0x6a,
  0x4a, 0xc3, 0x44, 0xa3, 0xbf, 0xe3, 0x34, 0xcd, 0x0b, 0x4a, 0xfb, 0xff, 0xff,
  0x04, 0x00, 0x00, 0x00, 0x60, 0x00, 0x00, 0x00, 0x00, 0x00, 0x00, 0x00, 0x00,
  0x00, 0x00, 0x00, 0x00, 0x00, 0x00, 0x00, 0x00, 0x00, 0x00, 0x00, 0x00, 0x00,
  0x00, 0x00, 0x00, 0x00, 0x00, 0x00, 0x00, 0x00, 0x00, 0x00, 0x00, 0x00, 0x00,
  0x00, 0x00, 0x00, 0x00, 0x00, 0x00, 0x00, 0x00, 0x00, 0x00, 0x00, 0x00, 0x00,
  0x00, 0x00, 0x00, 0x00, 0x00, 0x00, 0x00, 0x00, 0x00, 0x00, 0x00, 0x00, 0x00,
  0x00, 0x00, 0x00, 0x00, 0x00, 0x00, 0x00, 0x00, 0x00, 0x00, 0x00, 0x00, 0x00,
  0x00, 0x00, 0x00, 0x00, 0x00, 0x00, 0x00, 0x00, 0x00, 0x00, 0x00, 0x00, 0x00,
  0x00, 0x00, 0x00, 0x00, 0x00, 0x00, 0x00, 0x00, 0x00, 0x00, 0x00, 0x00, 0x00,
  0xb6, 0xfb, 0xff, 0xff, 0x04, 0x00, 0x00, 0x00, 0x30, 0x00, 0x00, 0x00, 0x52,
  0x4c, 0x7f, 0x81, 0x4d, 0x91, 0x28, 0x2d, 0x7f, 0x7f, 0xef, 0x6b, 0x7f, 0xc5,
  0x81, 0xfa, 0x7f, 0x81, 0xa3, 0x3e, 0x2a, 0x0b, 0x81, 0x64, 0xad, 0xc9, 0x7d,
  0x81, 0x05, 0x7f, 0x29, 0x81, 0x1a, 0x1e, 0xdb, 0x25, 0x81, 0x81, 0x70, 0x81,
  0xcf, 0xbd, 0x81, 0xff, 0x02, 0xa8, 0x09, 0xe3, 0xf2, 0xfb, 0xff, 0xff, 0x04,
  0x00, 0x00, 0x00, 0x30, 0x00, 0x00, 0x00, 0x75, 0x7f, 0x58, 0x81, 0xa0, 0x32,
  0xbf, 0xad, 0xa2, 0x7f, 0x9c, 0xcb, 0x81, 0xeb, 0x81, 0xea, 0x81, 0xbe, 0x83,
  0xd6, 0x10, 0x50, 0x60, 0x7f, 0x7f, 0x54, 0x81, 0x81, 0x04, 0x81, 0xeb, 0x7d,
  0x05, 0xa6, 0x81, 0x33, 0x7f, 0x81, 0x81, 0xe3, 0xdd, 0x0f, 0x2a, 0xf6, 0xfa,
  0x05, 0x04, 0x81, 0x2e, 0xfc, 0xff, 0xff, 0x04, 0x00, 0x00, 0x00, 0x10, 0x00,
  0x00, 0x00, 0x7f, 0x7f, 0x81, 0x7f, 0x81, 0x81, 0x7f, 0x7f, 0x7f, 0x7f, 0x7f,
  0x7f, 0x81, 0x81, 0x7f, 0x81, 0x4a, 0xfc, 0xff, 0xff, 0x04, 0x00, 0x00, 0x00,
  0x80, 0x00, 0x00, 0x00, 0x00, 0x00, 0x00, 0x00, 0x00, 0x00, 0x00, 0x00, 0x00,
  0x00, 0x00, 0x00, 0x00, 0x00, 0x00, 0x00, 0x00, 0x00, 0x00, 0x00, 0x00, 0x00,
  0x00, 0x00, 0x00, 0x00, 0x00, 0x00, 0x00, 0x00, 0x00, 0x00, 0x00, 0x00, 0x00,
  0x00, 0x00, 0x00, 0x00, 0x00, 0x00, 0x00, 0x00, 0x00, 0x00, 0x00, 0x00, 0x00,
  0x00, 0x00, 0x00, 0x00, 0x00, 0x00, 0x00, 0x00, 0x00, 0x00, 0x00, 0x00, 0x00,
  0x00, 0x00, 0x00, 0x00, 0x00, 0x00, 0x00, 0x00, 0x00, 0x00, 0x00, 0x00, 0x00,
  0x00, 0x00, 0x00, 0x00, 0x00, 0x00, 0x00, 0x00, 0x00, 0x00, 0x00, 0x00, 0x00,
  0x00, 0x00, 0x00, 0x00, 0x00, 0x00, 0x00, 0x00, 0x00, 0x00, 0x00, 0x00, 0x00,
  0x00, 0x00, 0x00, 0x00, 0x00, 0x00, 0x00, 0x00, 0x00, 0x00, 0x00, 0x00, 0x00,
  0x00, 0x00, 0x00, 0x00, 0x00, 0x00, 0x00, 0x00, 0x00, 0x00, 0x00, 0x00, 0x00,
  0x00, 0x00, 0xd6, 0xfc, 0xff, 0xff, 0x04, 0x00, 0x00, 0x00, 0x03, 0x00, 0x00,
  0x00, 0x7f, 0x1e, 0xe6, 0x00, 0xe6, 0xfc, 0xff, 0xff, 0x04, 0x00, 0x00, 0x00,
  0x03, 0x00, 0x00, 0x00, 0x81, 0xd6, 0x1c, 0x00, 0xf6, 0xfc, 0xff, 0xff, 0x04,
  0x00, 0x00, 0x00, 0x08, 0x00, 0x00, 0x00, 0x00, 0x00, 0x00, 0x00, 0x00, 0x00,
  0x00, 0x00, 0x0a, 0xfd, 0xff, 0xff, 0x04, 0x00, 0x00, 0x00, 0x08, 0x00, 0x00,
  0x00, 0xb5, 0xd5, 0xff, 0xff, 0xff, 0xff, 0xff, 0xff, 0x1e, 0xfd, 0xff, 0xff,
  0x04, 0x00, 0x00, 0x00, 0x40, 0x00, 0x00, 0x00, 0x42, 0x04, 0x00, 0x00, 0x00,
  0x00, 0x00, 0x00, 0x4d, 0x16, 0x00, 0x00, 0x00, 0x00, 0x00, 0x00, 0x14, 0xf0,
  0xff, 0xff, 0xff, 0xff, 0xff, 0xff, 0x47, 0x40, 0x00, 0x00, 0x00, 0x00, 0x00,
  0x00, 0x68, 0xf1, 0xff, 0xff, 0xff, 0xff, 0xff, 0xff, 0x89, 0x19, 0x00, 0x00,
  0x00, 0x00, 0x00, 0x00, 0x82, 0x0c, 0x00, 0x00, 0x00, 0x00, 0x00, 0x00, 0x04,
  0x03, 0x00, 0x00, 0x00, 0x00, 0x00, 0x00, 0x6a, 0xfd, 0xff, 0xff, 0x04, 0x00,
  0x00, 0x00, 0x40, 0x00, 0x00, 0x00, 0x05, 0xd9, 0xff, 0xff, 0xff, 0xff, 0xff,
  0xff, 0xe6, 0x42, 0x00, 0x00, 0x00, 0x00, 0x00, 0x00, 0xb2, 0x94, 0xff, 0xff,
  0xff, 0xff, 0xff, 0xff, 0x35, 0x02, 0x00, 0x00, 0x00, 0x00, 0x00, 0x00, 0x6e,
  0x71, 0x00, 0x00, 0x00, 0x00, 0x00, 0x00, 0xf2, 0xf5, 0xff, 0xff, 0xff, 0xff,
  0xff, 0xff, 0xbd, 0x1d, 0x00, 0x00, 0x00, 0x00, 0x00, 0x00, 0x02, 0xeb, 0xff,
  0xff, 0xff, 0xff, 0xff, 0xff, 0xb6, 0xfd, 0xff, 0xff, 0x04, 0x00, 0x00, 0x00,
  0x50, 0x00, 0x00, 0x00, 0xa8, 0xaa, 0xff, 0xff, 0xff, 0xff, 0xff, 0xff, 0x9e,
  0xb8, 0xff, 0xff, 0xff, 0xff, 0xff, 0xff, 0xd3, 0xc3, 0xff, 0xff, 0xff, 0xff,
  0xff, 0xff, 0x08, 0xc8, 0xff, 0xff, 0xff, 0xff, 0xff, 0xff, 0x67, 0x1f, 0x00,
  0x00, 0x00, 0x00, 0x00, 0x00, 0x59, 0xe9, 0xff, 0xff, 0xff, 0xff, 0xff, 0xff,
  0x81, 0xf9, 0xff, 0xff, 0xff, 0xff, 0xff, 0xff, 0x1e, 0x86, 0x00, 0x00, 0x00,
  0x00, 0x00, 0x00, 0xbb, 0xe7, 0xff, 0xff, 0xff, 0xff, 0xff, 0xff, 0x70, 0x7c,
  0x00, 0x00, 0x00, 0x00, 0x00, 0x00, 0x12, 0xfe, 0xff, 0xff, 0x04, 0x00, 0x00,
  0x00, 0x60, 0x00, 0x00, 0x00, 0x68, 0x33, 0x00, 0x00, 0x00, 0x00, 0x00, 0x00,
  0xe6, 0x07, 0x00, 0x00, 0x00, 0x00, 0x00, 0x00, 0xef, 0x13, 0x00, 0x00, 0x00,
  0x00, 0x00, 0x00, 0x2d, 0xf9, 0xff, 0xff, 0xff, 0xff, 0xff, 0xff, 0x9e, 0x67,
  0x00, 0x00, 0x00, 0x00, 0x00, 0x00, 0x2f, 0x39, 0x00, 0x00, 0x00, 0x00, 0x00,
  0x00, 0x2b, 0xea, 0xff, 0xff, 0xff, 0xff, 0xff, 0xff, 0xce, 0x2e, 0x00, 0x00,
  0x00, 0x00, 0x00, 0x00, 0xc4, 0xfb, 0xff, 0xff, 0xff, 0xff, 0xff, 0xff, 0x6c,
  0xd7, 0xff, 0xff, 0xff, 0xff, 0xff, 0xff, 0xef, 0x20, 0x00, 0x00, 0x00, 0x00,
  0x00, 0x00, 0x11, 0x26, 0x00, 0x00, 0x00, 0x00, 0x00, 0x00, 0x7e, 0xfe, 0xff,
  0xff, 0x04, 0x00, 0x00, 0x00, 0x80, 0x00, 0x00, 0x00, 0xdb, 0x77, 0xff, 0xff,
  0xff, 0xff, 0xff, 0xff, 0x1d, 0x64, 0x0c, 0x00, 0x00, 0x00, 0x00, 0x00, 0x10,
  0x1e, 0x00, 0x00, 0x00, 0x00, 0x00, 0x00, 0x73, 0xd0, 0x00, 0x00, 0x00, 0x00,
  0x00, 0x00, 0x25, 0x3b, 0xe2, 0xff, 0xff, 0xff, 0xff, 0xff, 0x5c, 0xe5, 0xa5,
  0x02, 0x00, 0x00, 0x00, 0x00, 0xac, 0x78, 0x12, 0x00, 0x00, 0x00, 0x00, 0x00,
  0x8f, 0x64, 0xf9, 0xff, 0xff, 0xff, 0xff, 0xff, 0x8c, 0x0d, 0xfe, 0xff, 0xff,
  0xff, 0xff, 0xff, 0x24, 0x64, 0x17, 0x00, 0x00, 0x00, 0x00, 0x00, 0x1b, 0x62,
  0x26, 0x00, 0x00, 0x00, 0x00, 0x00, 0x05, 0x96, 0x01, 0x00, 0x00, 0x00, 0x00,
  0x00, 0x4a, 0xd2, 0xdf, 0xff, 0xff, 0xff, 0xff, 0xff, 0xb2, 0x80, 0xfb, 0xff,
  0xff, 0xff, 0xff, 0xff, 0x2f, 0x91, 0xfe, 0xff, 0xff, 0xff, 0xff, 0xff, 0xc3,
  0x3a, 0x01, 0x00, 0x00, 0x00, 0x00, 0x00, 0x0a, 0xff, 0xff, 0xff, 0x04, 0x00,
  0x00, 0x00, 0x40, 0x00, 0x00, 0x00, 0x0b, 0xb3, 0xff, 0xff, 0xff, 0xff, 0xff,
  0xff, 0x06, 0x22, 0x00, 0x00, 0x00, 0x00, 0x00, 0x00, 0x5b, 0x9c, 0xff, 0xff,
  0xff, 0xff, 0xff, 0xff, 0x75, 0xfd, 0xfe, 0xff, 0xff, 0xff, 0xff, 0xff, 0x66,
  0x4e, 0x00, 0x00, 0x00, 0x00, 0x00, 0x00, 0x93, 0xa0, 0x00, 0x00, 0x00, 0x00,
  0x00, 0x00, 0x2e, 0x25, 0x00, 0x00, 0x00, 0x00, 0x00, 0x00, 0x98, 0xdd, 0x00,
  0x00, 0x00, 0x00, 0x00, 0x00, 0x56, 0xff, 0xff, 0xff, 0x04, 0x00, 0x00, 0x00,
  0x40, 0x00, 0x00, 0x00, 0xb3, 0x0b, 0x00, 0x00, 0x00, 0x00, 0x00, 0x00, 0x54,
  0xc9, 0xff, 0xff, 0xff, 0xff, 0xff, 0xff, 0x88, 0x06, 0x00, 0x00, 0x00, 0x00,
  0x00, 0x00, 0x5c, 0x90, 0xfe, 0xff, 0xff, 0xff, 0xff, 0xff, 0x66, 0x8e, 0xff,
  0xff, 0xff, 0xff, 0xff, 0xff, 0x84, 0x06, 0xf7, 0xff, 0xff, 0xff, 0xff, 0xff,
  0x4a, 0xdb, 0xfe, 0xff, 0xff, 0xff, 0xff, 0xff, 0xe0, 0xaf, 0xfe, 0xff, 0xff,
  0xff, 0xff, 0xff, 0xa2, 0xff, 0xff, 0xff, 0x04, 0x00, 0x00, 0x00, 0x50, 0x00,
  0x00, 0x00, 0x1e, 0xa1, 0xff, 0xff, 0xff, 0xff, 0xff, 0xff, 0xcd, 0x0e, 0x01,
  0x00, 0x00, 0x00, 0x00, 0x00, 0xca, 0xaa, 0xff, 0xff, 0xff, 0xff, 0xff, 0xff,
  0xf4, 0xb7, 0xff, 0xff, 0xff, 0xff, 0xff, 0xff, 0xf6, 0x81, 0xfd, 0xff, 0xff,
  0xff, 0xff, 0xff, 0x60, 0x02, 0x00, 0x00, 0x00, 0x00, 0x00, 0x00, 0xf6, 0xa0,
  0xfe, 0xff, 0xff, 0xff, 0xff, 0xff, 0xa7, 0x4a, 0x00, 0x00, 0x00, 0x00, 0x00,
  0x00, 0xa4, 0x4a, 0xfd, 0xff, 0xff, 0xff, 0xff, 0xff, 0xcc, 0x62, 0xfe, 0xff,
  0xff, 0xff, 0xff, 0xff, 0x00, 0x00, 0x06, 0x00, 0x08, 0x00, 0x04, 0x00, 0x06,
  0x00, 0x00, 0x00, 0x04, 0x00, 0x00, 0x00, 0x60, 0x00, 0x00, 0x00, 0x20, 0x3b,
  0x00, 0x00, 0x00, 0x00, 0x00, 0x00, 0xf0, 0x49, 0x00, 0x00, 0x00, 0x00, 0x00,
  0x00, 0x3c, 0x78, 0xff, 0xff, 0xff, 0xff, 0xff, 0xff, 0xcd, 0xa0, 0xf8, 0xff,
  0xff, 0xff, 0xff, 0xff, 0x18, 0x3b, 0x00, 0x00, 0x00, 0x00, 0x00, 0x00, 0x94,
  0x3d, 0x00, 0x00, 0x00, 0x00, 0x00, 0x00, 0x54, 0x28, 0x00, 0x00, 0x00, 0x00,
  0x00, 0x00, 0xe6, 0x12, 0x00, 0x00, 0x00, 0x00, 0x00, 0x00, 0x91, 0xfa, 0xff,
  0xff, 0xff, 0xff, 0xff, 0xff, 0xf3, 0x4e, 0x00, 0x00, 0x00, 0x00, 0x00, 0x00,
  0x2d, 0xd8, 0xff, 0xff, 0xff, 0xff, 0xff, 0xff, 0x6d, 0x3b, 0x01, 0x00, 0x00,
  0x00, 0x00, 0x00, 0x6c, 0xda, 0xff, 0xff, 0x70, 0xda, 0xff, 0xff, 0x0f, 0x00,
  0x00, 0x00, 0x4d, 0x4c, 0x49, 0x52, 0x20, 0x43, 0x6f, 0x6e, 0x76, 0x65, 0x72,
  0x74, 0x65, 0x64, 0x2e, 0x00, 0x01, 0x00, 0x00, 0x00, 0x14, 0x00, 0x00, 0x00,
  0x00, 0x00, 0x0e, 0x00, 0x18, 0x00, 0x14, 0x00, 0x10, 0x00, 0x0c, 0x00, 0x08,
  0x00, 0x04, 0x00, 0x0e, 0x00, 0x00, 0x00, 0x14, 0x00, 0x00, 0x00, 0x1c, 0x00,
  0x00, 0x00, 0x5c, 0x0c, 0x00, 0x00, 0x60, 0x0c, 0x00, 0x00, 0x64, 0x0c, 0x00,
  0x00, 0x04, 0x00, 0x00, 0x00, 0x6d, 0x61, 0x69, 0x6e, 0x00, 0x00, 0x00, 0x00,
  0x2f, 0x00, 0x00, 0x00, 0x20, 0x0c, 0x00, 0x00, 0xe4, 0x0b, 0x00, 0x00, 0x84,
  0x0b, 0x00, 0x00, 0x30, 0x0b, 0x00, 0x00, 0xe4, 0x0a, 0x00, 0x00, 0xa0, 0x0a,
  0x00, 0x00, 0x5c, 0x0a, 0x00, 0x00, 0x0c, 0x0a, 0x00, 0x00, 0xc8, 0x09, 0x00,
  0x00, 0x84, 0x09, 0x00, 0x00, 0x44, 0x09, 0x00, 0x00, 0x00, 0x09, 0x00, 0x00,
  0xbc, 0x08, 0x00, 0x00, 0x7c, 0x08, 0x00, 0x00, 0x3c, 0x08, 0x00, 0x00, 0xf8,
  0x07, 0x00, 0x00, 0xb4, 0x07, 0x00, 0x00, 0x70, 0x07, 0x00, 0x00, 0x2c, 0x07,
  0x00, 0x00, 0xe8, 0x06, 0x00, 0x00, 0xa8, 0x06, 0x00, 0x00, 0x64, 0x06, 0x00,
  0x00, 0x20, 0x06, 0x00, 0x00, 0xe0, 0x05, 0x00, 0x00, 0xa8, 0x05, 0x00, 0x00,
  0x64, 0x05, 0x00, 0x00, 0x20, 0x05, 0x00, 0x00, 0xdc, 0x04, 0x00, 0x00, 0x98,
  0x04, 0x00, 0x00, 0x54, 0x04, 0x00, 0x00, 0x14, 0x04, 0x00, 0x00, 0xd0, 0x03,
  0x00, 0x00, 0x8c, 0x03, 0x00, 0x00, 0x4c, 0x03, 0x00, 0x00, 0x14, 0x03, 0x00,
  0x00, 0xd0, 0x02, 0x00, 0x00, 0x8c, 0x02, 0x00, 0x00, 0x48, 0x02, 0x00, 0x00,
  0x04, 0x02, 0x00, 0x00, 0xc0, 0x01, 0x00, 0x00, 0x80, 0x01, 0x00, 0x00, 0x48,
  0x01, 0x00, 0x00, 0x14, 0x01, 0x00, 0x00, 0xc0, 0x00, 0x00, 0x00, 0x78, 0x00,
  0x00, 0x00, 0x28, 0x00, 0x00, 0x00, 0x04, 0x00, 0x00, 0x00, 0xa6, 0xf4, 0xff,
  0xff, 0x0c, 0x00, 0x00, 0x00, 0x10, 0x00, 0x00, 0x00, 0x06, 0x00, 0x00, 0x00,
  0x01, 0x00, 0x00, 0x00, 0x67, 0x00, 0x00, 0x00, 0x01, 0x00, 0x00, 0x00, 0x65,
  0x00, 0x00, 0x00, 0x5e, 0xf5, 0xff, 0xff, 0x20, 0x00, 0x00, 0x00, 0x00, 0x00,
  0x00, 0x01, 0x28, 0x00, 0x00, 0x00, 0x2c, 0x00, 0x00, 0x00, 0x02, 0x00, 0x00,
  0x00, 0x00, 0x00, 0x0a, 0x00, 0x10, 0x00, 0x0f, 0x00, 0x08, 0x00, 0x04, 0x00,
  0x0a, 0x00, 0x00, 0x00, 0x01, 0x00, 0x00, 0x00, 0x01, 0x00, 0x00, 0x00, 0x00,
  0x00, 0x00, 0x01, 0x01, 0x00, 0x00, 0x00, 0x65, 0x00, 0x00, 0x00, 0x03, 0x00,
  0x00, 0x00, 0x64, 0x00, 0x00, 0x00, 0x36, 0x00, 0x00, 0x00, 0x0a, 0x00, 0x00,
  0x00, 0xaa, 0xf5, 0xff, 0xff, 0x14, 0x00, 0x00, 0x00, 0x00, 0x00, 0x00, 0x02,
  0x20, 0x00, 0x00, 0x00, 0x24, 0x00, 0x00, 0x00, 0x01, 0x00, 0x00, 0x00, 0xbc,
  0xff, 0xff, 0xff, 0x01, 0x00, 0x00, 0x00, 0x01, 0x00, 0x00, 0x00, 0x01, 0x00,
  0x00, 0x00, 0x00, 0x00, 0x00, 0x01, 0x01, 0x00, 0x00, 0x00, 0x64, 0x00, 0x00,
  0x00, 0x03, 0x00, 0x00, 0x00, 0x63, 0x00, 0x00, 0x00, 0x35, 0x00, 0x00, 0x00,
  0x26, 0x00, 0x00, 0x00, 0xee, 0xf5, 0xff, 0xff, 0x20, 0x00, 0x00, 0x00, 0x00,
  0x00, 0x00, 0x02, 0x2c, 0x00, 0x00, 0x00, 0x30, 0x00, 0x00, 0x00, 0x01, 0x00,
  0x00, 0x00, 0x0c, 0x00, 0x14, 0x00, 0x13, 0x00, 0x0c, 0x00, 0x08, 0x00, 0x04,
  0x00, 0x0c, 0x00, 0x00, 0x00, 0x01, 0x00, 0x00, 0x00, 0x01, 0x00, 0x00, 0x00,
  0x01, 0x00, 0x00, 0x00, 0x00, 0x00, 0x00, 0x01, 0x01, 0x00, 0x00, 0x00, 0x63,
  0x00, 0x00, 0x00, 0x03, 0x00, 0x00, 0x00, 0x62, 0x00, 0x00, 0x00, 0x34, 0x00,
  0x00, 0x00, 0x26, 0x00, 0x00, 0x00, 0x3e, 0xf6, 0xff, 0xff, 0x14, 0x00, 0x00,
  0x00, 0x00, 0x00, 0x00, 0x0f, 0x10, 0x00, 0x00, 0x00, 0x14, 0x00, 0x00, 0x00,
  0x04, 0x00, 0x00, 0x00, 0x9c, 0xdc, 0xff, 0xff, 0x01, 0x00, 0x00, 0x00, 0x62,
  0x00, 0x00, 0x00, 0x02, 0x00, 0x00, 0x00, 0x61, 0x00, 0x00, 0x00, 0x37, 0x00,
  0x00, 0x00, 0x6e, 0xf6, 0xff, 0xff, 0x14, 0x00, 0x00, 0x00, 0x00, 0x00, 0x00,
  0x0b, 0x14, 0x00, 0x00, 0x00, 0x18, 0x00, 0x00, 0x00, 0x03, 0x00, 0x00, 0x00,
  0x78, 0xf9, 0xff, 0xff, 0x00, 0x00, 0x00, 0x00, 0x01, 0x00, 0x00, 0x00, 0x61,
  0x00, 0x00, 0x00, 0x02, 0x00, 0x00, 0x00, 0x5a, 0x00, 0x00, 0x00, 0x60, 0x00,
  0x00, 0x00, 0xa2, 0xf6, 0xff, 0xff, 0x14, 0x00, 0x00, 0x00, 0x00, 0x00, 0x00,
  0x01, 0x18, 0x00, 0x00, 0x00, 0x1c, 0x00, 0x00, 0x00, 0x02, 0x00, 0x00, 0x00,
  0x2a, 0xf7, 0xff, 0xff, 0x01, 0x00, 0x00, 0x00, 0x01, 0x00, 0x00, 0x00, 0x01,
  0x00, 0x00, 0x00, 0x60, 0x00, 0x00, 0x00, 0x03, 0x00, 0x00, 0x00, 0x5f, 0x00,
  0x00, 0x00, 0x33, 0x00, 0x00, 0x00, 0x09, 0x00, 0x00, 0x00, 0xde, 0xf6, 0xff,
  0xff, 0x14, 0x00, 0x00, 0x00, 0x00, 0x00, 0x00, 0x02, 0x1c, 0x00, 0x00, 0x00,
  0x20, 0x00, 0x00, 0x00, 0x01, 0x00, 0x00, 0x00, 0xd0, 0xf6, 0xff, 0xff, 0x01,
  0x00, 0x00, 0x00, 0x01, 0x00, 0x00, 0x00, 0x01, 0x00, 0x00, 0x00, 0x01, 0x00,
  0x00, 0x00, 0x5f, 0x00, 0x00, 0x00, 0x03, 0x00, 0x00, 0x00, 0x5e, 0x00, 0x00,
  0x00, 0x32, 0x00, 0x00, 0x00, 0x26, 0x00, 0x00, 0x00, 0x1e, 0xf7, 0xff, 0xff,
  0x14, 0x00, 0x00, 0x00, 0x00, 0x00, 0x00, 0x02, 0x1c, 0x00, 0x00, 0x00, 0x20,
  0x00, 0x00, 0x00, 0x01, 0x00, 0x00, 0x00, 0x10, 0xf7, 0xff, 0xff, 0x01, 0x00,
  0x00, 0x00, 0x01, 0x00, 0x00, 0x00, 0x01, 0x00, 0x00, 0x00, 0x01, 0x00, 0x00,
  0x00, 0x5e, 0x00, 0x00, 0x00, 0x03, 0x00, 0x00, 0x00, 0x5d, 0x00, 0x00, 0x00,
  0x31, 0x00, 0x00, 0x00, 0x26, 0x00, 0x00, 0x00, 0x5e, 0xf7, 0xff, 0xff, 0x14,
  0x00, 0x00, 0x00, 0x00, 0x00, 0x00, 0x01, 0x1c, 0x00, 0x00, 0x00, 0x20, 0x00,
  0x00, 0x00, 0x02, 0x00, 0x00, 0x00, 0xb4, 0xf8, 0xff, 0xff, 0x00, 0x00, 0x00,
  0x01, 0x01, 0x00, 0x00, 0x00, 0x01, 0x00, 0x00, 0x00, 0x01, 0x00, 0x00, 0x00,
  0x5d, 0x00, 0x00, 0x00, 0x03, 0x00, 0x00, 0x00, 0x5c, 0x00, 0x00, 0x00, 0x30,
  0x00, 0x00, 0x00, 0x04, 0x00, 0x00, 0x00, 0x9e, 0xf7, 0xff, 0xff, 0x14, 0x00,
  0x00, 0x00, 0x00, 0x00, 0x00, 0x02, 0x1c, 0x00, 0x00, 0x00, 0x20, 0x00, 0x00,
  0x00, 0x01, 0x00, 0x00, 0x00, 0x90, 0xf7, 0xff, 0xff, 0x01, 0x00, 0x00, 0x00,
  0x01, 0x00, 0x00, 0x00, 0x01, 0x00, 0x00, 0x00, 0x01, 0x00, 0x00, 0x00, 0x5c,
  0x00, 0x00, 0x00, 0x03, 0x00, 0x00, 0x00, 0x5b, 0x00, 0x00, 0x00, 0x2f, 0x00,
  0x00, 0x00, 0x26, 0x00, 0x00, 0x00, 0xde, 0xf7, 0xff, 0xff, 0x14, 0x00, 0x00,
  0x00, 0x00, 0x00, 0x00, 0x02, 0x1c, 0x00, 0x00, 0x00, 0x20, 0x00, 0x00, 0x00,
  0x01, 0x00, 0x00, 0x00, 0xd0, 0xf7, 0xff, 0xff, 0x01, 0x00, 0x00, 0x00, 0x01,
  0x00, 0x00, 0x00, 0x01, 0x00, 0x00, 0x00, 0x01, 0x00, 0x00, 0x00, 0x5b, 0x00,
  0x00, 0x00, 0x03, 0x00, 0x00, 0x00, 0x5a, 0x00, 0x00, 0x00, 0x2e, 0x00, 0x00,
  0x00, 0x26, 0x00, 0x00, 0x00, 0x1e, 0xf8, 0xff, 0xff, 0x14, 0x00, 0x00, 0x00,
  0x00, 0x00, 0x00, 0x0b, 0x14, 0x00, 0x00, 0x00, 0x18, 0x00, 0x00, 0x00, 0x03,
  0x00, 0x00, 0x00, 0x28, 0xfb, 0xff, 0xff, 0x00, 0x00, 0x00, 0x00, 0x01, 0x00,
  0x00, 0x00, 0x5a, 0x00, 0x00, 0x00, 0x02, 0x00, 0x00, 0x00, 0x59, 0x00, 0x00,
  0x00, 0x56, 0x00, 0x00, 0x00, 0x52, 0xf8, 0xff, 0xff, 0x14, 0x00, 0x00, 0x00,
  0x00, 0x00, 0x00, 0x01, 0x18, 0x00, 0x00, 0x00, 0x1c, 0x00, 0x00, 0x00, 0x02,
  0x00, 0x00, 0x00, 0xda, 0xf8, 0xff, 0xff, 0x01, 0x00, 0x00, 0x00, 0x01, 0x00,
  0x00, 0x00, 0x01, 0x00, 0x00, 0x00, 0x59, 0x00, 0x00, 0x00, 0x03, 0x00, 0x00,
  0x00, 0x58, 0x00, 0x00, 0x00, 0x2d, 0x00, 0x00, 0x00, 0x08, 0x00, 0x00, 0x00,
  0x8e, 0xf8, 0xff, 0xff, 0x14, 0x00, 0x00, 0x00, 0x00, 0x00, 0x00, 0x02, 0x1c,
  0x00, 0x00, 0x00, 0x20, 0x00, 0x00, 0x00, 0x01, 0x00, 0x00, 0x00, 0x80, 0xf8,
  0xff, 0xff, 0x01, 0x00, 0x00, 0x00, 0x01, 0x00, 0x00, 0x00, 0x01, 0x00, 0x00,
  0x00, 0x01, 0x00, 0x00, 0x00, 0x58, 0x00, 0x00, 0x00, 0x03, 0x00, 0x00, 0x00,
  0x57, 0x00, 0x00, 0x00, 0x2c, 0x00, 0x00, 0x00, 0x1c, 0x00, 0x00, 0x00, 0xce,
  0xf8, 0xff, 0xff, 0x14, 0x00, 0x00, 0x00, 0x00, 0x00, 0x00, 0x02, 0x1c, 0x00,
  0x00, 0x00, 0x20, 0x00, 0x00, 0x00, 0x01, 0x00, 0x00, 0x00, 0xc0, 0xf8, 0xff,
  0xff, 0x01, 0x00, 0x00, 0x00, 0x01, 0x00, 0x00, 0x00, 0x01, 0x00, 0x00, 0x00,
  0x01, 0x00, 0x00, 0x00, 0x57, 0x00, 0x00, 0x00, 0x03, 0x00, 0x00, 0x00, 0x50,
  0x00, 0x00, 0x00, 0x2b, 0x00, 0x00, 0x00, 0x1c, 0x00, 0x00, 0x00, 0x0e, 0xf9,
  0xff, 0xff, 0x14, 0x00, 0x00, 0x00, 0x00, 0x00, 0x00, 0x01, 0x18, 0x00, 0x00,
  0x00, 0x1c, 0x00, 0x00, 0x00, 0x02, 0x00, 0x00, 0x00, 0x96, 0xf9, 0xff, 0xff,
  0x01, 0x00, 0x00, 0x00, 0x01, 0x00, 0x00, 0x00, 0x01, 0x00, 0x00, 0x00, 0x56,
  0x00, 0x00, 0x00, 0x03, 0x00, 0x00, 0x00, 0x55, 0x00, 0x00, 0x00, 0x2a, 0x00,
  0x00, 0x00, 0x08, 0x00, 0x00, 0x00, 0x4a, 0xf9, 0xff, 0xff, 0x14, 0x00, 0x00,
  0x00, 0x00, 0x00, 0x00, 0x02, 0x1c, 0x00, 0x00, 0x00, 0x20, 0x00, 0x00, 0x00,
  0x01, 0x00, 0x00, 0x00, 0x3c, 0xf9, 0xff, 0xff, 0x01, 0x00, 0x00, 0x00, 0x01,
  0x00, 0x00, 0x00, 0x01, 0x00, 0x00, 0x00, 0x01, 0x00, 0x00, 0x00, 0x55, 0x00,
  0x00, 0x00, 0x03, 0x00, 0x00, 0x00, 0x54, 0x00, 0x00, 0x00, 0x29, 0x00, 0x00,
  0x00, 0x26, 0x00, 0x00, 0x00, 0x8a, 0xf9, 0xff, 0xff, 0x14, 0x00, 0x00, 0x00,
  0x00, 0x00, 0x00, 0x02, 0x1c, 0x00, 0x00, 0x00, 0x20, 0x00, 0x00, 0x00, 0x01,
  0x00, 0x00, 0x00, 0x7c, 0xf9, 0xff, 0xff, 0x01, 0x00, 0x00, 0x00, 0x01, 0x00,
  0x00, 0x00, 0x01, 0x00, 0x00, 0x00, 0x01, 0x00, 0x00, 0x00, 0x54, 0x00, 0x00,
  0x00, 0x03, 0x00, 0x00, 0x00, 0x53, 0x00, 0x00, 0x00, 0x28, 0x00, 0x00, 0x00,
  0x26, 0x00, 0x00, 0x00, 0xca, 0xf9, 0xff, 0xff, 0x14, 0x00, 0x00, 0x00, 0x00,
  0x00, 0x00, 0x01, 0x1c, 0x00, 0x00, 0x00, 0x20, 0x00, 0x00, 0x00, 0x02, 0x00,
  0x00, 0x00, 0x20, 0xfb, 0xff, 0xff, 0x00, 0x00, 0x00, 0x01, 0x01, 0x00, 0x00,
  0x00, 0x01, 0x00, 0x00, 0x00, 0x01, 0x00, 0x00, 0x00, 0x53, 0x00, 0x00, 0x00,
  0x03, 0x00, 0x00, 0x00, 0x52, 0x00, 0x00, 0x00, 0x27, 0x00, 0x00, 0x00, 0x03,
  0x00, 0x00, 0x00, 0x0a, 0xfa, 0xff, 0xff, 0x14, 0x00, 0x00, 0x00, 0x00, 0x00,
  0x00, 0x02, 0x1c, 0x00, 0x00, 0x00, 0x20, 0x00, 0x00, 0x00, 0x01, 0x00, 0x00,
  0x00, 0xfc, 0xf9, 0xff, 0xff, 0x01, 0x00, 0x00, 0x00, 0x01, 0x00, 0x00, 0x00,
  0x01, 0x00, 0x00, 0x00, 0x01, 0x00, 0x00, 0x00, 0x52, 0x00, 0x00, 0x00, 0x03,
  0x00, 0x00, 0x00, 0x51, 0x00, 0x00, 0x00, 0x25, 0x00, 0x00, 0x00, 0x1c, 0x00,
  0x00, 0x00, 0x4a, 0xfa, 0xff, 0xff, 0x14, 0x00, 0x00, 0x00, 0x00, 0x00, 0x00,
  0x02, 0x1c, 0x00, 0x00, 0x00, 0x20, 0x00, 0x00, 0x00, 0x01, 0x00, 0x00, 0x00,
  0x3c, 0xfa, 0xff, 0xff, 0x01, 0x00, 0x00, 0x00, 0x01, 0x00, 0x00, 0x00, 0x01,
  0x00, 0x00, 0x00, 0x01, 0x00, 0x00, 0x00, 0x51, 0x00, 0x00, 0x00, 0x03, 0x00,
  0x00, 0x00, 0x50, 0x00, 0x00, 0x00, 0x24, 0x00, 0x00, 0x00, 0x1c, 0x00, 0x00,
  0x00, 0x8a, 0xfa, 0xff, 0xff, 0x14, 0x00, 0x00, 0x00, 0x00, 0x00, 0x00, 0x0b,
  0x14, 0x00, 0x00, 0x00, 0x18, 0x00, 0x00, 0x00, 0x03, 0x00, 0x00, 0x00, 0x94,
  0xfd, 0xff, 0xff, 0x00, 0x00, 0x00, 0x00, 0x01, 0x00, 0x00, 0x00, 0x50, 0x00,
  0x00, 0x00, 0x02, 0x00, 0x00, 0x00, 0x4f, 0x00, 0x00, 0x00, 0x4c, 0x00, 0x00,
  0x00, 0xbe, 0xfa, 0xff, 0xff, 0x14, 0x00, 0x00, 0x00, 0x00, 0x00, 0x00, 0x01,
  0x18, 0x00, 0x00, 0x00, 0x1c, 0x00, 0x00, 0x00, 0x02, 0x00, 0x00, 0x00, 0x46,
  0xfb, 0xff, 0xff, 0x01, 0x00, 0x00, 0x00, 0x01, 0x00, 0x00, 0x00, 0x01, 0x00,
  0x00, 0x00, 0x4f, 0x00, 0x00, 0x00, 0x03, 0x00, 0x00, 0x00, 0x4e, 0x00, 0x00,
  0x00, 0x23, 0x00, 0x00, 0x00, 0x07, 0x00, 0x00, 0x00, 0xfa, 0xfa, 0xff, 0xff,
  0x14, 0x00, 0x00, 0x00, 0x00, 0x00, 0x00, 0x02, 0x1c, 0x00, 0x00, 0x00, 0x20,
  0x00, 0x00, 0x00, 0x01, 0x00, 0x00, 0x00, 0xec, 0xfa, 0xff, 0xff, 0x01, 0x00,
  0x00, 0x00, 0x01, 0x00, 0x00, 0x00, 0x01, 0x00, 0x00, 0x00, 0x01, 0x00, 0x00,
  0x00, 0x4e, 0x00, 0x00, 0x00, 0x03, 0x00, 0x00, 0x00, 0x4d, 0x00, 0x00, 0x00,
  0x22, 0x00, 0x00, 0x00, 0x12, 0x00, 0x00, 0x00, 0x3a, 0xfb, 0xff, 0xff, 0x14,
  0x00, 0x00, 0x00, 0x00, 0x00, 0x00, 0x02, 0x1c, 0x00, 0x00, 0x00, 0x20, 0x00,
  0x00, 0x00, 0x01, 0x00, 0x00, 0x00, 0x2c, 0xfb, 0xff, 0xff, 0x01, 0x00, 0x00,
  0x00, 0x01, 0x00, 0x00, 0x00, 0x01, 0x00, 0x00, 0x00, 0x01, 0x00, 0x00, 0x00,
  0x4d, 0x00, 0x00, 0x00, 0x03, 0x00, 0x00, 0x00, 0x46, 0x00, 0x00, 0x00, 0x21,
  0x00, 0x00, 0x00, 0x12, 0x00, 0x00, 0x00, 0x7a, 0xfb, 0xff, 0xff, 0x14, 0x00,
  0x00, 0x00, 0x00, 0x00, 0x00, 0x01, 0x18, 0x00, 0x00, 0x00, 0x1c, 0x00, 0x00,
  0x00, 0x02, 0x00, 0x00, 0x00, 0x02, 0xfc, 0xff, 0xff, 0x01, 0x00, 0x00, 0x00,
  0x01, 0x00, 0x00, 0x00, 0x01, 0x00, 0x00, 0x00, 0x4c, 0x00, 0x00, 0x00, 0x03,
  0x00, 0x00, 0x00, 0x4b, 0x00, 0x00, 0x00, 0x20, 0x00, 0x00, 0x00, 0x07, 0x00,
  0x00, 0x00, 0xb6, 0xfb, 0xff, 0xff, 0x14, 0x00, 0x00, 0x00, 0x00, 0x00, 0x00,
  0x02, 0x1c, 0x00, 0x00, 0x00, 0x20, 0x00, 0x00, 0x00, 0x01, 0x00, 0x00, 0x00,
  0xa8, 0xfb, 0xff, 0xff, 0x01, 0x00, 0x00, 0x00, 0x01, 0x00, 0x00, 0x00, 0x01,
  0x00, 0x00, 0x00, 0x01, 0x00, 0x00, 0x00, 0x4b, 0x00, 0x00, 0x00, 0x03, 0x00,
  0x00, 0x00, 0x4a, 0x00, 0x00, 0x00, 0x1f, 0x00, 0x00, 0x00, 0x1c, 0x00, 0x00,
  0x00, 0xf6, 0xfb, 0xff, 0xff, 0x14, 0x00, 0x00, 0x00, 0x00, 0x00, 0x00, 0x02,
  0x1c, 0x00, 0x00, 0x00, 0x20, 0x00, 0x00, 0x00, 0x01, 0x00, 0x00, 0x00, 0xe8,
  0xfb, 0xff, 0xff, 0x01, 0x00, 0x00, 0x00, 0x01, 0x00, 0x00, 0x00, 0x01, 0x00,
  0x00, 0x00, 0x01, 0x00, 0x00, 0x00, 0x4a, 0x00, 0x00, 0x00, 0x03, 0x00, 0x00,
  0x00, 0x49, 0x00, 0x00, 0x00, 0x1e, 0x00, 0x00, 0x00, 0x1c, 0x00, 0x00, 0x00,
  0x36, 0xfc, 0xff, 0xff, 0x14, 0x00, 0x00, 0x00, 0x00, 0x00, 0x00, 0x01, 0x1c,
  0x00, 0x00, 0x00, 0x20, 0x00, 0x00, 0x00, 0x02, 0x00, 0x00, 0x00, 0x8c, 0xfd,
  0xff, 0xff, 0x00, 0x00, 0x00, 0x01, 0x01, 0x00, 0x00, 0x00, 0x01, 0x00, 0x00,
  0x00, 0x01, 0x00, 0x00, 0x00, 0x49, 0x00, 0x00, 0x00, 0x03, 0x00, 0x00, 0x00,
  0x48, 0x00, 0x00, 0x00, 0x1d, 0x00, 0x00, 0x00, 0x02, 0x00, 0x00, 0x00, 0x76,
  0xfc, 0xff, 0xff, 0x14, 0x00, 0x00, 0x00, 0x00, 0x00, 0x00, 0x02, 0x1c, 0x00,
  0x00, 0x00, 0x20, 0x00, 0x00, 0x00, 0x01, 0x00, 0x00, 0x00, 0x68, 0xfc, 0xff,
  0xff, 0x01, 0x00, 0x00, 0x00, 0x01, 0x00, 0x00, 0x00, 0x01, 0x00, 0x00, 0x00,
  0x01, 0x00, 0x00, 0x00, 0x48, 0x00, 0x00, 0x00, 0x03, 0x00, 0x00, 0x00, 0x47,
  0x00, 0x00, 0x00, 0x1b, 0x00, 0x00, 0x00, 0x12, 0x00, 0x00, 0x00, 0xb6, 0xfc,
  0xff, 0xff, 0x14, 0x00, 0x00, 0x00, 0x00, 0x00, 0x00, 0x02, 0x1c, 0x00, 0x00,
  0x00, 0x20, 0x00, 0x00, 0x00, 0x01, 0x00, 0x00, 0x00, 0xa8, 0xfc, 0xff, 0xff,
  0x01, 0x00, 0x00, 0x00, 0x01, 0x00, 0x00, 0x00, 0x01, 0x00, 0x00, 0x00, 0x01,
  0x00, 0x00, 0x00, 0x47, 0x00, 0x00, 0x00, 0x03, 0x00, 0x00, 0x00, 0x46, 0x00,
  0x00, 0x00, 0x1a, 0x00, 0x00, 0x00, 0x12, 0x00, 0x00, 0x00, 0xf6, 0xfc, 0xff,
  0xff, 0x1c, 0x00, 0x00, 0x00, 0x00, 0x00, 0x00, 0x0b, 0x1c, 0x00, 0x00, 0x00,
  0x20, 0x00, 0x00, 0x00, 0x03, 0x00, 0x00, 0x00, 0x08, 0x00, 0x08, 0x00, 0x00,
  0x00, 0x07, 0x00, 0x08, 0x00, 0x00, 0x00, 0x00, 0x00, 0x00, 0x00, 0x01, 0x00,
  0x00, 0x00, 0x46, 0x00, 0x00, 0x00, 0x02, 0x00, 0x00, 0x00, 0x45, 0x00, 0x00,
  0x00, 0x42, 0x00, 0x00, 0x00, 0x32, 0xfd, 0xff, 0xff, 0x14, 0x00, 0x00, 0x00,
  0x00, 0x00, 0x00, 0x01, 0x18, 0x00, 0x00, 0x00, 0x1c, 0x00, 0x00, 0x00, 0x02,
  0x00, 0x00, 0x00, 0xba, 0xfd, 0xff, 0xff, 0x01, 0x00, 0x00, 0x00, 0x01, 0x00,
  0x00, 0x00, 0x01, 0x00, 0x00, 0x00, 0x45, 0x00, 0x00, 0x00, 0x03, 0x00, 0x00,
  0x00, 0x44, 0x00, 0x00, 0x00, 0x19, 0x00, 0x00, 0x00, 0x06, 0x00, 0x00, 0x00,
  0x6e, 0xfd, 0xff, 0xff, 0x14, 0x00, 0x00, 0x00, 0x00, 0x00, 0x00, 0x02, 0x1c,
  0x00, 0x00, 0x00, 0x20, 0x00, 0x00, 0x00, 0x01, 0x00, 0x00, 0x00, 0x60, 0xfd,
  0xff, 0xff, 0x01, 0x00, 0x00, 0x00, 0x01, 0x00, 0x00, 0x00, 0x01, 0x00, 0x00,
  0x00, 0x01, 0x00, 0x00, 0x00, 0x44, 0x00, 0x00, 0x00, 0x03, 0x00, 0x00, 0x00,
  0x43, 0x00, 0x00, 0x00, 0x18, 0x00, 0x00, 0x00, 0x0e, 0x00, 0x00, 0x00, 0xae,
  0xfd, 0xff, 0xff, 0x14, 0x00, 0x00, 0x00, 0x00, 0x00, 0x00, 0x02, 0x1c, 0x00,
  0x00, 0x00, 0x20, 0x00, 0x00, 0x00, 0x01, 0x00, 0x00, 0x00, 0xa0, 0xfd, 0xff,
  0xff, 0x01, 0x00, 0x00, 0x00, 0x01, 0x00, 0x00, 0x00, 0x01, 0x00, 0x00, 0x00,
  0x01, 0x00, 0x00, 0x00, 0x43, 0x00, 0x00, 0x00, 0x03, 0x00, 0x00, 0x00, 0x3c,
  0x00, 0x00, 0x00, 0x17, 0x00, 0x00, 0x00, 0x0e, 0x00, 0x00, 0x00, 0xee, 0xfd,
  0xff, 0xff, 0x14, 0x00, 0x00, 0x00, 0x00, 0x00, 0x00, 0x01, 0x18, 0x00, 0x00,
  0x00, 0x1c, 0x00, 0x00, 0x00, 0x02, 0x00, 0x00, 0x00, 0x76, 0xfe, 0xff, 0xff,
  0x01, 0x00, 0x00, 0x00, 0x01, 0x00, 0x00, 0x00, 0x01, 0x00, 0x00, 0x00, 0x42,
  0x00, 0x00, 0x00, 0x03, 0x00, 0x00, 0x00, 0x41, 0x00, 0x00, 0x00, 0x16, 0x00,
  0x00, 0x00, 0x06, 0x00, 0x00, 0x00, 0x2a, 0xfe, 0xff, 0xff, 0x14, 0x00, 0x00,
  0x00, 0x00, 0x00, 0x00, 0x02, 0x1c, 0x00, 0x00, 0x00, 0x20, 0x00, 0x00, 0x00,
  0x01, 0x00, 0x00, 0x00, 0x1c, 0xfe, 0xff, 0xff, 0x01, 0x00, 0x00, 0x00, 0x01,
  0x00, 0x00, 0x00, 0x01, 0x00, 0x00, 0x00, 0x01, 0x00, 0x00, 0x00, 0x41, 0x00,
  0x00, 0x00, 0x03, 0x00, 0x00, 0x00, 0x40, 0x00, 0x00, 0x00, 0x15, 0x00, 0x00,
  0x00, 0x12, 0x00, 0x00, 0x00, 0x6a, 0xfe, 0xff, 0xff, 0x14, 0x00, 0x00, 0x00,
  0x00, 0x00, 0x00, 0x02, 0x1c, 0x00, 0x00, 0x00, 0x20, 0x00, 0x00, 0x00, 0x01,
  0x00, 0x00, 0x00, 0x5c, 0xfe, 0xff, 0xff, 0x01, 0x00, 0x00, 0x00, 0x01, 0x00,
  0x00, 0x00, 0x01, 0x00, 0x00, 0x00, 0x01, 0x00, 0x00, 0x00, 0x40, 0x00, 0x00,
  0x00, 0x03, 0x00, 0x00, 0x00, 0x3f, 0x00, 0x00, 0x00, 0x14, 0x00, 0x00, 0x00,
  0x12, 0x00, 0x00, 0x00, 0xaa, 0xfe, 0xff, 0xff, 0x20, 0x00, 0x00, 0x00, 0x00,
  0x00, 0x00, 0x01, 0x28, 0x00, 0x00, 0x00, 0x2c, 0x00, 0x00, 0x00, 0x02, 0x00,
  0x00, 0x00, 0x0c, 0x00, 0x10, 0x00, 0x00, 0x00, 0x0c, 0x00, 0x08, 0x00, 0x07,
  0x00, 0x0c, 0x00, 0x00, 0x00, 0x00, 0x00, 0x00, 0x01, 0x01, 0x00, 0x00, 0x00,
  0x01, 0x00, 0x00, 0x00, 0x01, 0x00, 0x00, 0x00, 0x3f, 0x00, 0x00, 0x00, 0x03,
  0x00, 0x00, 0x00, 0x3e, 0x00, 0x00, 0x00, 0x13, 0x00, 0x00, 0x00, 0x01, 0x00,
  0x00, 0x00, 0xf6, 0xfe, 0xff, 0xff, 0x14, 0x00, 0x00, 0x00, 0x00, 0x00, 0x00,
  0x02, 0x1c, 0x00, 0x00, 0x00, 0x20, 0x00, 0x00, 0x00, 0x01, 0x00, 0x00, 0x00,
  0xe8, 0xfe, 0xff, 0xff, 0x01, 0x00, 0x00, 0x00, 0x01, 0x00, 0x00, 0x00, 0x01,
  0x00, 0x00, 0x00, 0x01, 0x00, 0x00, 0x00, 0x3e, 0x00, 0x00, 0x00, 0x03, 0x00,
  0x00, 0x00, 0x3d, 0x00, 0x00, 0x00, 0x11, 0x00, 0x00, 0x00, 0x0e, 0x00, 0x00,
  0x00, 0x36, 0xff, 0xff, 0xff, 0x14, 0x00, 0x00, 0x00, 0x00, 0x00, 0x00, 0x02,
  0x1c, 0x00, 0x00, 0x00, 0x20, 0x00, 0x00, 0x00, 0x01, 0x00, 0x00, 0x00, 0x28,
  0xff, 0xff, 0xff, 0x01, 0x00, 0x00, 0x00, 0x01, 0x00, 0x00, 0x00, 0x01, 0x00,
  0x00, 0x00, 0x01, 0x00, 0x00, 0x00, 0x3d, 0x00, 0x00, 0x00, 0x03, 0x00, 0x00,
  0x00, 0x3c, 0x00, 0x00, 0x00, 0x10, 0x00, 0x00, 0x00, 0x0e, 0x00, 0x00, 0x00,
  0x76, 0xff, 0xff, 0xff, 0x20, 0x00, 0x00, 0x00, 0x00, 0x00, 0x00, 0x01, 0x24,
  0x00, 0x00, 0x00, 0x28, 0x00, 0x00, 0x00, 0x02, 0x00, 0x00, 0x00, 0x00, 0x00,
  0x0a, 0x00, 0x0c, 0x00, 0x00, 0x00, 0x08, 0x00, 0x04, 0x00, 0x0a, 0x00, 0x00,
  0x00, 0x01, 0x00, 0x00, 0x00, 0x01, 0x00, 0x00, 0x00, 0x01, 0x00, 0x00, 0x00,
  0x3c, 0x00, 0x00, 0x00, 0x03, 0x00, 0x00, 0x00, 0x3b, 0x00, 0x00, 0x00, 0x0f,
  0x00, 0x00, 0x00, 0x05, 0x00, 0x00, 0x00, 0xbe, 0xff, 0xff, 0xff, 0x14, 0x00,
  0x00, 0x00, 0x00, 0x00, 0x00, 0x02, 0x1c, 0x00, 0x00, 0x00, 0x20, 0x00, 0x00,
  0x00, 0x01, 0x00, 0x00, 0x00, 0xb0, 0xff, 0xff, 0xff, 0x01, 0x00, 0x00, 0x00,
  0x01, 0x00, 0x00, 0x00, 0x02, 0x00, 0x00, 0x00, 0x01, 0x00, 0x00, 0x00, 0x3b,
  0x00, 0x00, 0x00, 0x03, 0x00, 0x00, 0x00, 0x3a, 0x00, 0x00, 0x00, 0x0d, 0x00,
  0x00, 0x00, 0x0b, 0x00, 0x00, 0x00, 0x00, 0x00, 0x0e, 0x00, 0x18, 0x00, 0x14,
  0x00, 0x10, 0x00, 0x0c, 0x00, 0x0b, 0x00, 0x04, 0x00, 0x0e, 0x00, 0x00, 0x00,
  0x20, 0x00, 0x00, 0x00, 0x00, 0x00, 0x00, 0x02, 0x28, 0x00, 0x00, 0x00, 0x2c,
  0x00, 0x00, 0x00, 0x01, 0x00, 0x00, 0x00, 0x0c, 0x00, 0x10, 0x00, 0x00, 0x00,
  0x0c, 0x00, 0x08, 0x00, 0x04, 0x00, 0x0c, 0x00, 0x00, 0x00, 0x01, 0x00, 0x00,
  0x00, 0x02, 0x00, 0x00, 0x00, 0x01, 0x00, 0x00, 0x00, 0x01, 0x00, 0x00, 0x00,
  0x3a, 0x00, 0x00, 0x00, 0x03, 0x00, 0x00, 0x00, 0x39, 0x00, 0x00, 0x00, 0x0c,
  0x00, 0x00, 0x00, 0x0b, 0x00, 0x00, 0x00, 0x00, 0x00, 0x0e, 0x00, 0x14, 0x00,
  0x00, 0x00, 0x10, 0x00, 0x0c, 0x00, 0x0b, 0x00, 0x04, 0x00, 0x0e, 0x00, 0x00,
  0x00, 0x10, 0x00, 0x00, 0x00, 0x00, 0x00, 0x00, 0x16, 0x0c, 0x00, 0x00, 0x00,
  0x10, 0x00, 0x00, 0x00, 0xc4, 0xe6, 0xff, 0xff, 0x01, 0x00, 0x00, 0x00, 0x39,
  0x00, 0x00, 0x00, 0x02, 0x00, 0x00, 0x00, 0x00, 0x00, 0x00, 0x00, 0x38, 0x00,
  0x00, 0x00, 0x00, 0x00, 0x0a, 0x00, 0x10, 0x00, 0x0c, 0x00, 0x08, 0x00, 0x04,
  0x00, 0x0a, 0x00, 0x00, 0x00, 0x0c, 0x00, 0x00, 0x00, 0x10, 0x00, 0x00, 0x00,
  0x05, 0x00, 0x00, 0x00, 0x01, 0x00, 0x00, 0x00, 0x00, 0x00, 0x00, 0x00, 0x01,
  0x00, 0x00, 0x00, 0x66, 0x00, 0x00, 0x00, 0x01, 0x00, 0x00, 0x00, 0x67, 0x00,
  0x00, 0x00, 0x01, 0x00, 0x00, 0x00, 0x66, 0x00, 0x00, 0x00, 0x68, 0x00, 0x00,
  0x00, 0xa0, 0x51, 0x00, 0x00, 0xac, 0x50, 0x00, 0x00, 0xec, 0x4f, 0x00, 0x00,
  0x40, 0x4f, 0x00, 0x00, 0x94, 0x4e, 0x00, 0x00, 0x88, 0x4d, 0x00, 0x00, 0xac,
  0x4c, 0x00, 0x00, 0xe8, 0x4b, 0x00, 0x00, 0x3c, 0x4b, 0x00, 0x00, 0x90, 0x4a,
  0x00, 0x00, 0x3c, 0x4a, 0x00, 0x00, 0xe8, 0x49, 0x00, 0x00, 0x54, 0x49, 0x00,
  0x00, 0xd4, 0x48, 0x00, 0x00, 0xcc, 0x47, 0x00, 0x00, 0x28, 0x46, 0x00, 0x00,
  0x80, 0x44, 0x00, 0x00, 0xd4, 0x42, 0x00, 0x00, 0xf4, 0x41, 0x00, 0x00, 0xa0,
  0x40, 0x00, 0x00, 0x48, 0x3f, 0x00, 0x00, 0xec, 0x3d, 0x00, 0x00, 0x94, 0x3c,
  0x00, 0x00, 0xec, 0x3a, 0x00, 0x00, 0x40, 0x39, 0x00, 0x00, 0xe8, 0x37, 0x00,
  0x00, 0x90, 0x36, 0x00, 0x00, 0x34, 0x35, 0x00, 0x00, 0x6c, 0x34, 0x00, 0x00,
  0x40, 0x33, 0x00, 0x00, 0x08, 0x32, 0x00, 0x00, 0xd4, 0x30, 0x00, 0x00, 0xa4,
  0x2f, 0x00, 0x00, 0x44, 0x2e, 0x00, 0x00, 0xe8, 0x2c, 0x00, 0x00, 0xb8, 0x2b,
  0x00, 0x00, 0x80, 0x2a, 0x00, 0x00, 0x4c, 0x29, 0x00, 0x00, 0x9c, 0x28, 0x00,
  0x00, 0x98, 0x27, 0x00, 0x00, 0x88, 0x26, 0x00, 0x00, 0x7c, 0x25, 0x00, 0x00,
  0x74, 0x24, 0x00, 0x00, 0x3c, 0x23, 0x00, 0x00, 0x08, 0x22, 0x00, 0x00, 0x00,
  0x21, 0x00, 0x00, 0xf0, 0x1f, 0x00, 0x00, 0xe4, 0x1e, 0x00, 0x00, 0xdc, 0x1d,
  0x00, 0x00, 0xcc, 0x1c, 0x00, 0x00, 0xc0, 0x1b, 0x00, 0x00, 0xb8, 0x1a, 0x00,
  0x00, 0xa8, 0x19, 0x00, 0x00, 0x9c, 0x18, 0x00, 0x00, 0x24, 0x18, 0x00, 0x00,
  0xf0, 0x17, 0x00, 0x00, 0xb8, 0x17, 0x00, 0x00, 0x48, 0x17, 0x00, 0x00, 0xcc,
  0x16, 0x00, 0x00, 0x50, 0x16, 0x00, 0x00, 0xbc, 0x15, 0x00, 0x00, 0x40, 0x15,
  0x00, 0x00, 0xc4, 0x14, 0x00, 0x00, 0x28, 0x14, 0x00, 0x00, 0xac, 0x13, 0x00,
  0x00, 0x30, 0x13, 0x00, 0x00, 0x94, 0x12, 0x00, 0x00, 0x18, 0x12, 0x00, 0x00,
  0x9c, 0x11, 0x00, 0x00, 0x00, 0x11, 0x00, 0x00, 0x8c, 0x10, 0x00, 0x00, 0x10,
  0x10, 0x00, 0x00, 0x94, 0x0f, 0x00, 0x00, 0xf0, 0x0e, 0x00, 0x00, 0x74, 0x0e,
  0x00, 0x00, 0xf8, 0x0d, 0x00, 0x00, 0x5c, 0x0d, 0x00, 0x00, 0xe0, 0x0c, 0x00,
  0x00, 0x64, 0x0c, 0x00, 0x00, 0xc8, 0x0b, 0x00, 0x00, 0x54, 0x0b, 0x00, 0x00,
  0xd8, 0x0a, 0x00, 0x00, 0x5c, 0x0a, 0x00, 0x00, 0xb8, 0x09, 0x00, 0x00, 0x3c,
  0x09, 0x00, 0x00, 0xc0, 0x08, 0x00, 0x00, 0x24, 0x08, 0x00, 0x00, 0xa8, 0x07,
  0x00, 0x00, 0x2c, 0x07, 0x00, 0x00, 0x90, 0x06, 0x00, 0x00, 0x1c, 0x06, 0x00,
  0x00, 0xa0, 0x05, 0x00, 0x00, 0x24, 0x05, 0x00, 0x00, 0x80, 0x04, 0x00, 0x00,
  0x04, 0x04, 0x00, 0x00, 0x88, 0x03, 0x00, 0x00, 0xec, 0x02, 0x00, 0x00, 0x78,
  0x02, 0x00, 0x00, 0xf4, 0x01, 0x00, 0x00, 0x78, 0x01, 0x00, 0x00, 0xfc, 0x00,
  0x00, 0x00, 0x78, 0x00, 0x00, 0x00, 0x44, 0x00, 0x00, 0x00, 0x04, 0x00, 0x00,
  0x00, 0xd0, 0xff, 0xff, 0xff, 0x08, 0x00, 0x00, 0x00, 0x14, 0x00, 0x00, 0x00,
  0x0a, 0x00, 0x00, 0x00, 0x42, 0x69, 0x61, 0x73, 0x41, 0x64, 0x64, 0x5f, 0x31,
  0x32, 0x00, 0x00, 0x04, 0x00, 0x00, 0x00, 0x01, 0x00, 0x00, 0x00, 0x38, 0x04,
  0x00, 0x00, 0x80, 0x07, 0x00, 0x00, 0x01, 0x00, 0x00, 0x00, 0x0c, 0x00, 0x0c,
  0x00, 0x08, 0x00, 0x00, 0x00, 0x00, 0x00, 0x04, 0x00, 0x0c, 0x00, 0x00, 0x00,
  0x08, 0x00, 0x00, 0x00, 0x14, 0x00, 0x00, 0x00, 0x0b, 0x00, 0x00, 0x00, 0x50,
  0x6c, 0x61, 0x63, 0x65, 0x68, 0x6f, 0x6c, 0x64, 0x65, 0x72, 0x00, 0x04, 0x00,
  0x00, 0x00, 0x01, 0x00, 0x00, 0x00, 0x38, 0x04, 0x00, 0x00, 0x80, 0x07, 0x00,
  0x00, 0x01, 0x00, 0x00, 0x00, 0x7a, 0xb0, 0xff, 0xff, 0x14, 0x00, 0x00, 0x00,
  0x4c, 0x00, 0x00, 0x00, 0x66, 0x00, 0x00, 0x00, 0x00, 0x00, 0x00, 0x07, 0x58,
  0x00, 0x00, 0x00, 0x6c, 0xb0, 0xff, 0xff, 0x10, 0x00, 0x00, 0x00, 0x1c, 0x00,
  0x00, 0x00, 0x20, 0x00, 0x00, 0x00, 0x24, 0x00, 0x00, 0x00, 0x01, 0x00, 0x00,
  0x00, 0x00, 0x00, 0x00, 0x00, 0x00, 0x00, 0x00, 0x00, 0x00, 0x00, 0x00, 0x00,
  0x01, 0x00, 0x00, 0x00, 0x5e, 0xf6, 0x4e, 0x36, 0x01, 0x00, 0x00, 0x00, 0xc0,
  0xf4, 0xce, 0x3d, 0x01, 0x00, 0x00, 0x00, 0xbc, 0xbd, 0xb4, 0xbd, 0x10, 0x00,
  0x00, 0x00, 0x42, 0x69, 0x61, 0x73, 0x41, 0x64, 0x64, 0x5f, 0x31, 0x32, 0x5f,
  0x69, 0x6e, 0x74, 0x31, 0x36, 0x00, 0x00, 0x00, 0x00, 0x04, 0x00, 0x00, 0x00,
  0x01, 0x00, 0x00, 0x00, 0x38, 0x04, 0x00, 0x00, 0x80, 0x07, 0x00, 0x00, 0x01,
  0x00, 0x00, 0x00, 0xfa, 0xb0, 0xff, 0xff, 0x14, 0x00, 0x00, 0x00, 0x48, 0x00,
  0x00, 0x00, 0x65, 0x00, 0x00, 0x00, 0x00, 0x00, 0x00, 0x07, 0x50, 0x00, 0x00,
  0x00, 0xec, 0xb0, 0xff, 0xff, 0x10, 0x00, 0x00, 0x00, 0x18, 0x00, 0x00, 0x00,
  0x1c, 0x00, 0x00, 0x00, 0x20, 0x00, 0x00, 0x00, 0x01, 0x00, 0x00, 0x00, 0x00,
  0x00, 0x00, 0x00, 0x00, 0x00, 0x00, 0x00, 0x01, 0x00, 0x00, 0x00, 0x61, 0x0f,
  0xec, 0x38, 0x01, 0x00, 0x00, 0x00, 0x0a, 0x27, 0x36, 0x40, 0x01, 0x00, 0x00,
  0x00, 0x89, 0x0d, 0x6c, 0xc0, 0x0d, 0x00, 0x00, 0x00, 0x64, 0x65, 0x70, 0x74,
  0x68, 0x77, 0x69, 0x73, 0x65, 0x5f, 0x32, 0x35, 0x32, 0x00, 0x00, 0x00, 0x04,
  0x00, 0x00, 0x00, 0x01, 0x00, 0x00, 0x00, 0x38, 0x04, 0x00, 0x00, 0x80, 0x07,
  0x00, 0x00, 0x08, 0x00, 0x00, 0x00, 0x72, 0xb1, 0xff, 0xff, 0x14, 0x00, 0x00,
  0x00, 0x48, 0x00, 0x00, 0x00, 0x64, 0x00, 0x00, 0x00, 0x00, 0x00, 0x00, 0x07,
  0x50, 0x00, 0x00, 0x00, 0x64, 0xb1, 0xff, 0xff, 0x10, 0x00, 0x00, 0x00, 0x18,
  0x00, 0x00, 0x00, 0x1c, 0x00, 0x00, 0x00, 0x20, 0x00, 0x00, 0x00, 0x01, 0x00,
  0x00, 0x00, 0x00, 0x00, 0x00, 0x00, 0x00, 0x00, 0x00, 0x00, 0x01, 0x00, 0x00,
  0x00, 0xb1, 0xa7, 0xeb, 0x3a, 0x01, 0x00, 0x00, 0x00, 0x82, 0xb5, 0x5d, 0x42,
  0x01, 0x00, 0x00, 0x00, 0xda, 0xa5, 0x6b, 0xc2, 0x0d, 0x00, 0x00, 0x00, 0x64,
  0x65, 0x70, 0x74, 0x68, 0x77, 0x69, 0x73, 0x65, 0x5f, 0x32, 0x34, 0x31, 0x00,
  0x00, 0x00, 0x04, 0x00, 0x00, 0x00, 0x01, 0x00, 0x00, 0x00, 0x38, 0x04, 0x00,
  0x00, 0x82, 0x07, 0x00, 0x00, 0x08, 0x00, 0x00, 0x00, 0xea, 0xb1, 0xff, 0xff,
  0x14, 0x00, 0x00, 0x00, 0x48, 0x00, 0x00, 0x00, 0x63, 0x00, 0x00, 0x00, 0x00,
  0x00, 0x00, 0x07, 0x58, 0x00, 0x00, 0x00, 0xdc, 0xb1, 0xff, 0xff, 0x10, 0x00,
  0x00, 0x00, 0x18, 0x00, 0x00, 0x00, 0x1c, 0x00, 0x00, 0x00, 0x20, 0x00, 0x00,
  0x00, 0x01, 0x00, 0x00, 0x00, 0x00, 0x00, 0x00, 0x00, 0x00, 0x00, 0x00, 0x00,
  0x01, 0x00, 0x00, 0x00, 0xd2, 0x3c, 0x33, 0x3c, 0x01, 0x00, 0x00, 0x00, 0xfc,
  0x0d, 0xa9, 0x43, 0x01, 0x00, 0x00, 0x00, 0x6c, 0x3b, 0xb3, 0xc3, 0x15, 0x00,
  0x00, 0x00, 0x72, 0x65, 0x73, 0x69, 0x7a, 0x65, 0x2f, 0x52, 0x65, 0x73, 0x69,
  0x7a, 0x65, 0x42, 0x69, 0x6c, 0x69, 0x6e, 0x65, 0x61, 0x72, 0x00, 0x00, 0x00,
  0x04, 0x00, 0x00, 0x00, 0x01, 0x00, 0x00, 0x00, 0x3a, 0x04, 0x00, 0x00, 0x82,
  0x07, 0x00, 0x00, 0x08, 0x00, 0x00, 0x00, 0x6a, 0xb2, 0xff, 0xff, 0x14, 0x00,
  0x00, 0x00, 0x48, 0x00, 0x00, 0x00, 0x62, 0x00, 0x00, 0x00, 0x00, 0x00, 0x00,
  0x07, 0x48, 0x00, 0x00, 0x00, 0x5c, 0xb2, 0xff, 0xff, 0x10, 0x00, 0x00, 0x00,
  0x18, 0x00, 0x00, 0x00, 0x1c, 0x00, 0x00, 0x00, 0x20, 0x00, 0x00, 0x00, 0x01,
  0x00, 0x00, 0x00, 0x00, 0x00, 0x00, 0x00, 0x00, 0x00, 0x00, 0x00, 0x01, 0x00,
  0x00, 0x00, 0xd2, 0x3c, 0x33, 0x3c, 0x01, 0x00, 0x00, 0x00, 0xfc, 0x0d, 0xa9,
  0x43, 0x01, 0x00, 0x00, 0x00, 0x6c, 0x3b, 0xb3, 0xc3, 0x05, 0x00, 0x00, 0x00,
  0x41, 0x64, 0x64, 0x5f, 0x34, 0x00, 0x00, 0x00, 0x04, 0x00, 0x00, 0x00, 0x01,
  0x00, 0x00, 0x00, 0x1d, 0x02, 0x00, 0x00, 0xc1, 0x03, 0x00, 0x00, 0x08, 0x00,
  0x00, 0x00, 0xda, 0xb2, 0xff, 0xff, 0x14, 0x00, 0x00, 0x00, 0x48, 0x00, 0x00,
  0x00, 0x61, 0x00, 0x00, 0x00, 0x00, 0x00, 0x00, 0x07, 0x70, 0x00, 0x00, 0x00,
  0xcc, 0xb2, 0xff, 0xff, 0x10, 0x00, 0x00, 0x00, 0x18, 0x00, 0x00, 0x00, 0x1c,
  0x00, 0x00, 0x00, 0x20, 0x00, 0x00, 0x00, 0x01, 0x00, 0x00, 0x00, 0x00, 0x00,
  0x00, 0x00, 0x00, 0x00, 0x00, 0x00, 0x01, 0x00, 0x00, 0x00, 0x7d, 0x7c, 0x1f,
  0x3c, 0x01, 0x00, 0x00, 0x00, 0x3e, 0x7b, 0x9f, 0x43, 0x01, 0x00, 0x00, 0x00,
  0xb3, 0x8e, 0x95, 0xc3, 0x2c, 0x00, 0x00, 0x00, 0x42, 0x69, 0x61, 0x73, 0x41,
  0x64, 0x64, 0x5f, 0x31, 0x31, 0x3b, 0x64, 0x65, 0x70, 0x74, 0x68, 0x77, 0x69,
  0x73, 0x65, 0x5f, 0x32, 0x35, 0x3b, 0x43, 0x6f, 0x6e, 0x76, 0x32, 0x44, 0x5f,
  0x31, 0x31, 0x3b, 0x63, 0x6f, 0x6e, 0x76, 0x5f, 0x34, 0x5f, 0x31, 0x5f, 0x62,
  0x00, 0x00, 0x00, 0x00, 0x04, 0x00, 0x00, 0x00, 0x01, 0x00, 0x00, 0x00, 0x1d,
  0x02, 0x00, 0x00, 0xc1, 0x03, 0x00, 0x00, 0x08, 0x00, 0x00, 0x00, 0x72, 0xb3,
  0xff, 0xff, 0x14, 0x00, 0x00, 0x00, 0x48, 0x00, 0x00, 0x00, 0x60, 0x00, 0x00,
  0x00, 0x00, 0x00, 0x00, 0x07, 0x50, 0x00, 0x00, 0x00, 0x64, 0xb3, 0xff, 0xff,
  0x10, 0x00, 0x00, 0x00, 0x18, 0x00, 0x00, 0x00, 0x1c, 0x00, 0x00, 0x00, 0x20,
  0x00, 0x00, 0x00, 0x01, 0x00, 0x00, 0x00, 0x00, 0x00, 0x00, 0x00, 0x00, 0x00,
  0x00, 0x00, 0x01, 0x00, 0x00, 0x00, 0x0a, 0x9e, 0x4b, 0x3c, 0x01, 0x00, 0x00,
  0x00, 0xba, 0xca, 0xc5, 0x42, 0x01, 0x00, 0x00, 0x00, 0x73, 0x9c, 0xcb, 0xc3,
  0x0d, 0x00, 0x00, 0x00, 0x64, 0x65, 0x70, 0x74, 0x68, 0x77, 0x69, 0x73, 0x65,
  0x5f, 0x32, 0x33, 0x31, 0x00, 0x00, 0x00, 0x04, 0x00, 0x00, 0x00, 0x01, 0x00,
  0x00, 0x00, 0x1d, 0x02, 0x00, 0x00, 0xc1, 0x03, 0x00, 0x00, 0x08, 0x00, 0x00,
  0x00, 0xea, 0xb3, 0xff, 0xff, 0x14, 0x00, 0x00, 0x00, 0x48, 0x00, 0x00, 0x00,
  0x5f, 0x00, 0x00, 0x00, 0x00, 0x00, 0x00, 0x07, 0x50, 0x00, 0x00, 0x00, 0xdc,
  0xb3, 0xff, 0xff, 0x10, 0x00, 0x00, 0x00, 0x18, 0x00, 0x00, 0x00, 0x1c, 0x00,
  0x00, 0x00, 0x20, 0x00, 0x00, 0x00, 0x01, 0x00, 0x00, 0x00, 0x00, 0x00, 0x00,
  0x00, 0x00, 0x00, 0x00, 0x00, 0x01, 0x00, 0x00, 0x00, 0x74, 0x88, 0x32, 0x3c,
  0x01, 0x00, 0x00, 0x00, 0x0f, 0x87, 0xb2, 0x43, 0x01, 0x00, 0x00, 0x00, 0xc6,
  0x69, 0x3c, 0xc3, 0x0d, 0x00, 0x00, 0x00, 0x64, 0x65, 0x70, 0x74, 0x68, 0x77,
  0x69, 0x73, 0x65, 0x5f, 0x32, 0x32, 0x31, 0x00, 0x00, 0x00, 0x04, 0x00, 0x00,
  0x00, 0x01, 0x00, 0x00, 0x00, 0x1d, 0x02, 0x00, 0x00, 0xc1, 0x03, 0x00, 0x00,
  0x08, 0x00, 0x00, 0x00, 0x62, 0xb4, 0xff, 0xff, 0x14, 0x00, 0x00, 0x00, 0x4c,
  0x00, 0x00, 0x00, 0x5e, 0x00, 0x00, 0x00, 0x00, 0x00, 0x00, 0x07, 0x78, 0x00,
  0x00, 0x00, 0x54, 0xb4, 0xff, 0xff, 0x10, 0x00, 0x00, 0x00, 0x1c, 0x00, 0x00,
  0x00, 0x20, 0x00, 0x00, 0x00, 0x24, 0x00, 0x00, 0x00, 0x01, 0x00, 0x00, 0x00,
  0x00, 0x00, 0x00, 0x00, 0x00, 0x00, 0x00, 0x00, 0x00, 0x00, 0x00, 0x00, 0x01,
  0x00, 0x00, 0x00, 0x71, 0x09, 0x49, 0x3c, 0x01, 0x00, 0x00, 0x00, 0xdf, 0x07,
  0xc9, 0x43, 0x01, 0x00, 0x00, 0x00, 0x00, 0x00, 0x00, 0x00, 0x33, 0x00, 0x00,
  0x00, 0x52, 0x65, 0x6c, 0x75, 0x5f, 0x33, 0x3b, 0x42, 0x69, 0x61, 0x73, 0x41,
  0x64, 0x64, 0x5f, 0x31, 0x30, 0x3b, 0x64, 0x65, 0x70, 0x74, 0x68, 0x77, 0x69,
  0x73, 0x65, 0x5f, 0x32, 0x35, 0x3b, 0x43, 0x6f, 0x6e, 0x76, 0x32, 0x44, 0x5f,
  0x31, 0x30, 0x3b, 0x63, 0x6f, 0x6e, 0x76, 0x5f, 0x34, 0x5f, 0x30, 0x5f, 0x62,
  0x00, 0x04, 0x00, 0x00, 0x00, 0x01, 0x00, 0x00, 0x00, 0x1d, 0x02, 0x00, 0x00,
  0xc1, 0x03, 0x00, 0x00, 0x08, 0x00, 0x00, 0x00, 0x02, 0xb5, 0xff, 0xff, 0x14,
  0x00, 0x00, 0x00, 0x48, 0x00, 0x00, 0x00, 0x5d, 0x00, 0x00, 0x00, 0x00, 0x00,
  0x00, 0x07, 0x50, 0x00, 0x00, 0x00, 0xf4, 0xb4, 0xff, 0xff, 0x10, 0x00, 0x00,
  0x00, 0x18, 0x00, 0x00, 0x00, 0x1c, 0x00, 0x00, 0x00, 0x20, 0x00, 0x00, 0x00,
  0x01, 0x00, 0x00, 0x00, 0x00, 0x00, 0x00, 0x00, 0x00, 0x00, 0x00, 0x00, 0x01,
  0x00, 0x00, 0x00, 0x3c, 0x57, 0xa2, 0x3b, 0x01, 0x00, 0x00, 0x00, 0xf7, 0x55,
  0x22, 0x43, 0x01, 0x00, 0x00, 0x00, 0x8b, 0xc2, 0x19, 0xc3, 0x0d, 0x00, 0x00,
  0x00, 0x64, 0x65, 0x70, 0x74, 0x68, 0x77, 0x69, 0x73, 0x65, 0x5f, 0x32, 0x31,
  0x31, 0x00, 0x00, 0x00, 0x04, 0x00, 0x00, 0x00, 0x01, 0x00, 0x00, 0x00, 0x1d,
  0x02, 0x00, 0x00, 0xc1, 0x03, 0x00, 0x00, 0x08, 0x00, 0x00, 0x00, 0x7a, 0xb5,
  0xff, 0xff, 0x14, 0x00, 0x00, 0x00, 0x48, 0x00, 0x00, 0x00, 0x5c, 0x00, 0x00,
  0x00, 0x00, 0x00, 0x00, 0x07, 0x50, 0x00, 0x00, 0x00, 0x6c, 0xb5, 0xff, 0xff,
  0x10, 0x00, 0x00, 0x00, 0x18, 0x00, 0x00, 0x00, 0x1c, 0x00, 0x00, 0x00, 0x20,
  0x00, 0x00, 0x00, 0x01, 0x00, 0x00, 0x00, 0x00, 0x00, 0x00, 0x00, 0x00, 0x00,
  0x00, 0x00, 0x01, 0x00, 0x00, 0x00, 0x92, 0x84, 0x0a, 0x3c, 0x01, 0x00, 0x00,
  0x00, 0x47, 0xa2, 0x65, 0x43, 0x01, 0x00, 0x00, 0x00, 0x7d, 0x83, 0x8a, 0xc3,
  0x0d, 0x00, 0x00, 0x00, 0x64, 0x65, 0x70, 0x74, 0x68, 0x77, 0x69, 0x73, 0x65,
  0x5f, 0x32, 0x30, 0x31, 0x00, 0x00, 0x00, 0x04, 0x00, 0x00, 0x00, 0x01, 0x00,
  0x00, 0x00, 0x1d, 0x02, 0x00, 0x00, 0xc1, 0x03, 0x00, 0x00, 0x08, 0x00, 0x00,
  0x00, 0xf2, 0xb5, 0xff, 0xff, 0x14, 0x00, 0x00, 0x00, 0x48, 0x00, 0x00, 0x00,
  0x5b, 0x00, 0x00, 0x00, 0x00, 0x00, 0x00, 0x07, 0x48, 0x00, 0x00, 0x00, 0xe4,
  0xb5, 0xff, 0xff, 0x10, 0x00, 0x00, 0x00, 0x18, 0x00, 0x00, 0x00, 0x1c, 0x00,
  0x00, 0x00, 0x20, 0x00, 0x00, 0x00, 0x01, 0x00, 0x00, 0x00, 0x00, 0x00, 0x00,
  0x00, 0x00, 0x00, 0x00, 0x00, 0x01, 0x00, 0x00, 0x00, 0x67, 0x13, 0x1b, 0x3c,
  0x01, 0x00, 0x00, 0x00, 0x31, 0x12, 0x9b, 0x43, 0x01, 0x00, 0x00, 0x00, 0x26,
  0xe6, 0x8d, 0xc3, 0x05, 0x00, 0x00, 0x00, 0x41, 0x64, 0x64, 0x5f, 0x33, 0x00,
  0x00, 0x00, 0x04, 0x00, 0x00, 0x00, 0x01, 0x00, 0x00, 0x00, 0x1d, 0x02, 0x00,
  0x00, 0xc1, 0x03, 0x00, 0x00, 0x08, 0x00, 0x00, 0x00, 0x62, 0xb6, 0xff, 0xff,
  0x14, 0x00, 0x00, 0x00, 0x4c, 0x00, 0x00, 0x00, 0x5a, 0x00, 0x00, 0x00, 0x00,
  0x00, 0x00, 0x07, 0x70, 0x00, 0x00, 0x00, 0x54, 0xb6, 0xff, 0xff, 0x10, 0x00,
  0x00, 0x00, 0x1c, 0x00, 0x00, 0x00, 0x20, 0x00, 0x00, 0x00, 0x24, 0x00, 0x00,
  0x00, 0x01, 0x00, 0x00, 0x00, 0x00, 0x00, 0x00, 0x00, 0x00, 0x00, 0x00, 0x00,
  0x00, 0x00, 0x00, 0x00, 0x01, 0x00, 0x00, 0x00, 0x21, 0x62, 0x19, 0x3c, 0x01,
  0x00, 0x00, 0x00, 0xdd, 0x10, 0x91, 0x43, 0x01, 0x00, 0x00, 0x00, 0xee, 0x60,
  0x99, 0xc3, 0x2a, 0x00, 0x00, 0x00, 0x42, 0x69, 0x61, 0x73, 0x41, 0x64, 0x64,
  0x5f, 0x39, 0x3b, 0x64, 0x65, 0x70, 0x74, 0x68, 0x77, 0x69, 0x73, 0x65, 0x5f,
  0x32, 0x35, 0x3b, 0x43, 0x6f, 0x6e, 0x76, 0x32, 0x44, 0x5f, 0x39, 0x3b, 0x63,
  0x6f, 0x6e, 0x76, 0x5f, 0x33, 0x5f, 0x31, 0x5f, 0x62, 0x00, 0x00, 0x04, 0x00,
  0x00, 0x00, 0x01, 0x00, 0x00, 0x00, 0x1d, 0x02, 0x00, 0x00, 0xc1, 0x03, 0x00,
  0x00, 0x08, 0x00, 0x00, 0x00, 0xfa, 0xb6, 0xff, 0xff, 0x14, 0x00, 0x00, 0x00,
  0x48, 0x00, 0x00, 0x00, 0x59, 0x00, 0x00, 0x00, 0x00, 0x00, 0x00, 0x07, 0x50,
  0x00, 0x00, 0x00, 0xec, 0xb6, 0xff, 0xff, 0x10, 0x00, 0x00, 0x00, 0x18, 0x00,
  0x00, 0x00, 0x1c, 0x00, 0x00, 0x00, 0x20, 0x00, 0x00, 0x00, 0x01, 0x00, 0x00,
  0x00, 0x00, 0x00, 0x00, 0x00, 0x00, 0x00, 0x00, 0x00, 0x01, 0x00, 0x00, 0x00,
  0xba, 0x05, 0xbc, 0x3b, 0x01, 0x00, 0x00, 0x00, 0x42, 0x04, 0x3c, 0x43, 0x01,
  0x00, 0x00, 0x00, 0x71, 0x8a, 0x3a, 0xc3, 0x0d, 0x00, 0x00, 0x00, 0x64, 0x65,
  0x70, 0x74, 0x68, 0x77, 0x69, 0x73, 0x65, 0x5f, 0x31, 0x39, 0x32, 0x00, 0x00,
  0x00, 0x04, 0x00, 0x00, 0x00, 0x01, 0x00, 0x00, 0x00, 0x1d, 0x02, 0x00, 0x00,
  0xc1, 0x03, 0x00, 0x00, 0x0a, 0x00, 0x00, 0x00, 0x72, 0xb7, 0xff, 0xff, 0x14,
  0x00, 0x00, 0x00, 0x48, 0x00, 0x00, 0x00, 0x58, 0x00, 0x00, 0x00, 0x00, 0x00,
  0x00, 0x07, 0x50, 0x00, 0x00, 0x00, 0x64, 0xb7, 0xff, 0xff, 0x10, 0x00, 0x00,
  0x00, 0x18, 0x00, 0x00, 0x00, 0x1c, 0x00, 0x00, 0x00, 0x20, 0x00, 0x00, 0x00,
  0x01, 0x00, 0x00, 0x00, 0x00, 0x00, 0x00, 0x00, 0x00, 0x00, 0x00, 0x00, 0x01,
  0x00, 0x00, 0x00, 0xff, 0xa5, 0xf8, 0x3b, 0x01, 0x00, 0x00, 0x00, 0x0e, 0xa4,
  0x78, 0x43, 0x01, 0x00, 0x00, 0x00, 0xe4, 0x60, 0x74, 0xc3, 0x0d, 0x00, 0x00,
  0x00, 0x64, 0x65, 0x70, 0x74, 0x68, 0x77, 0x69, 0x73, 0x65, 0x5f, 0x31, 0x38,
  0x31, 0x00, 0x00, 0x00, 0x04, 0x00, 0x00, 0x00, 0x01, 0x00, 0x00, 0x00, 0x1d,
  0x02, 0x00, 0x00, 0xc1, 0x03, 0x00, 0x00, 0x0a, 0x00, 0x00, 0x00, 0xea, 0xb7,
  0xff, 0xff, 0x14, 0x00, 0x00, 0x00, 0x4c, 0x00, 0x00, 0x00, 0x57, 0x00, 0x00,
  0x00, 0x00, 0x00, 0x00, 0x07, 0x70, 0x00, 0x00, 0x00, 0xdc, 0xb7, 0xff, 0xff,
  0x10, 0x00, 0x00, 0x00, 0x1c, 0x00, 0x00, 0x00, 0x20, 0x00, 0x00, 0x00, 0x24,
  0x00, 0x00, 0x00, 0x01, 0x00, 0x00, 0x00, 0x00, 0x00, 0x00, 0x00, 0x00, 0x00,
  0x00, 0x00, 0x00, 0x00, 0x00, 0x00, 0x01, 0x00, 0x00, 0x00, 0x62, 0xb7, 0x90,
  0x3b, 0x01, 0x00, 0x00, 0x00, 0x41, 0xb6, 0x10, 0x43, 0x01, 0x00, 0x00, 0x00,
  0x20, 0x79, 0xe6, 0xc2, 0x2a, 0x00, 0x00, 0x00, 0x42, 0x69, 0x61, 0x73, 0x41,
  0x64, 0x64, 0x5f, 0x38, 0x3b, 0x64, 0x65, 0x70, 0x74, 0x68, 0x77, 0x69, 0x73,
  0x65, 0x5f, 0x32, 0x35, 0x3b, 0x43, 0x6f, 0x6e, 0x76, 0x32, 0x44, 0x5f, 0x38,
  0x3b, 0x63, 0x6f, 0x6e, 0x76, 0x5f, 0x33, 0x5f, 0x31, 0x5f, 0x62, 0x00, 0x00,
  0x04, 0x00, 0x00, 0x00, 0x01, 0x00, 0x00, 0x00, 0x1d, 0x02, 0x00, 0x00, 0xc1,
  0x03, 0x00, 0x00, 0x08, 0x00, 0x00, 0x00, 0x82, 0xb8, 0xff, 0xff, 0x14, 0x00,
  0x00, 0x00, 0x48, 0x00, 0x00, 0x00, 0x56, 0x00, 0x00, 0x00, 0x00, 0x00, 0x00,
  0x07, 0x50, 0x00, 0x00, 0x00, 0x74, 0xb8, 0xff, 0xff, 0x10, 0x00, 0x00, 0x00,
  0x18, 0x00, 0x00, 0x00, 0x1c, 0x00, 0x00, 0x00, 0x20, 0x00, 0x00, 0x00, 0x01,
  0x00, 0x00, 0x00, 0x00, 0x00, 0x00, 0x00, 0x00, 0x00, 0x00, 0x00, 0x01, 0x00,
  0x00, 0x00, 0xc3, 0xee, 0x62, 0x3b, 0x01, 0x00, 0x00, 0x00, 0xfd, 0xec, 0xe2,
  0x42, 0x01, 0x00, 0x00, 0x00, 0x20, 0x8f, 0x8a, 0xc2, 0x0d, 0x00, 0x00, 0x00,
  0x64, 0x65, 0x70, 0x74, 0x68, 0x77, 0x69, 0x73, 0x65, 0x5f, 0x31, 0x37, 0x31,
  0x00, 0x00, 0x00, 0x04, 0x00, 0x00, 0x00, 0x01, 0x00, 0x00, 0x00, 0x1d, 0x02,
  0x00, 0x00, 0xc1, 0x03, 0x00, 0x00, 0x08, 0x00, 0x00, 0x00, 0xfa, 0xb8, 0xff,
  0xff, 0x14, 0x00, 0x00, 0x00, 0x48, 0x00, 0x00, 0x00, 0x55, 0x00, 0x00, 0x00,
  0x00, 0x00, 0x00, 0x07, 0x50, 0x00, 0x00, 0x00, 0xec, 0xb8, 0xff, 0xff, 0x10,
  0x00, 0x00, 0x00, 0x18, 0x00, 0x00, 0x00, 0x1c, 0x00, 0x00, 0x00, 0x20, 0x00,
  0x00, 0x00, 0x01, 0x00, 0x00, 0x00, 0x00, 0x00, 0x00, 0x00, 0x00, 0x00, 0x00,
  0x00, 0x01, 0x00, 0x00, 0x00, 0x32, 0xd4, 0xc8, 0x3b, 0x01, 0x00, 0x00, 0x00,
  0x3a, 0x6c, 0xf3, 0x42, 0x01, 0x00, 0x00, 0x00, 0xa0, 0xd2, 0x48, 0xc3, 0x0d,
  0x00, 0x00, 0x00, 0x64, 0x65, 0x70, 0x74, 0x68, 0x77, 0x69, 0x73, 0x65, 0x5f,
  0x31, 0x36, 0x31, 0x00, 0x00, 0x00, 0x04, 0x00, 0x00, 0x00, 0x01, 0x00, 0x00,
  0x00, 0x1d, 0x02, 0x00, 0x00, 0xc1, 0x03, 0x00, 0x00, 0x08, 0x00, 0x00, 0x00,
  0x72, 0xb9, 0xff, 0xff, 0x14, 0x00, 0x00, 0x00, 0x4c, 0x00, 0x00, 0x00, 0x54,
  0x00, 0x00, 0x00, 0x00, 0x00, 0x00, 0x07, 0x78, 0x00, 0x00, 0x00, 0x64, 0xb9,
  0xff, 0xff, 0x10, 0x00, 0x00, 0x00, 0x1c, 0x00, 0x00, 0x00, 0x20, 0x00, 0x00,
  0x00, 0x24, 0x00, 0x00, 0x00, 0x01, 0x00, 0x00, 0x00, 0x00, 0x00, 0x00, 0x00,
  0x00, 0x00, 0x00, 0x00, 0x00, 0x00, 0x00, 0x00, 0x01, 0x00, 0x00, 0x00, 0x37,
  0xcb, 0x07, 0x3c, 0x01, 0x00, 0x00, 0x00, 0x27, 0xca, 0x87, 0x43, 0x01, 0x00,
  0x00, 0x00, 0x00, 0x00, 0x00, 0x00, 0x31, 0x00, 0x00, 0x00, 0x52, 0x65, 0x6c,
  0x75, 0x5f, 0x32, 0x3b, 0x42, 0x69, 0x61, 0x73, 0x41, 0x64, 0x64, 0x5f, 0x37,
  0x3b, 0x64, 0x65, 0x70, 0x74, 0x68, 0x77, 0x69, 0x73, 0x65, 0x5f, 0x32, 0x35,
  0x3b, 0x43, 0x6f, 0x6e, 0x76, 0x32, 0x44, 0x5f, 0x37, 0x3b, 0x63, 0x6f, 0x6e,
  0x76, 0x5f, 0x33, 0x5f, 0x30, 0x5f, 0x62, 0x00, 0x00, 0x00, 0x04, 0x00, 0x00,
  0x00, 0x01, 0x00, 0x00, 0x00, 0x1d, 0x02, 0x00, 0x00, 0xc1, 0x03, 0x00, 0x00,
  0x08, 0x00, 0x00, 0x00, 0x12, 0xba, 0xff, 0xff, 0x14, 0x00, 0x00, 0x00, 0x48,
  0x00, 0x00, 0x00, 0x53, 0x00, 0x00, 0x00, 0x00, 0x00, 0x00, 0x07, 0x50, 0x00,
  0x00, 0x00, 0x04, 0xba, 0xff, 0xff, 0x10, 0x00, 0x00, 0x00, 0x18, 0x00, 0x00,
  0x00, 0x1c, 0x00, 0x00, 0x00, 0x20, 0x00, 0x00, 0x00, 0x01, 0x00, 0x00, 0x00,
  0x00, 0x00, 0x00, 0x00, 0x00, 0x00, 0x00, 0x00, 0x01, 0x00, 0x00, 0x00, 0x08,
  0x6f, 0x9d, 0x3b, 0x01, 0x00, 0x00, 0x00, 0x59, 0x29, 0x11, 0x43, 0x01, 0x00,
  0x00, 0x00, 0xcd, 0x6d, 0x1d, 0xc3, 0x0d, 0x00, 0x00, 0x00, 0x64, 0x65, 0x70,
  0x74, 0x68, 0x77, 0x69, 0x73, 0x65, 0x5f, 0x31, 0x35, 0x31, 0x00, 0x00, 0x00,
  0x04, 0x00, 0x00, 0x00, 0x01, 0x00, 0x00, 0x00, 0x1d, 0x02, 0x00, 0x00, 0xc1,
  0x03, 0x00, 0x00, 0x0a, 0x00, 0x00, 0x00, 0x8a, 0xba, 0xff, 0xff, 0x14, 0x00,
  0x00, 0x00, 0x48, 0x00, 0x00, 0x00, 0x52, 0x00, 0x00, 0x00, 0x00, 0x00, 0x00,
  0x07, 0x50, 0x00, 0x00, 0x00, 0x7c, 0xba, 0xff, 0xff, 0x10, 0x00, 0x00, 0x00,
  0x18, 0x00, 0x00, 0x00, 0x1c, 0x00, 0x00, 0x00, 0x20, 0x00, 0x00, 0x00, 0x01,
  0x00, 0x00, 0x00, 0x00, 0x00, 0x00, 0x00, 0x00, 0x00, 0x00, 0x00, 0x01, 0x00,
  0x00, 0x00, 0x96, 0xf6, 0xc0, 0x3b, 0x01, 0x00, 0x00, 0x00, 0x14, 0xf5, 0x40,
  0x43, 0x01, 0x00, 0x00, 0x00, 0x16, 0x9f, 0x32, 0xc3, 0x0d, 0x00, 0x00, 0x00,
  0x64, 0x65, 0x70, 0x74, 0x68, 0x77, 0x69, 0x73, 0x65, 0x5f, 0x31, 0x34, 0x31,
  0x00, 0x00, 0x00, 0x04, 0x00, 0x00, 0x00, 0x01, 0x00, 0x00, 0x00, 0x1d, 0x02,
  0x00, 0x00, 0xc1, 0x03, 0x00, 0x00, 0x0a, 0x00, 0x00, 0x00, 0x02, 0xbb, 0xff,
  0xff, 0x14, 0x00, 0x00, 0x00, 0x48, 0x00, 0x00, 0x00, 0x51, 0x00, 0x00, 0x00,
  0x00, 0x00, 0x00, 0x07, 0x48, 0x00, 0x00, 0x00, 0xf4, 0xba, 0xff, 0xff, 0x10,
  0x00, 0x00, 0x00, 0x18, 0x00, 0x00, 0x00, 0x1c, 0x00, 0x00, 0x00, 0x20, 0x00,
  0x00, 0x00, 0x01, 0x00, 0x00, 0x00, 0x00, 0x00, 0x00, 0x00, 0x00, 0x00, 0x00,
  0x00, 0x01, 0x00, 0x00, 0x00, 0x41, 0x9d, 0x0d, 0x3c, 0x01, 0x00, 0x00, 0x00,
  0x26, 0x9c, 0x8d, 0x43, 0x01, 0x00, 0x00, 0x00, 0xea, 0x49, 0x88, 0xc3, 0x05,
  0x00, 0x00, 0x00, 0x41, 0x64, 0x64, 0x5f, 0x32, 0x00, 0x00, 0x00, 0x04, 0x00,
  0x00, 0x00, 0x01, 0x00, 0x00, 0x00, 0x1d, 0x02, 0x00, 0x00, 0xc1, 0x03, 0x00,
  0x00, 0x0a, 0x00, 0x00, 0x00, 0x72, 0xbb, 0xff, 0xff, 0x14, 0x00, 0x00, 0x00,
  0x4c, 0x00, 0x00, 0x00, 0x50, 0x00, 0x00, 0x00, 0x00, 0x00, 0x00, 0x07, 0x70,
  0x00, 0x00, 0x00, 0x64, 0xbb, 0xff, 0xff, 0x10, 0x00, 0x00, 0x00, 0x1c, 0x00,
  0x00, 0x00, 0x20, 0x00, 0x00, 0x00, 0x24, 0x00, 0x00, 0x00, 0x01, 0x00, 0x00,
  0x00, 0x00, 0x00, 0x00, 0x00, 0x00, 0x00, 0x00, 0x00, 0x00, 0x00, 0x00, 0x00,
  0x01, 0x00, 0x00, 0x00, 0xde, 0xf3, 0x0d, 0x3c, 0x01, 0x00, 0x00, 0x00, 0x90,
  0xa4, 0x6a, 0x43, 0x01, 0x00, 0x00, 0x00, 0xc2, 0xf2, 0x8d, 0xc3, 0x2a, 0x00,
  0x00, 0x00, 0x42, 0x69, 0x61, 0x73, 0x41, 0x64, 0x64, 0x5f, 0x36, 0x3b, 0x64,
  0x65, 0x70, 0x74, 0x68, 0x77, 0x69, 0x73, 0x65, 0x5f, 0x31, 0x39, 0x3b, 0x43,
  0x6f, 0x6e, 0x76, 0x32, 0x44, 0x5f, 0x36, 0x3b, 0x63, 0x6f, 0x6e, 0x76, 0x5f,
  0x32, 0x5f, 0x31, 0x5f, 0x62, 0x00, 0x00, 0x04, 0x00, 0x00, 0x00, 0x01, 0x00,
  0x00, 0x00, 0x1d, 0x02, 0x00, 0x00, 0xc1, 0x03, 0x00, 0x00, 0x0a, 0x00, 0x00,
  0x00, 0x0a, 0xbc, 0xff, 0xff, 0x14, 0x00, 0x00, 0x00, 0x48, 0x00, 0x00, 0x00,
  0x4f, 0x00, 0x00, 0x00, 0x00, 0x00, 0x00, 0x07, 0x50, 0x00, 0x00, 0x00, 0xfc,
  0xbb, 0xff, 0xff, 0x10, 0x00, 0x00, 0x00, 0x18, 0x00, 0x00, 0x00, 0x1c, 0x00,
  0x00, 0x00, 0x20, 0x00, 0x00, 0x00, 0x01, 0x00, 0x00, 0x00, 0x00, 0x00, 0x00,
  0x00, 0x00, 0x00, 0x00, 0x00, 0x01, 0x00, 0x00, 0x00, 0xe8, 0x78, 0x82, 0x3b,
  0x01, 0x00, 0x00, 0x00, 0xe3, 0x77, 0x02, 0x43, 0x01, 0x00, 0x00, 0x00, 0xbd,
  0x40, 0xba, 0xc2, 0x0d, 0x00, 0x00, 0x00, 0x64, 0x65, 0x70, 0x74, 0x68, 0x77,
  0x69, 0x73, 0x65, 0x5f, 0x31, 0x33, 0x32, 0x00, 0x00, 0x00, 0x04, 0x00, 0x00,
  0x00, 0x01, 0x00, 0x00, 0x00, 0x1d, 0x02, 0x00, 0x00, 0xc1, 0x03, 0x00, 0x00,
  0x0c, 0x00, 0x00, 0x00, 0x82, 0xbc, 0xff, 0xff, 0x14, 0x00, 0x00, 0x00, 0x48,
  0x00, 0x00, 0x00, 0x4e, 0x00, 0x00, 0x00, 0x00, 0x00, 0x00, 0x07, 0x50, 0x00,
  0x00, 0x00, 0x74, 0xbc, 0xff, 0xff, 0x10, 0x00, 0x00, 0x00, 0x18, 0x00, 0x00,
  0x00, 0x1c, 0x00, 0x00, 0x00, 0x20, 0x00, 0x00, 0x00, 0x01, 0x00, 0x00, 0x00,
  0x00, 0x00, 0x00, 0x00, 0x00, 0x00, 0x00, 0x00, 0x01, 0x00, 0x00, 0x00, 0x06,
  0xa7, 0xa8, 0x3b, 0x01, 0x00, 0x00, 0x00, 0xb5, 0xa5, 0x28, 0x43, 0x01, 0x00,
  0x00, 0x00, 0xb8, 0xd1, 0x22, 0xc3, 0x0d, 0x00, 0x00, 0x00, 0x64, 0x65, 0x70,
  0x74, 0x68, 0x77, 0x69, 0x73, 0x65, 0x5f, 0x31, 0x32, 0x31, 0x00, 0x00, 0x00,
  0x04, 0x00, 0x00, 0x00, 0x01, 0x00, 0x00, 0x00, 0x1d, 0x02, 0x00, 0x00, 0xc1,
  0x03, 0x00, 0x00, 0x0c, 0x00, 0x00, 0x00, 0xfa, 0xbc, 0xff, 0xff, 0x14, 0x00,
  0x00, 0x00, 0x4c, 0x00, 0x00, 0x00, 0x4d, 0x00, 0x00, 0x00, 0x00, 0x00, 0x00,
  0x07, 0x70, 0x00, 0x00, 0x00, 0xec, 0xbc, 0xff, 0xff, 0x10, 0x00, 0x00, 0x00,
  0x1c, 0x00, 0x00, 0x00, 0x20, 0x00, 0x00, 0x00, 0x24, 0x00, 0x00, 0x00, 0x01,
  0x00, 0x00, 0x00, 0x00, 0x00, 0x00, 0x00, 0x00, 0x00, 0x00, 0x00, 0x00, 0x00,
  0x00, 0x00, 0x01, 0x00, 0x00, 0x00, 0x1a, 0x91, 0x1d, 0x3c, 0x01, 0x00, 0x00,
  0x00, 0x23, 0x36, 0x06, 0x43, 0x01, 0x00, 0x00, 0x00, 0xdf, 0x8f, 0x9d, 0xc3,
  0x2a, 0x00, 0x00, 0x00, 0x42, 0x69, 0x61, 0x73, 0x41, 0x64, 0x64, 0x5f, 0x35,
  0x3b, 0x64, 0x65, 0x70, 0x74, 0x68, 0x77, 0x69, 0x73, 0x65, 0x5f, 0x31, 0x39,
  0x3b, 0x43, 0x6f, 0x6e, 0x76, 0x32, 0x44, 0x5f, 0x35, 0x3b, 0x63, 0x6f, 0x6e,
  0x76, 0x5f, 0x32, 0x5f, 0x31, 0x5f, 0x62, 0x00, 0x00, 0x04, 0x00, 0x00, 0x00,
  0x01, 0x00, 0x00, 0x00, 0x1d, 0x02, 0x00, 0x00, 0xc1, 0x03, 0x00, 0x00, 0x0a,
  0x00, 0x00, 0x00, 0x92, 0xbd, 0xff, 0xff, 0x14, 0x00, 0x00, 0x00, 0x48, 0x00,
  0x00, 0x00, 0x4c, 0x00, 0x00, 0x00, 0x00, 0x00, 0x00, 0x07, 0x50, 0x00, 0x00,
  0x00, 0x84, 0xbd, 0xff, 0xff, 0x10, 0x00, 0x00, 0x00, 0x18, 0x00, 0x00, 0x00,
  0x1c, 0x00, 0x00, 0x00, 0x20, 0x00, 0x00, 0x00, 0x01, 0x00, 0x00, 0x00, 0x00,
  0x00, 0x00, 0x00, 0x00, 0x00, 0x00, 0x00, 0x01, 0x00, 0x00, 0x00, 0x85, 0x65,
  0x64, 0x3b, 0x01, 0x00, 0x00, 0x00, 0x04, 0x78, 0x78, 0x42, 0x01, 0x00, 0x00,
  0x00, 0xbc, 0x63, 0xe4, 0xc2, 0x0d, 0x00, 0x00, 0x00, 0x64, 0x65, 0x70, 0x74,
  0x68, 0x77, 0x69, 0x73, 0x65, 0x5f, 0x31, 0x31, 0x31, 0x00, 0x00, 0x00, 0x04,
  0x00, 0x00, 0x00, 0x01, 0x00, 0x00, 0x00, 0x1d, 0x02, 0x00, 0x00, 0xc1, 0x03,
  0x00, 0x00, 0x0a, 0x00, 0x00, 0x00, 0x0a, 0xbe, 0xff, 0xff, 0x14, 0x00, 0x00,
  0x00, 0x48, 0x00, 0x00, 0x00, 0x4b, 0x00, 0x00, 0x00, 0x00, 0x00, 0x00, 0x07,
  0x50, 0x00, 0x00, 0x00, 0xfc, 0xbd, 0xff, 0xff, 0x10, 0x00, 0x00, 0x00, 0x18,
  0x00, 0x00, 0x00, 0x1c, 0x00, 0x00, 0x00, 0x20, 0x00, 0x00, 0x00, 0x01, 0x00,
  0x00, 0x00, 0x00, 0x00, 0x00, 0x00, 0x00, 0x00, 0x00, 0x00, 0x01, 0x00, 0x00,
  0x00, 0x54, 0x40, 0xa1, 0x3b, 0x01, 0x00, 0x00, 0x00, 0x28, 0x87, 0xe2, 0x42,
  0x01, 0x00, 0x00, 0x00, 0x11, 0x3f, 0x21, 0xc3, 0x0d, 0x00, 0x00, 0x00, 0x64,
  0x65, 0x70, 0x74, 0x68, 0x77, 0x69, 0x73, 0x65, 0x5f, 0x31, 0x30, 0x31, 0x00,
  0x00, 0x00, 0x04, 0x00, 0x00, 0x00, 0x01, 0x00, 0x00, 0x00, 0x1d, 0x02, 0x00,
  0x00, 0xc1, 0x03, 0x00, 0x00, 0x0a, 0x00, 0x00, 0x00, 0x82, 0xbe, 0xff, 0xff,
  0x14, 0x00, 0x00, 0x00, 0x4c, 0x00, 0x00, 0x00, 0x4a, 0x00, 0x00, 0x00, 0x00,
  0x00, 0x00, 0x07, 0x78, 0x00, 0x00, 0x00, 0x74, 0xbe, 0xff, 0xff, 0x10, 0x00,
  0x00, 0x00, 0x1c, 0x00, 0x00, 0x00, 0x20, 0x00, 0x00, 0x00, 0x24, 0x00, 0x00,
  0x00, 0x01, 0x00, 0x00, 0x00, 0x00, 0x00, 0x00, 0x00, 0x00, 0x00, 0x00, 0x00,
  0x00, 0x00, 0x00, 0x00, 0x01, 0x00, 0x00, 0x00, 0x44, 0xc1, 0xb0, 0x3b, 0x01,
  0x00, 0x00, 0x00, 0xe2, 0xbf, 0x30, 0x43, 0x01, 0x00, 0x00, 0x00, 0x00, 0x00,
  0x00, 0x00, 0x31, 0x00, 0x00, 0x00, 0x52, 0x65, 0x6c, 0x75, 0x5f, 0x31, 0x3b,
  0x42, 0x69, 0x61, 0x73, 0x41, 0x64, 0x64, 0x5f, 0x34, 0x3b, 0x64, 0x65, 0x70,
  0x74, 0x68, 0x77, 0x69, 0x73, 0x65, 0x5f, 0x31, 0x39, 0x3b, 0x43, 0x6f, 0x6e,
  0x76, 0x32, 0x44, 0x5f, 0x34, 0x3b, 0x63, 0x6f, 0x6e, 0x76, 0x5f, 0x32, 0x5f,
  0x30, 0x5f, 0x62, 0x00, 0x00, 0x00, 0x04, 0x00, 0x00, 0x00, 0x01, 0x00, 0x00,
  0x00, 0x1d, 0x02, 0x00, 0x00, 0xc1, 0x03, 0x00, 0x00, 0x0a, 0x00, 0x00, 0x00,
  0x22, 0xbf, 0xff, 0xff, 0x14, 0x00, 0x00, 0x00, 0x48, 0x00, 0x00, 0x00, 0x49,
  0x00, 0x00, 0x00, 0x00, 0x00, 0x00, 0x07, 0x50, 0x00, 0x00, 0x00, 0x14, 0xbf,
  0xff, 0xff, 0x10, 0x00, 0x00, 0x00, 0x18, 0x00, 0x00, 0x00, 0x1c, 0x00, 0x00,
  0x00, 0x20, 0x00, 0x00, 0x00, 0x01, 0x00, 0x00, 0x00, 0x00, 0x00, 0x00, 0x00,
  0x00, 0x00, 0x00, 0x00, 0x01, 0x00, 0x00, 0x00, 0x7d, 0x78, 0x49, 0x3b, 0x01,
  0x00, 0x00, 0x00, 0xea, 0x76, 0xc9, 0x42, 0x01, 0x00, 0x00, 0x00, 0x15, 0xfb,
  0x94, 0xc2, 0x0c, 0x00, 0x00, 0x00, 0x64, 0x65, 0x70, 0x74, 0x68, 0x77, 0x69,
  0x73, 0x65, 0x5f, 0x39, 0x31, 0x00, 0x00, 0x00, 0x00, 0x04, 0x00, 0x00, 0x00,
  0x01, 0x00, 0x00, 0x00, 0x1d, 0x02, 0x00, 0x00, 0xc1, 0x03, 0x00, 0x00, 0x0c,
  0x00, 0x00, 0x00, 0x9a, 0xbf, 0xff, 0xff, 0x14, 0x00, 0x00, 0x00, 0x48, 0x00,
  0x00, 0x00, 0x48, 0x00, 0x00, 0x00, 0x00, 0x00, 0x00, 0x07, 0x50, 0x00, 0x00,
  0x00, 0x8c, 0xbf, 0xff, 0xff, 0x10, 0x00, 0x00, 0x00, 0x18, 0x00, 0x00, 0x00,
  0x1c, 0x00, 0x00, 0x00, 0x20, 0x00, 0x00, 0x00, 0x01, 0x00, 0x00, 0x00, 0x00,
  0x00, 0x00, 0x00, 0x00, 0x00, 0x00, 0x00, 0x01, 0x00, 0x00, 0x00, 0xf1, 0x5f,
  0x7d, 0x3b, 0x01, 0x00, 0x00, 0x00, 0xfb, 0x61, 0xd8, 0x42, 0x01, 0x00, 0x00,
  0x00, 0xf6, 0x5d, 0xfd, 0xc2, 0x0c, 0x00, 0x00, 0x00, 0x64, 0x65, 0x70, 0x74,
  0x68, 0x77, 0x69, 0x73, 0x65, 0x5f, 0x38, 0x31, 0x00, 0x00, 0x00, 0x00, 0x04,
  0x00, 0x00, 0x00, 0x01, 0x00, 0x00, 0x00, 0x1d, 0x02, 0x00, 0x00, 0xc1, 0x03,
  0x00, 0x00, 0x0c, 0x00, 0x00, 0x00, 0x12, 0xc0, 0xff, 0xff, 0x14, 0x00, 0x00,
  0x00, 0x48, 0x00, 0x00, 0x00, 0x47, 0x00, 0x00, 0x00, 0x00, 0x00, 0x00, 0x07,
  0x48, 0x00, 0x00, 0x00, 0x04, 0xc0, 0xff, 0xff, 0x10, 0x00, 0x00, 0x00, 0x18,
  0x00, 0x00, 0x00, 0x1c, 0x00, 0x00, 0x00, 0x20, 0x00, 0x00, 0x00, 0x01, 0x00,
  0x00, 0x00, 0x00, 0x00, 0x00, 0x00, 0x00, 0x00, 0x00, 0x00, 0x01, 0x00, 0x00,
  0x00, 0x3c, 0x03, 0xcd, 0x3b, 0x01, 0x00, 0x00, 0x00, 0xa2, 0x01, 0x4d, 0x43,
  0x01, 0x00, 0x00, 0x00, 0x90, 0x09, 0x42, 0xc3, 0x05, 0x00, 0x00, 0x00, 0x41,
  0x64, 0x64, 0x5f, 0x31, 0x00, 0x00, 0x00, 0x04, 0x00, 0x00, 0x00, 0x01, 0x00,
  0x00, 0x00, 0x1d, 0x02, 0x00, 0x00, 0xc1, 0x03, 0x00, 0x00, 0x0c, 0x00, 0x00,
  0x00, 0x82, 0xc0, 0xff, 0xff, 0x14, 0x00, 0x00, 0x00, 0x4c, 0x00, 0x00, 0x00,
  0x46, 0x00, 0x00, 0x00, 0x00, 0x00, 0x00, 0x07, 0x70, 0x00, 0x00, 0x00, 0x74,
  0xc0, 0xff, 0xff, 0x10, 0x00, 0x00, 0x00, 0x1c, 0x00, 0x00, 0x00, 0x20, 0x00,
  0x00, 0x00, 0x24, 0x00, 0x00, 0x00, 0x01, 0x00, 0x00, 0x00, 0x00, 0x00, 0x00,
  0x00, 0x00, 0x00, 0x00, 0x00, 0x00, 0x00, 0x00, 0x00, 0x01, 0x00, 0x00, 0x00,
  0x66, 0x06, 0xa6, 0x3b, 0x01, 0x00, 0x00, 0x00, 0x1a, 0x05, 0x26, 0x43, 0x01,
  0x00, 0x00, 0x00, 0xc6, 0xfd, 0x24, 0xc3, 0x2a, 0x00, 0x00, 0x00, 0x42, 0x69,
  0x61, 0x73, 0x41, 0x64, 0x64, 0x5f, 0x33, 0x3b, 0x64, 0x65, 0x70, 0x74, 0x68,
  0x77, 0x69, 0x73, 0x65, 0x5f, 0x31, 0x33, 0x3b, 0x43, 0x6f, 0x6e, 0x76, 0x32,
  0x44, 0x5f, 0x33, 0x3b, 0x63, 0x6f, 0x6e, 0x76, 0x5f, 0x31, 0x5f, 0x31, 0x5f,
  0x62, 0x00, 0x00, 0x04, 0x00, 0x00, 0x00, 0x01, 0x00, 0x00, 0x00, 0x1d, 0x02,
  0x00, 0x00, 0xc1, 0x03, 0x00, 0x00, 0x0c, 0x00, 0x00, 0x00, 0x1a, 0xc1, 0xff,
  0xff, 0x14, 0x00, 0x00, 0x00, 0x48, 0x00, 0x00, 0x00, 0x45, 0x00, 0x00, 0x00,
  0x00, 0x00, 0x00, 0x07, 0x50, 0x00, 0x00, 0x00, 0x0c, 0xc1, 0xff, 0xff, 0x10,
  0x00, 0x00, 0x00, 0x18, 0x00, 0x00, 0x00, 0x1c, 0x00, 0x00, 0x00, 0x20, 0x00,
  0x00, 0x00, 0x01, 0x00, 0x00, 0x00, 0x00, 0x00, 0x00, 0x00, 0x00, 0x00, 0x00,
  0x00, 0x01, 0x00, 0x00, 0x00, 0xf0, 0xf6, 0xc9, 0x3b, 0x01, 0x00, 0x00, 0x00,
  0xc6, 0x9c, 0x0c, 0x43, 0x01, 0x00, 0x00, 0x00, 0x5c, 0xf5, 0x49, 0xc3, 0x0c,
  0x00, 0x00, 0x00, 0x64, 0x65, 0x70, 0x74, 0x68, 0x77, 0x69, 0x73, 0x65, 0x5f,
  0x37, 0x32, 0x00, 0x00, 0x00, 0x00, 0x04, 0x00, 0x00, 0x00, 0x01, 0x00, 0x00,
  0x00, 0x1d, 0x02, 0x00, 0x00, 0xc1, 0x03, 0x00, 0x00, 0x10, 0x00, 0x00, 0x00,
  0x92, 0xc1, 0xff, 0xff, 0x14, 0x00, 0x00, 0x00, 0x48, 0x00, 0x00, 0x00, 0x44,
  0x00, 0x00, 0x00, 0x00, 0x00, 0x00, 0x07, 0x50, 0x00, 0x00, 0x00, 0x84, 0xc1,
  0xff, 0xff, 0x10, 0x00, 0x00, 0x00, 0x18, 0x00, 0x00, 0x00, 0x1c, 0x00, 0x00,
  0x00, 0x20, 0x00, 0x00, 0x00, 0x01, 0x00, 0x00, 0x00, 0x00, 0x00, 0x00, 0x00,
  0x00, 0x00, 0x00, 0x00, 0x01, 0x00, 0x00, 0x00, 0x79, 0xab, 0xb7, 0x3c, 0x01,
  0x00, 0x00, 0x00, 0x0a, 0xaa, 0x37, 0x44, 0x01, 0x00, 0x00, 0x00, 0x8e, 0x13,
  0x1e, 0xc3, 0x0c, 0x00, 0x00, 0x00, 0x64, 0x65, 0x70, 0x74, 0x68, 0x77, 0x69,
  0x73, 0x65, 0x5f, 0x36, 0x31, 0x00, 0x00, 0x00, 0x00, 0x04, 0x00, 0x00, 0x00,
  0x01, 0x00, 0x00, 0x00, 0x1d, 0x02, 0x00, 0x00, 0xc1, 0x03, 0x00, 0x00, 0x10,
  0x00, 0x00, 0x00, 0x0a, 0xc2, 0xff, 0xff, 0x14, 0x00, 0x00, 0x00, 0x4c, 0x00,
  0x00, 0x00, 0x43, 0x00, 0x00, 0x00, 0x00, 0x00, 0x00, 0x07, 0x70, 0x00, 0x00,
  0x00, 0xfc, 0xc1, 0xff, 0xff, 0x10, 0x00, 0x00, 0x00, 0x1c, 0x00, 0x00, 0x00,
  0x20, 0x00, 0x00, 0x00, 0x24, 0x00, 0x00, 0x00, 0x01, 0x00, 0x00, 0x00, 0x00,
  0x00, 0x00, 0x00, 0x00, 0x00, 0x00, 0x00, 0x00, 0x00, 0x00, 0x00, 0x01, 0x00,
  0x00, 0x00, 0xf1, 0xeb, 0xc5, 0x3b, 0x01, 0x00, 0x00, 0x00, 0x65, 0xea, 0x45,
  0x43, 0x01, 0x00, 0x00, 0x00, 0x61, 0x67, 0x2c, 0xc3, 0x2a, 0x00, 0x00, 0x00,
  0x42, 0x69, 0x61, 0x73, 0x41, 0x64, 0x64, 0x5f, 0x32, 0x3b, 0x64, 0x65, 0x70,
  0x74, 0x68, 0x77, 0x69, 0x73, 0x65, 0x5f, 0x31, 0x33, 0x3b, 0x43, 0x6f, 0x6e,
  0x76, 0x32, 0x44, 0x5f, 0x32, 0x3b, 0x63, 0x6f, 0x6e, 0x76, 0x5f, 0x31, 0x5f,
  0x31, 0x5f, 0x62, 0x00, 0x00, 0x04, 0x00, 0x00, 0x00, 0x01, 0x00, 0x00, 0x00,
  0x1d, 0x02, 0x00, 0x00, 0xc1, 0x03, 0x00, 0x00, 0x0c, 0x00, 0x00, 0x00, 0xa2,
  0xc2, 0xff, 0xff, 0x14, 0x00, 0x00, 0x00, 0x48, 0x00, 0x00, 0x00, 0x42, 0x00,
  0x00, 0x00, 0x00, 0x00, 0x00, 0x07, 0x50, 0x00, 0x00, 0x00, 0x94, 0xc2, 0xff,
  0xff, 0x10, 0x00, 0x00, 0x00, 0x18, 0x00, 0x00, 0x00, 0x1c, 0x00, 0x00, 0x00,
  0x20, 0x00, 0x00, 0x00, 0x01, 0x00, 0x00, 0x00, 0x00, 0x00, 0x00, 0x00, 0x00,
  0x00, 0x00, 0x00, 0x01, 0x00, 0x00, 0x00, 0xd1, 0xab, 0xb4, 0x3b, 0x01, 0x00,
  0x00, 0x00, 0x68, 0xaa, 0x34, 0x43, 0x01, 0x00, 0x00, 0x00, 0x5c, 0xcb, 0xc6,
  0xc2, 0x0c, 0x00, 0x00, 0x00, 0x64, 0x65, 0x70, 0x74, 0x68, 0x77, 0x69, 0x73,
  0x65, 0x5f, 0x35, 0x31, 0x00, 0x00, 0x00, 0x00, 0x04, 0x00, 0x00, 0x00, 0x01,
  0x00, 0x00, 0x00, 0x1d, 0x02, 0x00, 0x00, 0xc1, 0x03, 0x00, 0x00, 0x0c, 0x00,
  0x00, 0x00, 0x1a, 0xc3, 0xff, 0xff, 0x14, 0x00, 0x00, 0x00, 0x48, 0x00, 0x00,
  0x00, 0x41, 0x00, 0x00, 0x00, 0x00, 0x00, 0x00, 0x07, 0x50, 0x00, 0x00, 0x00,
  0x0c, 0xc3, 0xff, 0xff, 0x10, 0x00, 0x00, 0x00, 0x18, 0x00, 0x00, 0x00, 0x1c,
  0x00, 0x00, 0x00, 0x20, 0x00, 0x00, 0x00, 0x01, 0x00, 0x00, 0x00, 0x00, 0x00,
  0x00, 0x00, 0x00, 0x00, 0x00, 0x00, 0x01, 0x00, 0x00, 0x00, 0x6c, 0x4a, 0xd8,
  0x3b, 0x01, 0x00, 0x00, 0x00, 0xbb, 0x48, 0x58, 0x43, 0x01, 0x00, 0x00, 0x00,
  0xfa, 0x0c, 0x00, 0xc3, 0x0c, 0x00, 0x00, 0x00, 0x64, 0x65, 0x70, 0x74, 0x68,
  0x77, 0x69, 0x73, 0x65, 0x5f, 0x34, 0x31, 0x00, 0x00, 0x00, 0x00, 0x04, 0x00,
  0x00, 0x00, 0x01, 0x00, 0x00, 0x00, 0x1d, 0x02, 0x00, 0x00, 0xc1, 0x03, 0x00,
  0x00, 0x0c, 0x00, 0x00, 0x00, 0x92, 0xc3, 0xff, 0xff, 0x14, 0x00, 0x00, 0x00,
  0x48, 0x00, 0x00, 0x00, 0x40, 0x00, 0x00, 0x00, 0x00, 0x00, 0x00, 0x07, 0x70,
  0x00, 0x00, 0x00, 0x84, 0xc3, 0xff, 0xff, 0x10, 0x00, 0x00, 0x00, 0x18, 0x00,
  0x00, 0x00, 0x1c, 0x00, 0x00, 0x00, 0x20, 0x00, 0x00, 0x00, 0x01, 0x00, 0x00,
  0x00, 0x00, 0x00, 0x00, 0x00, 0x00, 0x00, 0x00, 0x00, 0x01, 0x00, 0x00, 0x00,
  0x37, 0x38, 0xbd, 0x3b, 0x01, 0x00, 0x00, 0x00, 0xbd, 0x36, 0x3d, 0x43, 0x01,
  0x00, 0x00, 0x00, 0x00, 0x00, 0x00, 0x00, 0x2f, 0x00, 0x00, 0x00, 0x52, 0x65,
  0x6c, 0x75, 0x3b, 0x42, 0x69, 0x61, 0x73, 0x41, 0x64, 0x64, 0x5f, 0x31, 0x3b,
  0x64, 0x65, 0x70, 0x74, 0x68, 0x77, 0x69, 0x73, 0x65, 0x5f, 0x31, 0x33, 0x3b,
  0x43, 0x6f, 0x6e, 0x76, 0x32, 0x44, 0x5f, 0x31, 0x3b, 0x63, 0x6f, 0x6e, 0x76,
  0x5f, 0x31, 0x5f, 0x30, 0x5f, 0x62, 0x00, 0x04, 0x00, 0x00, 0x00, 0x01, 0x00,
  0x00, 0x00, 0x1d, 0x02, 0x00, 0x00, 0xc1, 0x03, 0x00, 0x00, 0x0c, 0x00, 0x00,
  0x00, 0x2a, 0xc4, 0xff, 0xff, 0x14, 0x00, 0x00, 0x00, 0x48, 0x00, 0x00, 0x00,
  0x3f, 0x00, 0x00, 0x00, 0x00, 0x00, 0x00, 0x07, 0x50, 0x00, 0x00, 0x00, 0x1c,
  0xc4, 0xff, 0xff, 0x10, 0x00, 0x00, 0x00, 0x18, 0x00, 0x00, 0x00, 0x1c, 0x00,
  0x00, 0x00, 0x20, 0x00, 0x00, 0x00, 0x01, 0x00, 0x00, 0x00, 0x00, 0x00, 0x00,
  0x00, 0x00, 0x00, 0x00, 0x00, 0x01, 0x00, 0x00, 0x00, 0x4e, 0xcf, 0x0d, 0x3b,
  0x01, 0x00, 0x00, 0x00, 0x3d, 0x9c, 0x77, 0x42, 0x01, 0x00, 0x00, 0x00, 0x32,
  0xce, 0x8d, 0xc2, 0x0c, 0x00, 0x00, 0x00, 0x64, 0x65, 0x70, 0x74, 0x68, 0x77,
  0x69, 0x73, 0x65, 0x5f, 0x33, 0x31, 0x00, 0x00, 0x00, 0x00, 0x04, 0x00, 0x00,
  0x00, 0x01, 0x00, 0x00, 0x00, 0x1d, 0x02, 0x00, 0x00, 0xc1, 0x03, 0x00, 0x00,
  0x10, 0x00, 0x00, 0x00, 0xa2, 0xc4, 0xff, 0xff, 0x14, 0x00, 0x00, 0x00, 0x48,
  0x00, 0x00, 0x00, 0x3e, 0x00, 0x00, 0x00, 0x00, 0x00, 0x00, 0x07, 0x50, 0x00,
  0x00, 0x00, 0x94, 0xc4, 0xff, 0xff, 0x10, 0x00, 0x00, 0x00, 0x18, 0x00, 0x00,
  0x00, 0x1c, 0x00, 0x00, 0x00, 0x20, 0x00, 0x00, 0x00, 0x01, 0x00, 0x00, 0x00,
  0x00, 0x00, 0x00, 0x00, 0x00, 0x00, 0x00, 0x00, 0x01, 0x00, 0x00, 0x00, 0x7b,
  0x0e, 0x89, 0x3b, 0x01, 0x00, 0x00, 0x00, 0x69, 0x0d, 0x09, 0x43, 0x01, 0x00,
  0x00, 0x00, 0x9d, 0x4e, 0xb4, 0xc2, 0x0c, 0x00, 0x00, 0x00, 0x64, 0x65, 0x70,
  0x74, 0x68, 0x77, 0x69, 0x73, 0x65, 0x5f, 0x32, 0x36, 0x00, 0x00, 0x00, 0x00,
  0x04, 0x00, 0x00, 0x00, 0x01, 0x00, 0x00, 0x00, 0x1d, 0x02, 0x00, 0x00, 0xc1,
  0x03, 0x00, 0x00, 0x10, 0x00, 0x00, 0x00, 0x1a, 0xc5, 0xff, 0xff, 0x14, 0x00,
  0x00, 0x00, 0x4c, 0x00, 0x00, 0x00, 0x3d, 0x00, 0x00, 0x00, 0x00, 0x00, 0x00,
  0x07, 0x68, 0x00, 0x00, 0x00, 0x0c, 0xc5, 0xff, 0xff, 0x10, 0x00, 0x00, 0x00,
  0x1c, 0x00, 0x00, 0x00, 0x20, 0x00, 0x00, 0x00, 0x24, 0x00, 0x00, 0x00, 0x01,
  0x00, 0x00, 0x00, 0x00, 0x00, 0x00, 0x00, 0x00, 0x00, 0x00, 0x00, 0x00, 0x00,
  0x00, 0x00, 0x01, 0x00, 0x00, 0x00, 0xd8, 0x03, 0x37, 0x3c, 0x01, 0x00, 0x00,
  0x00, 0x30, 0x3f, 0x11, 0x43, 0x01, 0x00, 0x00, 0x00, 0x6a, 0x02, 0xb7, 0xc3,
  0x23, 0x00, 0x00, 0x00, 0x42, 0x69, 0x61, 0x73, 0x41, 0x64, 0x64, 0x3b, 0x64,
  0x65, 0x70, 0x74, 0x68, 0x77, 0x69, 0x73, 0x65, 0x5f, 0x37, 0x3b, 0x43, 0x6f,
  0x6e, 0x76, 0x32, 0x44, 0x3b, 0x63, 0x6f, 0x6e, 0x76, 0x5f, 0x30, 0x5f, 0x62,
  0x00, 0x04, 0x00, 0x00, 0x00, 0x01, 0x00, 0x00, 0x00, 0x1d, 0x02, 0x00, 0x00,
  0xc1, 0x03, 0x00, 0x00, 0x10, 0x00, 0x00, 0x00, 0xaa, 0xc5, 0xff, 0xff, 0x14,
  0x00, 0x00, 0x00, 0x48, 0x00, 0x00, 0x00, 0x3c, 0x00, 0x00, 0x00, 0x00, 0x00,
  0x00, 0x07, 0x50, 0x00, 0x00, 0x00, 0x9c, 0xc5, 0xff, 0xff, 0x10, 0x00, 0x00,
  0x00, 0x18, 0x00, 0x00, 0x00, 0x1c, 0x00, 0x00, 0x00, 0x20, 0x00, 0x00, 0x00,
  0x01, 0x00, 0x00, 0x00, 0x00, 0x00, 0x00, 0x00, 0x00, 0x00, 0x00, 0x00, 0x01,
  0x00, 0x00, 0x00, 0x32, 0x3e, 0x3f, 0x3c, 0x01, 0x00, 0x00, 0x00, 0x34, 0x60,
  0x54, 0x42, 0x01, 0x00, 0x00, 0x00, 0xb4, 0x3c, 0xbf, 0xc3, 0x0d, 0x00, 0x00,
  0x00, 0x64, 0x65, 0x70, 0x74, 0x68, 0x77, 0x69, 0x73, 0x65, 0x5f, 0x31, 0x31,
  0x30, 0x00, 0x00, 0x00, 0x04, 0x00, 0x00, 0x00, 0x01, 0x00, 0x00, 0x00, 0x1d,
  0x02, 0x00, 0x00, 0xc1, 0x03, 0x00, 0x00, 0x01, 0x00, 0x00, 0x00, 0x22, 0xc6,
  0xff, 0xff, 0x14, 0x00, 0x00, 0x00, 0x4c, 0x00, 0x00, 0x00, 0x3b, 0x00, 0x00,
  0x00, 0x00, 0x00, 0x00, 0x07, 0x50, 0x00, 0x00, 0x00, 0x14, 0xc6, 0xff, 0xff,
  0x10, 0x00, 0x00, 0x00, 0x1c, 0x00, 0x00, 0x00, 0x20, 0x00, 0x00, 0x00, 0x24,
  0x00, 0x00, 0x00, 0x01, 0x00, 0x00, 0x00, 0x00, 0x00, 0x00, 0x00, 0x00, 0x00,
  0x00, 0x00, 0x00, 0x00, 0x00, 0x00, 0x01, 0x00, 0x00, 0x00, 0x01, 0x79, 0x87,
  0x3a, 0x01, 0x00, 0x00, 0x00, 0x1e, 0x83, 0x07, 0x40, 0x01, 0x00, 0x00, 0x00,
  0xf2, 0x77, 0x07, 0xc2, 0x0a, 0x00, 0x00, 0x00, 0x64, 0x65, 0x70, 0x74, 0x68,
  0x77, 0x69, 0x73, 0x65, 0x31, 0x00, 0x00, 0x04, 0x00, 0x00, 0x00, 0x01, 0x00,
  0x00, 0x00, 0x1d, 0x02, 0x00, 0x00, 0x82, 0x07, 0x00, 0x00, 0x01, 0x00, 0x00,
  0x00, 0x9a, 0xc6, 0xff, 0xff, 0x14, 0x00, 0x00, 0x00, 0x48, 0x00, 0x00, 0x00,
  0x3a, 0x00, 0x00, 0x00, 0x00, 0x00, 0x00, 0x07, 0x44, 0x00, 0x00, 0x00, 0x8c,
  0xc6, 0xff, 0xff, 0x10, 0x00, 0x00, 0x00, 0x18, 0x00, 0x00, 0x00, 0x1c, 0x00,
  0x00, 0x00, 0x20, 0x00, 0x00, 0x00, 0x01, 0x00, 0x00, 0x00, 0x00, 0x00, 0x00,
  0x00, 0x00, 0x00, 0x00, 0x00, 0x01, 0x00, 0x00, 0x00, 0x00, 0x01, 0x00, 0x38,
  0x01, 0x00, 0x00, 0x00, 0x00, 0x00, 0x80, 0x3f, 0x01, 0x00, 0x00, 0x00, 0x00,
  0x00, 0x00, 0x00, 0x03, 0x00, 0x00, 0x00, 0x50, 0x61, 0x64, 0x00, 0x04, 0x00,
  0x00, 0x00, 0x01, 0x00, 0x00, 0x00, 0x3a, 0x04, 0x00, 0x00, 0x82, 0x07, 0x00,
  0x00, 0x01, 0x00, 0x00, 0x00, 0x06, 0xc7, 0xff, 0xff, 0x14, 0x00, 0x00, 0x00,
  0x14, 0x00, 0x00, 0x00, 0x39, 0x00, 0x00, 0x00, 0x00, 0x00, 0x00, 0x02, 0x14,
  0x00, 0x00, 0x00, 0xcc, 0xff, 0xff, 0xff, 0x07, 0x00, 0x00, 0x00, 0x43, 0x6f,
  0x6e, 0x73, 0x74, 0x5f, 0x31, 0x00, 0x02, 0x00, 0x00, 0x00, 0x04, 0x00, 0x00,
  0x00, 0x02, 0x00, 0x00, 0x00, 0x3a, 0xc7, 0xff, 0xff, 0x18, 0x00, 0x00, 0x00,
  0x18, 0x00, 0x00, 0x00, 0x38, 0x00, 0x00, 0x00, 0x00, 0x00, 0x00, 0x02, 0x14,
  0x00, 0x00, 0x00, 0x04, 0x00, 0x04, 0x00, 0x04, 0x00, 0x00, 0x00, 0x03, 0x00,
  0x00, 0x00, 0x61, 0x64, 0x64, 0x00, 0x01, 0x00, 0x00, 0x00, 0x02, 0x00, 0x00,
  0x00, 0x6a, 0xc7, 0xff, 0xff, 0x14, 0x00, 0x00, 0x00, 0x48, 0x00, 0x00, 0x00,
  0x37, 0x00, 0x00, 0x00, 0x00, 0x00, 0x00, 0x09, 0x4c, 0x00, 0x00, 0x00, 0x5c,
  0xc7, 0xff, 0xff, 0x10, 0x00, 0x00, 0x00, 0x18, 0x00, 0x00, 0x00, 0x1c, 0x00,
  0x00, 0x00, 0x20, 0x00, 0x00, 0x00, 0x01, 0x00, 0x00, 0x00, 0x00, 0x00, 0x00,
  0x00, 0x00, 0x00, 0x00, 0x00, 0x01, 0x00, 0x00, 0x00, 0x8d, 0x2f, 0x9c, 0x39,
  0x01, 0x00, 0x00, 0x00, 0x2e, 0xf7, 0x1a, 0x3d, 0x01, 0x00, 0x00, 0x00, 0x45,
  0xad, 0xf5, 0xbc, 0x0a, 0x00, 0x00, 0x00, 0x43, 0x6f, 0x6e, 0x76, 0x32, 0x44,
  0x5f, 0x31, 0x32, 0x31, 0x00, 0x00, 0x04, 0x00, 0x00, 0x00, 0x01, 0x00, 0x00,
  0x00, 0x01, 0x00, 0x00, 0x00, 0x01, 0x00, 0x00, 0x00, 0x08, 0x00, 0x00, 0x00,
  0xde, 0xc7, 0xff, 0xff, 0x14, 0x00, 0x00, 0x00, 0xd8, 0x00, 0x00, 0x00, 0x36,
  0x00, 0x00, 0x00, 0x00, 0x00, 0x00, 0x09, 0xe0, 0x00, 0x00, 0x00, 0xea, 0xcf,
  0xff, 0xff, 0x03, 0x00, 0x00, 0x00, 0x10, 0x00, 0x00, 0x00, 0x50, 0x00, 0x00,
  0x00, 0x70, 0x00, 0x00, 0x00, 0x90, 0x00, 0x00, 0x00, 0x08, 0x00, 0x00, 0x00,
  0x00, 0x00, 0x00, 0x00, 0x00, 0x00, 0x00, 0x00, 0x00, 0x00, 0x00, 0x00, 0x00,
  0x00, 0x00, 0x00, 0x00, 0x00, 0x00, 0x00, 0x00, 0x00, 0x00, 0x00, 0x00, 0x00,
  0x00, 0x00, 0x00, 0x00, 0x00, 0x00, 0x00, 0x00, 0x00, 0x00, 0x00, 0x00, 0x00,
  0x00, 0x00, 0x00, 0x00, 0x00, 0x00, 0x00, 0x00, 0x00, 0x00, 0x00, 0x00, 0x00,
  0x00, 0x00, 0x00, 0x00, 0x00, 0x00, 0x00, 0x00, 0x00, 0x00, 0x00, 0x00, 0x08,
  0x00, 0x00, 0x00, 0xdc, 0x4c, 0xf1, 0x39, 0x91, 0x72, 0x01, 0x3a, 0xd0, 0xb2,
  0x91, 0x3a, 0xf4, 0x49, 0xac, 0x3a, 0xa6, 0xef, 0xaf, 0x3a, 0x59, 0xed, 0xd2,
  0x39, 0x47, 0x9e, 0x0c, 0x3b, 0xc2, 0x68, 0x90, 0x3a, 0x08, 0x00, 0x00, 0x00,
  0x53, 0xfb, 0xcd, 0xbc, 0xac, 0x6f, 0x80, 0x3d, 0x05, 0x6a, 0x54, 0x3c, 0x8f,
  0xe6, 0xbd, 0x3d, 0x6a, 0xfc, 0x03, 0x3e, 0x44, 0x0b, 0x01, 0x3c, 0x0a, 0x85,
  0x8b, 0x3e, 0x5d, 0xc3, 0xe8, 0x3c, 0x08, 0x00, 0x00, 0x00, 0x42, 0x6a, 0x6f,
  0xbd, 0x47, 0x85, 0x5b, 0x3c, 0x6a, 0x8f, 0x10, 0xbe, 0x60, 0xf1, 0x2a, 0xbe,
  0xc7, 0x8f, 0x2e, 0xbe, 0x7e, 0x47, 0x51, 0xbd, 0xd5, 0x00, 0x67, 0xbe, 0xf0,
  0x47, 0x0f, 0xbe, 0x0d, 0x00, 0x00, 0x00, 0x64, 0x65, 0x70, 0x74, 0x68, 0x77,
  0x69, 0x73, 0x65, 0x5f, 0x32, 0x35, 0x31, 0x00, 0x00, 0x00, 0x04, 0x00, 0x00,
  0x00, 0x01, 0x00, 0x00, 0x00, 0x01, 0x00, 0x00, 0x00, 0x03, 0x00, 0x00, 0x00,
  0x08, 0x00, 0x00, 0x00, 0xe6, 0xc8, 0xff, 0xff, 0x14, 0x00, 0x00, 0x00, 0xdc,
  0x00, 0x00, 0x00, 0x35, 0x00, 0x00, 0x00, 0x00, 0x00, 0x00, 0x09, 0xe4, 0x00,
  0x00, 0x00, 0xf2, 0xd0, 0xff, 0xff, 0x03, 0x00, 0x00, 0x00, 0x10, 0x00, 0x00,
  0x00, 0x54, 0x00, 0x00, 0x00, 0x74, 0x00, 0x00, 0x00, 0x94, 0x00, 0x00, 0x00,
  0x08, 0x00, 0x00, 0x00, 0x00, 0x00, 0x00, 0x00, 0x00, 0x00, 0x00, 0x00, 0x00,
  0x00, 0x00, 0x00, 0x00, 0x00, 0x00, 0x00, 0x00, 0x00, 0x00, 0x00, 0x00, 0x00,
  0x00, 0x00, 0x00, 0x00, 0x00, 0x00, 0x00, 0x00, 0x00, 0x00, 0x00, 0x00, 0x00,
  0x00, 0x00, 0x00, 0x00, 0x00, 0x00, 0x00, 0x00, 0x00, 0x00, 0x00, 0x00, 0x00,
  0x00, 0x00, 0x00, 0x00, 0x00, 0x00, 0x00, 0x00, 0x00, 0x00, 0x00, 0x00, 0x00,
  0x00, 0x00, 0x00, 0x00, 0x00, 0x00, 0x00, 0x08, 0x00, 0x00, 0x00, 0x39, 0x7f,
  0xcc, 0x3a, 0x75, 0x20, 0x15, 0x3b, 0x8b, 0x09, 0x5c, 0x3a, 0x50, 0x44, 0x44,
  0x3a, 0xf8, 0x5e, 0xae, 0x39, 0x57, 0xab, 0x28, 0x3b, 0xe2, 0x62, 0x30, 0x3a,
  0x5a, 0xdf, 0x4c, 0x3a, 0x08, 0x00, 0x00, 0x00, 0xc6, 0xe6, 0x35, 0x3e, 0xd5,
  0x00, 0x03, 0x3e, 0x78, 0x51, 0xda, 0x3d, 0xc7, 0xbb, 0xc2, 0x3d, 0xa0, 0x61,
  0xd4, 0xbc, 0x00, 0x5a, 0xa7, 0x3e, 0x7e, 0xe1, 0x5b, 0xbc, 0x86, 0x96, 0xbd,
  0x3a, 0x08, 0x00, 0x00, 0x00, 0x3b, 0xe6, 0x4a, 0xbe, 0x34, 0xf6, 0x93, 0xbe,
  0xdf, 0xe5, 0x50, 0x3d, 0xe5, 0x8f, 0xa5, 0x3c, 0x3a, 0x02, 0x2d, 0xbd, 0x53,
  0x83, 0x8b, 0xbe, 0x1c, 0x02, 0xaf, 0xbd, 0x9b, 0x45, 0xcb, 0xbd, 0x0c, 0x00,
  0x00, 0x00, 0x64, 0x65, 0x70, 0x74, 0x68, 0x77, 0x69, 0x73, 0x65, 0x5f, 0x32,
  0x34, 0x00, 0x00, 0x00, 0x00, 0x04, 0x00, 0x00, 0x00, 0x01, 0x00, 0x00, 0x00,
  0x03, 0x00, 0x00, 0x00, 0x01, 0x00, 0x00, 0x00, 0x08, 0x00, 0x00, 0x00, 0xf2,
  0xc9, 0xff, 0xff, 0x14, 0x00, 0x00, 0x00, 0xd8, 0x00, 0x00, 0x00, 0x34, 0x00,
  0x00, 0x00, 0x00, 0x00, 0x00, 0x09, 0xdc, 0x00, 0x00, 0x00, 0xe4, 0xc9, 0xff,
  0xff, 0x10, 0x00, 0x00, 0x00, 0x54, 0x00, 0x00, 0x00, 0x74, 0x00, 0x00, 0x00,
  0x94, 0x00, 0x00, 0x00, 0x08, 0x00, 0x00, 0x00, 0x00, 0x00, 0x00, 0x00, 0x00,
  0x00, 0x00, 0x00, 0x00, 0x00, 0x00, 0x00, 0x00, 0x00, 0x00, 0x00, 0x00, 0x00,
  0x00, 0x00, 0x00, 0x00, 0x00, 0x00, 0x00, 0x00, 0x00, 0x00, 0x00, 0x00, 0x00,
  0x00, 0x00, 0x00, 0x00, 0x00, 0x00, 0x00, 0x00, 0x00, 0x00, 0x00, 0x00, 0x00,
  0x00, 0x00, 0x00, 0x00, 0x00, 0x00, 0x00, 0x00, 0x00, 0x00, 0x00, 0x00, 0x00,
  0x00, 0x00, 0x00, 0x00, 0x00, 0x00, 0x00, 0x00, 0x00, 0x00, 0x00, 0x08, 0x00,
  0x00, 0x00, 0x86, 0xc8, 0x20, 0x3c, 0xb4, 0xfa, 0xea, 0x3b, 0x63, 0x0d, 0xa3,
  0x3b, 0x28, 0xfc, 0x44, 0x3c, 0x73, 0xf7, 0xb6, 0x3c, 0x91, 0xf4, 0x01, 0x3c,
  0x1e, 0x88, 0x38, 0x3c, 0x76, 0x58, 0x9a, 0x3c, 0x08, 0x00, 0x00, 0x00, 0xe9,
  0xb2, 0x58, 0x3e, 0xbf, 0x24, 0x69, 0x3f, 0x48, 0xc7, 0x21, 0x3f, 0x30, 0x72,
  0xc3, 0x3f, 0x6e, 0x30, 0x0c, 0x40, 0xa8, 0xf0, 0x80, 0x3f, 0x0e, 0x17, 0xb7,
  0x3f, 0x44, 0xf3, 0xc4, 0x3e, 0x08, 0x00, 0x00, 0x00, 0xf5, 0x86, 0x9f, 0xbf,
  0x4c, 0x8d, 0x32, 0xbf, 0x54, 0xa7, 0xf6, 0xbe, 0xfb, 0x41, 0xb2, 0xbf, 0x84,
  0x89, 0x35, 0xc0, 0x8f, 0x86, 0x03, 0xbf, 0xf3, 0x49, 0x38, 0xbe, 0xc5, 0x23,
  0x19, 0xc0, 0x09, 0x00, 0x00, 0x00, 0x43, 0x6f, 0x6e, 0x76, 0x32, 0x44, 0x5f,
  0x31, 0x31, 0x00, 0x00, 0x00, 0x04, 0x00, 0x00, 0x00, 0x08, 0x00, 0x00, 0x00,
  0x01, 0x00, 0x00, 0x00, 0x01, 0x00, 0x00, 0x00, 0x08, 0x00, 0x00, 0x00, 0xf6,
  0xca, 0xff, 0xff, 0x14, 0x00, 0x00, 0x00, 0xd8, 0x00, 0x00, 0x00, 0x33, 0x00,
  0x00, 0x00, 0x00, 0x00, 0x00, 0x09, 0xe0, 0x00, 0x00, 0x00, 0x02, 0xd3, 0xff,
  0xff, 0x03, 0x00, 0x00, 0x00, 0x10, 0x00, 0x00, 0x00, 0x50, 0x00, 0x00, 0x00,
  0x70, 0x00, 0x00, 0x00, 0x90, 0x00, 0x00, 0x00, 0x08, 0x00, 0x00, 0x00, 0x00,
  0x00, 0x00, 0x00, 0x00, 0x00, 0x00, 0x00, 0x00, 0x00, 0x00, 0x00, 0x00, 0x00,
  0x00, 0x00, 0x00, 0x00, 0x00, 0x00, 0x00, 0x00, 0x00, 0x00, 0x00, 0x00, 0x00,
  0x00, 0x00, 0x00, 0x00, 0x00, 0x00, 0x00, 0x00, 0x00, 0x00, 0x00, 0x00, 0x00,
  0x00, 0x00, 0x00, 0x00, 0x00, 0x00, 0x00, 0x00, 0x00, 0x00, 0x00, 0x00, 0x00,
  0x00, 0x00, 0x00, 0x00, 0x00, 0x00, 0x00, 0x00, 0x00, 0x00, 0x00, 0x08, 0x00,
  0x00, 0x00, 0x26, 0x15, 0x3c, 0x3c, 0x69, 0xc9, 0x01, 0x3c, 0x9b, 0x64, 0x67,
  0x3b, 0x7e, 0xe1, 0xe3, 0x3b, 0xa8, 0xd7, 0xe2, 0x3b, 0xf5, 0x49, 0x4d, 0x3c,
  0x59, 0x39, 0x83, 0x3b, 0x04, 0x00, 0xa7, 0x3b, 0x08, 0x00, 0x00, 0x00, 0x4f,
  0x6b, 0x4c, 0x3e, 0x6e, 0xf0, 0xe1, 0xbb, 0xd2, 0x95, 0xe5, 0x3e, 0x3e, 0xff,
  0x9b, 0xbe, 0xf9, 0x11, 0x61, 0x3f, 0x34, 0xbf, 0x84, 0x3e, 0x6c, 0x2a, 0xda,
  0x3c, 0xbd, 0x97, 0x21, 0x3f, 0x08, 0x00, 0x00, 0x00, 0xfc, 0x9c, 0xba, 0xbf,
  0xd6, 0xc5, 0x80, 0xbf, 0x9e, 0xee, 0x22, 0x3b, 0xbb, 0x19, 0x62, 0xbf, 0xc1,
  0x42, 0x15, 0xbe, 0x61, 0xaf, 0xcb, 0xbf, 0xe6, 0x32, 0x02, 0xbf, 0x04, 0xb2,
  0x25, 0xbf, 0x0c, 0x00, 0x00, 0x00, 0x64, 0x65, 0x70, 0x74, 0x68, 0x77, 0x69,
  0x73, 0x65, 0x5f, 0x32, 0x33, 0x00, 0x00, 0x00, 0x00, 0x04, 0x00, 0x00, 0x00,
  0x01, 0x00, 0x00, 0x00, 0x01, 0x00, 0x00, 0x00, 0x03, 0x00, 0x00, 0x00, 0x08,
  0x00, 0x00, 0x00, 0xfe, 0xcb, 0xff, 0xff, 0x14, 0x00, 0x00, 0x00, 0xdc, 0x00,
  0x00, 0x00, 0x32, 0x00, 0x00, 0x00, 0x00, 0x00, 0x00, 0x09, 0xe4, 0x00, 0x00,
  0x00, 0x0a, 0xd4, 0xff, 0xff, 0x03, 0x00, 0x00, 0x00, 0x10, 0x00, 0x00, 0x00,
  0x54, 0x00, 0x00, 0x00, 0x74, 0x00, 0x00, 0x00, 0x94, 0x00, 0x00, 0x00, 0x08,
  0x00, 0x00, 0x00, 0x00, 0x00, 0x00, 0x00, 0x00, 0x00, 0x00, 0x00, 0x00, 0x00,
  0x00, 0x00, 0x00, 0x00, 0x00, 0x00, 0x00, 0x00, 0x00, 0x00, 0x00, 0x00, 0x00,
  0x00, 0x00, 0x00, 0x00, 0x00, 0x00, 0x00, 0x00, 0x00, 0x00, 0x00, 0x00, 0x00,
  0x00, 0x00, 0x00, 0x00, 0x00, 0x00, 0x00, 0x00, 0x00, 0x00, 0x00, 0x00, 0x00,
  0x00, 0x00, 0x00, 0x00, 0x00, 0x00, 0x00, 0x00, 0x00, 0x00, 0x00, 0x00, 0x00,
  0x00, 0x00, 0x00, 0x00, 0x00, 0x00, 0x08, 0x00, 0x00, 0x00, 0xc8, 0x89, 0x2e,
  0x3c, 0x0f, 0x10, 0xd6, 0x3b, 0x50, 0x0e, 0x5e, 0x3b, 0xcd, 0x96, 0xca, 0x3b,
  0xdb, 0x6e, 0x92, 0x3b, 0xe5, 0xf9, 0x8e, 0x3b, 0x0b, 0x03, 0x6d, 0x3b, 0x31,
  0xab, 0xef, 0x3b, 0x08, 0x00, 0x00, 0x00, 0xb4, 0x2c, 0xad, 0x3f, 0xef, 0x63,
  0x54, 0x3f, 0x56, 0x28, 0xd5, 0x3e, 0x9f, 0x01, 0x49, 0x3f, 0xfd, 0x49, 0x11,
  0x3f, 0xf1, 0xdb, 0x0d, 0x3f, 0x05, 0x29, 0xeb, 0x3e, 0xe3, 0x04, 0x43, 0x3e,
  0x08, 0x00, 0x00, 0x00, 0xdc, 0xc2, 0x20, 0x3e, 0x65, 0x29, 0x19, 0x3f, 0x33,
  0x52, 0xdc, 0xbe, 0xfb, 0xc3, 0x88, 0xbe, 0xcf, 0x3e, 0x87, 0xbc, 0x6c, 0x29,
  0x2a, 0xbe, 0x37, 0x35, 0xe0, 0xbe, 0xdb, 0xcb, 0x6d, 0xbf, 0x0c, 0x00, 0x00,
  0x00, 0x64, 0x65, 0x70, 0x74, 0x68, 0x77, 0x69, 0x73, 0x65, 0x5f, 0x32, 0x32,
  0x00, 0x00, 0x00, 0x00, 0x04, 0x00, 0x00, 0x00, 0x01, 0x00, 0x00, 0x00, 0x03,
  0x00, 0x00, 0x00, 0x01, 0x00, 0x00, 0x00, 0x08, 0x00, 0x00, 0x00, 0x0a, 0xcd,
  0xff, 0xff, 0x14, 0x00, 0x00, 0x00, 0xd8, 0x00, 0x00, 0x00, 0x31, 0x00, 0x00,
  0x00, 0x00, 0x00, 0x00, 0x09, 0xdc, 0x00, 0x00, 0x00, 0xfc, 0xcc, 0xff, 0xff,
  0x10, 0x00, 0x00, 0x00, 0x54, 0x00, 0x00, 0x00, 0x74, 0x00, 0x00, 0x00, 0x94,
  0x00, 0x00, 0x00, 0x08, 0x00, 0x00, 0x00, 0x00, 0x00, 0x00, 0x00, 0x00, 0x00,
  0x00, 0x00, 0x00, 0x00, 0x00, 0x00, 0x00, 0x00, 0x00, 0x00, 0x00, 0x00, 0x00,
  0x00, 0x00, 0x00, 0x00, 0x00, 0x00, 0x00, 0x00, 0x00, 0x00, 0x00, 0x00, 0x00,
  0x00, 0x00, 0x00, 0x00, 0x00, 0x00, 0x00, 0x00, 0x00, 0x00, 0x00, 0x00, 0x00,
  0x00, 0x00, 0x00, 0x00, 0x00, 0x00, 0x00, 0x00, 0x00, 0x00, 0x00, 0x00, 0x00,
  0x00, 0x00, 0x00, 0x00, 0x00, 0x00, 0x00, 0x00, 0x00, 0x00, 0x08, 0x00, 0x00,
  0x00, 0xc7, 0x02, 0x8a, 0x3c, 0x5c, 0x75, 0x89, 0x3c, 0x8d, 0xde, 0x99, 0x3c,
  0xc4, 0x71, 0xf2, 0x3b, 0x3b, 0x53, 0xa3, 0x3c, 0xf5, 0xa8, 0x7a, 0x3c, 0x97,
  0x2c, 0xbc, 0x3c, 0xd6, 0xec, 0x3b, 0x3c, 0x08, 0x00, 0x00, 0x00, 0x53, 0x0f,
  0x9a, 0x3f, 0x71, 0x62, 0x08, 0x40, 0xe7, 0x1f, 0x65, 0x3f, 0xe0, 0x8c, 0x70,
  0x3f, 0x95, 0x0c, 0x22, 0x40, 0x7f, 0xb4, 0x8a, 0x3f, 0xc4, 0x63, 0x21, 0x40,
  0x3f, 0x58, 0x8a, 0x3f, 0x08, 0x00, 0x00, 0x00, 0xc1, 0xee, 0x08, 0xc0, 0xd1,
  0xe9, 0xbb, 0xbf, 0xd0, 0xaa, 0x18, 0xc0, 0x2b, 0xd8, 0x5b, 0xbf, 0xd6, 0xe4,
  0x10, 0xbf, 0xa3, 0xb3, 0xf8, 0xbf, 0x3e, 0xb4, 0x3a, 0xc0, 0xfc, 0x74, 0xba,
  0xbf, 0x09, 0x00, 0x00, 0x00, 0x43, 0x6f, 0x6e, 0x76, 0x32, 0x44, 0x5f, 0x31,
  0x30, 0x00, 0x00, 0x00, 0x04, 0x00, 0x00, 0x00, 0x08, 0x00, 0x00, 0x00, 0x01,
  0x00, 0x00, 0x00, 0x01, 0x00, 0x00, 0x00, 0x08, 0x00, 0x00, 0x00, 0x0e, 0xce,
  0xff, 0xff, 0x14, 0x00, 0x00, 0x00, 0xd8, 0x00, 0x00, 0x00, 0x30, 0x00, 0x00,
  0x00, 0x00, 0x00, 0x00, 0x09, 0xe0, 0x00, 0x00, 0x00, 0x1a, 0xd6, 0xff, 0xff,
  0x03, 0x00, 0x00, 0x00, 0x10, 0x00, 0x00, 0x00, 0x50, 0x00, 0x00, 0x00, 0x70,
  0x00, 0x00, 0x00, 0x90, 0x00, 0x00, 0x00, 0x08, 0x00, 0x00, 0x00, 0x00, 0x00,
  0x00, 0x00, 0x00, 0x00, 0x00, 0x00, 0x00, 0x00, 0x00, 0x00, 0x00, 0x00, 0x00,
  0x00, 0x00, 0x00, 0x00, 0x00, 0x00, 0x00, 0x00, 0x00, 0x00, 0x00, 0x00, 0x00,
  0x00, 0x00, 0x00, 0x00, 0x00, 0x00, 0x00, 0x00, 0x00, 0x00, 0x00, 0x00, 0x00,
  0x00, 0x00, 0x00, 0x00, 0x00, 0x00, 0x00, 0x00, 0x00, 0x00, 0x00, 0x00, 0x00,
  0x00, 0x00, 0x00, 0x00, 0x00, 0x00, 0x00, 0x00, 0x00, 0x00, 0x08, 0x00, 0x00,
  0x00, 0xfe, 0x31, 0x92, 0x3b, 0x1c, 0xd7, 0xce, 0x3b, 0x51, 0x7f, 0x51, 0x3b,
  0xcb, 0xa2, 0x9f, 0x3b, 0xcf, 0xd9, 0xc0, 0x3b, 0x45, 0xf2, 0x7c, 0x3b, 0x65,
