const unsigned char sr3by2ai_2_tflite[] = {
  0x1c, 0x00, 0x00, 0x00, 0x54, 0x46, 0x4c, 0x33, 0x00, 0x00, 0x12, 0x00, 0x1c,
  0x00, 0x18, 0x00, 0x14, 0x00, 0x10, 0x00, 0x0c, 0x00, 0x08, 0x00, 0x00, 0x00,
  0x04, 0x00, 0x12, 0x00, 0x00, 0x00, 0x18, 0x00, 0x00, 0x00, 0x70, 0x00, 0x00,
  0x00, 0x6c, 0x12, 0x00, 0x00, 0x7c, 0x12, 0x00, 0x00, 0x38, 0x71, 0x00, 0x00,
  0x03, 0x00, 0x00, 0x00, 0x02, 0x00, 0x00, 0x00, 0x34, 0x00, 0x00, 0x00, 0x04,
  0x00, 0x00, 0x00, 0xdc, 0xff, 0xff, 0xff, 0x68, 0x00, 0x00, 0x00, 0x04, 0x00,
  0x00, 0x00, 0x13, 0x00, 0x00, 0x00, 0x43, 0x4f, 0x4e, 0x56, 0x45, 0x52, 0x53,
  0x49, 0x4f, 0x4e, 0x5f, 0x4d, 0x45, 0x54, 0x41, 0x44, 0x41, 0x54, 0x41, 0x00,
  0x08, 0x00, 0x0c, 0x00, 0x08, 0x00, 0x04, 0x00, 0x08, 0x00, 0x00, 0x00, 0x67,
  0x00, 0x00, 0x00, 0x04, 0x00, 0x00, 0x00, 0x13, 0x00, 0x00, 0x00, 0x6d, 0x69,
  0x6e, 0x5f, 0x72, 0x75, 0x6e, 0x74, 0x69, 0x6d, 0x65, 0x5f, 0x76, 0x65, 0x72,
  0x73, 0x69, 0x6f, 0x6e, 0x00, 0x69, 0x00, 0x00, 0x00, 0xf8, 0x11, 0x00, 0x00,
  0xf0, 0x11, 0x00, 0x00, 0x80, 0x11, 0x00, 0x00, 0x18, 0x11, 0x00, 0x00, 0xc8,
  0x10, 0x00, 0x00, 0x78, 0x10, 0x00, 0x00, 0xe8, 0x0f, 0x00, 0x00, 0x78, 0x0f,
  0x00, 0x00, 0x18, 0x0f, 0x00, 0x00, 0xc8, 0x0e, 0x00, 0x00, 0x78, 0x0e, 0x00,
  0x00, 0x60, 0x0e, 0x00, 0x00, 0x48, 0x0e, 0x00, 0x00, 0x34, 0x0e, 0x00, 0x00,
  0x20, 0x0e, 0x00, 0x00, 0x90, 0x0d, 0x00, 0x00, 0x70, 0x0d, 0x00, 0x00, 0x30,
  0x0d, 0x00, 0x00, 0xf0, 0x0c, 0x00, 0x00, 0x80, 0x0c, 0x00, 0x00, 0xb0, 0x0b,
  0x00, 0x00, 0x7c, 0x0b, 0x00, 0x00, 0x48, 0x0b, 0x00, 0x00, 0xa8, 0x0a, 0x00,
  0x00, 0x68, 0x0a, 0x00, 0x00, 0x28, 0x0a, 0x00, 0x00, 0x58, 0x09, 0x00, 0x00,
  0x24, 0x09, 0x00, 0x00, 0xf0, 0x08, 0x00, 0x00, 0x90, 0x08, 0x00, 0x00, 0x08,
  0x08, 0x00, 0x00, 0xd8, 0x07, 0x00, 0x00, 0xa8, 0x07, 0x00, 0x00, 0x34, 0x07,
  0x00, 0x00, 0x00, 0x07, 0x00, 0x00, 0xcc, 0x06, 0x00, 0x00, 0x44, 0x06, 0x00,
  0x00, 0x14, 0x06, 0x00, 0x00, 0xe4, 0x05, 0x00, 0x00, 0x94, 0x05, 0x00, 0x00,
  0x34, 0x05, 0x00, 0x00, 0x0c, 0x05, 0x00, 0x00, 0xe4, 0x04, 0x00, 0x00, 0x94,
  0x04, 0x00, 0x00, 0x64, 0x04, 0x00, 0x00, 0x34, 0x04, 0x00, 0x00, 0xd4, 0x03,
  0x00, 0x00, 0xac, 0x03, 0x00, 0x00, 0x84, 0x03, 0x00, 0x00, 0x34, 0x03, 0x00,
  0x00, 0x0c, 0x03, 0x00, 0x00, 0xe4, 0x02, 0x00, 0x00, 0x94, 0x02, 0x00, 0x00,
  0x6c, 0x02, 0x00, 0x00, 0x44, 0x02, 0x00, 0x00, 0x2c, 0x02, 0x00, 0x00, 0x14,
  0x02, 0x00, 0x00, 0xe4, 0x01, 0x00, 0x00, 0xdc, 0x01, 0x00, 0x00, 0xd4, 0x01,
  0x00, 0x00, 0xcc, 0x01, 0x00, 0x00, 0xc4, 0x01, 0x00, 0x00, 0xbc, 0x01, 0x00,
  0x00, 0xb4, 0x01, 0x00, 0x00, 0xac, 0x01, 0x00, 0x00, 0xa4, 0x01, 0x00, 0x00,
  0x9c, 0x01, 0x00, 0x00, 0x94, 0x01, 0x00, 0x00, 0x8c, 0x01, 0x00, 0x00, 0x84,
  0x01, 0x00, 0x00, 0x7c, 0x01, 0x00, 0x00, 0x74, 0x01, 0x00, 0x00, 0x6c, 0x01,
  0x00, 0x00, 0x64, 0x01, 0x00, 0x00, 0x5c, 0x01, 0x00, 0x00, 0x54, 0x01, 0x00,
  0x00, 0x4c, 0x01, 0x00, 0x00, 0x44, 0x01, 0x00, 0x00, 0x3c, 0x01, 0x00, 0x00,
  0x34, 0x01, 0x00, 0x00, 0x2c, 0x01, 0x00, 0x00, 0x24, 0x01, 0x00, 0x00, 0x1c,
  0x01, 0x00, 0x00, 0x14, 0x01, 0x00, 0x00, 0x0c, 0x01, 0x00, 0x00, 0x04, 0x01,
  0x00, 0x00, 0xfc, 0x00, 0x00, 0x00, 0xf4, 0x00, 0x00, 0x00, 0xec, 0x00, 0x00,
  0x00, 0xe4, 0x00, 0x00, 0x00, 0xdc, 0x00, 0x00, 0x00, 0xd4, 0x00, 0x00, 0x00,
  0xcc, 0x00, 0x00, 0x00, 0xc4, 0x00, 0x00, 0x00, 0xbc, 0x00, 0x00, 0x00, 0xb4,
  0x00, 0x00, 0x00, 0xac, 0x00, 0x00, 0x00, 0xa4, 0x00, 0x00, 0x00, 0x9c, 0x00,
  0x00, 0x00, 0x94, 0x00, 0x00, 0x00, 0x8c, 0x00, 0x00, 0x00, 0x84, 0x00, 0x00,
  0x00, 0x7c, 0x00, 0x00, 0x00, 0x5c, 0x00, 0x00, 0x00, 0x04, 0x00, 0x00, 0x00,
  0x22, 0xf0, 0xff, 0xff, 0x04, 0x00, 0x00, 0x00, 0x48, 0x00, 0x00, 0x00, 0x04,
  0x00, 0x00, 0x00, 0xdc, 0xff, 0xff, 0xff, 0x10, 0x00, 0x00, 0x00, 0x24, 0x00,
  0x00, 0x00, 0x00, 0x00, 0x06, 0x00, 0x08, 0x00, 0x04, 0x00, 0x06, 0x00, 0x00,
  0x00, 0x04, 0x00, 0x00, 0x00, 0x01, 0x00, 0x00, 0x00, 0xec, 0x03, 0x00, 0x00,
  0x08, 0x00, 0x0c, 0x00, 0x08, 0x00, 0x04, 0x00, 0x08, 0x00, 0x00, 0x00, 0x01,
  0x00, 0x00, 0x00, 0x04, 0x00, 0x00, 0x00, 0x06, 0x00, 0x00, 0x00, 0x32, 0x2e,
  0x31, 0x30, 0x2e, 0x30, 0x00, 0x00, 0x76, 0xf0, 0xff, 0xff, 0x04, 0x00, 0x00,
  0x00, 0x10, 0x00, 0x00, 0x00, 0x31, 0x2e, 0x37, 0x2e, 0x30, 0x00, 0x00, 0x00,
  0x00, 0x00, 0x00, 0x00, 0x00, 0x00, 0x00, 0x00, 0x8c, 0xca, 0xff, 0xff, 0x90,
  0xca, 0xff, 0xff, 0x94, 0xca, 0xff, 0xff, 0x98, 0xca, 0xff, 0xff, 0x9c, 0xca,
  0xff, 0xff, 0xa0, 0xca, 0xff, 0xff, 0xa4, 0xca, 0xff, 0xff, 0xa8, 0xca, 0xff,
  0xff, 0xac, 0xca, 0xff, 0xff, 0xb0, 0xca, 0xff, 0xff, 0xb4, 0xca, 0xff, 0xff,
  0xb8, 0xca, 0xff, 0xff, 0xbc, 0xca, 0xff, 0xff, 0xc0, 0xca, 0xff, 0xff, 0xc4,
  0xca, 0xff, 0xff, 0xc8, 0xca, 0xff, 0xff, 0xcc, 0xca, 0xff, 0xff, 0xd0, 0xca,
  0xff, 0xff, 0xd4, 0xca, 0xff, 0xff, 0xd8, 0xca, 0xff, 0xff, 0xdc, 0xca, 0xff,
  0xff, 0xe0, 0xca, 0xff, 0xff, 0xe4, 0xca, 0xff, 0xff, 0xe8, 0xca, 0xff, 0xff,
  0xec, 0xca, 0xff, 0xff, 0xf0, 0xca, 0xff, 0xff, 0xf4, 0xca, 0xff, 0xff, 0xf8,
  0xca, 0xff, 0xff, 0xfc, 0xca, 0xff, 0xff, 0x00, 0xcb, 0xff, 0xff, 0x04, 0xcb,
  0xff, 0xff, 0x08, 0xcb, 0xff, 0xff, 0x0c, 0xcb, 0xff, 0xff, 0x10, 0xcb, 0xff,
  0xff, 0x14, 0xcb, 0xff, 0xff, 0x18, 0xcb, 0xff, 0xff, 0x1c, 0xcb, 0xff, 0xff,
  0x20, 0xcb, 0xff, 0xff, 0x24, 0xcb, 0xff, 0xff, 0x28, 0xcb, 0xff, 0xff, 0x2c,
  0xcb, 0xff, 0xff, 0x30, 0xcb, 0xff, 0xff, 0x34, 0xcb, 0xff, 0xff, 0x38, 0xcb,
  0xff, 0xff, 0x3c, 0xcb, 0xff, 0xff, 0x46, 0xf1, 0xff, 0xff, 0x04, 0x00, 0x00,
  0x00, 0x20, 0x00, 0x00, 0x00, 0x00, 0x00, 0x00, 0x00, 0x00, 0x00, 0x00, 0x00,
  0x01, 0x00, 0x00, 0x00, 0x01, 0x00, 0x00, 0x00, 0x01, 0x00, 0x00, 0x00, 0x01,
  0x00, 0x00, 0x00, 0x00, 0x00, 0x00, 0x00, 0x00, 0x00, 0x00, 0x00, 0x72, 0xf1,
  0xff, 0xff, 0x04, 0x00, 0x00, 0x00, 0x08, 0x00, 0x00, 0x00, 0x3a, 0x04, 0x00,
  0x00, 0x82, 0x07, 0x00, 0x00, 0x86, 0xf1, 0xff, 0xff, 0x04, 0x00, 0x00, 0x00,
  0x08, 0x00, 0x00, 0x00, 0x22, 0x2a, 0xde, 0xdd, 0x7f, 0xe0, 0x2c, 0x15, 0x9a,
  0xf1, 0xff, 0xff, 0x04, 0x00, 0x00, 0x00, 0x18, 0x00, 0x00, 0x00, 0x81, 0x3f,
  0x7f, 0x39, 0x81, 0x82, 0x7f, 0x81, 0xd7, 0xfe, 0x0f, 0x81, 0xd5, 0x7f, 0x78,
  0x47, 0x1b, 0x7f, 0xf3, 0x4d, 0x0e, 0xb9, 0xd0, 0x54, 0xbe, 0xf1, 0xff, 0xff,
  0x04, 0x00, 0x00, 0x00, 0x18, 0x00, 0x00, 0x00, 0x81, 0x64, 0x7f, 0xa0, 0x4c,
  0xc2, 0x50, 0x21, 0x3c, 0x46, 0xc8, 0x81, 0x81, 0x7f, 0x81, 0x81, 0xa7, 0x7f,
  0xef, 0xe2, 0x2a, 0x21, 0xbb, 0x0a, 0xe2, 0xf1, 0xff, 0xff, 0x04, 0x00, 0x00,
  0x00, 0x40, 0x00, 0x00, 0x00, 0x68, 0x37, 0x81, 0x71, 0x21, 0x5b, 0xe7, 0x9f,
  0x10, 0x0b, 0x47, 0x19, 0x81, 0xa8, 0xdc, 0xea, 0xd3, 0x21, 0xf8, 0x81, 0x23,
  0xeb, 0xdd, 0x2e, 0xff, 0x81, 0x98, 0xf5, 0x11, 0xfa, 0x5b, 0x08, 0x65, 0x15,
  0xf5, 0xf8, 0x08, 0x17, 0xef, 0x81, 0xf9, 0x81, 0x9b, 0xf5, 0xf9, 0x14, 0x6e,
  0x0f, 0x35, 0xd8, 0xb2, 0x76, 0x7f, 0x88, 0xfb, 0x91, 0x58, 0xe0, 0x81, 0x3c,
  0xe4, 0x6e, 0x13, 0xa0, 0x2e, 0xf2, 0xff, 0xff, 0x04, 0x00, 0x00, 0x00, 0x18,
  0x00, 0x00, 0x00, 0x01, 0xd2, 0xd6, 0x02, 0xdb, 0x8c, 0x11, 0xfe, 0xfb, 0x81,
  0x81, 0xf3, 0x7f, 0xef, 0x7f, 0x0b, 0x7f, 0xba, 0x70, 0x7f, 0xe0, 0x7f, 0x2d,
  0x7f, 0x52, 0xf2, 0xff, 0xff, 0x04, 0x00, 0x00, 0x00, 0x18, 0x00, 0x00, 0x00,
  0xaa, 0x0d, 0x07, 0x2c, 0x22, 0x06, 0xf9, 0x97, 0x7f, 0x81, 0x81, 0x12, 0x81,
  0x81, 0x7f, 0x7f, 0x13, 0x06, 0x0d, 0x81, 0x11, 0xfa, 0xf4, 0x20, 0x76, 0xf2,
  0xff, 0xff, 0x04, 0x00, 0x00, 0x00, 0x40, 0x00, 0x00, 0x00, 0x99, 0x08, 0xb6,
  0x89, 0x81, 0x73, 0xe6, 0x8c, 0xc6, 0x81, 0x0d, 0x01, 0xff, 0xb6, 0xae, 0x06,
  0xb5, 0x98, 0x81, 0x09, 0x02, 0x07, 0x31, 0x21, 0xe7, 0xfa, 0xd5, 0x81, 0x1c,
  0xec, 0xe4, 0xfe, 0xc0, 0x52, 0x7f, 0x12, 0x19, 0x60, 0x57, 0x15, 0xbd, 0x81,
  0xf8, 0x05, 0xff, 0xba, 0xa3, 0x32, 0x94, 0x81, 0x87, 0x0d, 0x09, 0x3e, 0x65,
  0x3a, 0x9f, 0x0d, 0xdb, 0xd6, 0x7f, 0x72, 0xdc, 0x83, 0xc2, 0xf2, 0xff, 0xff,
  0x04, 0x00, 0x00, 0x00, 0x18, 0x00, 0x00, 0x00, 0x7f, 0x7f, 0x7f, 0x81, 0x81,
  0x81, 0x7f, 0x1a, 0x66, 0x64, 0xed, 0xf1, 0xf6, 0xf2, 0x6d, 0x7b, 0x00, 0xf0,
  0x08, 0xff, 0xff, 0x15, 0xc6, 0x7f, 0xe6, 0xf2, 0xff, 0xff, 0x04, 0x00, 0x00,
  0x00, 0x18, 0x00, 0x00, 0x00, 0x1c, 0xde, 0xff, 0xff, 0x00, 0x00, 0x1f, 0xc0,
  0x7f, 0x81, 0x81, 0x04, 0x81, 0x7f, 0x7f, 0x81, 0x29, 0xda, 0xfa, 0x7f, 0x20,
  0x01, 0x1f, 0x9d, 0x0a, 0xf3, 0xff, 0xff, 0x04, 0x00, 0x00, 0x00, 0x50, 0x00,
  0x00, 0x00, 0x0e, 0xcf, 0xcd, 0x46, 0x05, 0xaa, 0x25, 0x7f, 0x56, 0x3e, 0x81,
  0xd3, 0xcf, 0x6d, 0x5d, 0x9f, 0xd0, 0xec, 0xf9, 0x51, 0xd9, 0xc0, 0xcc, 0x11,
  0x0a, 0xc2, 0x94, 0x7f, 0xb7, 0xbf, 0x7f, 0x12, 0xbe, 0x55, 0x06, 0x04, 0x03,
  0xe7, 0x27, 0xfa, 0xf0, 0xe3, 0x92, 0x68, 0x81, 0xaa, 0x5a, 0x08, 0x46, 0xc0,
  0x50, 0x0b, 0x27, 0xd5, 0x42, 0x7a, 0x03, 0xb6, 0x7f, 0x2b, 0x15, 0x9a, 0x23,
  0xf1, 0x7f, 0x43, 0xa5, 0x19, 0x59, 0xf5, 0xed, 0xc5, 0xcf, 0x2d, 0xc9, 0xbd,
  0x06, 0x7f, 0xd0, 0xc4, 0x66, 0xf3, 0xff, 0xff, 0x04, 0x00, 0x00, 0x00, 0x1e,
  0x00, 0x00, 0x00, 0x0d, 0xbe, 0xd6, 0xfb, 0x07, 0x08, 0xf7, 0x24, 0x09, 0x03,
  0x0c, 0x7f, 0x7f, 0x1f, 0xf4, 0xd9, 0x14, 0xd5, 0xf8, 0x01, 0x7f, 0xec, 0x17,
  0x7f, 0x7f, 0x81, 0x81, 0x7f, 0x7f, 0x81, 0x00, 0x00, 0x92, 0xf3, 0xff, 0xff,
  0x04, 0x00, 0x00, 0x00, 0x1e, 0x00, 0x00, 0x00, 0x7f, 0x5f, 0xe9, 0x7f, 0x0a,
  0xb1, 0xf1, 0xd2, 0xca, 0x02, 0x57, 0x7f, 0x81, 0xb4, 0x7f, 0x81, 0x7f, 0x81,
  0x81, 0x81, 0x10, 0x11, 0xdb, 0xc7, 0xf6, 0xe8, 0xf4, 0x04, 0x03, 0x1d, 0x00,
  0x00, 0xbe, 0xf3, 0xff, 0xff, 0x04, 0x00, 0x00, 0x00, 0x40, 0x00, 0x00, 0x00,
  0x81, 0x9d, 0xea, 0xfa, 0x67, 0xef, 0xe5, 0x10, 0x81, 0x0d, 0xfe, 0xfa, 0x50,
  0xff, 0xe7, 0x07, 0x7c, 0x81, 0xff, 0x16, 0xac, 0x1b, 0x56, 0xef, 0x7f, 0xff,
  0xdd, 0x1c, 0xb9, 0xfb, 0x50, 0xbd, 0xed, 0xfc, 0x81, 0x48, 0x25, 0xb6, 0xe6,
  0x35, 0x7f, 0x7a, 0xee, 0x08, 0xbf, 0xda, 0xd2, 0x44, 0xa7, 0x9e, 0xf5, 0xec,
  0x06, 0xe8, 0x81, 0x4d, 0xbf, 0x81, 0x1e, 0xef, 0xd4, 0x15, 0xef, 0x04, 0x0a,
  0xf4, 0xff, 0xff, 0x04, 0x00, 0x00, 0x00, 0x18, 0x00, 0x00, 0x00, 0x01, 0x15,
  0x03, 0x02, 0x04, 0xf5, 0x05, 0x03, 0xe6, 0xec, 0xe9, 0x09, 0xf4, 0x0d, 0x03,
  0x10, 0x7f, 0x7f, 0x7f, 0x7f, 0x81, 0x81, 0x81, 0x7f, 0x2e, 0xf4, 0xff, 0xff,
  0x04, 0x00, 0x00, 0x00, 0x18, 0x00, 0x00, 0x00, 0x81, 0x7f, 0x31, 0x2a, 0x81,
  0x81, 0x81, 0x88, 0x65, 0xf4, 0x7f, 0x7f, 0x41, 0x84, 0x7f, 0x81, 0xff, 0x04,
  0x58, 0x5f, 0x1a, 0xde, 0x03, 0x03, 0x52, 0xf4, 0xff, 0xff, 0x04, 0x00, 0x00,
  0x00, 0x50, 0x00, 0x00, 0x00, 0x78, 0x9f, 0x12, 0x81, 0x5f, 0xd8, 0x3c, 0x12,
  0x0b, 0xfe, 0xfb, 0xfa, 0xf3, 0x04, 0x04, 0xfe, 0xf5, 0x7f, 0xf4, 0xab, 0xb7,
  0x0d, 0x03, 0x13, 0x58, 0x05, 0x78, 0x14, 0x7f, 0xe0, 0x06, 0x97, 0x81, 0x22,
  0xc5, 0x5f, 0xa8, 0xea, 0xa5, 0x19, 0x7b, 0x7f, 0x13, 0x04, 0xcd, 0x56, 0xc7,
  0x0f, 0x62, 0xdb, 0x58, 0x09, 0xec, 0xe8, 0x81, 0x00, 0x02, 0xf7, 0x27, 0x03,
  0x33, 0xf3, 0x81, 0x82, 0xae, 0x72, 0xc5, 0x06, 0x32, 0xe5, 0x78, 0xb9, 0x91,
  0x0c, 0x7f, 0x72, 0xcf, 0x07, 0x6f, 0xdb, 0xae, 0xf4, 0xff, 0xff, 0x04, 0x00,
  0x00, 0x00, 0x40, 0x00, 0x00, 0x00, 0x00, 0x00, 0x00, 0x00, 0x00, 0x00, 0x00,
  0x00, 0x00, 0x00, 0x00, 0x00, 0x00, 0x00, 0x00, 0x00, 0x00, 0x00, 0x00, 0x00,
  0x00, 0x00, 0x00, 0x00, 0x00, 0x00, 0x00, 0x00, 0x00, 0x00, 0x00, 0x00, 0x00,
  0x00, 0x00, 0x00, 0x00, 0x00, 0x00, 0x00, 0x00, 0x00, 0x00, 0x00, 0x00, 0x00,
  0x00, 0x00, 0x00, 0x00, 0x00, 0x00, 0x00, 0x00, 0x00, 0x00, 0x00, 0x00, 0x00,
  0x00, 0x00, 0x00, 0x00, 0x00, 0xfa, 0xf4, 0xff, 0xff, 0x04, 0x00, 0x00, 0x00,
  0x1e, 0x00, 0x00, 0x00, 0x29, 0xe6, 0x7f, 0x1b, 0xd6, 0x30, 0xa5, 0x12, 0x34,
  0xb6, 0x7f, 0x81, 0x32, 0x7f, 0x81, 0x7f, 0xe5, 0x81, 0x7f, 0x7f, 0x14, 0xe7,
  0x15, 0x11, 0xd9, 0x1f, 0x81, 0x11, 0x34, 0xa6, 0x00, 0x00, 0x26, 0xf5, 0xff,
  0xff, 0x04, 0x00, 0x00, 0x00, 0x1e, 0x00, 0x00, 0x00, 0x81, 0xf9, 0xd3, 0x81,
  0x25, 0x53, 0x81, 0x00, 0x30, 0x06, 0xe2, 0x7f, 0x81, 0x60, 0xc4, 0x81, 0x9b,
  0x27, 0x7f, 0xf4, 0x3f, 0x0a, 0xf8, 0x22, 0x7f, 0x1c, 0x2f, 0x7f, 0xfb, 0x81,
  0x00, 0x00, 0x52, 0xf5, 0xff, 0xff, 0x04, 0x00, 0x00, 0x00, 0x78, 0x00, 0x00,
  0x00, 0x0a, 0x0a, 0xde, 0x14, 0x1c, 0x03, 0x7f, 0x59, 0xe9, 0xca, 0x1d, 0xde,
  0xa7, 0x19, 0x5d, 0x97, 0xaf, 0xd9, 0xed, 0xa9, 0x65, 0x81, 0x99, 0x8e, 0x37,
  0xf7, 0x7f, 0xf1, 0x09, 0x10, 0x09, 0x02, 0xdf, 0x46, 0x56, 0xf3, 0x7f, 0x23,
  0x3b, 0x0e, 0x21, 0xb1, 0x0b, 0x1c, 0xc5, 0xf6, 0xf5, 0x66, 0x2c, 0x5f, 0x93,
  0xc8, 0x2b, 0x7f, 0x5a, 0x17, 0xa3, 0xfb, 0xc4, 0x6d, 0xb9, 0x7f, 0x31, 0xf0,
  0x1b, 0x16, 0xec, 0xc2, 0x71, 0x1c, 0x22, 0x59, 0xf6, 0x81, 0x43, 0x3e, 0xdd,
  0xc1, 0xa8, 0x17, 0x26, 0xca, 0x0f, 0xa8, 0xe1, 0x38, 0x24, 0x8c, 0x84, 0xd5,
  0x7f, 0x54, 0x32, 0xbf, 0x30, 0xdd, 0x2c, 0x5d, 0xe5, 0xe9, 0x91, 0x3d, 0x7f,
  0x3d, 0xe3, 0xbe, 0x2f, 0x28, 0xcb, 0x5f, 0x05, 0x39, 0x98, 0xb1, 0xee, 0x4e,
  0x7f, 0xf6, 0x9e, 0xd1, 0xd6, 0xf5, 0xff, 0xff, 0x04, 0x00, 0x00, 0x00, 0x24,
  0x00, 0x00, 0x00, 0x81, 0x81, 0xe3, 0x7f, 0x69, 0xb8, 0x81, 0x81, 0x7f, 0x7f,
  0x81, 0x81, 0x17, 0x26, 0x81, 0x28, 0x81, 0x81, 0x52, 0xad, 0xb0, 0x53, 0xe5,
  0xe3, 0x05, 0x1f, 0x2f, 0xff, 0x2a, 0x3d, 0xaa, 0xce, 0xfd, 0xbd, 0x04, 0xf6,
  0x06, 0xf6, 0xff, 0xff, 0x04, 0x00, 0x00, 0x00, 0x24, 0x00, 0x00, 0x00, 0x1a,
  0x7f, 0x24, 0x7f, 0xd0, 0x5e, 0x7f, 0x81, 0x26, 0x81, 0x81, 0x81, 0x7f, 0x2b,
  0x7f, 0x25, 0x81, 0x81, 0x0d, 0x07, 0x7f, 0x2d, 0xbe, 0xd9, 0x16, 0x0d, 0x18,
  0x0f, 0x0a, 0x71, 0x0a, 0x15, 0x02, 0xdf, 0x8f, 0xb9, 0x36, 0xf6, 0xff, 0xff,
  0x04, 0x00, 0x00, 0x00, 0x64, 0x00, 0x00, 0x00, 0x7f, 0x75, 0x5b, 0x22, 0xd9,
  0x40, 0x27, 0xd9, 0x13, 0x58, 0xee, 0xf5, 0x3a, 0x1b, 0x1e, 0x81, 0x49, 0x02,
  0x16, 0x10, 0xf4, 0x01, 0x2b, 0x0c, 0xf0, 0xb1, 0xef, 0x81, 0xfb, 0x03, 0x54,
  0x57, 0x56, 0xb7, 0x91, 0x86, 0x7f, 0xf1, 0x25, 0x65, 0x7f, 0x59, 0x48, 0x5e,
  0xf4, 0x18, 0x36, 0xd8, 0xdb, 0x59, 0xec, 0xf7, 0x0d, 0xbb, 0xc6, 0x81, 0xe5,
  0xfc, 0x04, 0xe8, 0x81, 0xb0, 0xd7, 0x3b, 0x2b, 0x1f, 0xbe, 0x22, 0xd5, 0xb9,
  0xb4, 0xf1, 0xe7, 0xd9, 0x07, 0xf2, 0x08, 0x0e, 0x7f, 0xba, 0x5b, 0x60, 0x7f,
  0x01, 0xa0, 0x33, 0x22, 0xde, 0x21, 0x5d, 0xe3, 0xea, 0xe6, 0xf0, 0xee, 0x7f,
  0xc0, 0x17, 0x6d, 0xe2, 0xa6, 0xf6, 0xff, 0xff, 0x04, 0x00, 0x00, 0x00, 0x1e,
  0x00, 0x00, 0x00, 0xf2, 0x7f, 0x53, 0xeb, 0xd5, 0x6d, 0xc1, 0x19, 0x1b, 0x06,
  0x7f, 0x1a, 0x7f, 0x7f, 0x81, 0x28, 0x81, 0x64, 0x7f, 0x81, 0xeb, 0x04, 0x76,
  0x1d, 0xfd, 0x7f, 0xe5, 0x7f, 0x14, 0x06, 0x00, 0x00, 0xd2, 0xf6, 0xff, 0xff,
  0x04, 0x00, 0x00, 0x00, 0x1e, 0x00, 0x00, 0x00, 0x81, 0x0e, 0xea, 0x81, 0x7f,
  0x97, 0x19, 0xd6, 0x81, 0xec, 0x71, 0x7f, 0x1c, 0xe5, 0x49, 0x81, 0xea, 0x81,
  0xef, 0x7f, 0x02, 0xff, 0x7f, 0xfb, 0x07, 0x18, 0x81, 0x2e, 0xfa, 0xf6, 0x00,
  0x00, 0xfe, 0xf6, 0xff, 0xff, 0x04, 0x00, 0x00, 0x00, 0x78, 0x00, 0x00, 0x00,
  0xfd, 0x04, 0x56, 0x02, 0xb1, 0x7f, 0x56, 0x4a, 0x6e, 0x04, 0x9d, 0x26, 0x7f,
  0x16, 0x30, 0x03, 0x0c, 0xff, 0xd2, 0x26, 0xea, 0xe9, 0xf5, 0xef, 0xe0, 0xed,
  0xd3, 0x25, 0xc5, 0xb5, 0x00, 0x36, 0x7f, 0x21, 0x5d, 0x62, 0x08, 0xbb, 0xe7,
  0x6a, 0x7f, 0x18, 0x0e, 0x1d, 0x08, 0xda, 0xf4, 0xf4, 0x06, 0xf7, 0xd8, 0x17,
  0xeb, 0x97, 0xbb, 0x15, 0xd4, 0x5a, 0x6a, 0x81, 0xf3, 0xf4, 0xc6, 0x3a, 0x11,
  0x81, 0x03, 0x67, 0x08, 0xc7, 0x0e, 0x20, 0x25, 0xd9, 0x1f, 0xf2, 0x0a, 0xfc,
  0x81, 0x26, 0xd5, 0x39, 0xf7, 0x0a, 0xf5, 0x4c, 0x39, 0x17, 0x03, 0xe6, 0xe6,
  0x74, 0x5e, 0xcd, 0x7f, 0xd6, 0xf7, 0x84, 0x1c, 0x51, 0x30, 0xfc, 0x12, 0x29,
  0x2f, 0x81, 0xff, 0xef, 0xfa, 0xfb, 0x7a, 0xfd, 0xf0, 0x55, 0x2f, 0x53, 0x4b,
  0x7f, 0xf9, 0x84, 0x82, 0xf7, 0xff, 0xff, 0x04, 0x00, 0x00, 0x00, 0x50, 0x00,
  0x00, 0x00, 0x00, 0x00, 0x00, 0x00, 0x00, 0x00, 0x00, 0x00, 0x00, 0x00, 0x00,
  0x00, 0x00, 0x00, 0x00, 0x00, 0x00, 0x00, 0x00, 0x00, 0x00, 0x00, 0x00, 0x00,
  0x00, 0x00, 0x00, 0x00, 0x00, 0x00, 0x00, 0x00, 0x00, 0x00, 0x00, 0x00, 0x00,
  0x00, 0x00, 0x00, 0x00, 0x00, 0x00, 0x00, 0x00, 0x00, 0x00, 0x00, 0x00, 0x00,
  0x00, 0x00, 0x00, 0x00, 0x00, 0x00, 0x00, 0x00, 0x00, 0x00, 0x00, 0x00, 0x00,
  0x00, 0x00, 0x00, 0x00, 0x00, 0x00, 0x00, 0x00, 0x00, 0x00, 0x00, 0x00, 0x00,
  0x00, 0x00, 0x00, 0x00, 0xde, 0xf7, 0xff, 0xff, 0x04, 0x00, 0x00, 0x00, 0x24,
  0x00, 0x00, 0x00, 0xdc, 0x7f, 0x7f, 0x7f, 0x6a, 0x7f, 0x06, 0x7f, 0x7f, 0x7f,
  0x81, 0x81, 0x7f, 0xad, 0x25, 0x1c, 0x7f, 0x67, 0x7f, 0xec, 0xce, 0xc6, 0xde,
  0xd5, 0x08, 0xf8, 0xf7, 0x07, 0x14, 0x52, 0x02, 0xff, 0xe7, 0x09, 0xfc, 0xf3,
  0x0e, 0xf8, 0xff, 0xff, 0x04, 0x00, 0x00, 0x00, 0x24, 0x00, 0x00, 0x00, 0x81,
  0x41, 0x5c, 0xd1, 0xfa, 0x7f, 0x81, 0xe1, 0x81, 0xff, 0xcd, 0x17, 0x66, 0x7f,
  0x81, 0x81, 0xee, 0x99, 0xbe, 0x7f, 0x35, 0x81, 0x9f, 0x81, 0x17, 0x0f, 0x2c,
  0xe3, 0x7f, 0xab, 0x03, 0xe4, 0x4b, 0xe3, 0x7f, 0xcc, 0x3e, 0xf8, 0xff, 0xff,
  0x04, 0x00, 0x00, 0x00, 0xc0, 0x00, 0x00, 0x00, 0x7f, 0xf5, 0x48, 0xcc, 0x06,
  0x36, 0x1e, 0xd0, 0x8e, 0x31, 0x09, 0xca, 0x09, 0xd8, 0x07, 0x9f, 0xbc, 0x78,
  0xf4, 0xf8, 0xb5, 0x20, 0x19, 0x76, 0x7f, 0xb9, 0x15, 0x21, 0xdd, 0xa7, 0xc2,
  0x6f, 0xf1, 0x81, 0xb1, 0xdb, 0xa5, 0x14, 0x0c, 0x56, 0x49, 0xcc, 0xdc, 0x10,
  0x2e, 0x2d, 0x0e, 0x40, 0xff, 0x18, 0x15, 0x81, 0x20, 0x0b, 0x41, 0x72, 0x9e,
  0x57, 0x3e, 0xd3, 0xe9, 0x4b, 0xf5, 0xd4, 0xb2, 0x4f, 0xfd, 0x42, 0xd5, 0x45,
  0x48, 0x1f, 0xf2, 0xcb, 0x77, 0x81, 0x81, 0x35, 0x0f, 0x6a, 0x7e, 0x40, 0x03,
  0x2c, 0x2b, 0x42, 0x70, 0xee, 0x21, 0xe7, 0xeb, 0x7f, 0x9f, 0x07, 0xed, 0xff,
  0x03, 0xdc, 0xe5, 0x7f, 0x04, 0xe8, 0xcf, 0xde, 0xea, 0x46, 0x19, 0xa6, 0x29,
  0x1c, 0x44, 0xfd, 0xf8, 0x81, 0xf9, 0xf6, 0x04, 0xd3, 0x27, 0xe9, 0x10, 0xc7,
  0x4e, 0xfe, 0xd2, 0x28, 0xc6, 0x20, 0x07, 0x5f, 0x14, 0x6c, 0x35, 0x08, 0xfa,
  0x15, 0x1d, 0x81, 0x26, 0x07, 0x54, 0xf5, 0x17, 0x0c, 0x10, 0xfb, 0xf7, 0x1d,
  0xff, 0xfa, 0xd3, 0x99, 0xbd, 0x35, 0x12, 0xc5, 0x24, 0x1c, 0x7f, 0xbc, 0x08,
  0x05, 0x37, 0xba, 0xf7, 0x26, 0x01, 0xf0, 0xe8, 0x13, 0xd5, 0xfb, 0x26, 0x7f,
  0x5e, 0xce, 0x09, 0x81, 0x1b, 0x0b, 0x05, 0x30, 0x13, 0xd8, 0xf1, 0xbf, 0xfd,
  0x31, 0xf9, 0x20, 0x22, 0xf8, 0x0a, 0xf9, 0xff, 0xff, 0x04, 0x00, 0x00, 0x00,
  0x30, 0x00, 0x00, 0x00, 0xb9, 0x09, 0x0f, 0x56, 0x42, 0x7f, 0x81, 0xa5, 0x7f,
  0x8a, 0xa9, 0x81, 0x7f, 0x3b, 0xa2, 0xd2, 0x13, 0x76, 0xe6, 0x1a, 0x8c, 0x9a,
  0x1c, 0xeb, 0xc3, 0x81, 0x81, 0x07, 0xfe, 0x81, 0x7f, 0x81, 0x7f, 0x81, 0x7f,
  0x7f, 0x81, 0x16, 0xd2, 0x7f, 0x12, 0x9c, 0x6d, 0x1d, 0xf0, 0x2b, 0x0e, 0x15,
  0x46, 0xf9, 0xff, 0xff, 0x04, 0x00, 0x00, 0x00, 0x30, 0x00, 0x00, 0x00, 0x81,
  0xae, 0x22, 0xa6, 0x32, 0x0d, 0x7f, 0xfe, 0x18, 0x3d, 0xc0, 0xa3, 0xfd, 0xbd,
  0x81, 0x40, 0x49, 0x81, 0x7f, 0x7f, 0x52, 0xbb, 0xff, 0xf8, 0x7f, 0x21, 0x81,
  0x7f, 0x29, 0x7f, 0x85, 0xef, 0x33, 0xb3, 0x95, 0xba, 0x81, 0x81, 0x38, 0x7f,
  0x89, 0x81, 0xef, 0xe3, 0x7f, 0xb4, 0x68, 0x81, 0x82, 0xf9, 0xff, 0xff, 0x04,
  0x00, 0x00, 0x00, 0x90, 0x00, 0x00, 0x00, 0xa2, 0x40, 0x0b, 0xf7, 0xea, 0xff,
  0x81, 0xb6, 0x01, 0xe8, 0xfd, 0x11, 0xe7, 0x81, 0xfa, 0xe9, 0xdd, 0xe1, 0xef,
  0x07, 0xde, 0xac, 0x08, 0x49, 0x1a, 0x8b, 0xe3, 0x21, 0x87, 0x84, 0x1d, 0x7f,
  0x07, 0xed, 0xeb, 0x16, 0x8a, 0x7f, 0x32, 0xed, 0xf5, 0xdf, 0x00, 0xe7, 0x01,
  0xfa, 0xb8, 0xb6, 0xd7, 0x07, 0xb3, 0x7f, 0x03, 0xed, 0xec, 0x22, 0x9e, 0xe1,
  0xda, 0xfb, 0xd4, 0x7f, 0xec, 0xdc, 0xe9, 0xe5, 0xe9, 0x0b, 0xfd, 0x11, 0xef,
  0xeb, 0x17, 0xa3, 0xbb, 0x31, 0xbd, 0x14, 0xd7, 0x03, 0x0f, 0xef, 0x7f, 0x16,
  0x1f, 0xee, 0x14, 0x1b, 0x81, 0x8b, 0xcd, 0x22, 0x1c, 0xea, 0xd8, 0x1d, 0x7f,
  0x22, 0xf5, 0x02, 0xd5, 0x06, 0x1e, 0x03, 0xf3, 0x74, 0x08, 0xa8, 0x32, 0x7f,
  0x1f, 0x11, 0xe6, 0xf9, 0x01, 0xe9, 0x20, 0x2f, 0xda, 0xd5, 0xba, 0x57, 0x0a,
  0xd0, 0x9d, 0xdf, 0x81, 0xd5, 0x08, 0x31, 0x11, 0xde, 0x0c, 0xaf, 0x7f, 0xd0,
  0x2b, 0x57, 0x10, 0xad, 0xba, 0x1f, 0x3c, 0xfe, 0x1e, 0xfa, 0xff, 0xff, 0x04,
  0x00, 0x00, 0x00, 0x24, 0x00, 0x00, 0x00, 0x37, 0x81, 0x81, 0x7f, 0x17, 0x7f,
  0x02, 0x81, 0x7f, 0x7f, 0x7f, 0xfa, 0x7f, 0x3d, 0x84, 0x01, 0x7f, 0x6c, 0x7f,
  0x96, 0xd1, 0x10, 0x37, 0x7f, 0x15, 0xf7, 0x07, 0x18, 0x01, 0x37, 0xfc, 0xec,
  0x06, 0x01, 0x11, 0x03, 0x4e, 0xfa, 0xff, 0xff, 0x04, 0x00, 0x00, 0x00, 0x24,
  0x00, 0x00, 0x00, 0x3b, 0xf0, 0x7f, 0xa3, 0x14, 0x27, 0x13, 0xe3, 0x18, 0xe0,
  0xee, 0x05, 0x7f, 0x7f, 0x98, 0x7f, 0x7f, 0x43, 0x81, 0xfb, 0xa9, 0x81, 0x81,
  0xdb, 0x01, 0xea, 0xfd, 0xfb, 0xc0, 0x81, 0x05, 0x7f, 0x81, 0xff, 0x8d, 0x81,
  0x7e, 0xfa, 0xff, 0xff, 0x04, 0x00, 0x00, 0x00, 0xc0, 0x00, 0x00, 0x00, 0xdf,
  0xce, 0xcc, 0x16, 0x04, 0x22, 0xce, 0xe0, 0xf3, 0x14, 0x1d, 0xf4, 0x81, 0x26,
  0xeb, 0xea, 0xfb, 0x60, 0x0f, 0xc5, 0x04, 0xff, 0x03, 0xff, 0x05, 0x81, 0xee,
  0xf9, 0x2e, 0xf8, 0xf6, 0x00, 0xf2, 0x03, 0xce, 0xec, 0xff, 0xff, 0x13, 0xd1,
  0xdf, 0x2e, 0x81, 0xe2, 0xb5, 0xe4, 0xe6, 0xcf, 0x32, 0x81, 0x1f, 0x58, 0xef,
  0xc9, 0x1a, 0x00, 0x2a, 0xa2, 0xc5, 0x00, 0x08, 0xf3, 0xf5, 0xe7, 0xcf, 0x1b,
  0xe2, 0xd6, 0xe9, 0xfb, 0x0f, 0x9b, 0xca, 0xae, 0xe9, 0xfa, 0xe2, 0xe7, 0x81,
  0xce, 0x05, 0x65, 0xfe, 0xd1, 0x1f, 0x81, 0x42, 0x1e, 0x0e, 0xf1, 0xc2, 0x20,
  0x39, 0xc7, 0x20, 0x04, 0x08, 0x11, 0x22, 0xdb, 0xbb, 0xf0, 0x17, 0x81, 0xe7,
  0x43, 0xf6, 0x1b, 0xd9, 0xf7, 0xab, 0x17, 0xd2, 0x35, 0xdf, 0x81, 0xf2, 0xe1,
  0x47, 0x12, 0x54, 0x2b, 0x3f, 0x13, 0xb7, 0xdd, 0xc5, 0xa9, 0x09, 0x03, 0xd6,
  0xfb, 0x7f, 0xde, 0x44, 0xf7, 0x07, 0xfd, 0xe6, 0x53, 0xf1, 0x37, 0xe2, 0x7f,
  0xe7, 0xc0, 0x6b, 0x12, 0x7f, 0xe2, 0xeb, 0x10, 0x18, 0xba, 0x20, 0x0d, 0x17,
  0xb5, 0xd1, 0xc7, 0xec, 0x04, 0xfc, 0xab, 0xcc, 0xfe, 0x10, 0x9e, 0x01, 0x39,
  0x01, 0x0b, 0xd1, 0xfa, 0x81, 0xf0, 0x2f, 0xfc, 0xe6, 0x24, 0x0f, 0xe7, 0xd0,
  0x2b, 0x1b, 0x13, 0x81, 0x48, 0xdc, 0x15, 0x0f, 0xa3, 0x4a, 0xfb, 0xff, 0xff,
  0x04, 0x00, 0x00, 0x00, 0x60, 0x00, 0x00, 0x00, 0x00, 0x00, 0x00, 0x00, 0x00,
  0x00, 0x00, 0x00, 0x00, 0x00, 0x00, 0x00, 0x00, 0x00, 0x00, 0x00, 0x00, 0x00,
  0x00, 0x00, 0x00, 0x00, 0x00, 0x00, 0x00, 0x00, 0x00, 0x00, 0x00, 0x00, 0x00,
  0x00, 0x00, 0x00, 0x00, 0x00, 0x00, 0x00, 0x00, 0x00, 0x00, 0x00, 0x00, 0x00,
  0x00, 0x00, 0x00, 0x00, 0x00, 0x00, 0x00, 0x00, 0x00, 0x00, 0x00, 0x00, 0x00,
  0x00, 0x00, 0x00, 0x00, 0x00, 0x00, 0x00, 0x00, 0x00, 0x00, 0x00, 0x00, 0x00,
  0x00, 0x00, 0x00, 0x00, 0x00, 0x00, 0x00, 0x00, 0x00, 0x00, 0x00, 0x00, 0x00,
  0x00, 0x00, 0x00, 0x00, 0x00, 0x00, 0x00, 0x00, 0x00, 0x00, 0x00, 0x00, 0x00,
  0xb6, 0xfb, 0xff, 0xff, 0x04, 0x00, 0x00, 0x00, 0x30, 0x00, 0x00, 0x00, 0x5a,
  0x2b, 0x1b, 0x0a, 0x26, 0x7f, 0x70, 0xf2, 0xdf, 0xf7, 0x5f, 0x7f, 0xf6, 0xe8,
  0xe9, 0x7f, 0x81, 0x06, 0x81, 0x81, 0x69, 0x1b, 0x8d, 0x7f, 0x7f, 0x7f, 0x81,
  0xc9, 0x7f, 0x7f, 0x81, 0xda, 0xbd, 0x7f, 0x64, 0xfc, 0x81, 0xf4, 0x81, 0x12,
  0xf2, 0x36, 0x27, 0x08, 0x1a, 0x92, 0xb9, 0x9e, 0xf2, 0xfb, 0xff, 0xff, 0x04,
  0x00, 0x00, 0x00, 0x30, 0x00, 0x00, 0x00, 0xfe, 0x7f, 0xdd, 0x7f, 0xed, 0x81,
  0xa3, 0x15, 0x7f, 0x55, 0x07, 0x07, 0xe2, 0x6a, 0xd9, 0xd3, 0x5e, 0xbd, 0x2b,
  0x1a, 0xa2, 0xe4, 0x81, 0x81, 0x81, 0xea, 0x7f, 0x81, 0xfa, 0x7f, 0x9a, 0x7f,
  0x81, 0x2d, 0x7f, 0xb6, 0x7f, 0xb9, 0xd6, 0x6d, 0x37, 0x81, 0x08, 0x20, 0x7f,
  0x69, 0x7f, 0x61, 0x2e, 0xfc, 0xff, 0xff, 0x04, 0x00, 0x00, 0x00, 0x10, 0x00,
  0x00, 0x00, 0x7f, 0x7f, 0x81, 0x7f, 0x7f, 0x7f, 0x7f, 0x7f, 0x7f, 0x7f, 0x81,
  0x81, 0x7f, 0x81, 0x81, 0x81, 0x4a, 0xfc, 0xff, 0xff, 0x04, 0x00, 0x00, 0x00,
  0x80, 0x00, 0x00, 0x00, 0x00, 0x00, 0x00, 0x00, 0x00, 0x00, 0x00, 0x00, 0x00,
  0x00, 0x00, 0x00, 0x00, 0x00, 0x00, 0x00, 0x00, 0x00, 0x00, 0x00, 0x00, 0x00,
  0x00, 0x00, 0x00, 0x00, 0x00, 0x00, 0x00, 0x00, 0x00, 0x00, 0x00, 0x00, 0x00,
  0x00, 0x00, 0x00, 0x00, 0x00, 0x00, 0x00, 0x00, 0x00, 0x00, 0x00, 0x00, 0x00,
  0x00, 0x00, 0x00, 0x00, 0x00, 0x00, 0x00, 0x00, 0x00, 0x00, 0x00, 0x00, 0x00,
  0x00, 0x00, 0x00, 0x00, 0x00, 0x00, 0x00, 0x00, 0x00, 0x00, 0x00, 0x00, 0x00,
  0x00, 0x00, 0x00, 0x00, 0x00, 0x00, 0x00, 0x00, 0x00, 0x00, 0x00, 0x00, 0x00,
  0x00, 0x00, 0x00, 0x00, 0x00, 0x00, 0x00, 0x00, 0x00, 0x00, 0x00, 0x00, 0x00,
  0x00, 0x00, 0x00, 0x00, 0x00, 0x00, 0x00, 0x00, 0x00, 0x00, 0x00, 0x00, 0x00,
  0x00, 0x00, 0x00, 0x00, 0x00, 0x00, 0x00, 0x00, 0x00, 0x00, 0x00, 0x00, 0x00,
  0x00, 0x00, 0xd6, 0xfc, 0xff, 0xff, 0x04, 0x00, 0x00, 0x00, 0x03, 0x00, 0x00,
  0x00, 0x0f, 0x7f, 0x03, 0x00, 0xe6, 0xfc, 0xff, 0xff, 0x04, 0x00, 0x00, 0x00,
  0x03, 0x00, 0x00, 0x00, 0x7f, 0x0b, 0xf6, 0x00, 0xf6, 0xfc, 0xff, 0xff, 0x04,
  0x00, 0x00, 0x00, 0x08, 0x00, 0x00, 0x00, 0x00, 0x00, 0x00, 0x00, 0x00, 0x00,
  0x00, 0x00, 0x0a, 0xfd, 0xff, 0xff, 0x04, 0x00, 0x00, 0x00, 0x08, 0x00, 0x00,
  0x00, 0x05, 0xf8, 0xff, 0xff, 0xff, 0xff, 0xff, 0xff, 0x1e, 0xfd, 0xff, 0xff,
  0x04, 0x00, 0x00, 0x00, 0x40, 0x00, 0x00, 0x00, 0xf1, 0xf4, 0xff, 0xff, 0xff,
  0xff, 0xff, 0xff, 0x1b, 0xee, 0xff, 0xff, 0xff, 0xff, 0xff, 0xff, 0xe5, 0x16,
  0x00, 0x00, 0x00, 0x00, 0x00, 0x00, 0x50, 0xfb, 0xff, 0xff, 0xff, 0xff, 0xff,
  0xff, 0x0a, 0x85, 0xff, 0xff, 0xff, 0xff, 0xff, 0xff, 0x03, 0x0d, 0x00, 0x00,
  0x00, 0x00, 0x00, 0x00, 0x7d, 0x46, 0x00, 0x00, 0x00, 0x00, 0x00, 0x00, 0xda,
  0x99, 0xff, 0xff, 0xff, 0xff, 0xff, 0xff, 0x6a, 0xfd, 0xff, 0xff, 0x04, 0x00,
  0x00, 0x00, 0x40, 0x00, 0x00, 0x00, 0x6c, 0x18, 0x00, 0x00, 0x00, 0x00, 0x00,
  0x00, 0x52, 0x10, 0x00, 0x00, 0x00, 0x00, 0x00, 0x00, 0x2a, 0x5f, 0x00, 0x00,
  0x00, 0x00, 0x00, 0x00, 0x47, 0x48, 0x00, 0x00, 0x00, 0x00, 0x00, 0x00, 0xdc,
  0x1f, 0x00, 0x00, 0x00, 0x00, 0x00, 0x00, 0xd2, 0x46, 0xff, 0xff, 0xff, 0xff,
  0xff, 0xff, 0xed, 0xc4, 0xff, 0xff, 0xff, 0xff, 0xff, 0xff, 0x9c, 0xc7, 0x00,
  0x00, 0x00, 0x00, 0x00, 0x00, 0xb6, 0xfd, 0xff, 0xff, 0x04, 0x00, 0x00, 0x00,
  0x50, 0x00, 0x00, 0x00, 0xd4, 0x85, 0xfe, 0xff, 0xff, 0xff, 0xff, 0xff, 0x43,
  0x76, 0xff, 0xff, 0xff, 0xff, 0xff, 0xff, 0xf9, 0x6e, 0xff, 0xff, 0xff, 0xff,
  0xff, 0xff, 0xd0, 0xec, 0xff, 0xff, 0xff, 0xff, 0xff, 0xff, 0x7c, 0xb2, 0xff,
  0xff, 0xff, 0xff, 0xff, 0xff, 0x27, 0x07, 0x00, 0x00, 0x00, 0x00, 0x00, 0x00,
  0x56, 0x01, 0x00, 0x00, 0x00, 0x00, 0x00, 0x00, 0xb5, 0xc0, 0xff, 0xff, 0xff,
  0xff, 0xff, 0xff, 0x5a, 0x55, 0xff, 0xff, 0xff, 0xff, 0xff, 0xff, 0x82, 0x86,
  0x00, 0x00, 0x00, 0x00, 0x00, 0x00, 0x12, 0xfe, 0xff, 0xff, 0x04, 0x00, 0x00,
  0x00, 0x60, 0x00, 0x00, 0x00, 0x18, 0xe1, 0xff, 0xff, 0xff, 0xff, 0xff, 0xff,
  0xfe, 0x98, 0xff, 0xff, 0xff, 0xff, 0xff, 0xff, 0xa4, 0x1f, 0x00, 0x00, 0x00,
  0x00, 0x00, 0x00, 0x3e, 0xf0, 0xff, 0xff, 0xff, 0xff, 0xff, 0xff, 0x77, 0x56,
  0xff, 0xff, 0xff, 0xff, 0xff, 0xff, 0x1a, 0x35, 0x00, 0x00, 0x00, 0x00, 0x00,
  0x00, 0x9f, 0x33, 0x00, 0x00, 0x00, 0x00, 0x00, 0x00, 0x40, 0x1b, 0x00, 0x00,
  0x00, 0x00, 0x00, 0x00, 0x0e, 0xdf, 0xff, 0xff, 0xff, 0xff, 0xff, 0xff, 0xd0,
  0xd1, 0xff, 0xff, 0xff, 0xff, 0xff, 0xff, 0xef, 0xc4, 0xfe, 0xff, 0xff, 0xff,
  0xff, 0xff, 0x0a, 0x8c, 0xff, 0xff, 0xff, 0xff, 0xff, 0xff, 0x7e, 0xfe, 0xff,
  0xff, 0x04, 0x00, 0x00, 0x00, 0x80, 0x00, 0x00, 0x00, 0x5c, 0x10, 0xf4, 0xff,
  0xff, 0xff, 0xff, 0xff, 0x43, 0x44, 0xca, 0xff, 0xff, 0xff, 0xff, 0xff, 0xb2,
  0xfc, 0xfe, 0xff, 0xff, 0xff, 0xff, 0xff, 0x13, 0x2b, 0xe4, 0xff, 0xff, 0xff,
  0xff, 0xff, 0x9b, 0xaf, 0xf9, 0xff, 0xff, 0xff, 0xff, 0xff, 0xbf, 0x68, 0xff,
  0xff, 0xff, 0xff, 0xff, 0xff, 0xe1, 0xa4, 0x00, 0x00, 0x00, 0x00, 0x00, 0x00,
  0x65, 0x3d, 0xf2, 0xff, 0xff, 0xff, 0xff, 0xff, 0xd3, 0x0a, 0x00, 0x00, 0x00,
  0x00, 0x00, 0x00, 0x4c, 0xc3, 0xc7, 0xff, 0xff, 0xff, 0xff, 0xff, 0xd4, 0xe9,
  0x08, 0x00, 0x00, 0x00, 0x00, 0x00, 0x4c, 0x6a, 0xfe, 0xff, 0xff, 0xff, 0xff,
  0xff, 0x30, 0x14, 0xf7, 0xff, 0xff, 0xff, 0xff, 0xff, 0xe8, 0xb6, 0xff, 0xff,
  0xff, 0xff, 0xff, 0xff, 0xaf, 0x25, 0x14, 0x00, 0x00, 0x00, 0x00, 0x00, 0xe1,
  0xaf, 0x0b, 0x00, 0x00, 0x00, 0x00, 0x00, 0x0a, 0xff, 0xff, 0xff, 0x04, 0x00,
  0x00, 0x00, 0x40, 0x00, 0x00, 0x00, 0xa4, 0xa5, 0x01, 0x00, 0x00, 0x00, 0x00,
  0x00, 0x25, 0xd4, 0xfe, 0xff, 0xff, 0xff, 0xff, 0xff, 0x62, 0x44, 0xfe, 0xff,
  0xff, 0xff, 0xff, 0xff, 0xa4, 0x59, 0xff, 0xff, 0xff, 0xff, 0xff, 0xff, 0x27,
  0x76, 0xff, 0xff, 0xff, 0xff, 0xff, 0xff, 0x2a, 0xbb, 0xff, 0xff, 0xff, 0xff,
  0xff, 0xff, 0x38, 0x46, 0xfd, 0xff, 0xff, 0xff, 0xff, 0xff, 0xa7, 0x88, 0x01,
  0x00, 0x00, 0x00, 0x00, 0x00, 0x56, 0xff, 0xff, 0xff, 0x04, 0x00, 0x00, 0x00,
  0x40, 0x00, 0x00, 0x00, 0xdf, 0x0c, 0xff, 0xff, 0xff, 0xff, 0xff, 0xff, 0x24,
  0x90, 0xfe, 0xff, 0xff, 0xff, 0xff, 0xff, 0x0f, 0xe8, 0xf3, 0xff, 0xff, 0xff,
  0xff, 0xff, 0x3a, 0x9d, 0xfe, 0xff, 0xff, 0xff, 0xff, 0xff, 0xc3, 0xcc, 0xfd,
  0xff, 0xff, 0xff, 0xff, 0xff, 0x6f, 0x6f, 0xfd, 0xff, 0xff, 0xff, 0xff, 0xff,
  0x31, 0x71, 0x00, 0x00, 0x00, 0x00, 0x00, 0x00, 0x05, 0xcb, 0xfb, 0xff, 0xff,
  0xff, 0xff, 0xff, 0xa2, 0xff, 0xff, 0xff, 0x04, 0x00, 0x00, 0x00, 0x50, 0x00,
  0x00, 0x00, 0xec, 0xd1, 0xfe, 0xff, 0xff, 0xff, 0xff, 0xff, 0xa2, 0x75, 0xff,
  0xff, 0xff, 0xff, 0xff, 0xff, 0x2b, 0xaf, 0x00, 0x00, 0x00, 0x00, 0x00, 0x00,
  0x25, 0xcc, 0xff, 0xff, 0xff, 0xff, 0xff, 0xff, 0xd5, 0xc2, 0x00, 0x00, 0x00,
  0x00, 0x00, 0x00, 0x35, 0x3d, 0xf5, 0xff, 0xff, 0xff, 0xff, 0xff, 0x21, 0xf1,
  0xff, 0xff, 0xff, 0xff, 0xff, 0xff, 0xbd, 0x9a, 0xff, 0xff, 0xff, 0xff, 0xff,
  0xff, 0xdf, 0x17, 0x00, 0x00, 0x00, 0x00, 0x00, 0x00, 0x4d, 0x8f, 0x01, 0x00,
  0x00, 0x00, 0x00, 0x00, 0x00, 0x00, 0x06, 0x00, 0x08, 0x00, 0x04, 0x00, 0x06,
  0x00, 0x00, 0x00, 0x04, 0x00, 0x00, 0x00, 0x60, 0x00, 0x00, 0x00, 0x75, 0x85,
  0xfe, 0xff, 0xff, 0xff, 0xff, 0xff, 0xa6, 0xb9, 0xf8, 0xff, 0xff, 0xff, 0xff,
  0xff, 0xd1, 0xf7, 0xff, 0xff, 0xff, 0xff, 0xff, 0xff, 0x67, 0xba, 0xfe, 0xff,
  0xff, 0xff, 0xff, 0xff, 0x2a, 0x97, 0xff, 0xff, 0xff, 0xff, 0xff, 0xff, 0xbc,
  0x77, 0x01, 0x00, 0x00, 0x00, 0x00, 0x00, 0xaf, 0x0c, 0x00, 0x00, 0x00, 0x00,
  0x00, 0x00, 0xce, 0x2d, 0x00, 0x00, 0x00, 0x00, 0x00, 0x00, 0x43, 0x86, 0x01,
  0x00, 0x00, 0x00, 0x00, 0x00, 0x13, 0x12, 0xff, 0xff, 0xff, 0xff, 0xff, 0xff,
  0xfb, 0x2a, 0xff, 0xff, 0xff, 0xff, 0xff, 0xff, 0x60, 0xbc, 0xff, 0xff, 0xff,
  0xff, 0xff, 0xff, 0x6c, 0xda, 0xff, 0xff, 0x70, 0xda, 0xff, 0xff, 0x0f, 0x00,
  0x00, 0x00, 0x4d, 0x4c, 0x49, 0x52, 0x20, 0x43, 0x6f, 0x6e, 0x76, 0x65, 0x72,
  0x74, 0x65, 0x64, 0x2e, 0x00, 0x01, 0x00, 0x00, 0x00, 0x14, 0x00, 0x00, 0x00,
  0x00, 0x00, 0x0e, 0x00, 0x18, 0x00, 0x14, 0x00, 0x10, 0x00, 0x0c, 0x00, 0x08,
  0x00, 0x04, 0x00, 0x0e, 0x00, 0x00, 0x00, 0x14, 0x00, 0x00, 0x00, 0x1c, 0x00,
  0x00, 0x00, 0x5c, 0x0c, 0x00, 0x00, 0x60, 0x0c, 0x00, 0x00, 0x64, 0x0c, 0x00,
  0x00, 0x04, 0x00, 0x00, 0x00, 0x6d, 0x61, 0x69, 0x6e, 0x00, 0x00, 0x00, 0x00,
  0x2f, 0x00, 0x00, 0x00, 0x20, 0x0c, 0x00, 0x00, 0xe4, 0x0b, 0x00, 0x00, 0x84,
  0x0b, 0x00, 0x00, 0x30, 0x0b, 0x00, 0x00, 0xe4, 0x0a, 0x00, 0x00, 0xa0, 0x0a,
  0x00, 0x00, 0x5c, 0x0a, 0x00, 0x00, 0x0c, 0x0a, 0x00, 0x00, 0xc8, 0x09, 0x00,
  0x00, 0x84, 0x09, 0x00, 0x00, 0x44, 0x09, 0x00, 0x00, 0x00, 0x09, 0x00, 0x00,
  0xbc, 0x08, 0x00, 0x00, 0x7c, 0x08, 0x00, 0x00, 0x3c, 0x08, 0x00, 0x00, 0xf8,
  0x07, 0x00, 0x00, 0xb4, 0x07, 0x00, 0x00, 0x70, 0x07, 0x00, 0x00, 0x2c, 0x07,
  0x00, 0x00, 0xe8, 0x06, 0x00, 0x00, 0xa8, 0x06, 0x00, 0x00, 0x64, 0x06, 0x00,
  0x00, 0x20, 0x06, 0x00, 0x00, 0xe0, 0x05, 0x00, 0x00, 0xa8, 0x05, 0x00, 0x00,
  0x64, 0x05, 0x00, 0x00, 0x20, 0x05, 0x00, 0x00, 0xdc, 0x04, 0x00, 0x00, 0x98,
  0x04, 0x00, 0x00, 0x54, 0x04, 0x00, 0x00, 0x14, 0x04, 0x00, 0x00, 0xd0, 0x03,
  0x00, 0x00, 0x8c, 0x03, 0x00, 0x00, 0x4c, 0x03, 0x00, 0x00, 0x14, 0x03, 0x00,
  0x00, 0xd0, 0x02, 0x00, 0x00, 0x8c, 0x02, 0x00, 0x00, 0x48, 0x02, 0x00, 0x00,
  0x04, 0x02, 0x00, 0x00, 0xc0, 0x01, 0x00, 0x00, 0x80, 0x01, 0x00, 0x00, 0x48,
  0x01, 0x00, 0x00, 0x14, 0x01, 0x00, 0x00, 0xc0, 0x00, 0x00, 0x00, 0x78, 0x00,
  0x00, 0x00, 0x28, 0x00, 0x00, 0x00, 0x04, 0x00, 0x00, 0x00, 0xa6, 0xf4, 0xff,
  0xff, 0x0c, 0x00, 0x00, 0x00, 0x10, 0x00, 0x00, 0x00, 0x06, 0x00, 0x00, 0x00,
  0x01, 0x00, 0x00, 0x00, 0x67, 0x00, 0x00, 0x00, 0x01, 0x00, 0x00, 0x00, 0x65,
  0x00, 0x00, 0x00, 0x5e, 0xf5, 0xff, 0xff, 0x20, 0x00, 0x00, 0x00, 0x00, 0x00,
  0x00, 0x01, 0x28, 0x00, 0x00, 0x00, 0x2c, 0x00, 0x00, 0x00, 0x02, 0x00, 0x00,
  0x00, 0x00, 0x00, 0x0a, 0x00, 0x10, 0x00, 0x0f, 0x00, 0x08, 0x00, 0x04, 0x00,
  0x0a, 0x00, 0x00, 0x00, 0x01, 0x00, 0x00, 0x00, 0x01, 0x00, 0x00, 0x00, 0x00,
  0x00, 0x00, 0x01, 0x01, 0x00, 0x00, 0x00, 0x65, 0x00, 0x00, 0x00, 0x03, 0x00,
  0x00, 0x00, 0x64, 0x00, 0x00, 0x00, 0x36, 0x00, 0x00, 0x00, 0x0a, 0x00, 0x00,
  0x00, 0xaa, 0xf5, 0xff, 0xff, 0x14, 0x00, 0x00, 0x00, 0x00, 0x00, 0x00, 0x02,
  0x20, 0x00, 0x00, 0x00, 0x24, 0x00, 0x00, 0x00, 0x01, 0x00, 0x00, 0x00, 0xbc,
  0xff, 0xff, 0xff, 0x01, 0x00, 0x00, 0x00, 0x01, 0x00, 0x00, 0x00, 0x01, 0x00,
  0x00, 0x00, 0x00, 0x00, 0x00, 0x01, 0x01, 0x00, 0x00, 0x00, 0x64, 0x00, 0x00,
  0x00, 0x03, 0x00, 0x00, 0x00, 0x63, 0x00, 0x00, 0x00, 0x35, 0x00, 0x00, 0x00,
  0x26, 0x00, 0x00, 0x00, 0xee, 0xf5, 0xff, 0xff, 0x20, 0x00, 0x00, 0x00, 0x00,
  0x00, 0x00, 0x02, 0x2c, 0x00, 0x00, 0x00, 0x30, 0x00, 0x00, 0x00, 0x01, 0x00,
  0x00, 0x00, 0x0c, 0x00, 0x14, 0x00, 0x13, 0x00, 0x0c, 0x00, 0x08, 0x00, 0x04,
  0x00, 0x0c, 0x00, 0x00, 0x00, 0x01, 0x00, 0x00, 0x00, 0x01, 0x00, 0x00, 0x00,
  0x01, 0x00, 0x00, 0x00, 0x00, 0x00, 0x00, 0x01, 0x01, 0x00, 0x00, 0x00, 0x63,
  0x00, 0x00, 0x00, 0x03, 0x00, 0x00, 0x00, 0x62, 0x00, 0x00, 0x00, 0x34, 0x00,
  0x00, 0x00, 0x26, 0x00, 0x00, 0x00, 0x3e, 0xf6, 0xff, 0xff, 0x14, 0x00, 0x00,
  0x00, 0x00, 0x00, 0x00, 0x0f, 0x10, 0x00, 0x00, 0x00, 0x14, 0x00, 0x00, 0x00,
  0x04, 0x00, 0x00, 0x00, 0x9c, 0xdc, 0xff, 0xff, 0x01, 0x00, 0x00, 0x00, 0x62,
  0x00, 0x00, 0x00, 0x02, 0x00, 0x00, 0x00, 0x61, 0x00, 0x00, 0x00, 0x37, 0x00,
  0x00, 0x00, 0x6e, 0xf6, 0xff, 0xff, 0x14, 0x00, 0x00, 0x00, 0x00, 0x00, 0x00,
  0x0b, 0x14, 0x00, 0x00, 0x00, 0x18, 0x00, 0x00, 0x00, 0x03, 0x00, 0x00, 0x00,
  0x78, 0xf9, 0xff, 0xff, 0x00, 0x00, 0x00, 0x00, 0x01, 0x00, 0x00, 0x00, 0x61,
  0x00, 0x00, 0x00, 0x02, 0x00, 0x00, 0x00, 0x5a, 0x00, 0x00, 0x00, 0x60, 0x00,
  0x00, 0x00, 0xa2, 0xf6, 0xff, 0xff, 0x14, 0x00, 0x00, 0x00, 0x00, 0x00, 0x00,
  0x01, 0x18, 0x00, 0x00, 0x00, 0x1c, 0x00, 0x00, 0x00, 0x02, 0x00, 0x00, 0x00,
  0x2a, 0xf7, 0xff, 0xff, 0x01, 0x00, 0x00, 0x00, 0x01, 0x00, 0x00, 0x00, 0x01,
  0x00, 0x00, 0x00, 0x60, 0x00, 0x00, 0x00, 0x03, 0x00, 0x00, 0x00, 0x5f, 0x00,
  0x00, 0x00, 0x33, 0x00, 0x00, 0x00, 0x09, 0x00, 0x00, 0x00, 0xde, 0xf6, 0xff,
  0xff, 0x14, 0x00, 0x00, 0x00, 0x00, 0x00, 0x00, 0x02, 0x1c, 0x00, 0x00, 0x00,
  0x20, 0x00, 0x00, 0x00, 0x01, 0x00, 0x00, 0x00, 0xd0, 0xf6, 0xff, 0xff, 0x01,
  0x00, 0x00, 0x00, 0x01, 0x00, 0x00, 0x00, 0x01, 0x00, 0x00, 0x00, 0x01, 0x00,
  0x00, 0x00, 0x5f, 0x00, 0x00, 0x00, 0x03, 0x00, 0x00, 0x00, 0x5e, 0x00, 0x00,
  0x00, 0x32, 0x00, 0x00, 0x00, 0x26, 0x00, 0x00, 0x00, 0x1e, 0xf7, 0xff, 0xff,
  0x14, 0x00, 0x00, 0x00, 0x00, 0x00, 0x00, 0x02, 0x1c, 0x00, 0x00, 0x00, 0x20,
  0x00, 0x00, 0x00, 0x01, 0x00, 0x00, 0x00, 0x10, 0xf7, 0xff, 0xff, 0x01, 0x00,
  0x00, 0x00, 0x01, 0x00, 0x00, 0x00, 0x01, 0x00, 0x00, 0x00, 0x01, 0x00, 0x00,
  0x00, 0x5e, 0x00, 0x00, 0x00, 0x03, 0x00, 0x00, 0x00, 0x5d, 0x00, 0x00, 0x00,
  0x31, 0x00, 0x00, 0x00, 0x26, 0x00, 0x00, 0x00, 0x5e, 0xf7, 0xff, 0xff, 0x14,
  0x00, 0x00, 0x00, 0x00, 0x00, 0x00, 0x01, 0x1c, 0x00, 0x00, 0x00, 0x20, 0x00,
  0x00, 0x00, 0x02, 0x00, 0x00, 0x00, 0xb4, 0xf8, 0xff, 0xff, 0x00, 0x00, 0x00,
  0x01, 0x01, 0x00, 0x00, 0x00, 0x01, 0x00, 0x00, 0x00, 0x01, 0x00, 0x00, 0x00,
  0x5d, 0x00, 0x00, 0x00, 0x03, 0x00, 0x00, 0x00, 0x5c, 0x00, 0x00, 0x00, 0x30,
  0x00, 0x00, 0x00, 0x04, 0x00, 0x00, 0x00, 0x9e, 0xf7, 0xff, 0xff, 0x14, 0x00,
  0x00, 0x00, 0x00, 0x00, 0x00, 0x02, 0x1c, 0x00, 0x00, 0x00, 0x20, 0x00, 0x00,
  0x00, 0x01, 0x00, 0x00, 0x00, 0x90, 0xf7, 0xff, 0xff, 0x01, 0x00, 0x00, 0x00,
  0x01, 0x00, 0x00, 0x00, 0x01, 0x00, 0x00, 0x00, 0x01, 0x00, 0x00, 0x00, 0x5c,
  0x00, 0x00, 0x00, 0x03, 0x00, 0x00, 0x00, 0x5b, 0x00, 0x00, 0x00, 0x2f, 0x00,
  0x00, 0x00, 0x26, 0x00, 0x00, 0x00, 0xde, 0xf7, 0xff, 0xff, 0x14, 0x00, 0x00,
  0x00, 0x00, 0x00, 0x00, 0x02, 0x1c, 0x00, 0x00, 0x00, 0x20, 0x00, 0x00, 0x00,
  0x01, 0x00, 0x00, 0x00, 0xd0, 0xf7, 0xff, 0xff, 0x01, 0x00, 0x00, 0x00, 0x01,
  0x00, 0x00, 0x00, 0x01, 0x00, 0x00, 0x00, 0x01, 0x00, 0x00, 0x00, 0x5b, 0x00,
  0x00, 0x00, 0x03, 0x00, 0x00, 0x00, 0x5a, 0x00, 0x00, 0x00, 0x2e, 0x00, 0x00,
  0x00, 0x26, 0x00, 0x00, 0x00, 0x1e, 0xf8, 0xff, 0xff, 0x14, 0x00, 0x00, 0x00,
  0x00, 0x00, 0x00, 0x0b, 0x14, 0x00, 0x00, 0x00, 0x18, 0x00, 0x00, 0x00, 0x03,
  0x00, 0x00, 0x00, 0x28, 0xfb, 0xff, 0xff, 0x00, 0x00, 0x00, 0x00, 0x01, 0x00,
  0x00, 0x00, 0x5a, 0x00, 0x00, 0x00, 0x02, 0x00, 0x00, 0x00, 0x59, 0x00, 0x00,
  0x00, 0x56, 0x00, 0x00, 0x00, 0x52, 0xf8, 0xff, 0xff, 0x14, 0x00, 0x00, 0x00,
  0x00, 0x00, 0x00, 0x01, 0x18, 0x00, 0x00, 0x00, 0x1c, 0x00, 0x00, 0x00, 0x02,
  0x00, 0x00, 0x00, 0xda, 0xf8, 0xff, 0xff, 0x01, 0x00, 0x00, 0x00, 0x01, 0x00,
  0x00, 0x00, 0x01, 0x00, 0x00, 0x00, 0x59, 0x00, 0x00, 0x00, 0x03, 0x00, 0x00,
  0x00, 0x58, 0x00, 0x00, 0x00, 0x2d, 0x00, 0x00, 0x00, 0x08, 0x00, 0x00, 0x00,
  0x8e, 0xf8, 0xff, 0xff, 0x14, 0x00, 0x00, 0x00, 0x00, 0x00, 0x00, 0x02, 0x1c,
  0x00, 0x00, 0x00, 0x20, 0x00, 0x00, 0x00, 0x01, 0x00, 0x00, 0x00, 0x80, 0xf8,
  0xff, 0xff, 0x01, 0x00, 0x00, 0x00, 0x01, 0x00, 0x00, 0x00, 0x01, 0x00, 0x00,
  0x00, 0x01, 0x00, 0x00, 0x00, 0x58, 0x00, 0x00, 0x00, 0x03, 0x00, 0x00, 0x00,
  0x57, 0x00, 0x00, 0x00, 0x2c, 0x00, 0x00, 0x00, 0x1c, 0x00, 0x00, 0x00, 0xce,
  0xf8, 0xff, 0xff, 0x14, 0x00, 0x00, 0x00, 0x00, 0x00, 0x00, 0x02, 0x1c, 0x00,
  0x00, 0x00, 0x20, 0x00, 0x00, 0x00, 0x01, 0x00, 0x00, 0x00, 0xc0, 0xf8, 0xff,
  0xff, 0x01, 0x00, 0x00, 0x00, 0x01, 0x00, 0x00, 0x00, 0x01, 0x00, 0x00, 0x00,
  0x01, 0x00, 0x00, 0x00, 0x57, 0x00, 0x00, 0x00, 0x03, 0x00, 0x00, 0x00, 0x50,
  0x00, 0x00, 0x00, 0x2b, 0x00, 0x00, 0x00, 0x1c, 0x00, 0x00, 0x00, 0x0e, 0xf9,
  0xff, 0xff, 0x14, 0x00, 0x00, 0x00, 0x00, 0x00, 0x00, 0x01, 0x18, 0x00, 0x00,
  0x00, 0x1c, 0x00, 0x00, 0x00, 0x02, 0x00, 0x00, 0x00, 0x96, 0xf9, 0xff, 0xff,
  0x01, 0x00, 0x00, 0x00, 0x01, 0x00, 0x00, 0x00, 0x01, 0x00, 0x00, 0x00, 0x56,
  0x00, 0x00, 0x00, 0x03, 0x00, 0x00, 0x00, 0x55, 0x00, 0x00, 0x00, 0x2a, 0x00,
  0x00, 0x00, 0x08, 0x00, 0x00, 0x00, 0x4a, 0xf9, 0xff, 0xff, 0x14, 0x00, 0x00,
  0x00, 0x00, 0x00, 0x00, 0x02, 0x1c, 0x00, 0x00, 0x00, 0x20, 0x00, 0x00, 0x00,
  0x01, 0x00, 0x00, 0x00, 0x3c, 0xf9, 0xff, 0xff, 0x01, 0x00, 0x00, 0x00, 0x01,
  0x00, 0x00, 0x00, 0x01, 0x00, 0x00, 0x00, 0x01, 0x00, 0x00, 0x00, 0x55, 0x00,
  0x00, 0x00, 0x03, 0x00, 0x00, 0x00, 0x54, 0x00, 0x00, 0x00, 0x29, 0x00, 0x00,
  0x00, 0x26, 0x00, 0x00, 0x00, 0x8a, 0xf9, 0xff, 0xff, 0x14, 0x00, 0x00, 0x00,
  0x00, 0x00, 0x00, 0x02, 0x1c, 0x00, 0x00, 0x00, 0x20, 0x00, 0x00, 0x00, 0x01,
  0x00, 0x00, 0x00, 0x7c, 0xf9, 0xff, 0xff, 0x01, 0x00, 0x00, 0x00, 0x01, 0x00,
  0x00, 0x00, 0x01, 0x00, 0x00, 0x00, 0x01, 0x00, 0x00, 0x00, 0x54, 0x00, 0x00,
  0x00, 0x03, 0x00, 0x00, 0x00, 0x53, 0x00, 0x00, 0x00, 0x28, 0x00, 0x00, 0x00,
  0x26, 0x00, 0x00, 0x00, 0xca, 0xf9, 0xff, 0xff, 0x14, 0x00, 0x00, 0x00, 0x00,
  0x00, 0x00, 0x01, 0x1c, 0x00, 0x00, 0x00, 0x20, 0x00, 0x00, 0x00, 0x02, 0x00,
  0x00, 0x00, 0x20, 0xfb, 0xff, 0xff, 0x00, 0x00, 0x00, 0x01, 0x01, 0x00, 0x00,
  0x00, 0x01, 0x00, 0x00, 0x00, 0x01, 0x00, 0x00, 0x00, 0x53, 0x00, 0x00, 0x00,
  0x03, 0x00, 0x00, 0x00, 0x52, 0x00, 0x00, 0x00, 0x27, 0x00, 0x00, 0x00, 0x03,
  0x00, 0x00, 0x00, 0x0a, 0xfa, 0xff, 0xff, 0x14, 0x00, 0x00, 0x00, 0x00, 0x00,
  0x00, 0x02, 0x1c, 0x00, 0x00, 0x00, 0x20, 0x00, 0x00, 0x00, 0x01, 0x00, 0x00,
  0x00, 0xfc, 0xf9, 0xff, 0xff, 0x01, 0x00, 0x00, 0x00, 0x01, 0x00, 0x00, 0x00,
  0x01, 0x00, 0x00, 0x00, 0x01, 0x00, 0x00, 0x00, 0x52, 0x00, 0x00, 0x00, 0x03,
  0x00, 0x00, 0x00, 0x51, 0x00, 0x00, 0x00, 0x25, 0x00, 0x00, 0x00, 0x1c, 0x00,
  0x00, 0x00, 0x4a, 0xfa, 0xff, 0xff, 0x14, 0x00, 0x00, 0x00, 0x00, 0x00, 0x00,
  0x02, 0x1c, 0x00, 0x00, 0x00, 0x20, 0x00, 0x00, 0x00, 0x01, 0x00, 0x00, 0x00,
  0x3c, 0xfa, 0xff, 0xff, 0x01, 0x00, 0x00, 0x00, 0x01, 0x00, 0x00, 0x00, 0x01,
  0x00, 0x00, 0x00, 0x01, 0x00, 0x00, 0x00, 0x51, 0x00, 0x00, 0x00, 0x03, 0x00,
  0x00, 0x00, 0x50, 0x00, 0x00, 0x00, 0x24, 0x00, 0x00, 0x00, 0x1c, 0x00, 0x00,
  0x00, 0x8a, 0xfa, 0xff, 0xff, 0x14, 0x00, 0x00, 0x00, 0x00, 0x00, 0x00, 0x0b,
  0x14, 0x00, 0x00, 0x00, 0x18, 0x00, 0x00, 0x00, 0x03, 0x00, 0x00, 0x00, 0x94,
  0xfd, 0xff, 0xff, 0x00, 0x00, 0x00, 0x00, 0x01, 0x00, 0x00, 0x00, 0x50, 0x00,
  0x00, 0x00, 0x02, 0x00, 0x00, 0x00, 0x4f, 0x00, 0x00, 0x00, 0x4c, 0x00, 0x00,
  0x00, 0xbe, 0xfa, 0xff, 0xff, 0x14, 0x00, 0x00, 0x00, 0x00, 0x00, 0x00, 0x01,
  0x18, 0x00, 0x00, 0x00, 0x1c, 0x00, 0x00, 0x00, 0x02, 0x00, 0x00, 0x00, 0x46,
  0xfb, 0xff, 0xff, 0x01, 0x00, 0x00, 0x00, 0x01, 0x00, 0x00, 0x00, 0x01, 0x00,
  0x00, 0x00, 0x4f, 0x00, 0x00, 0x00, 0x03, 0x00, 0x00, 0x00, 0x4e, 0x00, 0x00,
  0x00, 0x23, 0x00, 0x00, 0x00, 0x07, 0x00, 0x00, 0x00, 0xfa, 0xfa, 0xff, 0xff,
  0x14, 0x00, 0x00, 0x00, 0x00, 0x00, 0x00, 0x02, 0x1c, 0x00, 0x00, 0x00, 0x20,
  0x00, 0x00, 0x00, 0x01, 0x00, 0x00, 0x00, 0xec, 0xfa, 0xff, 0xff, 0x01, 0x00,
  0x00, 0x00, 0x01, 0x00, 0x00, 0x00, 0x01, 0x00, 0x00, 0x00, 0x01, 0x00, 0x00,
  0x00, 0x4e, 0x00, 0x00, 0x00, 0x03, 0x00, 0x00, 0x00, 0x4d, 0x00, 0x00, 0x00,
  0x22, 0x00, 0x00, 0x00, 0x12, 0x00, 0x00, 0x00, 0x3a, 0xfb, 0xff, 0xff, 0x14,
  0x00, 0x00, 0x00, 0x00, 0x00, 0x00, 0x02, 0x1c, 0x00, 0x00, 0x00, 0x20, 0x00,
  0x00, 0x00, 0x01, 0x00, 0x00, 0x00, 0x2c, 0xfb, 0xff, 0xff, 0x01, 0x00, 0x00,
  0x00, 0x01, 0x00, 0x00, 0x00, 0x01, 0x00, 0x00, 0x00, 0x01, 0x00, 0x00, 0x00,
  0x4d, 0x00, 0x00, 0x00, 0x03, 0x00, 0x00, 0x00, 0x46, 0x00, 0x00, 0x00, 0x21,
  0x00, 0x00, 0x00, 0x12, 0x00, 0x00, 0x00, 0x7a, 0xfb, 0xff, 0xff, 0x14, 0x00,
  0x00, 0x00, 0x00, 0x00, 0x00, 0x01, 0x18, 0x00, 0x00, 0x00, 0x1c, 0x00, 0x00,
  0x00, 0x02, 0x00, 0x00, 0x00, 0x02, 0xfc, 0xff, 0xff, 0x01, 0x00, 0x00, 0x00,
  0x01, 0x00, 0x00, 0x00, 0x01, 0x00, 0x00, 0x00, 0x4c, 0x00, 0x00, 0x00, 0x03,
  0x00, 0x00, 0x00, 0x4b, 0x00, 0x00, 0x00, 0x20, 0x00, 0x00, 0x00, 0x07, 0x00,
  0x00, 0x00, 0xb6, 0xfb, 0xff, 0xff, 0x14, 0x00, 0x00, 0x00, 0x00, 0x00, 0x00,
  0x02, 0x1c, 0x00, 0x00, 0x00, 0x20, 0x00, 0x00, 0x00, 0x01, 0x00, 0x00, 0x00,
  0xa8, 0xfb, 0xff, 0xff, 0x01, 0x00, 0x00, 0x00, 0x01, 0x00, 0x00, 0x00, 0x01,
  0x00, 0x00, 0x00, 0x01, 0x00, 0x00, 0x00, 0x4b, 0x00, 0x00, 0x00, 0x03, 0x00,
  0x00, 0x00, 0x4a, 0x00, 0x00, 0x00, 0x1f, 0x00, 0x00, 0x00, 0x1c, 0x00, 0x00,
  0x00, 0xf6, 0xfb, 0xff, 0xff, 0x14, 0x00, 0x00, 0x00, 0x00, 0x00, 0x00, 0x02,
  0x1c, 0x00, 0x00, 0x00, 0x20, 0x00, 0x00, 0x00, 0x01, 0x00, 0x00, 0x00, 0xe8,
  0xfb, 0xff, 0xff, 0x01, 0x00, 0x00, 0x00, 0x01, 0x00, 0x00, 0x00, 0x01, 0x00,
  0x00, 0x00, 0x01, 0x00, 0x00, 0x00, 0x4a, 0x00, 0x00, 0x00, 0x03, 0x00, 0x00,
  0x00, 0x49, 0x00, 0x00, 0x00, 0x1e, 0x00, 0x00, 0x00, 0x1c, 0x00, 0x00, 0x00,
  0x36, 0xfc, 0xff, 0xff, 0x14, 0x00, 0x00, 0x00, 0x00, 0x00, 0x00, 0x01, 0x1c,
  0x00, 0x00, 0x00, 0x20, 0x00, 0x00, 0x00, 0x02, 0x00, 0x00, 0x00, 0x8c, 0xfd,
  0xff, 0xff, 0x00, 0x00, 0x00, 0x01, 0x01, 0x00, 0x00, 0x00, 0x01, 0x00, 0x00,
  0x00, 0x01, 0x00, 0x00, 0x00, 0x49, 0x00, 0x00, 0x00, 0x03, 0x00, 0x00, 0x00,
  0x48, 0x00, 0x00, 0x00, 0x1d, 0x00, 0x00, 0x00, 0x02, 0x00, 0x00, 0x00, 0x76,
  0xfc, 0xff, 0xff, 0x14, 0x00, 0x00, 0x00, 0x00, 0x00, 0x00, 0x02, 0x1c, 0x00,
  0x00, 0x00, 0x20, 0x00, 0x00, 0x00, 0x01, 0x00, 0x00, 0x00, 0x68, 0xfc, 0xff,
  0xff, 0x01, 0x00, 0x00, 0x00, 0x01, 0x00, 0x00, 0x00, 0x01, 0x00, 0x00, 0x00,
  0x01, 0x00, 0x00, 0x00, 0x48, 0x00, 0x00, 0x00, 0x03, 0x00, 0x00, 0x00, 0x47,
  0x00, 0x00, 0x00, 0x1b, 0x00, 0x00, 0x00, 0x12, 0x00, 0x00, 0x00, 0xb6, 0xfc,
  0xff, 0xff, 0x14, 0x00, 0x00, 0x00, 0x00, 0x00, 0x00, 0x02, 0x1c, 0x00, 0x00,
  0x00, 0x20, 0x00, 0x00, 0x00, 0x01, 0x00, 0x00, 0x00, 0xa8, 0xfc, 0xff, 0xff,
  0x01, 0x00, 0x00, 0x00, 0x01, 0x00, 0x00, 0x00, 0x01, 0x00, 0x00, 0x00, 0x01,
  0x00, 0x00, 0x00, 0x47, 0x00, 0x00, 0x00, 0x03, 0x00, 0x00, 0x00, 0x46, 0x00,
  0x00, 0x00, 0x1a, 0x00, 0x00, 0x00, 0x12, 0x00, 0x00, 0x00, 0xf6, 0xfc, 0xff,
  0xff, 0x1c, 0x00, 0x00, 0x00, 0x00, 0x00, 0x00, 0x0b, 0x1c, 0x00, 0x00, 0x00,
  0x20, 0x00, 0x00, 0x00, 0x03, 0x00, 0x00, 0x00, 0x08, 0x00, 0x08, 0x00, 0x00,
  0x00, 0x07, 0x00, 0x08, 0x00, 0x00, 0x00, 0x00, 0x00, 0x00, 0x00, 0x01, 0x00,
  0x00, 0x00, 0x46, 0x00, 0x00, 0x00, 0x02, 0x00, 0x00, 0x00, 0x45, 0x00, 0x00,
  0x00, 0x42, 0x00, 0x00, 0x00, 0x32, 0xfd, 0xff, 0xff, 0x14, 0x00, 0x00, 0x00,
  0x00, 0x00, 0x00, 0x01, 0x18, 0x00, 0x00, 0x00, 0x1c, 0x00, 0x00, 0x00, 0x02,
  0x00, 0x00, 0x00, 0xba, 0xfd, 0xff, 0xff, 0x01, 0x00, 0x00, 0x00, 0x01, 0x00,
  0x00, 0x00, 0x01, 0x00, 0x00, 0x00, 0x45, 0x00, 0x00, 0x00, 0x03, 0x00, 0x00,
  0x00, 0x44, 0x00, 0x00, 0x00, 0x19, 0x00, 0x00, 0x00, 0x06, 0x00, 0x00, 0x00,
  0x6e, 0xfd, 0xff, 0xff, 0x14, 0x00, 0x00, 0x00, 0x00, 0x00, 0x00, 0x02, 0x1c,
  0x00, 0x00, 0x00, 0x20, 0x00, 0x00, 0x00, 0x01, 0x00, 0x00, 0x00, 0x60, 0xfd,
  0xff, 0xff, 0x01, 0x00, 0x00, 0x00, 0x01, 0x00, 0x00, 0x00, 0x01, 0x00, 0x00,
  0x00, 0x01, 0x00, 0x00, 0x00, 0x44, 0x00, 0x00, 0x00, 0x03, 0x00, 0x00, 0x00,
  0x43, 0x00, 0x00, 0x00, 0x18, 0x00, 0x00, 0x00, 0x0e, 0x00, 0x00, 0x00, 0xae,
  0xfd, 0xff, 0xff, 0x14, 0x00, 0x00, 0x00, 0x00, 0x00, 0x00, 0x02, 0x1c, 0x00,
  0x00, 0x00, 0x20, 0x00, 0x00, 0x00, 0x01, 0x00, 0x00, 0x00, 0xa0, 0xfd, 0xff,
  0xff, 0x01, 0x00, 0x00, 0x00, 0x01, 0x00, 0x00, 0x00, 0x01, 0x00, 0x00, 0x00,
  0x01, 0x00, 0x00, 0x00, 0x43, 0x00, 0x00, 0x00, 0x03, 0x00, 0x00, 0x00, 0x3c,
  0x00, 0x00, 0x00, 0x17, 0x00, 0x00, 0x00, 0x0e, 0x00, 0x00, 0x00, 0xee, 0xfd,
  0xff, 0xff, 0x14, 0x00, 0x00, 0x00, 0x00, 0x00, 0x00, 0x01, 0x18, 0x00, 0x00,
  0x00, 0x1c, 0x00, 0x00, 0x00, 0x02, 0x00, 0x00, 0x00, 0x76, 0xfe, 0xff, 0xff,
  0x01, 0x00, 0x00, 0x00, 0x01, 0x00, 0x00, 0x00, 0x01, 0x00, 0x00, 0x00, 0x42,
  0x00, 0x00, 0x00, 0x03, 0x00, 0x00, 0x00, 0x41, 0x00, 0x00, 0x00, 0x16, 0x00,
  0x00, 0x00, 0x06, 0x00, 0x00, 0x00, 0x2a, 0xfe, 0xff, 0xff, 0x14, 0x00, 0x00,
  0x00, 0x00, 0x00, 0x00, 0x02, 0x1c, 0x00, 0x00, 0x00, 0x20, 0x00, 0x00, 0x00,
  0x01, 0x00, 0x00, 0x00, 0x1c, 0xfe, 0xff, 0xff, 0x01, 0x00, 0x00, 0x00, 0x01,
  0x00, 0x00, 0x00, 0x01, 0x00, 0x00, 0x00, 0x01, 0x00, 0x00, 0x00, 0x41, 0x00,
  0x00, 0x00, 0x03, 0x00, 0x00, 0x00, 0x40, 0x00, 0x00, 0x00, 0x15, 0x00, 0x00,
  0x00, 0x12, 0x00, 0x00, 0x00, 0x6a, 0xfe, 0xff, 0xff, 0x14, 0x00, 0x00, 0x00,
  0x00, 0x00, 0x00, 0x02, 0x1c, 0x00, 0x00, 0x00, 0x20, 0x00, 0x00, 0x00, 0x01,
  0x00, 0x00, 0x00, 0x5c, 0xfe, 0xff, 0xff, 0x01, 0x00, 0x00, 0x00, 0x01, 0x00,
  0x00, 0x00, 0x01, 0x00, 0x00, 0x00, 0x01, 0x00, 0x00, 0x00, 0x40, 0x00, 0x00,
  0x00, 0x03, 0x00, 0x00, 0x00, 0x3f, 0x00, 0x00, 0x00, 0x14, 0x00, 0x00, 0x00,
  0x12, 0x00, 0x00, 0x00, 0xaa, 0xfe, 0xff, 0xff, 0x20, 0x00, 0x00, 0x00, 0x00,
  0x00, 0x00, 0x01, 0x28, 0x00, 0x00, 0x00, 0x2c, 0x00, 0x00, 0x00, 0x02, 0x00,
  0x00, 0x00, 0x0c, 0x00, 0x10, 0x00, 0x00, 0x00, 0x0c, 0x00, 0x08, 0x00, 0x07,
  0x00, 0x0c, 0x00, 0x00, 0x00, 0x00, 0x00, 0x00, 0x01, 0x01, 0x00, 0x00, 0x00,
  0x01, 0x00, 0x00, 0x00, 0x01, 0x00, 0x00, 0x00, 0x3f, 0x00, 0x00, 0x00, 0x03,
  0x00, 0x00, 0x00, 0x3e, 0x00, 0x00, 0x00, 0x13, 0x00, 0x00, 0x00, 0x01, 0x00,
  0x00, 0x00, 0xf6, 0xfe, 0xff, 0xff, 0x14, 0x00, 0x00, 0x00, 0x00, 0x00, 0x00,
  0x02, 0x1c, 0x00, 0x00, 0x00, 0x20, 0x00, 0x00, 0x00, 0x01, 0x00, 0x00, 0x00,
  0xe8, 0xfe, 0xff, 0xff, 0x01, 0x00, 0x00, 0x00, 0x01, 0x00, 0x00, 0x00, 0x01,
  0x00, 0x00, 0x00, 0x01, 0x00, 0x00, 0x00, 0x3e, 0x00, 0x00, 0x00, 0x03, 0x00,
  0x00, 0x00, 0x3d, 0x00, 0x00, 0x00, 0x11, 0x00, 0x00, 0x00, 0x0e, 0x00, 0x00,
  0x00, 0x36, 0xff, 0xff, 0xff, 0x14, 0x00, 0x00, 0x00, 0x00, 0x00, 0x00, 0x02,
  0x1c, 0x00, 0x00, 0x00, 0x20, 0x00, 0x00, 0x00, 0x01, 0x00, 0x00, 0x00, 0x28,
  0xff, 0xff, 0xff, 0x01, 0x00, 0x00, 0x00, 0x01, 0x00, 0x00, 0x00, 0x01, 0x00,
  0x00, 0x00, 0x01, 0x00, 0x00, 0x00, 0x3d, 0x00, 0x00, 0x00, 0x03, 0x00, 0x00,
  0x00, 0x3c, 0x00, 0x00, 0x00, 0x10, 0x00, 0x00, 0x00, 0x0e, 0x00, 0x00, 0x00,
  0x76, 0xff, 0xff, 0xff, 0x20, 0x00, 0x00, 0x00, 0x00, 0x00, 0x00, 0x01, 0x24,
  0x00, 0x00, 0x00, 0x28, 0x00, 0x00, 0x00, 0x02, 0x00, 0x00, 0x00, 0x00, 0x00,
  0x0a, 0x00, 0x0c, 0x00, 0x00, 0x00, 0x08, 0x00, 0x04, 0x00, 0x0a, 0x00, 0x00,
  0x00, 0x01, 0x00, 0x00, 0x00, 0x01, 0x00, 0x00, 0x00, 0x01, 0x00, 0x00, 0x00,
  0x3c, 0x00, 0x00, 0x00, 0x03, 0x00, 0x00, 0x00, 0x3b, 0x00, 0x00, 0x00, 0x0f,
  0x00, 0x00, 0x00, 0x05, 0x00, 0x00, 0x00, 0xbe, 0xff, 0xff, 0xff, 0x14, 0x00,
  0x00, 0x00, 0x00, 0x00, 0x00, 0x02, 0x1c, 0x00, 0x00, 0x00, 0x20, 0x00, 0x00,
  0x00, 0x01, 0x00, 0x00, 0x00, 0xb0, 0xff, 0xff, 0xff, 0x01, 0x00, 0x00, 0x00,
  0x01, 0x00, 0x00, 0x00, 0x02, 0x00, 0x00, 0x00, 0x01, 0x00, 0x00, 0x00, 0x3b,
  0x00, 0x00, 0x00, 0x03, 0x00, 0x00, 0x00, 0x3a, 0x00, 0x00, 0x00, 0x0d, 0x00,
  0x00, 0x00, 0x0b, 0x00, 0x00, 0x00, 0x00, 0x00, 0x0e, 0x00, 0x18, 0x00, 0x14,
  0x00, 0x10, 0x00, 0x0c, 0x00, 0x0b, 0x00, 0x04, 0x00, 0x0e, 0x00, 0x00, 0x00,
  0x20, 0x00, 0x00, 0x00, 0x00, 0x00, 0x00, 0x02, 0x28, 0x00, 0x00, 0x00, 0x2c,
  0x00, 0x00, 0x00, 0x01, 0x00, 0x00, 0x00, 0x0c, 0x00, 0x10, 0x00, 0x00, 0x00,
  0x0c, 0x00, 0x08, 0x00, 0x04, 0x00, 0x0c, 0x00, 0x00, 0x00, 0x01, 0x00, 0x00,
  0x00, 0x02, 0x00, 0x00, 0x00, 0x01, 0x00, 0x00, 0x00, 0x01, 0x00, 0x00, 0x00,
  0x3a, 0x00, 0x00, 0x00, 0x03, 0x00, 0x00, 0x00, 0x39, 0x00, 0x00, 0x00, 0x0c,
  0x00, 0x00, 0x00, 0x0b, 0x00, 0x00, 0x00, 0x00, 0x00, 0x0e, 0x00, 0x14, 0x00,
  0x00, 0x00, 0x10, 0x00, 0x0c, 0x00, 0x0b, 0x00, 0x04, 0x00, 0x0e, 0x00, 0x00,
  0x00, 0x10, 0x00, 0x00, 0x00, 0x00, 0x00, 0x00, 0x16, 0x0c, 0x00, 0x00, 0x00,
  0x10, 0x00, 0x00, 0x00, 0xc4, 0xe6, 0xff, 0xff, 0x01, 0x00, 0x00, 0x00, 0x39,
  0x00, 0x00, 0x00, 0x02, 0x00, 0x00, 0x00, 0x00, 0x00, 0x00, 0x00, 0x38, 0x00,
  0x00, 0x00, 0x00, 0x00, 0x0a, 0x00, 0x10, 0x00, 0x0c, 0x00, 0x08, 0x00, 0x04,
  0x00, 0x0a, 0x00, 0x00, 0x00, 0x0c, 0x00, 0x00, 0x00, 0x10, 0x00, 0x00, 0x00,
  0x05, 0x00, 0x00, 0x00, 0x01, 0x00, 0x00, 0x00, 0x00, 0x00, 0x00, 0x00, 0x01,
  0x00, 0x00, 0x00, 0x66, 0x00, 0x00, 0x00, 0x01, 0x00, 0x00, 0x00, 0x67, 0x00,
  0x00, 0x00, 0x01, 0x00, 0x00, 0x00, 0x66, 0x00, 0x00, 0x00, 0x68, 0x00, 0x00,
  0x00, 0xa0, 0x51, 0x00, 0x00, 0xac, 0x50, 0x00, 0x00, 0xec, 0x4f, 0x00, 0x00,
  0x40, 0x4f, 0x00, 0x00, 0x94, 0x4e, 0x00, 0x00, 0x88, 0x4d, 0x00, 0x00, 0xac,
  0x4c, 0x00, 0x00, 0xe8, 0x4b, 0x00, 0x00, 0x3c, 0x4b, 0x00, 0x00, 0x90, 0x4a,
  0x00, 0x00, 0x3c, 0x4a, 0x00, 0x00, 0xe8, 0x49, 0x00, 0x00, 0x54, 0x49, 0x00,
  0x00, 0xd4, 0x48, 0x00, 0x00, 0xcc, 0x47, 0x00, 0x00, 0x28, 0x46, 0x00, 0x00,
  0x80, 0x44, 0x00, 0x00, 0xd4, 0x42, 0x00, 0x00, 0xf4, 0x41, 0x00, 0x00, 0xa0,
  0x40, 0x00, 0x00, 0x48, 0x3f, 0x00, 0x00, 0xec, 0x3d, 0x00, 0x00, 0x94, 0x3c,
  0x00, 0x00, 0xec, 0x3a, 0x00, 0x00, 0x40, 0x39, 0x00, 0x00, 0xe8, 0x37, 0x00,
  0x00, 0x90, 0x36, 0x00, 0x00, 0x34, 0x35, 0x00, 0x00, 0x6c, 0x34, 0x00, 0x00,
  0x40, 0x33, 0x00, 0x00, 0x08, 0x32, 0x00, 0x00, 0xd4, 0x30, 0x00, 0x00, 0xa4,
  0x2f, 0x00, 0x00, 0x44, 0x2e, 0x00, 0x00, 0xe8, 0x2c, 0x00, 0x00, 0xb8, 0x2b,
  0x00, 0x00, 0x80, 0x2a, 0x00, 0x00, 0x4c, 0x29, 0x00, 0x00, 0x9c, 0x28, 0x00,
  0x00, 0x98, 0x27, 0x00, 0x00, 0x88, 0x26, 0x00, 0x00, 0x7c, 0x25, 0x00, 0x00,
  0x74, 0x24, 0x00, 0x00, 0x3c, 0x23, 0x00, 0x00, 0x08, 0x22, 0x00, 0x00, 0x00,
  0x21, 0x00, 0x00, 0xf0, 0x1f, 0x00, 0x00, 0xe4, 0x1e, 0x00, 0x00, 0xdc, 0x1d,
  0x00, 0x00, 0xcc, 0x1c, 0x00, 0x00, 0xc0, 0x1b, 0x00, 0x00, 0xb8, 0x1a, 0x00,
  0x00, 0xa8, 0x19, 0x00, 0x00, 0x9c, 0x18, 0x00, 0x00, 0x24, 0x18, 0x00, 0x00,
  0xf0, 0x17, 0x00, 0x00, 0xb8, 0x17, 0x00, 0x00, 0x48, 0x17, 0x00, 0x00, 0xcc,
  0x16, 0x00, 0x00, 0x50, 0x16, 0x00, 0x00, 0xbc, 0x15, 0x00, 0x00, 0x40, 0x15,
  0x00, 0x00, 0xc4, 0x14, 0x00, 0x00, 0x28, 0x14, 0x00, 0x00, 0xac, 0x13, 0x00,
  0x00, 0x30, 0x13, 0x00, 0x00, 0x94, 0x12, 0x00, 0x00, 0x18, 0x12, 0x00, 0x00,
  0x9c, 0x11, 0x00, 0x00, 0x00, 0x11, 0x00, 0x00, 0x8c, 0x10, 0x00, 0x00, 0x10,
  0x10, 0x00, 0x00, 0x94, 0x0f, 0x00, 0x00, 0xf0, 0x0e, 0x00, 0x00, 0x74, 0x0e,
  0x00, 0x00, 0xf8, 0x0d, 0x00, 0x00, 0x5c, 0x0d, 0x00, 0x00, 0xe0, 0x0c, 0x00,
  0x00, 0x64, 0x0c, 0x00, 0x00, 0xc8, 0x0b, 0x00, 0x00, 0x54, 0x0b, 0x00, 0x00,
  0xd8, 0x0a, 0x00, 0x00, 0x5c, 0x0a, 0x00, 0x00, 0xb8, 0x09, 0x00, 0x00, 0x3c,
  0x09, 0x00, 0x00, 0xc0, 0x08, 0x00, 0x00, 0x24, 0x08, 0x00, 0x00, 0xa8, 0x07,
  0x00, 0x00, 0x2c, 0x07, 0x00, 0x00, 0x90, 0x06, 0x00, 0x00, 0x1c, 0x06, 0x00,
  0x00, 0xa0, 0x05, 0x00, 0x00, 0x24, 0x05, 0x00, 0x00, 0x80, 0x04, 0x00, 0x00,
  0x04, 0x04, 0x00, 0x00, 0x88, 0x03, 0x00, 0x00, 0xec, 0x02, 0x00, 0x00, 0x78,
  0x02, 0x00, 0x00, 0xf4, 0x01, 0x00, 0x00, 0x78, 0x01, 0x00, 0x00, 0xfc, 0x00,
  0x00, 0x00, 0x78, 0x00, 0x00, 0x00, 0x44, 0x00, 0x00, 0x00, 0x04, 0x00, 0x00,
  0x00, 0xd0, 0xff, 0xff, 0xff, 0x08, 0x00, 0x00, 0x00, 0x14, 0x00, 0x00, 0x00,
  0x0a, 0x00, 0x00, 0x00, 0x42, 0x69, 0x61, 0x73, 0x41, 0x64, 0x64, 0x5f, 0x31,
  0x32, 0x00, 0x00, 0x04, 0x00, 0x00, 0x00, 0x01, 0x00, 0x00, 0x00, 0x38, 0x04,
  0x00, 0x00, 0x80, 0x07, 0x00, 0x00, 0x01, 0x00, 0x00, 0x00, 0x0c, 0x00, 0x0c,
  0x00, 0x08, 0x00, 0x00, 0x00, 0x00, 0x00, 0x04, 0x00, 0x0c, 0x00, 0x00, 0x00,
  0x08, 0x00, 0x00, 0x00, 0x14, 0x00, 0x00, 0x00, 0x0b, 0x00, 0x00, 0x00, 0x50,
  0x6c, 0x61, 0x63, 0x65, 0x68, 0x6f, 0x6c, 0x64, 0x65, 0x72, 0x00, 0x04, 0x00,
  0x00, 0x00, 0x01, 0x00, 0x00, 0x00, 0x38, 0x04, 0x00, 0x00, 0x80, 0x07, 0x00,
  0x00, 0x01, 0x00, 0x00, 0x00, 0x7a, 0xb0, 0xff, 0xff, 0x14, 0x00, 0x00, 0x00,
  0x4c, 0x00, 0x00, 0x00, 0x66, 0x00, 0x00, 0x00, 0x00, 0x00, 0x00, 0x07, 0x58,
  0x00, 0x00, 0x00, 0x6c, 0xb0, 0xff, 0xff, 0x10, 0x00, 0x00, 0x00, 0x1c, 0x00,
  0x00, 0x00, 0x20, 0x00, 0x00, 0x00, 0x24, 0x00, 0x00, 0x00, 0x01, 0x00, 0x00,
  0x00, 0x00, 0x00, 0x00, 0x00, 0x00, 0x00, 0x00, 0x00, 0x00, 0x00, 0x00, 0x00,
  0x01, 0x00, 0x00, 0x00, 0xd1, 0xb4, 0xa4, 0x36, 0x01, 0x00, 0x00, 0x00, 0x88,
  0xb3, 0x24, 0x3e, 0x01, 0x00, 0x00, 0x00, 0xd7, 0xa5, 0x16, 0xbe, 0x10, 0x00,
  0x00, 0x00, 0x42, 0x69, 0x61, 0x73, 0x41, 0x64, 0x64, 0x5f, 0x31, 0x32, 0x5f,
  0x69, 0x6e, 0x74, 0x31, 0x36, 0x00, 0x00, 0x00, 0x00, 0x04, 0x00, 0x00, 0x00,
  0x01, 0x00, 0x00, 0x00, 0x38, 0x04, 0x00, 0x00, 0x80, 0x07, 0x00, 0x00, 0x01,
  0x00, 0x00, 0x00, 0xfa, 0xb0, 0xff, 0xff, 0x14, 0x00, 0x00, 0x00, 0x48, 0x00,
  0x00, 0x00, 0x65, 0x00, 0x00, 0x00, 0x00, 0x00, 0x00, 0x07, 0x50, 0x00, 0x00,
  0x00, 0xec, 0xb0, 0xff, 0xff, 0x10, 0x00, 0x00, 0x00, 0x18, 0x00, 0x00, 0x00,
  0x1c, 0x00, 0x00, 0x00, 0x20, 0x00, 0x00, 0x00, 0x01, 0x00, 0x00, 0x00, 0x00,
  0x00, 0x00, 0x00, 0x00, 0x00, 0x00, 0x00, 0x01, 0x00, 0x00, 0x00, 0x08, 0x86,
  0xfd, 0x38, 0x01, 0x00, 0x00, 0x00, 0x79, 0x06, 0x41, 0x40, 0x01, 0x00, 0x00,
  0x00, 0x0d, 0x84, 0x7d, 0xc0, 0x0d, 0x00, 0x00, 0x00, 0x64, 0x65, 0x70, 0x74,
  0x68, 0x77, 0x69, 0x73, 0x65, 0x5f, 0x32, 0x35, 0x32, 0x00, 0x00, 0x00, 0x04,
  0x00, 0x00, 0x00, 0x01, 0x00, 0x00, 0x00, 0x38, 0x04, 0x00, 0x00, 0x80, 0x07,
  0x00, 0x00, 0x08, 0x00, 0x00, 0x00, 0x72, 0xb1, 0xff, 0xff, 0x14, 0x00, 0x00,
  0x00, 0x48, 0x00, 0x00, 0x00, 0x64, 0x00, 0x00, 0x00, 0x00, 0x00, 0x00, 0x07,
  0x50, 0x00, 0x00, 0x00, 0x64, 0xb1, 0xff, 0xff, 0x10, 0x00, 0x00, 0x00, 0x18,
  0x00, 0x00, 0x00, 0x1c, 0x00, 0x00, 0x00, 0x20, 0x00, 0x00, 0x00, 0x01, 0x00,
  0x00, 0x00, 0x00, 0x00, 0x00, 0x00, 0x00, 0x00, 0x00, 0x00, 0x01, 0x00, 0x00,
  0x00, 0xfe, 0x80, 0xb0, 0x3a, 0x01, 0x00, 0x00, 0x00, 0x9d, 0x7f, 0x30, 0x42,
  0x01, 0x00, 0x00, 0x00, 0x34, 0xcf, 0xfa, 0xc1, 0x0d, 0x00, 0x00, 0x00, 0x64,
  0x65, 0x70, 0x74, 0x68, 0x77, 0x69, 0x73, 0x65, 0x5f, 0x32, 0x34, 0x31, 0x00,
  0x00, 0x00, 0x04, 0x00, 0x00, 0x00, 0x01, 0x00, 0x00, 0x00, 0x38, 0x04, 0x00,
  0x00, 0x82, 0x07, 0x00, 0x00, 0x08, 0x00, 0x00, 0x00, 0xea, 0xb1, 0xff, 0xff,
  0x14, 0x00, 0x00, 0x00, 0x48, 0x00, 0x00, 0x00, 0x63, 0x00, 0x00, 0x00, 0x00,
  0x00, 0x00, 0x07, 0x58, 0x00, 0x00, 0x00, 0xdc, 0xb1, 0xff, 0xff, 0x10, 0x00,
  0x00, 0x00, 0x18, 0x00, 0x00, 0x00, 0x1c, 0x00, 0x00, 0x00, 0x20, 0x00, 0x00,
  0x00, 0x01, 0x00, 0x00, 0x00, 0x00, 0x00, 0x00, 0x00, 0x00, 0x00, 0x00, 0x00,
  0x01, 0x00, 0x00, 0x00, 0x6c, 0x3a, 0xd9, 0x3b, 0x01, 0x00, 0x00, 0x00, 0xfa,
  0xa7, 0x19, 0x43, 0x01, 0x00, 0x00, 0x00, 0xba, 0x38, 0x59, 0xc3, 0x15, 0x00,
  0x00, 0x00, 0x72, 0x65, 0x73, 0x69, 0x7a, 0x65, 0x2f, 0x52, 0x65, 0x73, 0x69,
  0x7a, 0x65, 0x42, 0x69, 0x6c, 0x69, 0x6e, 0x65, 0x61, 0x72, 0x00, 0x00, 0x00,
  0x04, 0x00, 0x00, 0x00, 0x01, 0x00, 0x00, 0x00, 0x3a, 0x04, 0x00, 0x00, 0x82,
  0x07, 0x00, 0x00, 0x08, 0x00, 0x00, 0x00, 0x6a, 0xb2, 0xff, 0xff, 0x14, 0x00,
  0x00, 0x00, 0x48, 0x00, 0x00, 0x00, 0x62, 0x00, 0x00, 0x00, 0x00, 0x00, 0x00,
  0x07, 0x48, 0x00, 0x00, 0x00, 0x5c, 0xb2, 0xff, 0xff, 0x10, 0x00, 0x00, 0x00,
  0x18, 0x00, 0x00, 0x00, 0x1c, 0x00, 0x00, 0x00, 0x20, 0x00, 0x00, 0x00, 0x01,
  0x00, 0x00, 0x00, 0x00, 0x00, 0x00, 0x00, 0x00, 0x00, 0x00, 0x00, 0x01, 0x00,
  0x00, 0x00, 0x6c, 0x3a, 0xd9, 0x3b, 0x01, 0x00, 0x00, 0x00, 0xfa, 0xa7, 0x19,
  0x43, 0x01, 0x00, 0x00, 0x00, 0xba, 0x38, 0x59, 0xc3, 0x05, 0x00, 0x00, 0x00,
  0x41, 0x64, 0x64, 0x5f, 0x34, 0x00, 0x00, 0x00, 0x04, 0x00, 0x00, 0x00, 0x01,
  0x00, 0x00, 0x00, 0x1d, 0x02, 0x00, 0x00, 0xc1, 0x03, 0x00, 0x00, 0x08, 0x00,
  0x00, 0x00, 0xda, 0xb2, 0xff, 0xff, 0x14, 0x00, 0x00, 0x00, 0x48, 0x00, 0x00,
  0x00, 0x61, 0x00, 0x00, 0x00, 0x00, 0x00, 0x00, 0x07, 0x70, 0x00, 0x00, 0x00,
  0xcc, 0xb2, 0xff, 0xff, 0x10, 0x00, 0x00, 0x00, 0x18, 0x00, 0x00, 0x00, 0x1c,
  0x00, 0x00, 0x00, 0x20, 0x00, 0x00, 0x00, 0x01, 0x00, 0x00, 0x00, 0x00, 0x00,
  0x00, 0x00, 0x00, 0x00, 0x00, 0x00, 0x01, 0x00, 0x00, 0x00, 0x58, 0xe7, 0xd8,
  0x3b, 0x01, 0x00, 0x00, 0x00, 0x3c, 0x41, 0x19, 0x43, 0x01, 0x00, 0x00, 0x00,
  0xa6, 0xe5, 0x58, 0xc3, 0x2c, 0x00, 0x00, 0x00, 0x42, 0x69, 0x61, 0x73, 0x41,
  0x64, 0x64, 0x5f, 0x31, 0x31, 0x3b, 0x64, 0x65, 0x70, 0x74, 0x68, 0x77, 0x69,
  0x73, 0x65, 0x5f, 0x32, 0x35, 0x3b, 0x43, 0x6f, 0x6e, 0x76, 0x32, 0x44, 0x5f,
  0x31, 0x31, 0x3b, 0x63, 0x6f, 0x6e, 0x76, 0x5f, 0x34, 0x5f, 0x31, 0x5f, 0x62,
  0x00, 0x00, 0x00, 0x00, 0x04, 0x00, 0x00, 0x00, 0x01, 0x00, 0x00, 0x00, 0x1d,
  0x02, 0x00, 0x00, 0xc1, 0x03, 0x00, 0x00, 0x08, 0x00, 0x00, 0x00, 0x72, 0xb3,
  0xff, 0xff, 0x14, 0x00, 0x00, 0x00, 0x48, 0x00, 0x00, 0x00, 0x60, 0x00, 0x00,
  0x00, 0x00, 0x00, 0x00, 0x07, 0x50, 0x00, 0x00, 0x00, 0x64, 0xb3, 0xff, 0xff,
  0x10, 0x00, 0x00, 0x00, 0x18, 0x00, 0x00, 0x00, 0x1c, 0x00, 0x00, 0x00, 0x20,
  0x00, 0x00, 0x00, 0x01, 0x00, 0x00, 0x00, 0x00, 0x00, 0x00, 0x00, 0x00, 0x00,
  0x00, 0x00, 0x01, 0x00, 0x00, 0x00, 0xea, 0x60, 0xed, 0x3a, 0x01, 0x00, 0x00,
  0x00, 0x0f, 0x5f, 0x6d, 0x42, 0x01, 0x00, 0x00, 0x00, 0x42, 0x77, 0xbb, 0xc1,
  0x0d, 0x00, 0x00, 0x00, 0x64, 0x65, 0x70, 0x74, 0x68, 0x77, 0x69, 0x73, 0x65,
  0x5f, 0x32, 0x33, 0x31, 0x00, 0x00, 0x00, 0x04, 0x00, 0x00, 0x00, 0x01, 0x00,
  0x00, 0x00, 0x1d, 0x02, 0x00, 0x00, 0xc1, 0x03, 0x00, 0x00, 0x08, 0x00, 0x00,
  0x00, 0xea, 0xb3, 0xff, 0xff, 0x14, 0x00, 0x00, 0x00, 0x48, 0x00, 0x00, 0x00,
  0x5f, 0x00, 0x00, 0x00, 0x00, 0x00, 0x00, 0x07, 0x50, 0x00, 0x00, 0x00, 0xdc,
  0xb3, 0xff, 0xff, 0x10, 0x00, 0x00, 0x00, 0x18, 0x00, 0x00, 0x00, 0x1c, 0x00,
  0x00, 0x00, 0x20, 0x00, 0x00, 0x00, 0x01, 0x00, 0x00, 0x00, 0x00, 0x00, 0x00,
  0x00, 0x00, 0x00, 0x00, 0x00, 0x01, 0x00, 0x00, 0x00, 0x62, 0x22, 0xad, 0x3a,
  0x01, 0x00, 0x00, 0x00, 0x08, 0x21, 0x2d, 0x42, 0x01, 0x00, 0x00, 0x00, 0x36,
  0x7a, 0x2b, 0xc2, 0x0d, 0x00, 0x00, 0x00, 0x64, 0x65, 0x70, 0x74, 0x68, 0x77,
  0x69, 0x73, 0x65, 0x5f, 0x32, 0x32, 0x31, 0x00, 0x00, 0x00, 0x04, 0x00, 0x00,
  0x00, 0x01, 0x00, 0x00, 0x00, 0x1d, 0x02, 0x00, 0x00, 0xc1, 0x03, 0x00, 0x00,
  0x08, 0x00, 0x00, 0x00, 0x62, 0xb4, 0xff, 0xff, 0x14, 0x00, 0x00, 0x00, 0x4c,
  0x00, 0x00, 0x00, 0x5e, 0x00, 0x00, 0x00, 0x00, 0x00, 0x00, 0x07, 0x78, 0x00,
  0x00, 0x00, 0x54, 0xb4, 0xff, 0xff, 0x10, 0x00, 0x00, 0x00, 0x1c, 0x00, 0x00,
  0x00, 0x20, 0x00, 0x00, 0x00, 0x24, 0x00, 0x00, 0x00, 0x01, 0x00, 0x00, 0x00,
  0x00, 0x00, 0x00, 0x00, 0x00, 0x00, 0x00, 0x00, 0x00, 0x00, 0x00, 0x00, 0x01,
  0x00, 0x00, 0x00, 0xb0, 0xe0, 0x44, 0x3b, 0x01, 0x00, 0x00, 0x00, 0x26, 0xdf,
  0xc4, 0x42, 0x01, 0x00, 0x00, 0x00, 0x00, 0x00, 0x00, 0x00, 0x33, 0x00, 0x00,
  0x00, 0x52, 0x65, 0x6c, 0x75, 0x5f, 0x33, 0x3b, 0x42, 0x69, 0x61, 0x73, 0x41,
  0x64, 0x64, 0x5f, 0x31, 0x30, 0x3b, 0x64, 0x65, 0x70, 0x74, 0x68, 0x77, 0x69,
  0x73, 0x65, 0x5f, 0x32, 0x35, 0x3b, 0x43, 0x6f, 0x6e, 0x76, 0x32, 0x44, 0x5f,
  0x31, 0x30, 0x3b, 0x63, 0x6f, 0x6e, 0x76, 0x5f, 0x34, 0x5f, 0x30, 0x5f, 0x62,
  0x00, 0x04, 0x00, 0x00, 0x00, 0x01, 0x00, 0x00, 0x00, 0x1d, 0x02, 0x00, 0x00,
  0xc1, 0x03, 0x00, 0x00, 0x08, 0x00, 0x00, 0x00, 0x02, 0xb5, 0xff, 0xff, 0x14,
  0x00, 0x00, 0x00, 0x48, 0x00, 0x00, 0x00, 0x5d, 0x00, 0x00, 0x00, 0x00, 0x00,
  0x00, 0x07, 0x50, 0x00, 0x00, 0x00, 0xf4, 0xb4, 0xff, 0xff, 0x10, 0x00, 0x00,
  0x00, 0x18, 0x00, 0x00, 0x00, 0x1c, 0x00, 0x00, 0x00, 0x20, 0x00, 0x00, 0x00,
  0x01, 0x00, 0x00, 0x00, 0x00, 0x00, 0x00, 0x00, 0x00, 0x00, 0x00, 0x00, 0x01,
  0x00, 0x00, 0x00, 0x37, 0xe2, 0xa8, 0x3a, 0x01, 0x00, 0x00, 0x00, 0x5f, 0x44,
  0xec, 0x41, 0x01, 0x00, 0x00, 0x00, 0xe5, 0xe0, 0x28, 0xc2, 0x0d, 0x00, 0x00,
  0x00, 0x64, 0x65, 0x70, 0x74, 0x68, 0x77, 0x69, 0x73, 0x65, 0x5f, 0x32, 0x31,
  0x31, 0x00, 0x00, 0x00, 0x04, 0x00, 0x00, 0x00, 0x01, 0x00, 0x00, 0x00, 0x1d,
  0x02, 0x00, 0x00, 0xc1, 0x03, 0x00, 0x00, 0x08, 0x00, 0x00, 0x00, 0x7a, 0xb5,
  0xff, 0xff, 0x14, 0x00, 0x00, 0x00, 0x48, 0x00, 0x00, 0x00, 0x5c, 0x00, 0x00,
  0x00, 0x00, 0x00, 0x00, 0x07, 0x50, 0x00, 0x00, 0x00, 0x6c, 0xb5, 0xff, 0xff,
  0x10, 0x00, 0x00, 0x00, 0x18, 0x00, 0x00, 0x00, 0x1c, 0x00, 0x00, 0x00, 0x20,
  0x00, 0x00, 0x00, 0x01, 0x00, 0x00, 0x00, 0x00, 0x00, 0x00, 0x00, 0x00, 0x00,
  0x00, 0x00, 0x01, 0x00, 0x00, 0x00, 0x96, 0x8f, 0x83, 0x3a, 0x01, 0x00, 0x00,
  0x00, 0x8f, 0x8e, 0x03, 0x42, 0x01, 0x00, 0x00, 0x00, 0x2c, 0x5a, 0xe1, 0xc1,
  0x0d, 0x00, 0x00, 0x00, 0x64, 0x65, 0x70, 0x74, 0x68, 0x77, 0x69, 0x73, 0x65,
  0x5f, 0x32, 0x30, 0x31, 0x00, 0x00, 0x00, 0x04, 0x00, 0x00, 0x00, 0x01, 0x00,
  0x00, 0x00, 0x1d, 0x02, 0x00, 0x00, 0xc1, 0x03, 0x00, 0x00, 0x08, 0x00, 0x00,
  0x00, 0xf2, 0xb5, 0xff, 0xff, 0x14, 0x00, 0x00, 0x00, 0x48, 0x00, 0x00, 0x00,
  0x5b, 0x00, 0x00, 0x00, 0x00, 0x00, 0x00, 0x07, 0x48, 0x00, 0x00, 0x00, 0xe4,
  0xb5, 0xff, 0xff, 0x10, 0x00, 0x00, 0x00, 0x18, 0x00, 0x00, 0x00, 0x1c, 0x00,
  0x00, 0x00, 0x20, 0x00, 0x00, 0x00, 0x01, 0x00, 0x00, 0x00, 0x00, 0x00, 0x00,
  0x00, 0x00, 0x00, 0x00, 0x00, 0x01, 0x00, 0x00, 0x00, 0x7a, 0x40, 0xcf, 0x3a,
  0x01, 0x00, 0x00, 0x00, 0xf0, 0x2d, 0x3d, 0x42, 0x01, 0x00, 0x00, 0x00, 0xdb,
  0x3e, 0x4f, 0xc2, 0x05, 0x00, 0x00, 0x00, 0x41, 0x64, 0x64, 0x5f, 0x33, 0x00,
  0x00, 0x00, 0x04, 0x00, 0x00, 0x00, 0x01, 0x00, 0x00, 0x00, 0x1d, 0x02, 0x00,
  0x00, 0xc1, 0x03, 0x00, 0x00, 0x08, 0x00, 0x00, 0x00, 0x62, 0xb6, 0xff, 0xff,
  0x14, 0x00, 0x00, 0x00, 0x4c, 0x00, 0x00, 0x00, 0x5a, 0x00, 0x00, 0x00, 0x00,
  0x00, 0x00, 0x07, 0x70, 0x00, 0x00, 0x00, 0x54, 0xb6, 0xff, 0xff, 0x10, 0x00,
  0x00, 0x00, 0x1c, 0x00, 0x00, 0x00, 0x20, 0x00, 0x00, 0x00, 0x24, 0x00, 0x00,
  0x00, 0x01, 0x00, 0x00, 0x00, 0x00, 0x00, 0x00, 0x00, 0x00, 0x00, 0x00, 0x00,
  0x00, 0x00, 0x00, 0x00, 0x01, 0x00, 0x00, 0x00, 0x67, 0xf6, 0x66, 0x3a, 0x01,
  0x00, 0x00, 0x00, 0x99, 0xf4, 0xe6, 0x41, 0x01, 0x00, 0x00, 0x00, 0xb9, 0x04,
  0x89, 0xc1, 0x2a, 0x00, 0x00, 0x00, 0x42, 0x69, 0x61, 0x73, 0x41, 0x64, 0x64,
  0x5f, 0x39, 0x3b, 0x64, 0x65, 0x70, 0x74, 0x68, 0x77, 0x69, 0x73, 0x65, 0x5f,
  0x32, 0x35, 0x3b, 0x43, 0x6f, 0x6e, 0x76, 0x32, 0x44, 0x5f, 0x39, 0x3b, 0x63,
  0x6f, 0x6e, 0x76, 0x5f, 0x33, 0x5f, 0x31, 0x5f, 0x62, 0x00, 0x00, 0x04, 0x00,
  0x00, 0x00, 0x01, 0x00, 0x00, 0x00, 0x1d, 0x02, 0x00, 0x00, 0xc1, 0x03, 0x00,
  0x00, 0x08, 0x00, 0x00, 0x00, 0xfa, 0xb6, 0xff, 0xff, 0x14, 0x00, 0x00, 0x00,
  0x48, 0x00, 0x00, 0x00, 0x59, 0x00, 0x00, 0x00, 0x00, 0x00, 0x00, 0x07, 0x50,
  0x00, 0x00, 0x00, 0xec, 0xb6, 0xff, 0xff, 0x10, 0x00, 0x00, 0x00, 0x18, 0x00,
  0x00, 0x00, 0x1c, 0x00, 0x00, 0x00, 0x20, 0x00, 0x00, 0x00, 0x01, 0x00, 0x00,
  0x00, 0x00, 0x00, 0x00, 0x00, 0x00, 0x00, 0x00, 0x00, 0x01, 0x00, 0x00, 0x00,
  0x1c, 0xa2, 0x01, 0x3a, 0x01, 0x00, 0x00, 0x00, 0x19, 0xa1, 0x81, 0x41, 0x01,
  0x00, 0x00, 0x00, 0x02, 0x5d, 0x5b, 0xc1, 0x0d, 0x00, 0x00, 0x00, 0x64, 0x65,
  0x70, 0x74, 0x68, 0x77, 0x69, 0x73, 0x65, 0x5f, 0x31, 0x39, 0x32, 0x00, 0x00,
  0x00, 0x04, 0x00, 0x00, 0x00, 0x01, 0x00, 0x00, 0x00, 0x1d, 0x02, 0x00, 0x00,
  0xc1, 0x03, 0x00, 0x00, 0x0a, 0x00, 0x00, 0x00, 0x72, 0xb7, 0xff, 0xff, 0x14,
  0x00, 0x00, 0x00, 0x48, 0x00, 0x00, 0x00, 0x58, 0x00, 0x00, 0x00, 0x00, 0x00,
  0x00, 0x07, 0x50, 0x00, 0x00, 0x00, 0x64, 0xb7, 0xff, 0xff, 0x10, 0x00, 0x00,
  0x00, 0x18, 0x00, 0x00, 0x00, 0x1c, 0x00, 0x00, 0x00, 0x20, 0x00, 0x00, 0x00,
  0x01, 0x00, 0x00, 0x00, 0x00, 0x00, 0x00, 0x00, 0x00, 0x00, 0x00, 0x00, 0x01,
  0x00, 0x00, 0x00, 0x31, 0xd2, 0x49, 0x3a, 0x01, 0x00, 0x00, 0x00, 0x9d, 0xd0,
  0xc9, 0x41, 0x01, 0x00, 0x00, 0x00, 0x7c, 0xa5, 0xa5, 0xc1, 0x0d, 0x00, 0x00,
  0x00, 0x64, 0x65, 0x70, 0x74, 0x68, 0x77, 0x69, 0x73, 0x65, 0x5f, 0x31, 0x38,
  0x31, 0x00, 0x00, 0x00, 0x04, 0x00, 0x00, 0x00, 0x01, 0x00, 0x00, 0x00, 0x1d,
  0x02, 0x00, 0x00, 0xc1, 0x03, 0x00, 0x00, 0x0a, 0x00, 0x00, 0x00, 0xea, 0xb7,
  0xff, 0xff, 0x14, 0x00, 0x00, 0x00, 0x4c, 0x00, 0x00, 0x00, 0x57, 0x00, 0x00,
  0x00, 0x00, 0x00, 0x00, 0x07, 0x70, 0x00, 0x00, 0x00, 0xdc, 0xb7, 0xff, 0xff,
  0x10, 0x00, 0x00, 0x00, 0x1c, 0x00, 0x00, 0x00, 0x20, 0x00, 0x00, 0x00, 0x24,
  0x00, 0x00, 0x00, 0x01, 0x00, 0x00, 0x00, 0x00, 0x00, 0x00, 0x00, 0x00, 0x00,
  0x00, 0x00, 0x00, 0x00, 0x00, 0x00, 0x01, 0x00, 0x00, 0x00, 0x72, 0x22, 0xcc,
  0x3a, 0x01, 0x00, 0x00, 0x00, 0x42, 0xe3, 0x38, 0x42, 0x01, 0x00, 0x00, 0x00,
  0xda, 0x20, 0x4c, 0xc2, 0x2a, 0x00, 0x00, 0x00, 0x42, 0x69, 0x61, 0x73, 0x41,
  0x64, 0x64, 0x5f, 0x38, 0x3b, 0x64, 0x65, 0x70, 0x74, 0x68, 0x77, 0x69, 0x73,
  0x65, 0x5f, 0x32, 0x35, 0x3b, 0x43, 0x6f, 0x6e, 0x76, 0x32, 0x44, 0x5f, 0x38,
  0x3b, 0x63, 0x6f, 0x6e, 0x76, 0x5f, 0x33, 0x5f, 0x31, 0x5f, 0x62, 0x00, 0x00,
  0x04, 0x00, 0x00, 0x00, 0x01, 0x00, 0x00, 0x00, 0x1d, 0x02, 0x00, 0x00, 0xc1,
  0x03, 0x00, 0x00, 0x08, 0x00, 0x00, 0x00, 0x82, 0xb8, 0xff, 0xff, 0x14, 0x00,
  0x00, 0x00, 0x48, 0x00, 0x00, 0x00, 0x56, 0x00, 0x00, 0x00, 0x00, 0x00, 0x00,
  0x07, 0x50, 0x00, 0x00, 0x00, 0x74, 0xb8, 0xff, 0xff, 0x10, 0x00, 0x00, 0x00,
  0x18, 0x00, 0x00, 0x00, 0x1c, 0x00, 0x00, 0x00, 0x20, 0x00, 0x00, 0x00, 0x01,
  0x00, 0x00, 0x00, 0x00, 0x00, 0x00, 0x00, 0x00, 0x00, 0x00, 0x00, 0x01, 0x00,
  0x00, 0x00, 0x99, 0x89, 0xbb, 0x3a, 0x01, 0x00, 0x00, 0x00, 0x22, 0x88, 0x3b,
  0x42, 0x01, 0x00, 0x00, 0x00, 0xa8, 0x89, 0x93, 0xc1, 0x0d, 0x00, 0x00, 0x00,
  0x64, 0x65, 0x70, 0x74, 0x68, 0x77, 0x69, 0x73, 0x65, 0x5f, 0x31, 0x37, 0x31,
  0x00, 0x00, 0x00, 0x04, 0x00, 0x00, 0x00, 0x01, 0x00, 0x00, 0x00, 0x1d, 0x02,
  0x00, 0x00, 0xc1, 0x03, 0x00, 0x00, 0x08, 0x00, 0x00, 0x00, 0xfa, 0xb8, 0xff,
  0xff, 0x14, 0x00, 0x00, 0x00, 0x48, 0x00, 0x00, 0x00, 0x55, 0x00, 0x00, 0x00,
  0x00, 0x00, 0x00, 0x07, 0x50, 0x00, 0x00, 0x00, 0xec, 0xb8, 0xff, 0xff, 0x10,
  0x00, 0x00, 0x00, 0x18, 0x00, 0x00, 0x00, 0x1c, 0x00, 0x00, 0x00, 0x20, 0x00,
  0x00, 0x00, 0x01, 0x00, 0x00, 0x00, 0x00, 0x00, 0x00, 0x00, 0x00, 0x00, 0x00,
  0x00, 0x01, 0x00, 0x00, 0x00, 0x03, 0x06, 0x5d, 0x3a, 0x01, 0x00, 0x00, 0x00,
  0x49, 0x04, 0xdd, 0x41, 0x01, 0x00, 0x00, 0x00, 0x32, 0xd9, 0x82, 0xc1, 0x0d,
  0x00, 0x00, 0x00, 0x64, 0x65, 0x70, 0x74, 0x68, 0x77, 0x69, 0x73, 0x65, 0x5f,
  0x31, 0x36, 0x31, 0x00, 0x00, 0x00, 0x04, 0x00, 0x00, 0x00, 0x01, 0x00, 0x00,
  0x00, 0x1d, 0x02, 0x00, 0x00, 0xc1, 0x03, 0x00, 0x00, 0x08, 0x00, 0x00, 0x00,
  0x72, 0xb9, 0xff, 0xff, 0x14, 0x00, 0x00, 0x00, 0x4c, 0x00, 0x00, 0x00, 0x54,
  0x00, 0x00, 0x00, 0x00, 0x00, 0x00, 0x07, 0x78, 0x00, 0x00, 0x00, 0x64, 0xb9,
  0xff, 0xff, 0x10, 0x00, 0x00, 0x00, 0x1c, 0x00, 0x00, 0x00, 0x20, 0x00, 0x00,
  0x00, 0x24, 0x00, 0x00, 0x00, 0x01, 0x00, 0x00, 0x00, 0x00, 0x00, 0x00, 0x00,
  0x00, 0x00, 0x00, 0x00, 0x00, 0x00, 0x00, 0x00, 0x01, 0x00, 0x00, 0x00, 0x1b,
  0x99, 0x92, 0x3a, 0x01, 0x00, 0x00, 0x00, 0xf6, 0x97, 0x12, 0x42, 0x01, 0x00,
  0x00, 0x00, 0x00, 0x00, 0x00, 0x00, 0x31, 0x00, 0x00, 0x00, 0x52, 0x65, 0x6c,
  0x75, 0x5f, 0x32, 0x3b, 0x42, 0x69, 0x61, 0x73, 0x41, 0x64, 0x64, 0x5f, 0x37,
  0x3b, 0x64, 0x65, 0x70, 0x74, 0x68, 0x77, 0x69, 0x73, 0x65, 0x5f, 0x32, 0x35,
  0x3b, 0x43, 0x6f, 0x6e, 0x76, 0x32, 0x44, 0x5f, 0x37, 0x3b, 0x63, 0x6f, 0x6e,
  0x76, 0x5f, 0x33, 0x5f, 0x30, 0x5f, 0x62, 0x00, 0x00, 0x00, 0x04, 0x00, 0x00,
  0x00, 0x01, 0x00, 0x00, 0x00, 0x1d, 0x02, 0x00, 0x00, 0xc1, 0x03, 0x00, 0x00,
  0x08, 0x00, 0x00, 0x00, 0x12, 0xba, 0xff, 0xff, 0x14, 0x00, 0x00, 0x00, 0x48,
  0x00, 0x00, 0x00, 0x53, 0x00, 0x00, 0x00, 0x00, 0x00, 0x00, 0x07, 0x50, 0x00,
  0x00, 0x00, 0x04, 0xba, 0xff, 0xff, 0x10, 0x00, 0x00, 0x00, 0x18, 0x00, 0x00,
  0x00, 0x1c, 0x00, 0x00, 0x00, 0x20, 0x00, 0x00, 0x00, 0x01, 0x00, 0x00, 0x00,
  0x00, 0x00, 0x00, 0x00, 0x00, 0x00, 0x00, 0x00, 0x01, 0x00, 0x00, 0x00, 0x4d,
  0x7e, 0x31, 0x3a, 0x01, 0x00, 0x00, 0x00, 0xea, 0x7c, 0xb1, 0x41, 0x01, 0x00,
  0x00, 0x00, 0xb9, 0xe0, 0x8b, 0xc1, 0x0d, 0x00, 0x00, 0x00, 0x64, 0x65, 0x70,
  0x74, 0x68, 0x77, 0x69, 0x73, 0x65, 0x5f, 0x31, 0x35, 0x31, 0x00, 0x00, 0x00,
  0x04, 0x00, 0x00, 0x00, 0x01, 0x00, 0x00, 0x00, 0x1d, 0x02, 0x00, 0x00, 0xc1,
  0x03, 0x00, 0x00, 0x0a, 0x00, 0x00, 0x00, 0x8a, 0xba, 0xff, 0xff, 0x14, 0x00,
  0x00, 0x00, 0x48, 0x00, 0x00, 0x00, 0x52, 0x00, 0x00, 0x00, 0x00, 0x00, 0x00,
  0x07, 0x50, 0x00, 0x00, 0x00, 0x7c, 0xba, 0xff, 0xff, 0x10, 0x00, 0x00, 0x00,
  0x18, 0x00, 0x00, 0x00, 0x1c, 0x00, 0x00, 0x00, 0x20, 0x00, 0x00, 0x00, 0x01,
  0x00, 0x00, 0x00, 0x00, 0x00, 0x00, 0x00, 0x00, 0x00, 0x00, 0x00, 0x01, 0x00,
  0x00, 0x00, 0x69, 0x73, 0x5e, 0x3a, 0x01, 0x00, 0x00, 0x00, 0x8b, 0x40, 0xac,
  0x41, 0x01, 0x00, 0x00, 0x00, 0xac, 0x71, 0xde, 0xc1, 0x0d, 0x00, 0x00, 0x00,
  0x64, 0x65, 0x70, 0x74, 0x68, 0x77, 0x69, 0x73, 0x65, 0x5f, 0x31, 0x34, 0x31,
  0x00, 0x00, 0x00, 0x04, 0x00, 0x00, 0x00, 0x01, 0x00, 0x00, 0x00, 0x1d, 0x02,
  0x00, 0x00, 0xc1, 0x03, 0x00, 0x00, 0x0a, 0x00, 0x00, 0x00, 0x02, 0xbb, 0xff,
  0xff, 0x14, 0x00, 0x00, 0x00, 0x48, 0x00, 0x00, 0x00, 0x51, 0x00, 0x00, 0x00,
  0x00, 0x00, 0x00, 0x07, 0x48, 0x00, 0x00, 0x00, 0xf4, 0xba, 0xff, 0xff, 0x10,
  0x00, 0x00, 0x00, 0x18, 0x00, 0x00, 0x00, 0x1c, 0x00, 0x00, 0x00, 0x20, 0x00,
  0x00, 0x00, 0x01, 0x00, 0x00, 0x00, 0x00, 0x00, 0x00, 0x00, 0x00, 0x00, 0x00,
  0x00, 0x01, 0x00, 0x00, 0x00, 0x4f, 0x8b, 0xb1, 0x3a, 0x01, 0x00, 0x00, 0x00,
  0xde, 0x4f, 0x26, 0x42, 0x01, 0x00, 0x00, 0x00, 0xec, 0x89, 0x31, 0xc2, 0x05,
  0x00, 0x00, 0x00, 0x41, 0x64, 0x64, 0x5f, 0x32, 0x00, 0x00, 0x00, 0x04, 0x00,
  0x00, 0x00, 0x01, 0x00, 0x00, 0x00, 0x1d, 0x02, 0x00, 0x00, 0xc1, 0x03, 0x00,
  0x00, 0x0a, 0x00, 0x00, 0x00, 0x72, 0xbb, 0xff, 0xff, 0x14, 0x00, 0x00, 0x00,
  0x4c, 0x00, 0x00, 0x00, 0x50, 0x00, 0x00, 0x00, 0x00, 0x00, 0x00, 0x07, 0x70,
  0x00, 0x00, 0x00, 0x64, 0xbb, 0xff, 0xff, 0x10, 0x00, 0x00, 0x00, 0x1c, 0x00,
  0x00, 0x00, 0x20, 0x00, 0x00, 0x00, 0x24, 0x00, 0x00, 0x00, 0x01, 0x00, 0x00,
  0x00, 0x00, 0x00, 0x00, 0x00, 0x00, 0x00, 0x00, 0x00, 0x00, 0x00, 0x00, 0x00,
  0x01, 0x00, 0x00, 0x00, 0xef, 0xbb, 0xa8, 0x3a, 0x01, 0x00, 0x00, 0x00, 0x50,
  0x76, 0xb9, 0x41, 0x01, 0x00, 0x00, 0x00, 0x9e, 0xba, 0x28, 0xc2, 0x2a, 0x00,
  0x00, 0x00, 0x42, 0x69, 0x61, 0x73, 0x41, 0x64, 0x64, 0x5f, 0x36, 0x3b, 0x64,
  0x65, 0x70, 0x74, 0x68, 0x77, 0x69, 0x73, 0x65, 0x5f, 0x31, 0x39, 0x3b, 0x43,
  0x6f, 0x6e, 0x76, 0x32, 0x44, 0x5f, 0x36, 0x3b, 0x63, 0x6f, 0x6e, 0x76, 0x5f,
  0x32, 0x5f, 0x31, 0x5f, 0x62, 0x00, 0x00, 0x04, 0x00, 0x00, 0x00, 0x01, 0x00,
  0x00, 0x00, 0x1d, 0x02, 0x00, 0x00, 0xc1, 0x03, 0x00, 0x00, 0x0a, 0x00, 0x00,
  0x00, 0x0a, 0xbc, 0xff, 0xff, 0x14, 0x00, 0x00, 0x00, 0x48, 0x00, 0x00, 0x00,
  0x4f, 0x00, 0x00, 0x00, 0x00, 0x00, 0x00, 0x07, 0x50, 0x00, 0x00, 0x00, 0xfc,
  0xbb, 0xff, 0xff, 0x10, 0x00, 0x00, 0x00, 0x18, 0x00, 0x00, 0x00, 0x1c, 0x00,
  0x00, 0x00, 0x20, 0x00, 0x00, 0x00, 0x01, 0x00, 0x00, 0x00, 0x00, 0x00, 0x00,
  0x00, 0x00, 0x00, 0x00, 0x00, 0x01, 0x00, 0x00, 0x00, 0xc9, 0x4a, 0x08, 0x3a,
  0x01, 0x00, 0x00, 0x00, 0xb8, 0x49, 0x88, 0x41, 0x01, 0x00, 0x00, 0x00, 0x76,
  0xb8, 0x87, 0xc1, 0x0d, 0x00, 0x00, 0x00, 0x64, 0x65, 0x70, 0x74, 0x68, 0x77,
  0x69, 0x73, 0x65, 0x5f, 0x31, 0x33, 0x32, 0x00, 0x00, 0x00, 0x04, 0x00, 0x00,
  0x00, 0x01, 0x00, 0x00, 0x00, 0x1d, 0x02, 0x00, 0x00, 0xc1, 0x03, 0x00, 0x00,
  0x0c, 0x00, 0x00, 0x00, 0x82, 0xbc, 0xff, 0xff, 0x14, 0x00, 0x00, 0x00, 0x48,
  0x00, 0x00, 0x00, 0x4e, 0x00, 0x00, 0x00, 0x00, 0x00, 0x00, 0x07, 0x50, 0x00,
  0x00, 0x00, 0x74, 0xbc, 0xff, 0xff, 0x10, 0x00, 0x00, 0x00, 0x18, 0x00, 0x00,
  0x00, 0x1c, 0x00, 0x00, 0x00, 0x20, 0x00, 0x00, 0x00, 0x01, 0x00, 0x00, 0x00,
  0x00, 0x00, 0x00, 0x00, 0x00, 0x00, 0x00, 0x00, 0x01, 0x00, 0x00, 0x00, 0x09,
  0x9c, 0x74, 0x3a, 0x01, 0x00, 0x00, 0x00, 0x20, 0x9a, 0xf4, 0x41, 0x01, 0x00,
  0x00, 0x00, 0xb3, 0x98, 0xb3, 0xc1, 0x0d, 0x00, 0x00, 0x00, 0x64, 0x65, 0x70,
  0x74, 0x68, 0x77, 0x69, 0x73, 0x65, 0x5f, 0x31, 0x32, 0x31, 0x00, 0x00, 0x00,
  0x04, 0x00, 0x00, 0x00, 0x01, 0x00, 0x00, 0x00, 0x1d, 0x02, 0x00, 0x00, 0xc1,
  0x03, 0x00, 0x00, 0x0c, 0x00, 0x00, 0x00, 0xfa, 0xbc, 0xff, 0xff, 0x14, 0x00,
  0x00, 0x00, 0x4c, 0x00, 0x00, 0x00, 0x4d, 0x00, 0x00, 0x00, 0x00, 0x00, 0x00,
  0x07, 0x70, 0x00, 0x00, 0x00, 0xec, 0xbc, 0xff, 0xff, 0x10, 0x00, 0x00, 0x00,
  0x1c, 0x00, 0x00, 0x00, 0x20, 0x00, 0x00, 0x00, 0x24, 0x00, 0x00, 0x00, 0x01,
  0x00, 0x00, 0x00, 0x00, 0x00, 0x00, 0x00, 0x00, 0x00, 0x00, 0x00, 0x00, 0x00,
  0x00, 0x00, 0x01, 0x00, 0x00, 0x00, 0x7f, 0x42, 0xc8, 0x3a, 0x01, 0x00, 0x00,
  0x00, 0xfc, 0x95, 0x2b, 0x42, 0x01, 0x00, 0x00, 0x00, 0xee, 0x40, 0x48, 0xc2,
  0x2a, 0x00, 0x00, 0x00, 0x42, 0x69, 0x61, 0x73, 0x41, 0x64, 0x64, 0x5f, 0x35,
  0x3b, 0x64, 0x65, 0x70, 0x74, 0x68, 0x77, 0x69, 0x73, 0x65, 0x5f, 0x31, 0x39,
  0x3b, 0x43, 0x6f, 0x6e, 0x76, 0x32, 0x44, 0x5f, 0x35, 0x3b, 0x63, 0x6f, 0x6e,
  0x76, 0x5f, 0x32, 0x5f, 0x31, 0x5f, 0x62, 0x00, 0x00, 0x04, 0x00, 0x00, 0x00,
  0x01, 0x00, 0x00, 0x00, 0x1d, 0x02, 0x00, 0x00, 0xc1, 0x03, 0x00, 0x00, 0x0a,
  0x00, 0x00, 0x00, 0x92, 0xbd, 0xff, 0xff, 0x14, 0x00, 0x00, 0x00, 0x48, 0x00,
  0x00, 0x00, 0x4c, 0x00, 0x00, 0x00, 0x00, 0x00, 0x00, 0x07, 0x50, 0x00, 0x00,
  0x00, 0x84, 0xbd, 0xff, 0xff, 0x10, 0x00, 0x00, 0x00, 0x18, 0x00, 0x00, 0x00,
  0x1c, 0x00, 0x00, 0x00, 0x20, 0x00, 0x00, 0x00, 0x01, 0x00, 0x00, 0x00, 0x00,
  0x00, 0x00, 0x00, 0x00, 0x00, 0x00, 0x00, 0x01, 0x00, 0x00, 0x00, 0x92, 0xbe,
  0x8a, 0x3a, 0x01, 0x00, 0x00, 0x00, 0xb3, 0xea, 0x92, 0x41, 0x01, 0x00, 0x00,
  0x00, 0x7d, 0xbd, 0x0a, 0xc2, 0x0d, 0x00, 0x00, 0x00, 0x64, 0x65, 0x70, 0x74,
  0x68, 0x77, 0x69, 0x73, 0x65, 0x5f, 0x31, 0x31, 0x31, 0x00, 0x00, 0x00, 0x04,
  0x00, 0x00, 0x00, 0x01, 0x00, 0x00, 0x00, 0x1d, 0x02, 0x00, 0x00, 0xc1, 0x03,
  0x00, 0x00, 0x0a, 0x00, 0x00, 0x00, 0x0a, 0xbe, 0xff, 0xff, 0x14, 0x00, 0x00,
  0x00, 0x48, 0x00, 0x00, 0x00, 0x4b, 0x00, 0x00, 0x00, 0x00, 0x00, 0x00, 0x07,
  0x50, 0x00, 0x00, 0x00, 0xfc, 0xbd, 0xff, 0xff, 0x10, 0x00, 0x00, 0x00, 0x18,
  0x00, 0x00, 0x00, 0x1c, 0x00, 0x00, 0x00, 0x20, 0x00, 0x00, 0x00, 0x01, 0x00,
  0x00, 0x00, 0x00, 0x00, 0x00, 0x00, 0x00, 0x00, 0x00, 0x00, 0x01, 0x00, 0x00,
  0x00, 0x30, 0x57, 0x8b, 0x3a, 0x01, 0x00, 0x00, 0x00, 0xe8, 0x9c, 0xa6, 0x41,
  0x01, 0x00, 0x00, 0x00, 0x19, 0x56, 0x0b, 0xc2, 0x0d, 0x00, 0x00, 0x00, 0x64,
  0x65, 0x70, 0x74, 0x68, 0x77, 0x69, 0x73, 0x65, 0x5f, 0x31, 0x30, 0x31, 0x00,
  0x00, 0x00, 0x04, 0x00, 0x00, 0x00, 0x01, 0x00, 0x00, 0x00, 0x1d, 0x02, 0x00,
  0x00, 0xc1, 0x03, 0x00, 0x00, 0x0a, 0x00, 0x00, 0x00, 0x82, 0xbe, 0xff, 0xff,
  0x14, 0x00, 0x00, 0x00, 0x4c, 0x00, 0x00, 0x00, 0x4a, 0x00, 0x00, 0x00, 0x00,
  0x00, 0x00, 0x07, 0x78, 0x00, 0x00, 0x00, 0x74, 0xbe, 0xff, 0xff, 0x10, 0x00,
  0x00, 0x00, 0x1c, 0x00, 0x00, 0x00, 0x20, 0x00, 0x00, 0x00, 0x24, 0x00, 0x00,
  0x00, 0x01, 0x00, 0x00, 0x00, 0x00, 0x00, 0x00, 0x00, 0x00, 0x00, 0x00, 0x00,
  0x00, 0x00, 0x00, 0x00, 0x01, 0x00, 0x00, 0x00, 0x75, 0xe6, 0xc3, 0x3a, 0x01,
  0x00, 0x00, 0x00, 0xed, 0xe4, 0x43, 0x42, 0x01, 0x00, 0x00, 0x00, 0x00, 0x00,
  0x00, 0x00, 0x31, 0x00, 0x00, 0x00, 0x52, 0x65, 0x6c, 0x75, 0x5f, 0x31, 0x3b,
  0x42, 0x69, 0x61, 0x73, 0x41, 0x64, 0x64, 0x5f, 0x34, 0x3b, 0x64, 0x65, 0x70,
  0x74, 0x68, 0x77, 0x69, 0x73, 0x65, 0x5f, 0x31, 0x39, 0x3b, 0x43, 0x6f, 0x6e,
  0x76, 0x32, 0x44, 0x5f, 0x34, 0x3b, 0x63, 0x6f, 0x6e, 0x76, 0x5f, 0x32, 0x5f,
  0x30, 0x5f, 0x62, 0x00, 0x00, 0x00, 0x04, 0x00, 0x00, 0x00, 0x01, 0x00, 0x00,
  0x00, 0x1d, 0x02, 0x00, 0x00, 0xc1, 0x03, 0x00, 0x00, 0x0a, 0x00, 0x00, 0x00,
  0x22, 0xbf, 0xff, 0xff, 0x14, 0x00, 0x00, 0x00, 0x48, 0x00, 0x00, 0x00, 0x49,
  0x00, 0x00, 0x00, 0x00, 0x00, 0x00, 0x07, 0x50, 0x00, 0x00, 0x00, 0x14, 0xbf,
  0xff, 0xff, 0x10, 0x00, 0x00, 0x00, 0x18, 0x00, 0x00, 0x00, 0x1c, 0x00, 0x00,
  0x00, 0x20, 0x00, 0x00, 0x00, 0x01, 0x00, 0x00, 0x00, 0x00, 0x00, 0x00, 0x00,
  0x00, 0x00, 0x00, 0x00, 0x01, 0x00, 0x00, 0x00, 0x25, 0x90, 0x66, 0x3a, 0x01,
  0x00, 0x00, 0x00, 0x58, 0x8e, 0xe6, 0x41, 0x01, 0x00, 0x00, 0x00, 0xb8, 0x96,
  0xe0, 0xc1, 0x0c, 0x00, 0x00, 0x00, 0x64, 0x65, 0x70, 0x74, 0x68, 0x77, 0x69,
  0x73, 0x65, 0x5f, 0x39, 0x31, 0x00, 0x00, 0x00, 0x00, 0x04, 0x00, 0x00, 0x00,
  0x01, 0x00, 0x00, 0x00, 0x1d, 0x02, 0x00, 0x00, 0xc1, 0x03, 0x00, 0x00, 0x0c,
  0x00, 0x00, 0x00, 0x9a, 0xbf, 0xff, 0xff, 0x14, 0x00, 0x00, 0x00, 0x48, 0x00,
  0x00, 0x00, 0x48, 0x00, 0x00, 0x00, 0x00, 0x00, 0x00, 0x07, 0x50, 0x00, 0x00,
  0x00, 0x8c, 0xbf, 0xff, 0xff, 0x10, 0x00, 0x00, 0x00, 0x18, 0x00, 0x00, 0x00,
  0x1c, 0x00, 0x00, 0x00, 0x20, 0x00, 0x00, 0x00, 0x01, 0x00, 0x00, 0x00, 0x00,
  0x00, 0x00, 0x00, 0x00, 0x00, 0x00, 0x00, 0x01, 0x00, 0x00, 0x00, 0x72, 0xbe,
  0xa0, 0x3a, 0x01, 0x00, 0x00, 0x00, 0x31, 0xbd, 0x20, 0x42, 0x01, 0x00, 0x00,
  0x00, 0x34, 0xc5, 0x14, 0xc2, 0x0c, 0x00, 0x00, 0x00, 0x64, 0x65, 0x70, 0x74,
  0x68, 0x77, 0x69, 0x73, 0x65, 0x5f, 0x38, 0x31, 0x00, 0x00, 0x00, 0x00, 0x04,
  0x00, 0x00, 0x00, 0x01, 0x00, 0x00, 0x00, 0x1d, 0x02, 0x00, 0x00, 0xc1, 0x03,
  0x00, 0x00, 0x0c, 0x00, 0x00, 0x00, 0x12, 0xc0, 0xff, 0xff, 0x14, 0x00, 0x00,
  0x00, 0x48, 0x00, 0x00, 0x00, 0x47, 0x00, 0x00, 0x00, 0x00, 0x00, 0x00, 0x07,
  0x48, 0x00, 0x00, 0x00, 0x04, 0xc0, 0xff, 0xff, 0x10, 0x00, 0x00, 0x00, 0x18,
  0x00, 0x00, 0x00, 0x1c, 0x00, 0x00, 0x00, 0x20, 0x00, 0x00, 0x00, 0x01, 0x00,
  0x00, 0x00, 0x00, 0x00, 0x00, 0x00, 0x00, 0x00, 0x00, 0x00, 0x01, 0x00, 0x00,
  0x00, 0xce, 0x6f, 0xd8, 0x3a, 0x01, 0x00, 0x00, 0x00, 0x1d, 0x6e, 0x58, 0x42,
  0x01, 0x00, 0x00, 0x00, 0x2f, 0xd4, 0x52, 0xc2, 0x05, 0x00, 0x00, 0x00, 0x41,
  0x64, 0x64, 0x5f, 0x31, 0x00, 0x00, 0x00, 0x04, 0x00, 0x00, 0x00, 0x01, 0x00,
  0x00, 0x00, 0x1d, 0x02, 0x00, 0x00, 0xc1, 0x03, 0x00, 0x00, 0x0c, 0x00, 0x00,
  0x00, 0x82, 0xc0, 0xff, 0xff, 0x14, 0x00, 0x00, 0x00, 0x4c, 0x00, 0x00, 0x00,
  0x46, 0x00, 0x00, 0x00, 0x00, 0x00, 0x00, 0x07, 0x70, 0x00, 0x00, 0x00, 0x74,
  0xc0, 0xff, 0xff, 0x10, 0x00, 0x00, 0x00, 0x1c, 0x00, 0x00, 0x00, 0x20, 0x00,
  0x00, 0x00, 0x24, 0x00, 0x00, 0x00, 0x01, 0x00, 0x00, 0x00, 0x00, 0x00, 0x00,
  0x00, 0x00, 0x00, 0x00, 0x00, 0x00, 0x00, 0x00, 0x00, 0x01, 0x00, 0x00, 0x00,
  0x65, 0x11, 0x78, 0x3a, 0x01, 0x00, 0x00, 0x00, 0x75, 0x0f, 0xf8, 0x41, 0x01,
  0x00, 0x00, 0x00, 0x59, 0x63, 0xca, 0xc1, 0x2a, 0x00, 0x00, 0x00, 0x42, 0x69,
  0x61, 0x73, 0x41, 0x64, 0x64, 0x5f, 0x33, 0x3b, 0x64, 0x65, 0x70, 0x74, 0x68,
  0x77, 0x69, 0x73, 0x65, 0x5f, 0x31, 0x33, 0x3b, 0x43, 0x6f, 0x6e, 0x76, 0x32,
  0x44, 0x5f, 0x33, 0x3b, 0x63, 0x6f, 0x6e, 0x76, 0x5f, 0x31, 0x5f, 0x31, 0x5f,
  0x62, 0x00, 0x00, 0x04, 0x00, 0x00, 0x00, 0x01, 0x00, 0x00, 0x00, 0x1d, 0x02,
  0x00, 0x00, 0xc1, 0x03, 0x00, 0x00, 0x0c, 0x00, 0x00, 0x00, 0x1a, 0xc1, 0xff,
  0xff, 0x14, 0x00, 0x00, 0x00, 0x48, 0x00, 0x00, 0x00, 0x45, 0x00, 0x00, 0x00,
  0x00, 0x00, 0x00, 0x07, 0x50, 0x00, 0x00, 0x00, 0x0c, 0xc1, 0xff, 0xff, 0x10,
  0x00, 0x00, 0x00, 0x18, 0x00, 0x00, 0x00, 0x1c, 0x00, 0x00, 0x00, 0x20, 0x00,
  0x00, 0x00, 0x01, 0x00, 0x00, 0x00, 0x00, 0x00, 0x00, 0x00, 0x00, 0x00, 0x00,
  0x00, 0x01, 0x00, 0x00, 0x00, 0xf9, 0xd0, 0x02, 0x3a, 0x01, 0x00, 0x00, 0x00,
  0x27, 0x15, 0x47, 0x41, 0x01, 0x00, 0x00, 0x00, 0xf3, 0xcf, 0x82, 0xc1, 0x0c,
  0x00, 0x00, 0x00, 0x64, 0x65, 0x70, 0x74, 0x68, 0x77, 0x69, 0x73, 0x65, 0x5f,
  0x37, 0x32, 0x00, 0x00, 0x00, 0x00, 0x04, 0x00, 0x00, 0x00, 0x01, 0x00, 0x00,
  0x00, 0x1d, 0x02, 0x00, 0x00, 0xc1, 0x03, 0x00, 0x00, 0x10, 0x00, 0x00, 0x00,
  0x92, 0xc1, 0xff, 0xff, 0x14, 0x00, 0x00, 0x00, 0x48, 0x00, 0x00, 0x00, 0x44,
  0x00, 0x00, 0x00, 0x00, 0x00, 0x00, 0x07, 0x50, 0x00, 0x00, 0x00, 0x84, 0xc1,
  0xff, 0xff, 0x10, 0x00, 0x00, 0x00, 0x18, 0x00, 0x00, 0x00, 0x1c, 0x00, 0x00,
  0x00, 0x20, 0x00, 0x00, 0x00, 0x01, 0x00, 0x00, 0x00, 0x00, 0x00, 0x00, 0x00,
  0x00, 0x00, 0x00, 0x00, 0x01, 0x00, 0x00, 0x00, 0x0c, 0xb8, 0xaf, 0x3a, 0x01,
  0x00, 0x00, 0x00, 0x5c, 0x1b, 0xa5, 0x41, 0x01, 0x00, 0x00, 0x00, 0xad, 0xb6,
  0x2f, 0xc2, 0x0c, 0x00, 0x00, 0x00, 0x64, 0x65, 0x70, 0x74, 0x68, 0x77, 0x69,
  0x73, 0x65, 0x5f, 0x36, 0x31, 0x00, 0x00, 0x00, 0x00, 0x04, 0x00, 0x00, 0x00,
  0x01, 0x00, 0x00, 0x00, 0x1d, 0x02, 0x00, 0x00, 0xc1, 0x03, 0x00, 0x00, 0x10,
  0x00, 0x00, 0x00, 0x0a, 0xc2, 0xff, 0xff, 0x14, 0x00, 0x00, 0x00, 0x4c, 0x00,
  0x00, 0x00, 0x43, 0x00, 0x00, 0x00, 0x00, 0x00, 0x00, 0x07, 0x70, 0x00, 0x00,
  0x00, 0xfc, 0xc1, 0xff, 0xff, 0x10, 0x00, 0x00, 0x00, 0x1c, 0x00, 0x00, 0x00,
  0x20, 0x00, 0x00, 0x00, 0x24, 0x00, 0x00, 0x00, 0x01, 0x00, 0x00, 0x00, 0x00,
  0x00, 0x00, 0x00, 0x00, 0x00, 0x00, 0x00, 0x00, 0x00, 0x00, 0x00, 0x01, 0x00,
  0x00, 0x00, 0xb1, 0xa2, 0xfd, 0x3a, 0x01, 0x00, 0x00, 0x00, 0xb6, 0xa0, 0x7d,
  0x42, 0x01, 0x00, 0x00, 0x00, 0x22, 0x97, 0x54, 0xc2, 0x2a, 0x00, 0x00, 0x00,
  0x42, 0x69, 0x61, 0x73, 0x41, 0x64, 0x64, 0x5f, 0x32, 0x3b, 0x64, 0x65, 0x70,
  0x74, 0x68, 0x77, 0x69, 0x73, 0x65, 0x5f, 0x31, 0x33, 0x3b, 0x43, 0x6f, 0x6e,
  0x76, 0x32, 0x44, 0x5f, 0x32, 0x3b, 0x63, 0x6f, 0x6e, 0x76, 0x5f, 0x31, 0x5f,
  0x31, 0x5f, 0x62, 0x00, 0x00, 0x04, 0x00, 0x00, 0x00, 0x01, 0x00, 0x00, 0x00,
  0x1d, 0x02, 0x00, 0x00, 0xc1, 0x03, 0x00, 0x00, 0x0c, 0x00, 0x00, 0x00, 0xa2,
  0xc2, 0xff, 0xff, 0x14, 0x00, 0x00, 0x00, 0x48, 0x00, 0x00, 0x00, 0x42, 0x00,
  0x00, 0x00, 0x00, 0x00, 0x00, 0x07, 0x50, 0x00, 0x00, 0x00, 0x94, 0xc2, 0xff,
  0xff, 0x10, 0x00, 0x00, 0x00, 0x18, 0x00, 0x00, 0x00, 0x1c, 0x00, 0x00, 0x00,
  0x20, 0x00, 0x00, 0x00, 0x01, 0x00, 0x00, 0x00, 0x00, 0x00, 0x00, 0x00, 0x00,
  0x00, 0x00, 0x00, 0x01, 0x00, 0x00, 0x00, 0x96, 0xcd, 0xc1, 0x3a, 0x01, 0x00,
  0x00, 0x00, 0xab, 0xfa, 0xa5, 0x41, 0x01, 0x00, 0x00, 0x00, 0x12, 0xcc, 0x41,
  0xc2, 0x0c, 0x00, 0x00, 0x00, 0x64, 0x65, 0x70, 0x74, 0x68, 0x77, 0x69, 0x73,
  0x65, 0x5f, 0x35, 0x31, 0x00, 0x00, 0x00, 0x00, 0x04, 0x00, 0x00, 0x00, 0x01,
  0x00, 0x00, 0x00, 0x1d, 0x02, 0x00, 0x00, 0xc1, 0x03, 0x00, 0x00, 0x0c, 0x00,
  0x00, 0x00, 0x1a, 0xc3, 0xff, 0xff, 0x14, 0x00, 0x00, 0x00, 0x48, 0x00, 0x00,
  0x00, 0x41, 0x00, 0x00, 0x00, 0x00, 0x00, 0x00, 0x07, 0x50, 0x00, 0x00, 0x00,
  0x0c, 0xc3, 0xff, 0xff, 0x10, 0x00, 0x00, 0x00, 0x18, 0x00, 0x00, 0x00, 0x1c,
  0x00, 0x00, 0x00, 0x20, 0x00, 0x00, 0x00, 0x01, 0x00, 0x00, 0x00, 0x00, 0x00,
  0x00, 0x00, 0x00, 0x00, 0x00, 0x00, 0x01, 0x00, 0x00, 0x00, 0xf9, 0x6d, 0xe1,
  0x3a, 0x01, 0x00, 0x00, 0x00, 0x8a, 0xe8, 0xc3, 0x41, 0x01, 0x00, 0x00, 0x00,
  0x36, 0x6c, 0x61, 0xc2, 0x0c, 0x00, 0x00, 0x00, 0x64, 0x65, 0x70, 0x74, 0x68,
  0x77, 0x69, 0x73, 0x65, 0x5f, 0x34, 0x31, 0x00, 0x00, 0x00, 0x00, 0x04, 0x00,
  0x00, 0x00, 0x01, 0x00, 0x00, 0x00, 0x1d, 0x02, 0x00, 0x00, 0xc1, 0x03, 0x00,
  0x00, 0x0c, 0x00, 0x00, 0x00, 0x92, 0xc3, 0xff, 0xff, 0x14, 0x00, 0x00, 0x00,
  0x48, 0x00, 0x00, 0x00, 0x40, 0x00, 0x00, 0x00, 0x00, 0x00, 0x00, 0x07, 0x70,
  0x00, 0x00, 0x00, 0x84, 0xc3, 0xff, 0xff, 0x10, 0x00, 0x00, 0x00, 0x18, 0x00,
  0x00, 0x00, 0x1c, 0x00, 0x00, 0x00, 0x20, 0x00, 0x00, 0x00, 0x01, 0x00, 0x00,
  0x00, 0x00, 0x00, 0x00, 0x00, 0x00, 0x00, 0x00, 0x00, 0x01, 0x00, 0x00, 0x00,
  0x49, 0x48, 0xba, 0x3a, 0x01, 0x00, 0x00, 0x00, 0xd4, 0x46, 0x3a, 0x42, 0x01,
  0x00, 0x00, 0x00, 0x00, 0x00, 0x00, 0x00, 0x2f, 0x00, 0x00, 0x00, 0x52, 0x65,
  0x6c, 0x75, 0x3b, 0x42, 0x69, 0x61, 0x73, 0x41, 0x64, 0x64, 0x5f, 0x31, 0x3b,
  0x64, 0x65, 0x70, 0x74, 0x68, 0x77, 0x69, 0x73, 0x65, 0x5f, 0x31, 0x33, 0x3b,
  0x43, 0x6f, 0x6e, 0x76, 0x32, 0x44, 0x5f, 0x31, 0x3b, 0x63, 0x6f, 0x6e, 0x76,
  0x5f, 0x31, 0x5f, 0x30, 0x5f, 0x62, 0x00, 0x04, 0x00, 0x00, 0x00, 0x01, 0x00,
  0x00, 0x00, 0x1d, 0x02, 0x00, 0x00, 0xc1, 0x03, 0x00, 0x00, 0x0c, 0x00, 0x00,
  0x00, 0x2a, 0xc4, 0xff, 0xff, 0x14, 0x00, 0x00, 0x00, 0x48, 0x00, 0x00, 0x00,
  0x3f, 0x00, 0x00, 0x00, 0x00, 0x00, 0x00, 0x07, 0x50, 0x00, 0x00, 0x00, 0x1c,
  0xc4, 0xff, 0xff, 0x10, 0x00, 0x00, 0x00, 0x18, 0x00, 0x00, 0x00, 0x1c, 0x00,
  0x00, 0x00, 0x20, 0x00, 0x00, 0x00, 0x01, 0x00, 0x00, 0x00, 0x00, 0x00, 0x00,
  0x00, 0x00, 0x00, 0x00, 0x00, 0x01, 0x00, 0x00, 0x00, 0xab, 0x4e, 0x0c, 0x3a,
  0x01, 0x00, 0x00, 0x00, 0x92, 0x4d, 0x8c, 0x41, 0x01, 0x00, 0x00, 0x00, 0xcd,
  0x7a, 0x6b, 0xc1, 0x0c, 0x00, 0x00, 0x00, 0x64, 0x65, 0x70, 0x74, 0x68, 0x77,
  0x69, 0x73, 0x65, 0x5f, 0x33, 0x31, 0x00, 0x00, 0x00, 0x00, 0x04, 0x00, 0x00,
  0x00, 0x01, 0x00, 0x00, 0x00, 0x1d, 0x02, 0x00, 0x00, 0xc1, 0x03, 0x00, 0x00,
  0x10, 0x00, 0x00, 0x00, 0xa2, 0xc4, 0xff, 0xff, 0x14, 0x00, 0x00, 0x00, 0x48,
  0x00, 0x00, 0x00, 0x3e, 0x00, 0x00, 0x00, 0x00, 0x00, 0x00, 0x07, 0x50, 0x00,
  0x00, 0x00, 0x94, 0xc4, 0xff, 0xff, 0x10, 0x00, 0x00, 0x00, 0x18, 0x00, 0x00,
  0x00, 0x1c, 0x00, 0x00, 0x00, 0x20, 0x00, 0x00, 0x00, 0x01, 0x00, 0x00, 0x00,
  0x00, 0x00, 0x00, 0x00, 0x00, 0x00, 0x00, 0x00, 0x01, 0x00, 0x00, 0x00, 0x9a,
  0x75, 0xb4, 0x3a, 0x01, 0x00, 0x00, 0x00, 0x52, 0x0e, 0xb4, 0x41, 0x01, 0x00,
  0x00, 0x00, 0x31, 0x74, 0x34, 0xc2, 0x0c, 0x00, 0x00, 0x00, 0x64, 0x65, 0x70,
  0x74, 0x68, 0x77, 0x69, 0x73, 0x65, 0x5f, 0x32, 0x36, 0x00, 0x00, 0x00, 0x00,
  0x04, 0x00, 0x00, 0x00, 0x01, 0x00, 0x00, 0x00, 0x1d, 0x02, 0x00, 0x00, 0xc1,
  0x03, 0x00, 0x00, 0x10, 0x00, 0x00, 0x00, 0x1a, 0xc5, 0xff, 0xff, 0x14, 0x00,
  0x00, 0x00, 0x4c, 0x00, 0x00, 0x00, 0x3d, 0x00, 0x00, 0x00, 0x00, 0x00, 0x00,
  0x07, 0x68, 0x00, 0x00, 0x00, 0x0c, 0xc5, 0xff, 0xff, 0x10, 0x00, 0x00, 0x00,
  0x1c, 0x00, 0x00, 0x00, 0x20, 0x00, 0x00, 0x00, 0x24, 0x00, 0x00, 0x00, 0x01,
  0x00, 0x00, 0x00, 0x00, 0x00, 0x00, 0x00, 0x00, 0x00, 0x00, 0x00, 0x00, 0x00,
  0x00, 0x00, 0x01, 0x00, 0x00, 0x00, 0x81, 0x20, 0xbf, 0x3a, 0x01, 0x00, 0x00,
  0x00, 0x58, 0x09, 0x1e, 0x42, 0x01, 0x00, 0x00, 0x00, 0x03, 0x1f, 0x3f, 0xc2,
  0x23, 0x00, 0x00, 0x00, 0x42, 0x69, 0x61, 0x73, 0x41, 0x64, 0x64, 0x3b, 0x64,
  0x65, 0x70, 0x74, 0x68, 0x77, 0x69, 0x73, 0x65, 0x5f, 0x37, 0x3b, 0x43, 0x6f,
  0x6e, 0x76, 0x32, 0x44, 0x3b, 0x63, 0x6f, 0x6e, 0x76, 0x5f, 0x30, 0x5f, 0x62,
  0x00, 0x04, 0x00, 0x00, 0x00, 0x01, 0x00, 0x00, 0x00, 0x1d, 0x02, 0x00, 0x00,
  0xc1, 0x03, 0x00, 0x00, 0x10, 0x00, 0x00, 0x00, 0xaa, 0xc5, 0xff, 0xff, 0x14,
  0x00, 0x00, 0x00, 0x48, 0x00, 0x00, 0x00, 0x3c, 0x00, 0x00, 0x00, 0x00, 0x00,
  0x00, 0x07, 0x50, 0x00, 0x00, 0x00, 0x9c, 0xc5, 0xff, 0xff, 0x10, 0x00, 0x00,
  0x00, 0x18, 0x00, 0x00, 0x00, 0x1c, 0x00, 0x00, 0x00, 0x20, 0x00, 0x00, 0x00,
  0x01, 0x00, 0x00, 0x00, 0x00, 0x00, 0x00, 0x00, 0x00, 0x00, 0x00, 0x00, 0x01,
  0x00, 0x00, 0x00, 0x66, 0x7c, 0xdf, 0x3a, 0x01, 0x00, 0x00, 0x00, 0xa7, 0x7a,
  0x5f, 0x42, 0x01, 0x00, 0x00, 0x00, 0x95, 0x70, 0x02, 0xc0, 0x0d, 0x00, 0x00,
  0x00, 0x64, 0x65, 0x70, 0x74, 0x68, 0x77, 0x69, 0x73, 0x65, 0x5f, 0x31, 0x31,
  0x30, 0x00, 0x00, 0x00, 0x04, 0x00, 0x00, 0x00, 0x01, 0x00, 0x00, 0x00, 0x1d,
  0x02, 0x00, 0x00, 0xc1, 0x03, 0x00, 0x00, 0x01, 0x00, 0x00, 0x00, 0x22, 0xc6,
  0xff, 0xff, 0x14, 0x00, 0x00, 0x00, 0x4c, 0x00, 0x00, 0x00, 0x3b, 0x00, 0x00,
  0x00, 0x00, 0x00, 0x00, 0x07, 0x50, 0x00, 0x00, 0x00, 0x14, 0xc6, 0xff, 0xff,
  0x10, 0x00, 0x00, 0x00, 0x1c, 0x00, 0x00, 0x00, 0x20, 0x00, 0x00, 0x00, 0x24,
  0x00, 0x00, 0x00, 0x01, 0x00, 0x00, 0x00, 0x00, 0x00, 0x00, 0x00, 0x00, 0x00,
  0x00, 0x00, 0x00, 0x00, 0x00, 0x00, 0x01, 0x00, 0x00, 0x00, 0x3a, 0xce, 0x93,
  0x39, 0x01, 0x00, 0x00, 0x00, 0x12, 0xcd, 0x13, 0x41, 0x01, 0x00, 0x00, 0x00,
  0x87, 0x75, 0xac, 0xbe, 0x0a, 0x00, 0x00, 0x00, 0x64, 0x65, 0x70, 0x74, 0x68,
  0x77, 0x69, 0x73, 0x65, 0x31, 0x00, 0x00, 0x04, 0x00, 0x00, 0x00, 0x01, 0x00,
  0x00, 0x00, 0x1d, 0x02, 0x00, 0x00, 0x82, 0x07, 0x00, 0x00, 0x01, 0x00, 0x00,
  0x00, 0x9a, 0xc6, 0xff, 0xff, 0x14, 0x00, 0x00, 0x00, 0x48, 0x00, 0x00, 0x00,
  0x3a, 0x00, 0x00, 0x00, 0x00, 0x00, 0x00, 0x07, 0x44, 0x00, 0x00, 0x00, 0x8c,
  0xc6, 0xff, 0xff, 0x10, 0x00, 0x00, 0x00, 0x18, 0x00, 0x00, 0x00, 0x1c, 0x00,
  0x00, 0x00, 0x20, 0x00, 0x00, 0x00, 0x01, 0x00, 0x00, 0x00, 0x00, 0x00, 0x00,
  0x00, 0x00, 0x00, 0x00, 0x00, 0x01, 0x00, 0x00, 0x00, 0x00, 0x01, 0x00, 0x38,
  0x01, 0x00, 0x00, 0x00, 0x00, 0x00, 0x80, 0x3f, 0x01, 0x00, 0x00, 0x00, 0x00,
  0x00, 0x00, 0x00, 0x03, 0x00, 0x00, 0x00, 0x50, 0x61, 0x64, 0x00, 0x04, 0x00,
  0x00, 0x00, 0x01, 0x00, 0x00, 0x00, 0x3a, 0x04, 0x00, 0x00, 0x82, 0x07, 0x00,
  0x00, 0x01, 0x00, 0x00, 0x00, 0x06, 0xc7, 0xff, 0xff, 0x14, 0x00, 0x00, 0x00,
  0x14, 0x00, 0x00, 0x00, 0x39, 0x00, 0x00, 0x00, 0x00, 0x00, 0x00, 0x02, 0x14,
  0x00, 0x00, 0x00, 0xcc, 0xff, 0xff, 0xff, 0x07, 0x00, 0x00, 0x00, 0x43, 0x6f,
  0x6e, 0x73, 0x74, 0x5f, 0x31, 0x00, 0x02, 0x00, 0x00, 0x00, 0x04, 0x00, 0x00,
  0x00, 0x02, 0x00, 0x00, 0x00, 0x3a, 0xc7, 0xff, 0xff, 0x18, 0x00, 0x00, 0x00,
  0x18, 0x00, 0x00, 0x00, 0x38, 0x00, 0x00, 0x00, 0x00, 0x00, 0x00, 0x02, 0x14,
  0x00, 0x00, 0x00, 0x04, 0x00, 0x04, 0x00, 0x04, 0x00, 0x00, 0x00, 0x03, 0x00,
  0x00, 0x00, 0x61, 0x64, 0x64, 0x00, 0x01, 0x00, 0x00, 0x00, 0x02, 0x00, 0x00,
  0x00, 0x6a, 0xc7, 0xff, 0xff, 0x14, 0x00, 0x00, 0x00, 0x48, 0x00, 0x00, 0x00,
  0x37, 0x00, 0x00, 0x00, 0x00, 0x00, 0x00, 0x09, 0x4c, 0x00, 0x00, 0x00, 0x5c,
  0xc7, 0xff, 0xff, 0x10, 0x00, 0x00, 0x00, 0x18, 0x00, 0x00, 0x00, 0x1c, 0x00,
  0x00, 0x00, 0x20, 0x00, 0x00, 0x00, 0x01, 0x00, 0x00, 0x00, 0x00, 0x00, 0x00,
  0x00, 0x00, 0x00, 0x00, 0x00, 0x01, 0x00, 0x00, 0x00, 0x36, 0x94, 0x9f, 0x3a,
  0x01, 0x00, 0x00, 0x00, 0x0e, 0x55, 0x1e, 0x3e, 0x01, 0x00, 0x00, 0x00, 0x4f,
  0xd6, 0x2e, 0xbd, 0x0a, 0x00, 0x00, 0x00, 0x43, 0x6f, 0x6e, 0x76, 0x32, 0x44,
  0x5f, 0x31, 0x32, 0x31, 0x00, 0x00, 0x04, 0x00, 0x00, 0x00, 0x01, 0x00, 0x00,
  0x00, 0x01, 0x00, 0x00, 0x00, 0x01, 0x00, 0x00, 0x00, 0x08, 0x00, 0x00, 0x00,
  0xde, 0xc7, 0xff, 0xff, 0x14, 0x00, 0x00, 0x00, 0xd8, 0x00, 0x00, 0x00, 0x36,
  0x00, 0x00, 0x00, 0x00, 0x00, 0x00, 0x09, 0xe0, 0x00, 0x00, 0x00, 0xea, 0xcf,
  0xff, 0xff, 0x03, 0x00, 0x00, 0x00, 0x10, 0x00, 0x00, 0x00, 0x50, 0x00, 0x00,
  0x00, 0x70, 0x00, 0x00, 0x00, 0x90, 0x00, 0x00, 0x00, 0x08, 0x00, 0x00, 0x00,
  0x00, 0x00, 0x00, 0x00, 0x00, 0x00, 0x00, 0x00, 0x00, 0x00, 0x00, 0x00, 0x00,
  0x00, 0x00, 0x00, 0x00, 0x00, 0x00, 0x00, 0x00, 0x00, 0x00, 0x00, 0x00, 0x00,
  0x00, 0x00, 0x00, 0x00, 0x00, 0x00, 0x00, 0x00, 0x00, 0x00, 0x00, 0x00, 0x00,
  0x00, 0x00, 0x00, 0x00, 0x00, 0x00, 0x00, 0x00, 0x00, 0x00, 0x00, 0x00, 0x00,
  0x00, 0x00, 0x00, 0x00, 0x00, 0x00, 0x00, 0x00, 0x00, 0x00, 0x00, 0x00, 0x08,
  0x00, 0x00, 0x00, 0x96, 0xf8, 0xa7, 0x3a, 0xd7, 0xa8, 0xd7, 0x3a, 0x4f, 0x11,
  0xc0, 0x3a, 0x73, 0x43, 0xdd, 0x3a, 0xfe, 0xd2, 0xfa, 0x3a, 0x65, 0x21, 0xee,
  0x3a, 0x0d, 0xf4, 0x8d, 0x3a, 0xa9, 0xa0, 0xdf, 0x3a, 0x08, 0x00, 0x00, 0x00,
  0x94, 0xc0, 0x0b, 0x3d, 0x85, 0xf9, 0x55, 0x3e, 0x2c, 0x91, 0x3e, 0x3e, 0xf7,
  0x72, 0x04, 0x3e, 0x3a, 0x3d, 0xda, 0x3c, 0x22, 0x45, 0x6c, 0x3e, 0x25, 0xd8,
  0x0c, 0x3e, 0xc5, 0x39, 0x12, 0x3e, 0x08, 0x00, 0x00, 0x00, 0xa5, 0xa8, 0x26,
  0xbe, 0x32, 0xef, 0x4c, 0xbb, 0x7b, 0x8d, 0xa1, 0xbc, 0xec, 0x88, 0x5b, 0xbe,
  0x58, 0xdd, 0x78, 0xbe, 0xbe, 0x20, 0x6a, 0xbe, 0x3d, 0x1d, 0x53, 0xbd, 0x68,
  0xe1, 0x5d, 0xbe, 0x0d, 0x00, 0x00, 0x00, 0x64, 0x65, 0x70, 0x74, 0x68, 0x77,
  0x69, 0x73, 0x65, 0x5f, 0x32, 0x35, 0x31, 0x00, 0x00, 0x00, 0x04, 0x00, 0x00,
  0x00, 0x01, 0x00, 0x00, 0x00, 0x01, 0x00, 0x00, 0x00, 0x03, 0x00, 0x00, 0x00,
  0x08, 0x00, 0x00, 0x00, 0xe6, 0xc8, 0xff, 0xff, 0x14, 0x00, 0x00, 0x00, 0xdc,
  0x00, 0x00, 0x00, 0x35, 0x00, 0x00, 0x00, 0x00, 0x00, 0x00, 0x09, 0xe4, 0x00,
  0x00, 0x00, 0xf2, 0xd0, 0xff, 0xff, 0x03, 0x00, 0x00, 0x00, 0x10, 0x00, 0x00,
  0x00, 0x54, 0x00, 0x00, 0x00, 0x74, 0x00, 0x00, 0x00, 0x94, 0x00, 0x00, 0x00,
  0x08, 0x00, 0x00, 0x00, 0x00, 0x00, 0x00, 0x00, 0x00, 0x00, 0x00, 0x00, 0x00,
  0x00, 0x00, 0x00, 0x00, 0x00, 0x00, 0x00, 0x00, 0x00, 0x00, 0x00, 0x00, 0x00,
  0x00, 0x00, 0x00, 0x00, 0x00, 0x00, 0x00, 0x00, 0x00, 0x00, 0x00, 0x00, 0x00,
  0x00, 0x00, 0x00, 0x00, 0x00, 0x00, 0x00, 0x00, 0x00, 0x00, 0x00, 0x00, 0x00,
  0x00, 0x00, 0x00, 0x00, 0x00, 0x00, 0x00, 0x00, 0x00, 0x00, 0x00, 0x00, 0x00,
  0x00, 0x00, 0x00, 0x00, 0x00, 0x00, 0x00, 0x08, 0x00, 0x00, 0x00, 0x6a, 0x78,
  0xe8, 0x3a, 0x95, 0x5e, 0x63, 0x3a, 0xd0, 0x29, 0x19, 0x3b, 0xed, 0x65, 0x55,
  0x3a, 0x24, 0x7d, 0x66, 0x3b, 0xe2, 0x32, 0x14, 0x3b, 0x3e, 0x65, 0xd1, 0x3a,
  0x19, 0xad, 0x29, 0x3b, 0x08, 0x00, 0x00, 0x00, 0xd8, 0x39, 0xd9, 0x3d, 0xd8,
  0x97, 0xe1, 0x3d, 0x7c, 0xf7, 0x97, 0x3e, 0x32, 0x12, 0xca, 0xbc, 0x47, 0x29,
  0x88, 0x3e, 0x7c, 0x0a, 0x93, 0x3e, 0x85, 0xea, 0x02, 0x3e, 0x04, 0x97, 0xb1,
  0x3d, 0x08, 0x00, 0x00, 0x00, 0x79, 0xa7, 0x66, 0xbe, 0x7b, 0x3f, 0x79, 0x3d,
  0xde, 0x2a, 0x07, 0xbe, 0x21, 0xbb, 0xd3, 0xbd, 0x2a, 0xb0, 0xe4, 0xbe, 0x0b,
  0x8a, 0x0f, 0xbe, 0x74, 0xc2, 0x4f, 0xbe, 0xbf, 0x59, 0xa8, 0xbe, 0x0c, 0x00,
  0x00, 0x00, 0x64, 0x65, 0x70, 0x74, 0x68, 0x77, 0x69, 0x73, 0x65, 0x5f, 0x32,
  0x34, 0x00, 0x00, 0x00, 0x00, 0x04, 0x00, 0x00, 0x00, 0x01, 0x00, 0x00, 0x00,
  0x03, 0x00, 0x00, 0x00, 0x01, 0x00, 0x00, 0x00, 0x08, 0x00, 0x00, 0x00, 0xf2,
  0xc9, 0xff, 0xff, 0x14, 0x00, 0x00, 0x00, 0xd8, 0x00, 0x00, 0x00, 0x34, 0x00,
  0x00, 0x00, 0x00, 0x00, 0x00, 0x09, 0xdc, 0x00, 0x00, 0x00, 0xe4, 0xc9, 0xff,
  0xff, 0x10, 0x00, 0x00, 0x00, 0x54, 0x00, 0x00, 0x00, 0x74, 0x00, 0x00, 0x00,
  0x94, 0x00, 0x00, 0x00, 0x08, 0x00, 0x00, 0x00, 0x00, 0x00, 0x00, 0x00, 0x00,
  0x00, 0x00, 0x00, 0x00, 0x00, 0x00, 0x00, 0x00, 0x00, 0x00, 0x00, 0x00, 0x00,
  0x00, 0x00, 0x00, 0x00, 0x00, 0x00, 0x00, 0x00, 0x00, 0x00, 0x00, 0x00, 0x00,
  0x00, 0x00, 0x00, 0x00, 0x00, 0x00, 0x00, 0x00, 0x00, 0x00, 0x00, 0x00, 0x00,
  0x00, 0x00, 0x00, 0x00, 0x00, 0x00, 0x00, 0x00, 0x00, 0x00, 0x00, 0x00, 0x00,
  0x00, 0x00, 0x00, 0x00, 0x00, 0x00, 0x00, 0x00, 0x00, 0x00, 0x00, 0x08, 0x00,
  0x00, 0x00, 0x5c, 0x31, 0x78, 0x3c, 0x62, 0xbb, 0x4a, 0x3c, 0x9c, 0x32, 0x71,
  0x3c, 0x11, 0x94, 0x30, 0x3d, 0x53, 0xba, 0xc5, 0x3b, 0xd6, 0x36, 0x8b, 0x3c,
  0x30, 0x44, 0x90, 0x3b, 0x2a, 0x2f, 0xeb, 0x3b, 0x08, 0x00, 0x00, 0x00, 0x45,
  0xe7, 0xdb, 0x3f, 0x14, 0x52, 0x61, 0x3f, 0xa1, 0x7b, 0x2d, 0x3f, 0xd0, 0xd2,
  0x7a, 0x40, 0xf0, 0x81, 0x1c, 0x3f, 0xb5, 0xdc, 0xef, 0x3f, 0xa8, 0x23, 0x0f,
  0x3f, 0x5a, 0xdf, 0x4a, 0x3f, 0x08, 0x00, 0x00, 0x00, 0xf9, 0x40, 0xf6, 0xbf,
  0xeb, 0x25, 0xc9, 0xbf, 0x37, 0x50, 0xef, 0xbf, 0xe9, 0x32, 0xaf, 0xc0, 0xde,
  0x2e, 0x44, 0xbf, 0x68, 0x20, 0x0a, 0xc0, 0x7e, 0x47, 0x07, 0xbf, 0xcc, 0x58,
  0x69, 0xbf, 0x09, 0x00, 0x00, 0x00, 0x43, 0x6f, 0x6e, 0x76, 0x32, 0x44, 0x5f,
  0x31, 0x31, 0x00, 0x00, 0x00, 0x04, 0x00, 0x00, 0x00, 0x08, 0x00, 0x00, 0x00,
  0x01, 0x00, 0x00, 0x00, 0x01, 0x00, 0x00, 0x00, 0x08, 0x00, 0x00, 0x00, 0xf6,
  0xca, 0xff, 0xff, 0x14, 0x00, 0x00, 0x00, 0xd8, 0x00, 0x00, 0x00, 0x33, 0x00,
  0x00, 0x00, 0x00, 0x00, 0x00, 0x09, 0xe0, 0x00, 0x00, 0x00, 0x02, 0xd3, 0xff,
  0xff, 0x03, 0x00, 0x00, 0x00, 0x10, 0x00, 0x00, 0x00, 0x50, 0x00, 0x00, 0x00,
  0x70, 0x00, 0x00, 0x00, 0x90, 0x00, 0x00, 0x00, 0x08, 0x00, 0x00, 0x00, 0x00,
  0x00, 0x00, 0x00, 0x00, 0x00, 0x00, 0x00, 0x00, 0x00, 0x00, 0x00, 0x00, 0x00,
  0x00, 0x00, 0x00, 0x00, 0x00, 0x00, 0x00, 0x00, 0x00, 0x00, 0x00, 0x00, 0x00,
  0x00, 0x00, 0x00, 0x00, 0x00, 0x00, 0x00, 0x00, 0x00, 0x00, 0x00, 0x00, 0x00,
  0x00, 0x00, 0x00, 0x00, 0x00, 0x00, 0x00, 0x00, 0x00, 0x00, 0x00, 0x00, 0x00,
  0x00, 0x00, 0x00, 0x00, 0x00, 0x00, 0x00, 0x00, 0x00, 0x00, 0x00, 0x08, 0x00,
  0x00, 0x00, 0x17, 0x50, 0x36, 0x3c, 0x92, 0x55, 0x0b, 0x3c, 0x49, 0xd6, 0xd0,
  0x3b, 0x92, 0x85, 0x97, 0x3b, 0x29, 0x9c, 0xf7, 0x3b, 0x6d, 0x6f, 0xac, 0x3b,
  0x56, 0x91, 0x4d, 0x3c, 0x23, 0x18, 0x49, 0x3c, 0x08, 0x00, 0x00, 0x00, 0x77,
  0xe3, 0xb4, 0x3f, 0x5d, 0x7a, 0xc6, 0xbe, 0x6a, 0x40, 0x36, 0x3f, 0x87, 0x56,
  0x16, 0x3f, 0xf1, 0xac, 0x75, 0x3f, 0x8e, 0x16, 0x2b, 0x3f, 0x33, 0xf6, 0xcb,
  0x3f, 0xf3, 0x85, 0xc7, 0x3f, 0x08, 0x00, 0x00, 0x00, 0x72, 0x6f, 0x56, 0xbd,
  0xe7, 0x3e, 0x8a, 0xbf, 0x9c, 0x34, 0x4f, 0xbf, 0x5c, 0x7f, 0x72, 0xbd, 0x83,
  0x1a, 0x8f, 0xbe, 0xd3, 0xb1, 0x1c, 0xbf, 0xe1, 0x9f, 0x5d, 0x3e, 0x2d, 0xad,
  0xd1, 0xbc, 0x0c, 0x00, 0x00, 0x00, 0x64, 0x65, 0x70, 0x74, 0x68, 0x77, 0x69,
  0x73, 0x65, 0x5f, 0x32, 0x33, 0x00, 0x00, 0x00, 0x00, 0x04, 0x00, 0x00, 0x00,
  0x01, 0x00, 0x00, 0x00, 0x01, 0x00, 0x00, 0x00, 0x03, 0x00, 0x00, 0x00, 0x08,
  0x00, 0x00, 0x00, 0xfe, 0xcb, 0xff, 0xff, 0x14, 0x00, 0x00, 0x00, 0xdc, 0x00,
  0x00, 0x00, 0x32, 0x00, 0x00, 0x00, 0x00, 0x00, 0x00, 0x09, 0xe4, 0x00, 0x00,
  0x00, 0x0a, 0xd4, 0xff, 0xff, 0x03, 0x00, 0x00, 0x00, 0x10, 0x00, 0x00, 0x00,
  0x54, 0x00, 0x00, 0x00, 0x74, 0x00, 0x00, 0x00, 0x94, 0x00, 0x00, 0x00, 0x08,
  0x00, 0x00, 0x00, 0x00, 0x00, 0x00, 0x00, 0x00, 0x00, 0x00, 0x00, 0x00, 0x00,
  0x00, 0x00, 0x00, 0x00, 0x00, 0x00, 0x00, 0x00, 0x00, 0x00, 0x00, 0x00, 0x00,
  0x00, 0x00, 0x00, 0x00, 0x00, 0x00, 0x00, 0x00, 0x00, 0x00, 0x00, 0x00, 0x00,
  0x00, 0x00, 0x00, 0x00, 0x00, 0x00, 0x00, 0x00, 0x00, 0x00, 0x00, 0x00, 0x00,
  0x00, 0x00, 0x00, 0x00, 0x00, 0x00, 0x00, 0x00, 0x00, 0x00, 0x00, 0x00, 0x00,
  0x00, 0x00, 0x00, 0x00, 0x00, 0x00, 0x08, 0x00, 0x00, 0x00, 0x60, 0xda, 0xc6,
  0x3b, 0xf5, 0xfc, 0x07, 0x3c, 0xb3, 0x21, 0x21, 0x3c, 0x12, 0x82, 0xa7, 0x3b,
  0xe3, 0x4e, 0xf1, 0x3b, 0xe3, 0xd7, 0xc5, 0x3b, 0xbf, 0xe7, 0x20, 0x3c, 0x68,
  0xfe, 0x36, 0x3b, 0x08, 0x00, 0x00, 0x00, 0xab, 0x4c, 0x45, 0x3f, 0x22, 0x11,
  0xe2, 0x3d, 0xc0, 0xfc, 0x00, 0x3e, 0xb2, 0xf1, 0x66, 0x3e, 0xb7, 0x6c, 0x80,
  0x3e, 0x21, 0xc1, 0x0c, 0x3d, 0xf0, 0xa5, 0x9f, 0x3f, 0x6b, 0x90, 0xb5, 0x3e,
  0x08, 0x00, 0x00, 0x00, 0x18, 0xfb, 0x04, 0xbf, 0xfb, 0xec, 0x86, 0xbf, 0x70,
  0xdf, 0x9f, 0xbf, 0x0e, 0x33, 0x26, 0xbf, 0x45, 0x6c, 0x6f, 0xbf, 0x33, 0x4c,
  0x44, 0xbf, 0x0a, 0x7d, 0xf5, 0xbd, 0xd2, 0xd6, 0x95, 0xbe, 0x0c, 0x00, 0x00,
  0x00, 0x64, 0x65, 0x70, 0x74, 0x68, 0x77, 0x69, 0x73, 0x65, 0x5f, 0x32, 0x32,
  0x00, 0x00, 0x00, 0x00, 0x04, 0x00, 0x00, 0x00, 0x01, 0x00, 0x00, 0x00, 0x03,
  0x00, 0x00, 0x00, 0x01, 0x00, 0x00, 0x00, 0x08, 0x00, 0x00, 0x00, 0x0a, 0xcd,
  0xff, 0xff, 0x14, 0x00, 0x00, 0x00, 0xd8, 0x00, 0x00, 0x00, 0x31, 0x00, 0x00,
  0x00, 0x00, 0x00, 0x00, 0x09, 0xdc, 0x00, 0x00, 0x00, 0xfc, 0xcc, 0xff, 0xff,
  0x10, 0x00, 0x00, 0x00, 0x54, 0x00, 0x00, 0x00, 0x74, 0x00, 0x00, 0x00, 0x94,
  0x00, 0x00, 0x00, 0x08, 0x00, 0x00, 0x00, 0x00, 0x00, 0x00, 0x00, 0x00, 0x00,
  0x00, 0x00, 0x00, 0x00, 0x00, 0x00, 0x00, 0x00, 0x00, 0x00, 0x00, 0x00, 0x00,
  0x00, 0x00, 0x00, 0x00, 0x00, 0x00, 0x00, 0x00, 0x00, 0x00, 0x00, 0x00, 0x00,
  0x00, 0x00, 0x00, 0x00, 0x00, 0x00, 0x00, 0x00, 0x00, 0x00, 0x00, 0x00, 0x00,
  0x00, 0x00, 0x00, 0x00, 0x00, 0x00, 0x00, 0x00, 0x00, 0x00, 0x00, 0x00, 0x00,
  0x00, 0x00, 0x00, 0x00, 0x00, 0x00, 0x00, 0x00, 0x00, 0x00, 0x08, 0x00, 0x00,
  0x00, 0x7b, 0x85, 0xed, 0x3b, 0x20, 0x3b, 0x88, 0x3c, 0xf3, 0x8e, 0x24, 0x3c,
  0x13, 0xc4, 0x68, 0x3c, 0xa7, 0x22, 0x39, 0x3c, 0x50, 0x96, 0x3f, 0x3c, 0x8d,
  0x88, 0x1e, 0x3c, 0x91, 0xee, 0x1e, 0x3c, 0x08, 0x00, 0x00, 0x00, 0x26, 0x49,
  0x55, 0x3f, 0xa3, 0x5e, 0x64, 0x3e, 0x6c, 0x49, 0xfd, 0x3e, 0x74, 0xb0, 0xc9,
  0x3e, 0x62, 0xb0, 0xb7, 0x3f, 0x37, 0xf8, 0x16, 0x3f, 0x10, 0x61, 0x79, 0x3f,
  0xb4, 0xb0, 0x9d, 0x3f, 0x08, 0x00, 0x00, 0x00, 0x70, 0xaa, 0x6b, 0xbf, 0xaa,
  0x2a, 0x07, 0xc0, 0xd5, 0x45, 0xa3, 0xbf, 0x8b, 0xf2, 0xe6, 0xbf, 0xc4, 0x0e,
  0x3a, 0xbf, 0x23, 0x17, 0xbe, 0xbf, 0x7c, 0x4b, 0x9d, 0xbf, 0xf2, 0x9b, 0x9a,
  0xbf, 0x09, 0x00, 0x00, 0x00, 0x43, 0x6f, 0x6e, 0x76, 0x32, 0x44, 0x5f, 0x31,
  0x30, 0x00, 0x00, 0x00, 0x04, 0x00, 0x00, 0x00, 0x08, 0x00, 0x00, 0x00, 0x01,
  0x00, 0x00, 0x00, 0x01, 0x00, 0x00, 0x00, 0x08, 0x00, 0x00, 0x00, 0x0e, 0xce,
  0xff, 0xff, 0x14, 0x00, 0x00, 0x00, 0xd8, 0x00, 0x00, 0x00, 0x30, 0x00, 0x00,
  0x00, 0x00, 0x00, 0x00, 0x09, 0xe0, 0x00, 0x00, 0x00, 0x1a, 0xd6, 0xff, 0xff,
  0x03, 0x00, 0x00, 0x00, 0x10, 0x00, 0x00, 0x00, 0x50, 0x00, 0x00, 0x00, 0x70,
  0x00, 0x00, 0x00, 0x90, 0x00, 0x00, 0x00, 0x08, 0x00, 0x00, 0x00, 0x00, 0x00,
  0x00, 0x00, 0x00, 0x00, 0x00, 0x00, 0x00, 0x00, 0x00, 0x00, 0x00, 0x00, 0x00,
  0x00, 0x00, 0x00, 0x00, 0x00, 0x00, 0x00, 0x00, 0x00, 0x00, 0x00, 0x00, 0x00,
  0x00, 0x00, 0x00, 0x00, 0x00, 0x00, 0x00, 0x00, 0x00, 0x00, 0x00, 0x00, 0x00,
  0x00, 0x00, 0x00, 0x00, 0x00, 0x00, 0x00, 0x00, 0x00, 0x00, 0x00, 0x00, 0x00,
  0x00, 0x00, 0x00, 0x00, 0x00, 0x00, 0x00, 0x00, 0x00, 0x00, 0x08, 0x00, 0x00,
  0x00, 0xf0, 0xfe, 0xc1, 0x3b, 0x83, 0xdb, 0xe2, 0x3b, 0x65, 0x9a, 0xdc, 0x3b,
  0x1a, 0xcf, 0x42, 0x3c, 0x77, 0x50, 0xad, 0x3b, 0x79, 0x54, 0x3d, 0x3c, 0x06,
