const unsigned char sr2by1ra_1_tflite[] = {
  0x1c, 0x00, 0x00, 0x00, 0x54, 0x46, 0x4c, 0x33, 0x00, 0x00, 0x12, 0x00, 0x1c,
  0x00, 0x18, 0x00, 0x14, 0x00, 0x10, 0x00, 0x0c, 0x00, 0x08, 0x00, 0x00, 0x00,
  0x04, 0x00, 0x12, 0x00, 0x00, 0x00, 0x18, 0x00, 0x00, 0x00, 0x70, 0x00, 0x00,
  0x00, 0x6c, 0x12, 0x00, 0x00, 0x7c, 0x12, 0x00, 0x00, 0x38, 0x71, 0x00, 0x00,
  0x03, 0x00, 0x00, 0x00, 0x02, 0x00, 0x00, 0x00, 0x34, 0x00, 0x00, 0x00, 0x04,
  0x00, 0x00, 0x00, 0xdc, 0xff, 0xff, 0xff, 0x68, 0x00, 0x00, 0x00, 0x04, 0x00,
  0x00, 0x00, 0x13, 0x00, 0x00, 0x00, 0x43, 0x4f, 0x4e, 0x56, 0x45, 0x52, 0x53,
  0x49, 0x4f, 0x4e, 0x5f, 0x4d, 0x45, 0x54, 0x41, 0x44, 0x41, 0x54, 0x41, 0x00,
  0x08, 0x00, 0x0c, 0x00, 0x08, 0x00, 0x04, 0x00, 0x08, 0x00, 0x00, 0x00, 0x67,
  0x00, 0x00, 0x00, 0x04, 0x00, 0x00, 0x00, 0x13, 0x00, 0x00, 0x00, 0x6d, 0x69,
  0x6e, 0x5f, 0x72, 0x75, 0x6e, 0x74, 0x69, 0x6d, 0x65, 0x5f, 0x76, 0x65, 0x72,
  0x73, 0x69, 0x6f, 0x6e, 0x00, 0x69, 0x00, 0x00, 0x00, 0xf8, 0x11, 0x00, 0x00,
  0xf0, 0x11, 0x00, 0x00, 0x80, 0x11, 0x00, 0x00, 0x18, 0x11, 0x00, 0x00, 0xc8,
  0x10, 0x00, 0x00, 0x78, 0x10, 0x00, 0x00, 0xe8, 0x0f, 0x00, 0x00, 0x78, 0x0f,
  0x00, 0x00, 0x18, 0x0f, 0x00, 0x00, 0xc8, 0x0e, 0x00, 0x00, 0x78, 0x0e, 0x00,
  0x00, 0x60, 0x0e, 0x00, 0x00, 0x48, 0x0e, 0x00, 0x00, 0x34, 0x0e, 0x00, 0x00,
  0x20, 0x0e, 0x00, 0x00, 0x90, 0x0d, 0x00, 0x00, 0x70, 0x0d, 0x00, 0x00, 0x30,
  0x0d, 0x00, 0x00, 0xf0, 0x0c, 0x00, 0x00, 0x80, 0x0c, 0x00, 0x00, 0xb0, 0x0b,
  0x00, 0x00, 0x7c, 0x0b, 0x00, 0x00, 0x48, 0x0b, 0x00, 0x00, 0xa8, 0x0a, 0x00,
  0x00, 0x68, 0x0a, 0x00, 0x00, 0x28, 0x0a, 0x00, 0x00, 0x58, 0x09, 0x00, 0x00,
  0x24, 0x09, 0x00, 0x00, 0xf0, 0x08, 0x00, 0x00, 0x90, 0x08, 0x00, 0x00, 0x08,
  0x08, 0x00, 0x00, 0xd8, 0x07, 0x00, 0x00, 0xa8, 0x07, 0x00, 0x00, 0x34, 0x07,
  0x00, 0x00, 0x00, 0x07, 0x00, 0x00, 0xcc, 0x06, 0x00, 0x00, 0x44, 0x06, 0x00,
  0x00, 0x14, 0x06, 0x00, 0x00, 0xe4, 0x05, 0x00, 0x00, 0x94, 0x05, 0x00, 0x00,
  0x34, 0x05, 0x00, 0x00, 0x0c, 0x05, 0x00, 0x00, 0xe4, 0x04, 0x00, 0x00, 0x94,
  0x04, 0x00, 0x00, 0x64, 0x04, 0x00, 0x00, 0x34, 0x04, 0x00, 0x00, 0xd4, 0x03,
  0x00, 0x00, 0xac, 0x03, 0x00, 0x00, 0x84, 0x03, 0x00, 0x00, 0x34, 0x03, 0x00,
  0x00, 0x0c, 0x03, 0x00, 0x00, 0xe4, 0x02, 0x00, 0x00, 0x94, 0x02, 0x00, 0x00,
  0x6c, 0x02, 0x00, 0x00, 0x44, 0x02, 0x00, 0x00, 0x2c, 0x02, 0x00, 0x00, 0x14,
  0x02, 0x00, 0x00, 0xe4, 0x01, 0x00, 0x00, 0xdc, 0x01, 0x00, 0x00, 0xd4, 0x01,
  0x00, 0x00, 0xcc, 0x01, 0x00, 0x00, 0xc4, 0x01, 0x00, 0x00, 0xbc, 0x01, 0x00,
  0x00, 0xb4, 0x01, 0x00, 0x00, 0xac, 0x01, 0x00, 0x00, 0xa4, 0x01, 0x00, 0x00,
  0x9c, 0x01, 0x00, 0x00, 0x94, 0x01, 0x00, 0x00, 0x8c, 0x01, 0x00, 0x00, 0x84,
  0x01, 0x00, 0x00, 0x7c, 0x01, 0x00, 0x00, 0x74, 0x01, 0x00, 0x00, 0x6c, 0x01,
  0x00, 0x00, 0x64, 0x01, 0x00, 0x00, 0x5c, 0x01, 0x00, 0x00, 0x54, 0x01, 0x00,
  0x00, 0x4c, 0x01, 0x00, 0x00, 0x44, 0x01, 0x00, 0x00, 0x3c, 0x01, 0x00, 0x00,
  0x34, 0x01, 0x00, 0x00, 0x2c, 0x01, 0x00, 0x00, 0x24, 0x01, 0x00, 0x00, 0x1c,
  0x01, 0x00, 0x00, 0x14, 0x01, 0x00, 0x00, 0x0c, 0x01, 0x00, 0x00, 0x04, 0x01,
  0x00, 0x00, 0xfc, 0x00, 0x00, 0x00, 0xf4, 0x00, 0x00, 0x00, 0xec, 0x00, 0x00,
  0x00, 0xe4, 0x00, 0x00, 0x00, 0xdc, 0x00, 0x00, 0x00, 0xd4, 0x00, 0x00, 0x00,
  0xcc, 0x00, 0x00, 0x00, 0xc4, 0x00, 0x00, 0x00, 0xbc, 0x00, 0x00, 0x00, 0xb4,
  0x00, 0x00, 0x00, 0xac, 0x00, 0x00, 0x00, 0xa4, 0x00, 0x00, 0x00, 0x9c, 0x00,
  0x00, 0x00, 0x94, 0x00, 0x00, 0x00, 0x8c, 0x00, 0x00, 0x00, 0x84, 0x00, 0x00,
  0x00, 0x7c, 0x00, 0x00, 0x00, 0x5c, 0x00, 0x00, 0x00, 0x04, 0x00, 0x00, 0x00,
  0x22, 0xf0, 0xff, 0xff, 0x04, 0x00, 0x00, 0x00, 0x48, 0x00, 0x00, 0x00, 0x04,
  0x00, 0x00, 0x00, 0xdc, 0xff, 0xff, 0xff, 0x10, 0x00, 0x00, 0x00, 0x24, 0x00,
  0x00, 0x00, 0x00, 0x00, 0x06, 0x00, 0x08, 0x00, 0x04, 0x00, 0x06, 0x00, 0x00,
  0x00, 0x04, 0x00, 0x00, 0x00, 0x01, 0x00, 0x00, 0x00, 0xec, 0x03, 0x00, 0x00,
  0x08, 0x00, 0x0c, 0x00, 0x08, 0x00, 0x04, 0x00, 0x08, 0x00, 0x00, 0x00, 0x01,
  0x00, 0x00, 0x00, 0x04, 0x00, 0x00, 0x00, 0x06, 0x00, 0x00, 0x00, 0x32, 0x2e,
  0x31, 0x30, 0x2e, 0x30, 0x00, 0x00, 0x76, 0xf0, 0xff, 0xff, 0x04, 0x00, 0x00,
  0x00, 0x10, 0x00, 0x00, 0x00, 0x31, 0x2e, 0x37, 0x2e, 0x30, 0x00, 0x00, 0x00,
  0x00, 0x00, 0x00, 0x00, 0x00, 0x00, 0x00, 0x00, 0x8c, 0xca, 0xff, 0xff, 0x90,
  0xca, 0xff, 0xff, 0x94, 0xca, 0xff, 0xff, 0x98, 0xca, 0xff, 0xff, 0x9c, 0xca,
  0xff, 0xff, 0xa0, 0xca, 0xff, 0xff, 0xa4, 0xca, 0xff, 0xff, 0xa8, 0xca, 0xff,
  0xff, 0xac, 0xca, 0xff, 0xff, 0xb0, 0xca, 0xff, 0xff, 0xb4, 0xca, 0xff, 0xff,
  0xb8, 0xca, 0xff, 0xff, 0xbc, 0xca, 0xff, 0xff, 0xc0, 0xca, 0xff, 0xff, 0xc4,
  0xca, 0xff, 0xff, 0xc8, 0xca, 0xff, 0xff, 0xcc, 0xca, 0xff, 0xff, 0xd0, 0xca,
  0xff, 0xff, 0xd4, 0xca, 0xff, 0xff, 0xd8, 0xca, 0xff, 0xff, 0xdc, 0xca, 0xff,
  0xff, 0xe0, 0xca, 0xff, 0xff, 0xe4, 0xca, 0xff, 0xff, 0xe8, 0xca, 0xff, 0xff,
  0xec, 0xca, 0xff, 0xff, 0xf0, 0xca, 0xff, 0xff, 0xf4, 0xca, 0xff, 0xff, 0xf8,
  0xca, 0xff, 0xff, 0xfc, 0xca, 0xff, 0xff, 0x00, 0xcb, 0xff, 0xff, 0x04, 0xcb,
  0xff, 0xff, 0x08, 0xcb, 0xff, 0xff, 0x0c, 0xcb, 0xff, 0xff, 0x10, 0xcb, 0xff,
  0xff, 0x14, 0xcb, 0xff, 0xff, 0x18, 0xcb, 0xff, 0xff, 0x1c, 0xcb, 0xff, 0xff,
  0x20, 0xcb, 0xff, 0xff, 0x24, 0xcb, 0xff, 0xff, 0x28, 0xcb, 0xff, 0xff, 0x2c,
  0xcb, 0xff, 0xff, 0x30, 0xcb, 0xff, 0xff, 0x34, 0xcb, 0xff, 0xff, 0x38, 0xcb,
  0xff, 0xff, 0x3c, 0xcb, 0xff, 0xff, 0x46, 0xf1, 0xff, 0xff, 0x04, 0x00, 0x00,
  0x00, 0x20, 0x00, 0x00, 0x00, 0x00, 0x00, 0x00, 0x00, 0x00, 0x00, 0x00, 0x00,
  0x01, 0x00, 0x00, 0x00, 0x01, 0x00, 0x00, 0x00, 0x01, 0x00, 0x00, 0x00, 0x01,
  0x00, 0x00, 0x00, 0x00, 0x00, 0x00, 0x00, 0x00, 0x00, 0x00, 0x00, 0x72, 0xf1,
  0xff, 0xff, 0x04, 0x00, 0x00, 0x00, 0x08, 0x00, 0x00, 0x00, 0x3a, 0x04, 0x00,
  0x00, 0x82, 0x07, 0x00, 0x00, 0x86, 0xf1, 0xff, 0xff, 0x04, 0x00, 0x00, 0x00,
  0x08, 0x00, 0x00, 0x00, 0x13, 0xc4, 0xd5, 0x17, 0xf9, 0xc4, 0x7f, 0x19, 0x9a,
  0xf1, 0xff, 0xff, 0x04, 0x00, 0x00, 0x00, 0x18, 0x00, 0x00, 0x00, 0x22, 0x49,
  0x2d, 0xce, 0xfc, 0x43, 0x7f, 0x05, 0x81, 0x81, 0x45, 0x30, 0x81, 0xb8, 0x58,
  0x81, 0xe4, 0xf7, 0x7f, 0x81, 0x21, 0x7f, 0x03, 0xd8, 0xbe, 0xf1, 0xff, 0xff,
  0x04, 0x00, 0x00, 0x00, 0x18, 0x00, 0x00, 0x00, 0x81, 0x3b, 0x44, 0x7f, 0x66,
  0x33, 0x38, 0x7f, 0xb1, 0x77, 0x81, 0xeb, 0x81, 0x7f, 0x5c, 0xe6, 0x08, 0x7f,
  0x3e, 0xa6, 0x20, 0x32, 0x7f, 0xcb, 0xe2, 0xf1, 0xff, 0xff, 0x04, 0x00, 0x00,
  0x00, 0x40, 0x00, 0x00, 0x00, 0xd0, 0x04, 0xea, 0xf2, 0x0c, 0xe8, 0x81, 0x01,
  0x32, 0xee, 0x11, 0xe6, 0x0c, 0xcb, 0x2a, 0x7f, 0xb4, 0x28, 0x41, 0xb9, 0xb0,
  0x09, 0x81, 0x09, 0xc9, 0x81, 0x0b, 0x3b, 0x76, 0xcd, 0x6c, 0x0c, 0x15, 0x2c,
  0x16, 0x68, 0x65, 0x29, 0x81, 0x4c, 0x81, 0x48, 0xf4, 0x55, 0xe6, 0xfe, 0xe6,
  0x8f, 0x4f, 0xdd, 0x0f, 0xe9, 0x0e, 0x81, 0x12, 0xec, 0xd0, 0xd8, 0x59, 0x3c,
  0x77, 0x22, 0x81, 0x25, 0x2e, 0xf2, 0xff, 0xff, 0x04, 0x00, 0x00, 0x00, 0x18,
  0x00, 0x00, 0x00, 0x16, 0xe5, 0x0c, 0x0b, 0x0c, 0xe0, 0xe7, 0x9d, 0x81, 0x7f,
  0x81, 0x81, 0x81, 0x7f, 0x7f, 0x81, 0x12, 0xf2, 0x02, 0x03, 0x03, 0xdc, 0xee,
  0x30, 0x52, 0xf2, 0xff, 0xff, 0x04, 0x00, 0x00, 0x00, 0x18, 0x00, 0x00, 0x00,
  0xdc, 0x7f, 0x0b, 0x81, 0x7f, 0xd6, 0x39, 0x14, 0x79, 0x92, 0x7f, 0x2a, 0x4e,
  0x7f, 0x7f, 0x81, 0x81, 0x4a, 0x25, 0x56, 0xe6, 0x6f, 0x33, 0xbc, 0x76, 0xf2,
  0xff, 0xff, 0x04, 0x00, 0x00, 0x00, 0x40, 0x00, 0x00, 0x00, 0xe4, 0x01, 0x7f,
  0x37, 0x5a, 0xad, 0xe4, 0x25, 0xd3, 0xf3, 0xe5, 0x39, 0x22, 0xf7, 0xcf, 0x81,
  0x07, 0xfe, 0x4b, 0xfd, 0x72, 0x04, 0x7f, 0x73, 0xfb, 0xf5, 0x69, 0x0b, 0x7f,
  0x13, 0x63, 0x7f, 0xf5, 0xf1, 0x76, 0x15, 0x7f, 0x27, 0x52, 0x7c, 0x86, 0x97,
  0xfe, 0x7f, 0xeb, 0xc8, 0xd2, 0xd2, 0xef, 0x14, 0x7f, 0x07, 0xe5, 0xea, 0xe4,
  0x0e, 0xe5, 0x58, 0x02, 0x12, 0xfa, 0x81, 0xe4, 0xfb, 0xc2, 0xf2, 0xff, 0xff,
  0x04, 0x00, 0x00, 0x00, 0x18, 0x00, 0x00, 0x00, 0x81, 0xd5, 0x1b, 0x7f, 0x42,
  0xda, 0xac, 0x19, 0x97, 0x7f, 0x7f, 0xfc, 0x7f, 0xb0, 0x81, 0x7f, 0xa6, 0x50,
  0x0d, 0xfa, 0x2e, 0x81, 0xda, 0x06, 0xe6, 0xf2, 0xff, 0xff, 0x04, 0x00, 0x00,
  0x00, 0x18, 0x00, 0x00, 0x00, 0x7f, 0xd0, 0xae, 0xf5, 0x29, 0x2e, 0xc8, 0x7f,
  0x45, 0x81, 0x7f, 0x81, 0x7f, 0x7f, 0x81, 0xab, 0x0a, 0x25, 0xa2, 0x22, 0x22,
  0xd6, 0x31, 0x16, 0x0a, 0xf3, 0xff, 0xff, 0x04, 0x00, 0x00, 0x00, 0x50, 0x00,
  0x00, 0x00, 0x4c, 0x06, 0x81, 0xee, 0xd5, 0xec, 0x63, 0x51, 0x0b, 0xcc, 0xa4,
  0x5b, 0x04, 0xcf, 0xff, 0xaa, 0xfb, 0xb6, 0x81, 0x6f, 0x4c, 0xce, 0x21, 0xb3,
  0xcc, 0x98, 0xf6, 0xdd, 0x02, 0x7f, 0xf8, 0x0d, 0x2d, 0xf5, 0xc1, 0x60, 0x7f,
  0x41, 0x0b, 0xed, 0xaa, 0x96, 0xb8, 0x81, 0xad, 0x31, 0xfc, 0x17, 0x84, 0x45,
  0x7f, 0x93, 0x1c, 0xa1, 0x0a, 0x97, 0x08, 0x03, 0x49, 0xd6, 0x52, 0x26, 0x17,
  0xec, 0xd8, 0xc8, 0x26, 0xea, 0x7f, 0xf0, 0x28, 0x5e, 0xd5, 0x1c, 0x7f, 0xcf,
  0x12, 0xda, 0xff, 0x26, 0x66, 0xf3, 0xff, 0xff, 0x04, 0x00, 0x00, 0x00, 0x1e,
  0x00, 0x00, 0x00, 0xb6, 0xfd, 0xf7, 0x61, 0xe9, 0x81, 0x84, 0x81, 0x93, 0xf3,
  0x81, 0x7f, 0x7f, 0x5c, 0x7f, 0xae, 0x81, 0xdc, 0xcf, 0x81, 0xe6, 0xf4, 0xd1,
  0x7f, 0xdf, 0xba, 0xc8, 0x8c, 0x81, 0xef, 0x00, 0x00, 0x92, 0xf3, 0xff, 0xff,
  0x04, 0x00, 0x00, 0x00, 0x1e, 0x00, 0x00, 0x00, 0xd1, 0x3b, 0x71, 0x81, 0x7f,
  0xa2, 0x81, 0x37, 0xe6, 0xe8, 0x7f, 0x81, 0x81, 0xf5, 0xec, 0x7f, 0x2e, 0xf3,
  0x7f, 0xee, 0xd5, 0x11, 0x48, 0x93, 0x7b, 0xc1, 0x98, 0x7f, 0xd7, 0x81, 0x00,
  0x00, 0xbe, 0xf3, 0xff, 0xff, 0x04, 0x00, 0x00, 0x00, 0x40, 0x00, 0x00, 0x00,
  0x06, 0xd3, 0x3c, 0xe8, 0xc4, 0xd0, 0xbb, 0x81, 0x90, 0xd2, 0xf9, 0x13, 0x3f,
  0x7f, 0xde, 0x03, 0x4f, 0xfd, 0x81, 0x51, 0xfd, 0x03, 0xfb, 0xfd, 0x0d, 0x12,
  0x1e, 0xe3, 0xcb, 0x15, 0xec, 0x81, 0x24, 0x81, 0xc9, 0xc4, 0x02, 0xfd, 0xcf,
  0xe8, 0x81, 0x2b, 0x1d, 0xff, 0x58, 0x0e, 0x0b, 0xcb, 0xa1, 0x7f, 0xab, 0x59,
  0x0d, 0xf1, 0x50, 0x10, 0x61, 0x81, 0xa8, 0x61, 0xf0, 0xf4, 0x32, 0x00, 0x0a,
  0xf4, 0xff, 0xff, 0x04, 0x00, 0x00, 0x00, 0x18, 0x00, 0x00, 0x00, 0x8a, 0xfe,
  0xf4, 0x07, 0x07, 0x48, 0x81, 0x5c, 0x81, 0x7f, 0x7f, 0x81, 0x09, 0xe0, 0xd4,
  0x81, 0xec, 0xf3, 0xf4, 0x03, 0x7f, 0x7f, 0x8c, 0x53, 0x2e, 0xf4, 0xff, 0xff,
  0x04, 0x00, 0x00, 0x00, 0x18, 0x00, 0x00, 0x00, 0x01, 0xc1, 0x90, 0xc4, 0x0c,
  0x06, 0xa6, 0xf0, 0x7f, 0x5f, 0x7f, 0x7f, 0x81, 0x81, 0xf7, 0xf9, 0x79, 0x81,
  0xfc, 0xc4, 0xf8, 0xd4, 0x81, 0x81, 0x52, 0xf4, 0xff, 0xff, 0x04, 0x00, 0x00,
  0x00, 0x50, 0x00, 0x00, 0x00, 0xbe, 0xe8, 0x0c, 0xb7, 0xc8, 0x1b, 0xb7, 0xb9,
  0x97, 0x7f, 0xe8, 0xf5, 0x7f, 0x58, 0xd3, 0x02, 0xf6, 0xe5, 0x01, 0x05, 0x05,
  0x06, 0xd3, 0x81, 0x17, 0xf7, 0xfe, 0xdd, 0xf8, 0x16, 0x03, 0x09, 0x38, 0xc5,
  0x81, 0x03, 0x02, 0x51, 0x0e, 0xf3, 0x95, 0x31, 0x08, 0xff, 0x0c, 0x81, 0x05,
  0xe8, 0xe5, 0xfd, 0x96, 0x81, 0x00, 0x0d, 0x10, 0x44, 0x89, 0xf4, 0xe0, 0xe8,
  0xf6, 0x33, 0xd6, 0xfe, 0x47, 0xd4, 0x25, 0x7f, 0x23, 0x92, 0x81, 0xc1, 0x00,
  0x04, 0x0d, 0x57, 0x8d, 0xe5, 0x3f, 0xf2, 0xae, 0xf4, 0xff, 0xff, 0x04, 0x00,
  0x00, 0x00, 0x40, 0x00, 0x00, 0x00, 0x00, 0x00, 0x00, 0x00, 0x00, 0x00, 0x00,
  0x00, 0x00, 0x00, 0x00, 0x00, 0x00, 0x00, 0x00, 0x00, 0x00, 0x00, 0x00, 0x00,
  0x00, 0x00, 0x00, 0x00, 0x00, 0x00, 0x00, 0x00, 0x00, 0x00, 0x00, 0x00, 0x00,
  0x00, 0x00, 0x00, 0x00, 0x00, 0x00, 0x00, 0x00, 0x00, 0x00, 0x00, 0x00, 0x00,
  0x00, 0x00, 0x00, 0x00, 0x00, 0x00, 0x00, 0x00, 0x00, 0x00, 0x00, 0x00, 0x00,
  0x00, 0x00, 0x00, 0x00, 0x00, 0xfa, 0xf4, 0xff, 0xff, 0x04, 0x00, 0x00, 0x00,
  0x1e, 0x00, 0x00, 0x00, 0x81, 0x68, 0xdf, 0xe0, 0x31, 0x7f, 0x81, 0x41, 0x13,
  0xa2, 0xe8, 0x81, 0x81, 0x81, 0x7f, 0xcc, 0x4f, 0x7f, 0xd6, 0x81, 0xf0, 0x31,
  0xe1, 0xe7, 0x29, 0x31, 0x44, 0x41, 0x7f, 0x84, 0x00, 0x00, 0x26, 0xf5, 0xff,
  0xff, 0x04, 0x00, 0x00, 0x00, 0x1e, 0x00, 0x00, 0x00, 0x47, 0x32, 0xbe, 0x7f,
  0xe2, 0xe2, 0x54, 0x03, 0xc3, 0x81, 0x7f, 0x7f, 0xf8, 0x2b, 0x7f, 0x81, 0x7f,
  0x81, 0x81, 0xb8, 0x1c, 0x11, 0x7f, 0xf1, 0xc1, 0x06, 0x27, 0x24, 0xfd, 0xf3,
  0x00, 0x00, 0x52, 0xf5, 0xff, 0xff, 0x04, 0x00, 0x00, 0x00, 0x78, 0x00, 0x00,
  0x00, 0x6b, 0xd8, 0x76, 0x75, 0xc0, 0xc4, 0x7f, 0x0f, 0xb3, 0xdb, 0x83, 0xb4,
  0x1d, 0x35, 0x19, 0xd7, 0x56, 0x5c, 0xb4, 0xc1, 0x17, 0xff, 0x81, 0xc7, 0x50,
  0xfb, 0x1e, 0x02, 0x02, 0xe7, 0xf0, 0x3c, 0x81, 0x93, 0xe9, 0x65, 0x28, 0xd9,
  0x18, 0x05, 0x14, 0xe1, 0x05, 0x06, 0xf2, 0xe7, 0xe4, 0x7f, 0xb1, 0xf8, 0xc0,
  0x04, 0xf1, 0x0d, 0xfa, 0x81, 0x7d, 0x56, 0x2c, 0x45, 0x20, 0xa2, 0xf5, 0xa0,
  0xf9, 0xe1, 0x8b, 0x13, 0xbb, 0x2c, 0x81, 0xfc, 0xe4, 0xc7, 0xd7, 0x81, 0x59,
  0x18, 0xa8, 0xf3, 0x0e, 0x23, 0xe8, 0x0f, 0xf4, 0xcd, 0x01, 0x0b, 0x50, 0x7f,
  0x98, 0xbf, 0xa4, 0x28, 0xf3, 0xe7, 0x20, 0xbb, 0x7f, 0xc6, 0xfa, 0xdf, 0xb3,
  0x01, 0xa6, 0xb9, 0x00, 0xe5, 0xd0, 0xe2, 0x81, 0x23, 0x12, 0xe9, 0xf7, 0x07,
  0xe8, 0x3d, 0x11, 0xac, 0xd6, 0xf5, 0xff, 0xff, 0x04, 0x00, 0x00, 0x00, 0x24,
  0x00, 0x00, 0x00, 0x81, 0x01, 0x81, 0x7f, 0x81, 0x81, 0x21, 0x81, 0x81, 0x81,
  0xda, 0x81, 0xc2, 0x2a, 0xea, 0xac, 0x82, 0x98, 0x81, 0xbd, 0x00, 0xd6, 0x81,
  0xda, 0xf9, 0x7f, 0x08, 0x0e, 0xe3, 0x01, 0x71, 0xfd, 0x02, 0xff, 0x40, 0xfd,
  0x06, 0xf6, 0xff, 0xff, 0x04, 0x00, 0x00, 0x00, 0x24, 0x00, 0x00, 0x00, 0x49,
  0x81, 0x33, 0x81, 0x88, 0x8b, 0x7f, 0x4d, 0xa7, 0xff, 0xa3, 0x3e, 0x81, 0xda,
  0x81, 0x04, 0x81, 0xa6, 0x6f, 0x3a, 0x7f, 0xd2, 0x81, 0xb4, 0x14, 0xd9, 0x41,
  0xe9, 0xf9, 0x7f, 0xec, 0x7f, 0xbe, 0x81, 0xc8, 0x7f, 0x36, 0xf6, 0xff, 0xff,
  0x04, 0x00, 0x00, 0x00, 0x64, 0x00, 0x00, 0x00, 0xaf, 0x81, 0xf3, 0x20, 0xf3,
  0xd1, 0xe9, 0x14, 0x15, 0xda, 0xf0, 0x81, 0x43, 0x2c, 0xf2, 0x89, 0xbe, 0x2a,
  0x09, 0xd3, 0xeb, 0x2b, 0xcc, 0x7f, 0x5a, 0xf8, 0xc8, 0x01, 0xe8, 0xf1, 0x09,
  0x0c, 0x81, 0x71, 0xf3, 0x18, 0x02, 0xf7, 0xf6, 0xf6, 0xf7, 0x51, 0x39, 0x28,
  0x81, 0x2d, 0x7e, 0xea, 0xed, 0x02, 0x23, 0x08, 0xed, 0x12, 0xb9, 0x7f, 0x07,
  0xb8, 0x71, 0x4f, 0x47, 0x2c, 0x0b, 0xff, 0xa8, 0x70, 0x81, 0xf6, 0xd5, 0x6e,
  0x22, 0x2a, 0xeb, 0x0e, 0xf4, 0x1b, 0xe1, 0xe8, 0x81, 0xcf, 0xd3, 0xf7, 0xdc,
  0xfa, 0x1d, 0x81, 0xe3, 0x3b, 0x10, 0xe7, 0x06, 0x17, 0x2e, 0x7f, 0xc7, 0x4b,
  0x23, 0xd5, 0xcb, 0xf8, 0xa6, 0xf6, 0xff, 0xff, 0x04, 0x00, 0x00, 0x00, 0x1e,
  0x00, 0x00, 0x00, 0x27, 0xee, 0x25, 0x00, 0x7f, 0x16, 0xb3, 0x75, 0x66, 0x57,
  0x0b, 0x7f, 0x7f, 0x81, 0xfd, 0x81, 0xb9, 0x83, 0x81, 0x81, 0x7f, 0xea, 0x1b,
  0x08, 0x2f, 0x12, 0x81, 0x7f, 0x34, 0x71, 0x00, 0x00, 0xd2, 0xf6, 0xff, 0xff,
  0x04, 0x00, 0x00, 0x00, 0x1e, 0x00, 0x00, 0x00, 0x81, 0xea, 0x7f, 0x7f, 0x81,
  0xe2, 0xf4, 0x81, 0x7f, 0x7f, 0xd3, 0x7f, 0x00, 0xac, 0x8f, 0x81, 0x81, 0xff,
  0x03, 0x3f, 0xf8, 0xd5, 0x3e, 0x46, 0xb9, 0xfb, 0xf9, 0x01, 0xf9, 0x17, 0x00,
  0x00, 0xfe, 0xf6, 0xff, 0xff, 0x04, 0x00, 0x00, 0x00, 0x78, 0x00, 0x00, 0x00,
  0xba, 0x0c, 0xbe, 0x81, 0x26, 0xe4, 0x21, 0x10, 0x46, 0xb2, 0x6f, 0x04, 0xf1,
  0xd0, 0x02, 0x38, 0xac, 0x30, 0x81, 0xac, 0xea, 0x0b, 0x26, 0x33, 0xfa, 0xfc,
  0x08, 0xf4, 0xfa, 0x1d, 0x05, 0x93, 0x0b, 0x00, 0x0a, 0x81, 0xe9, 0xac, 0x08,
  0xc6, 0x81, 0x3f, 0xf5, 0xe0, 0x22, 0x51, 0xf1, 0xea, 0x89, 0xa6, 0x7b, 0x1c,
  0xf1, 0x09, 0x81, 0xb6, 0x2b, 0xed, 0x18, 0x09, 0x15, 0x81, 0x9c, 0x0b, 0xad,
  0x91, 0x8c, 0x0b, 0x00, 0x9e, 0xd8, 0xb3, 0x42, 0x1d, 0xb5, 0xd9, 0x3d, 0x7f,
  0xf8, 0x1d, 0xe0, 0xfe, 0x0b, 0xf6, 0x08, 0xee, 0x5c, 0x65, 0x14, 0x23, 0x38,
  0x03, 0x81, 0xe7, 0x8b, 0x0a, 0x7f, 0xdf, 0xf9, 0x36, 0x11, 0xee, 0xe7, 0x0e,
  0x7b, 0xd0, 0x76, 0x02, 0xe4, 0x04, 0x3b, 0xd9, 0x32, 0xe8, 0x60, 0x15, 0xe4,
  0x81, 0xdc, 0x01, 0x82, 0xf7, 0xff, 0xff, 0x04, 0x00, 0x00, 0x00, 0x50, 0x00,
  0x00, 0x00, 0x00, 0x00, 0x00, 0x00, 0x00, 0x00, 0x00, 0x00, 0x00, 0x00, 0x00,
  0x00, 0x00, 0x00, 0x00, 0x00, 0x00, 0x00, 0x00, 0x00, 0x00, 0x00, 0x00, 0x00,
  0x00, 0x00, 0x00, 0x00, 0x00, 0x00, 0x00, 0x00, 0x00, 0x00, 0x00, 0x00, 0x00,
  0x00, 0x00, 0x00, 0x00, 0x00, 0x00, 0x00, 0x00, 0x00, 0x00, 0x00, 0x00, 0x00,
  0x00, 0x00, 0x00, 0x00, 0x00, 0x00, 0x00, 0x00, 0x00, 0x00, 0x00, 0x00, 0x00,
  0x00, 0x00, 0x00, 0x00, 0x00, 0x00, 0x00, 0x00, 0x00, 0x00, 0x00, 0x00, 0x00,
  0x00, 0x00, 0x00, 0x00, 0xde, 0xf7, 0xff, 0xff, 0x04, 0x00, 0x00, 0x00, 0x24,
  0x00, 0x00, 0x00, 0xe7, 0x7f, 0x6e, 0x7f, 0x81, 0x81, 0x7f, 0x7f, 0x75, 0x81,
  0x81, 0x81, 0x7f, 0x56, 0x99, 0x0b, 0xc3, 0xcc, 0xf5, 0x55, 0x1d, 0xd6, 0x52,
  0xbd, 0x37, 0x10, 0x7f, 0xf9, 0xf1, 0xfb, 0xdf, 0xfe, 0x81, 0xee, 0xd6, 0x06,
  0x0e, 0xf8, 0xff, 0xff, 0x04, 0x00, 0x00, 0x00, 0x24, 0x00, 0x00, 0x00, 0xe1,
  0xdb, 0x2d, 0x00, 0xd8, 0x81, 0xc6, 0x7f, 0xe5, 0xf4, 0xfb, 0x81, 0x7f, 0xc0,
  0x6c, 0x9c, 0x81, 0xda, 0x81, 0xea, 0x70, 0x7f, 0x81, 0x29, 0x1d, 0x81, 0x7f,
  0x81, 0xf6, 0xfe, 0xab, 0x2e, 0x7f, 0x1a, 0x8b, 0x65, 0x3e, 0xf8, 0xff, 0xff,
  0x04, 0x00, 0x00, 0x00, 0xc0, 0x00, 0x00, 0x00, 0x22, 0x34, 0x03, 0x1c, 0xe2,
  0xa0, 0x7f, 0xe1, 0xe1, 0xd2, 0xf7, 0x16, 0x02, 0xcf, 0x45, 0xe3, 0x13, 0x7f,
  0xfd, 0xf0, 0x34, 0xe1, 0x19, 0xfa, 0x6b, 0x0a, 0x1a, 0x2c, 0xe8, 0xe7, 0xce,
  0xe1, 0x09, 0xee, 0xaa, 0x81, 0xa0, 0x18, 0xcb, 0x1f, 0xb3, 0x49, 0xa6, 0x16,
  0x6f, 0x44, 0x39, 0xe3, 0x31, 0xe2, 0xf0, 0xd2, 0x11, 0x06, 0x0b, 0x9d, 0x9c,
  0x04, 0x25, 0x20, 0xbd, 0x09, 0x2c, 0x7f, 0xf5, 0xdf, 0x01, 0x3c, 0xb2, 0x18,
  0xe0, 0x81, 0x8f, 0x09, 0x12, 0x08, 0xf7, 0xb9, 0xdb, 0x6c, 0x39, 0xa1, 0xec,
  0x9e, 0x02, 0x1f, 0xf9, 0x8f, 0x8b, 0x1a, 0x27, 0x81, 0xba, 0x8d, 0x20, 0xd4,
  0xf9, 0x1b, 0xe9, 0x02, 0x16, 0x33, 0xc6, 0x11, 0xe3, 0xd7, 0xf8, 0x7f, 0x1d,
  0x3f, 0x28, 0x23, 0x92, 0x6a, 0x9d, 0xc5, 0x34, 0x0c, 0xcc, 0x4b, 0x28, 0xd2,
  0xad, 0xc6, 0x7f, 0x0e, 0xf3, 0x4f, 0xf4, 0xf6, 0x81, 0x12, 0x05, 0x48, 0xf8,
  0x29, 0xee, 0x3b, 0x00, 0xaa, 0x10, 0x3b, 0xe6, 0x04, 0x01, 0xa5, 0xe4, 0x32,
  0x28, 0xa2, 0x28, 0x7f, 0x37, 0x47, 0x5e, 0xf3, 0xc5, 0x08, 0x3b, 0x19, 0x52,
  0xe5, 0xff, 0x1e, 0xd4, 0xc5, 0x54, 0xef, 0x28, 0x29, 0x39, 0xec, 0x05, 0x9d,
  0x81, 0x24, 0x7f, 0x6b, 0xf4, 0x1d, 0x10, 0x09, 0xd0, 0xcb, 0x28, 0xc1, 0xee,
  0xe6, 0x0b, 0xbf, 0x94, 0xf8, 0x0a, 0xf9, 0xff, 0xff, 0x04, 0x00, 0x00, 0x00,
  0x30, 0x00, 0x00, 0x00, 0xa5, 0xc1, 0xb0, 0xc5, 0x8c, 0x7b, 0x46, 0x02, 0x7f,
  0x81, 0xe0, 0x38, 0x9e, 0xed, 0x10, 0xc7, 0x81, 0x7f, 0x81, 0x81, 0xc3, 0x2f,
  0x39, 0x7f, 0x30, 0x4a, 0x7f, 0xd7, 0x7f, 0x7f, 0x81, 0x7f, 0x12, 0xcd, 0xd4,
  0xe0, 0x81, 0x81, 0x81, 0xb1, 0xc1, 0x4b, 0xb0, 0x7f, 0x05, 0xfd, 0xde, 0xbc,
  0x46, 0xf9, 0xff, 0xff, 0x04, 0x00, 0x00, 0x00, 0x30, 0x00, 0x00, 0x00, 0x7f,
  0x81, 0x7f, 0x7f, 0x38, 0x3a, 0xf3, 0x15, 0x81, 0xb8, 0xf0, 0xcb, 0xb8, 0xc9,
  0xfa, 0xf7, 0xac, 0x6d, 0xfd, 0xc0, 0x81, 0x7f, 0x81, 0x81, 0x5a, 0x81, 0x68,
  0xb1, 0x81, 0x7f, 0x7c, 0xa9, 0xeb, 0x3a, 0x1b, 0x1d, 0xd5, 0x66, 0xc7, 0x3e,
  0x3e, 0xcc, 0x81, 0x7f, 0x79, 0xb1, 0x81, 0x81, 0x82, 0xf9, 0xff, 0xff, 0x04,
  0x00, 0x00, 0x00, 0x90, 0x00, 0x00, 0x00, 0x39, 0x55, 0xd9, 0xcf, 0x81, 0x32,
  0xcb, 0x19, 0x07, 0xcf, 0xa9, 0xef, 0xa5, 0x12, 0xe3, 0x08, 0xe0, 0xf9, 0xdf,
  0x3b, 0x2b, 0x7f, 0x17, 0x0b, 0x3b, 0x0e, 0x14, 0x06, 0x0b, 0x99, 0x57, 0x81,
  0xe7, 0xef, 0xc2, 0x64, 0x65, 0x81, 0xf3, 0x25, 0xdd, 0x0b, 0x8f, 0x3c, 0x32,
  0x47, 0xc0, 0x03, 0xbf, 0xc6, 0x06, 0x7f, 0x52, 0x11, 0x38, 0xa1, 0x12, 0xdb,
  0x0a, 0xd6, 0xdc, 0xfe, 0x06, 0x0c, 0xe2, 0xf4, 0xcf, 0x1f, 0x81, 0xe9, 0xd5,
  0xcb, 0x43, 0x81, 0x5b, 0x4b, 0x23, 0xbd, 0x61, 0xbf, 0x0c, 0x62, 0x23, 0x5a,
  0x81, 0xef, 0x13, 0x42, 0x32, 0xf8, 0x32, 0xc5, 0x96, 0x2a, 0x75, 0x31, 0xa6,
  0xba, 0x3c, 0x81, 0x7e, 0x07, 0x1d, 0x1b, 0xef, 0x2f, 0x64, 0x2c, 0x3d, 0x2f,
  0xe1, 0xcb, 0x81, 0xeb, 0xeb, 0xfd, 0xf1, 0x06, 0xc5, 0xee, 0x25, 0x3f, 0x81,
  0xff, 0x16, 0x18, 0xa3, 0x44, 0x06, 0xf8, 0xe6, 0xdb, 0x0c, 0xe3, 0x1b, 0x47,
  0x1f, 0x15, 0x96, 0x7f, 0xe6, 0x2f, 0x32, 0x46, 0x1e, 0xfa, 0xff, 0xff, 0x04,
  0x00, 0x00, 0x00, 0x24, 0x00, 0x00, 0x00, 0xaa, 0x81, 0x81, 0x7f, 0x13, 0xdc,
  0xe8, 0xe6, 0x30, 0xdb, 0x50, 0xc4, 0x7f, 0x8a, 0x6c, 0xd1, 0x81, 0x7f, 0x7f,
  0x7f, 0x7f, 0x81, 0x81, 0x81, 0xd9, 0xe9, 0xed, 0x07, 0x22, 0x12, 0xfe, 0xf6,
  0x0c, 0xf5, 0x0f, 0x11, 0x4e, 0xfa, 0xff, 0xff, 0x04, 0x00, 0x00, 0x00, 0x24,
  0x00, 0x00, 0x00, 0xe5, 0xc7, 0xeb, 0x7f, 0xad, 0x06, 0xcd, 0x56, 0x2c, 0xfa,
  0x05, 0x81, 0x7f, 0x81, 0x7f, 0x68, 0x81, 0x7f, 0x7d, 0x81, 0x7f, 0x7f, 0x81,
  0xd5, 0x0f, 0xc0, 0x27, 0x2e, 0x1f, 0xef, 0x81, 0xfe, 0x66, 0xf4, 0xe6, 0x10,
  0x7e, 0xfa, 0xff, 0xff, 0x04, 0x00, 0x00, 0x00, 0xc0, 0x00, 0x00, 0x00, 0xe8,
  0x6c, 0xec, 0x81, 0xdc, 0x7b, 0x1a, 0x5f, 0xe7, 0x68, 0x32, 0x23, 0xb4, 0x0a,
  0xcb, 0x24, 0x06, 0xcb, 0x09, 0x7f, 0xea, 0xcc, 0xbf, 0xfb, 0x0d, 0xe2, 0xf8,
  0xfc, 0x25, 0x01, 0x2c, 0x29, 0x06, 0xf3, 0x97, 0xf4, 0xd6, 0xda, 0x38, 0x20,
  0x81, 0x23, 0xc9, 0x0c, 0xac, 0x0b, 0xd6, 0x0a, 0x1b, 0x1a, 0x1c, 0x7c, 0x4c,
  0x28, 0x5b, 0x2b, 0x11, 0x21, 0x3b, 0xec, 0x09, 0xe9, 0x81, 0x7a, 0x7f, 0xf3,
  0xf7, 0x08, 0xe7, 0xeb, 0x03, 0x00, 0xfa, 0xf0, 0xfb, 0x30, 0xef, 0x19, 0xe3,
  0x00, 0x31, 0xad, 0x41, 0x29, 0x0c, 0xce, 0x21, 0x41, 0xeb, 0xf2, 0x9f, 0xfe,
  0xdd, 0x10, 0xec, 0x81, 0xf3, 0xa7, 0x20, 0x20, 0x16, 0x17, 0x32, 0x2d, 0xe0,
  0x10, 0xe0, 0x7f, 0x2b, 0x3e, 0x01, 0x0b, 0x09, 0x46, 0xf8, 0x56, 0x7f, 0xb3,
  0xcc, 0xd3, 0xf9, 0xf6, 0xda, 0x2c, 0xac, 0x64, 0x08, 0x2c, 0xfd, 0x13, 0x16,
  0x81, 0xb0, 0xeb, 0xd5, 0xf4, 0x1b, 0x05, 0xce, 0xfb, 0x02, 0xc0, 0xff, 0x24,
  0xf5, 0x41, 0xdc, 0xe7, 0x3b, 0xb2, 0x81, 0xf5, 0x05, 0xf5, 0xda, 0x16, 0xf1,
  0xb6, 0xe6, 0xd8, 0xac, 0x67, 0x28, 0x87, 0x87, 0x7f, 0xd2, 0x39, 0x02, 0x59,
  0x31, 0x0d, 0x08, 0xe3, 0xc7, 0xec, 0xe6, 0xac, 0x03, 0x2b, 0x25, 0xff, 0x35,
  0xd5, 0xba, 0xdd, 0x7f, 0x22, 0x19, 0x06, 0x97, 0x3a, 0x4a, 0xfb, 0xff, 0xff,
  0x04, 0x00, 0x00, 0x00, 0x60, 0x00, 0x00, 0x00, 0x00, 0x00, 0x00, 0x00, 0x00,
  0x00, 0x00, 0x00, 0x00, 0x00, 0x00, 0x00, 0x00, 0x00, 0x00, 0x00, 0x00, 0x00,
  0x00, 0x00, 0x00, 0x00, 0x00, 0x00, 0x00, 0x00, 0x00, 0x00, 0x00, 0x00, 0x00,
  0x00, 0x00, 0x00, 0x00, 0x00, 0x00, 0x00, 0x00, 0x00, 0x00, 0x00, 0x00, 0x00,
  0x00, 0x00, 0x00, 0x00, 0x00, 0x00, 0x00, 0x00, 0x00, 0x00, 0x00, 0x00, 0x00,
  0x00, 0x00, 0x00, 0x00, 0x00, 0x00, 0x00, 0x00, 0x00, 0x00, 0x00, 0x00, 0x00,
  0x00, 0x00, 0x00, 0x00, 0x00, 0x00, 0x00, 0x00, 0x00, 0x00, 0x00, 0x00, 0x00,
  0x00, 0x00, 0x00, 0x00, 0x00, 0x00, 0x00, 0x00, 0x00, 0x00, 0x00, 0x00, 0x00,
  0xb6, 0xfb, 0xff, 0xff, 0x04, 0x00, 0x00, 0x00, 0x30, 0x00, 0x00, 0x00, 0x70,
  0x06, 0xac, 0xf6, 0xd8, 0x00, 0x11, 0xbd, 0xfd, 0x31, 0x7f, 0x63, 0x56, 0xf2,
  0x16, 0x7f, 0x7f, 0x7f, 0x2c, 0x81, 0x81, 0x7f, 0xfe, 0x7f, 0xc7, 0x32, 0xbb,
  0x7f, 0xc1, 0x81, 0x32, 0xd9, 0xf7, 0xbb, 0x7f, 0x57, 0xdd, 0xc4, 0x7f, 0xb9,
  0x81, 0x81, 0xb7, 0x16, 0x7f, 0x03, 0x81, 0xa8, 0xf2, 0xfb, 0xff, 0xff, 0x04,
  0x00, 0x00, 0x00, 0x30, 0x00, 0x00, 0x00, 0x0a, 0x94, 0x82, 0x27, 0xf7, 0x81,
  0x81, 0x27, 0x06, 0x46, 0x41, 0x7f, 0xa1, 0xb9, 0x2c, 0xe7, 0xeb, 0x6e, 0x81,
  0x81, 0x4d, 0xd6, 0x3e, 0x81, 0x81, 0x7f, 0x81, 0xd1, 0x81, 0x7f, 0x7f, 0xf0,
  0x81, 0x7f, 0x1a, 0x45, 0x81, 0x22, 0x4f, 0xbf, 0x0d, 0x26, 0x25, 0xd5, 0x46,
  0xbb, 0x72, 0x7f, 0x2e, 0xfc, 0xff, 0xff, 0x04, 0x00, 0x00, 0x00, 0x10, 0x00,
  0x00, 0x00, 0x81, 0x81, 0x7f, 0x7f, 0x81, 0x7f, 0x7f, 0x7f, 0x81, 0x81, 0x7f,
  0x81, 0x7f, 0x81, 0x7f, 0x81, 0x4a, 0xfc, 0xff, 0xff, 0x04, 0x00, 0x00, 0x00,
  0x80, 0x00, 0x00, 0x00, 0x00, 0x00, 0x00, 0x00, 0x00, 0x00, 0x00, 0x00, 0x00,
  0x00, 0x00, 0x00, 0x00, 0x00, 0x00, 0x00, 0x00, 0x00, 0x00, 0x00, 0x00, 0x00,
  0x00, 0x00, 0x00, 0x00, 0x00, 0x00, 0x00, 0x00, 0x00, 0x00, 0x00, 0x00, 0x00,
  0x00, 0x00, 0x00, 0x00, 0x00, 0x00, 0x00, 0x00, 0x00, 0x00, 0x00, 0x00, 0x00,
  0x00, 0x00, 0x00, 0x00, 0x00, 0x00, 0x00, 0x00, 0x00, 0x00, 0x00, 0x00, 0x00,
  0x00, 0x00, 0x00, 0x00, 0x00, 0x00, 0x00, 0x00, 0x00, 0x00, 0x00, 0x00, 0x00,
  0x00, 0x00, 0x00, 0x00, 0x00, 0x00, 0x00, 0x00, 0x00, 0x00, 0x00, 0x00, 0x00,
  0x00, 0x00, 0x00, 0x00, 0x00, 0x00, 0x00, 0x00, 0x00, 0x00, 0x00, 0x00, 0x00,
  0x00, 0x00, 0x00, 0x00, 0x00, 0x00, 0x00, 0x00, 0x00, 0x00, 0x00, 0x00, 0x00,
  0x00, 0x00, 0x00, 0x00, 0x00, 0x00, 0x00, 0x00, 0x00, 0x00, 0x00, 0x00, 0x00,
  0x00, 0x00, 0xd6, 0xfc, 0xff, 0xff, 0x04, 0x00, 0x00, 0x00, 0x03, 0x00, 0x00,
  0x00, 0xd5, 0x7f, 0x56, 0x00, 0xe6, 0xfc, 0xff, 0xff, 0x04, 0x00, 0x00, 0x00,
  0x03, 0x00, 0x00, 0x00, 0x46, 0x7f, 0xb5, 0x00, 0xf6, 0xfc, 0xff, 0xff, 0x04,
  0x00, 0x00, 0x00, 0x08, 0x00, 0x00, 0x00, 0x00, 0x00, 0x00, 0x00, 0x00, 0x00,
  0x00, 0x00, 0x0a, 0xfd, 0xff, 0xff, 0x04, 0x00, 0x00, 0x00, 0x08, 0x00, 0x00,
  0x00, 0x7a, 0xec, 0xff, 0xff, 0xff, 0xff, 0xff, 0xff, 0x1e, 0xfd, 0xff, 0xff,
  0x04, 0x00, 0x00, 0x00, 0x40, 0x00, 0x00, 0x00, 0x88, 0xf9, 0xff, 0xff, 0xff,
  0xff, 0xff, 0xff, 0xf5, 0xdc, 0xff, 0xff, 0xff, 0xff, 0xff, 0xff, 0x9e, 0x14,
  0x00, 0x00, 0x00, 0x00, 0x00, 0x00, 0x44, 0x16, 0x00, 0x00, 0x00, 0x00, 0x00,
  0x00, 0x5c, 0xda, 0xff, 0xff, 0xff, 0xff, 0xff, 0xff, 0x43, 0x3b, 0x00, 0x00,
  0x00, 0x00, 0x00, 0x00, 0x73, 0x1d, 0x00, 0x00, 0x00, 0x00, 0x00, 0x00, 0xfc,
  0xfa, 0xff, 0xff, 0xff, 0xff, 0xff, 0xff, 0x6a, 0xfd, 0xff, 0xff, 0x04, 0x00,
  0x00, 0x00, 0x40, 0x00, 0x00, 0x00, 0x4e, 0x41, 0x00, 0x00, 0x00, 0x00, 0x00,
  0x00, 0x16, 0x38, 0x00, 0x00, 0x00, 0x00, 0x00, 0x00, 0xe6, 0xdb, 0x00, 0x00,
  0x00, 0x00, 0x00, 0x00, 0x1e, 0x74, 0xff, 0xff, 0xff, 0xff, 0xff, 0xff, 0x04,
  0x08, 0xff, 0xff, 0xff, 0xff, 0xff, 0xff, 0x66, 0xe2, 0xff, 0xff, 0xff, 0xff,
  0xff, 0xff, 0x3a, 0x6c, 0xff, 0xff, 0xff, 0xff, 0xff, 0xff, 0xee, 0x62, 0x00,
  0x00, 0x00, 0x00, 0x00, 0x00, 0xb6, 0xfd, 0xff, 0xff, 0x04, 0x00, 0x00, 0x00,
  0x50, 0x00, 0x00, 0x00, 0x0d, 0xef, 0xff, 0xff, 0xff, 0xff, 0xff, 0xff, 0x1b,
  0x89, 0xfd, 0xff, 0xff, 0xff, 0xff, 0xff, 0xf8, 0x71, 0xfd, 0xff, 0xff, 0xff,
  0xff, 0xff, 0x4d, 0x8f, 0x01, 0x00, 0x00, 0x00, 0x00, 0x00, 0xa9, 0x57, 0xff,
  0xff, 0xff, 0xff, 0xff, 0xff, 0x96, 0x14, 0x01, 0x00, 0x00, 0x00, 0x00, 0x00,
  0x59, 0xda, 0x01, 0x00, 0x00, 0x00, 0x00, 0x00, 0xef, 0x0a, 0x00, 0x00, 0x00,
  0x00, 0x00, 0x00, 0x6b, 0x30, 0x00, 0x00, 0x00, 0x00, 0x00, 0x00, 0xd1, 0xac,
  0xff, 0xff, 0xff, 0xff, 0xff, 0xff, 0x12, 0xfe, 0xff, 0xff, 0x04, 0x00, 0x00,
  0x00, 0x60, 0x00, 0x00, 0x00, 0x04, 0x9c, 0x00, 0x00, 0x00, 0x00, 0x00, 0x00,
  0x0e, 0x8f, 0xff, 0xff, 0xff, 0xff, 0xff, 0xff, 0x98, 0x4e, 0xff, 0xff, 0xff,
  0xff, 0xff, 0xff, 0xa5, 0x1a, 0x00, 0x00, 0x00, 0x00, 0x00, 0x00, 0xa3, 0x27,
  0x00, 0x00, 0x00, 0x00, 0x00, 0x00, 0x77, 0x4f, 0x00, 0x00, 0x00, 0x00, 0x00,
  0x00, 0xcf, 0xf2, 0xff, 0xff, 0xff, 0xff, 0xff, 0xff, 0x93, 0x0a, 0xff, 0xff,
  0xff, 0xff, 0xff, 0xff, 0xfc, 0xd6, 0x02, 0x00, 0x00, 0x00, 0x00, 0x00, 0xc3,
  0xea, 0xff, 0xff, 0xff, 0xff, 0xff, 0xff, 0xdd, 0xa2, 0x00, 0x00, 0x00, 0x00,
  0x00, 0x00, 0x4a, 0xa3, 0xff, 0xff, 0xff, 0xff, 0xff, 0xff, 0x7e, 0xfe, 0xff,
  0xff, 0x04, 0x00, 0x00, 0x00, 0x80, 0x00, 0x00, 0x00, 0x97, 0x61, 0x26, 0x00,
  0x00, 0x00, 0x00, 0x00, 0xbd, 0x19, 0x01, 0x00, 0x00, 0x00, 0x00, 0x00, 0xc3,
  0xf4, 0x03, 0x00, 0x00, 0x00, 0x00, 0x00, 0x6c, 0xe5, 0xf8, 0xff, 0xff, 0xff,
  0xff, 0xff, 0x97, 0x37, 0x09, 0x00, 0x00, 0x00, 0x00, 0x00, 0xa3, 0x35, 0xfd,
  0xff, 0xff, 0xff, 0xff, 0xff, 0x4e, 0x12, 0xfb, 0xff, 0xff, 0xff, 0xff, 0xff,
  0x51, 0xc5, 0x06, 0x00, 0x00, 0x00, 0x00, 0x00, 0x0d, 0x5f, 0x02, 0x00, 0x00,
  0x00, 0x00, 0x00, 0xa3, 0x14, 0xf1, 0xff, 0xff, 0xff, 0xff, 0xff, 0x65, 0xcb,
  0x08, 0x00, 0x00, 0x00, 0x00, 0x00, 0xea, 0xcc, 0xb6, 0xff, 0xff, 0xff, 0xff,
  0xff, 0x68, 0x19, 0xfa, 0xff, 0xff, 0xff, 0xff, 0xff, 0x96, 0x38, 0xf6, 0xff,
  0xff, 0xff, 0xff, 0xff, 0x1c, 0xaa, 0xf1, 0xff, 0xff, 0xff, 0xff, 0xff, 0x05,
  0x55, 0x14, 0x00, 0x00, 0x00, 0x00, 0x00, 0x0a, 0xff, 0xff, 0xff, 0x04, 0x00,
  0x00, 0x00, 0x40, 0x00, 0x00, 0x00, 0xbe, 0x5c, 0x00, 0x00, 0x00, 0x00, 0x00,
  0x00, 0xb6, 0x69, 0xff, 0xff, 0xff, 0xff, 0xff, 0xff, 0xd7, 0x45, 0x00, 0x00,
  0x00, 0x00, 0x00, 0x00, 0x7f, 0xe3, 0xff, 0xff, 0xff, 0xff, 0xff, 0xff, 0x14,
  0xc3, 0xff, 0xff, 0xff, 0xff, 0xff, 0xff, 0xe0, 0x27, 0x00, 0x00, 0x00, 0x00,
  0x00, 0x00, 0xef, 0x85, 0x00, 0x00, 0x00, 0x00, 0x00, 0x00, 0x13, 0x42, 0x00,
  0x00, 0x00, 0x00, 0x00, 0x00, 0x56, 0xff, 0xff, 0xff, 0x04, 0x00, 0x00, 0x00,
  0x40, 0x00, 0x00, 0x00, 0xc5, 0x20, 0xff, 0xff, 0xff, 0xff, 0xff, 0xff, 0x02,
  0x4b, 0x00, 0x00, 0x00, 0x00, 0x00, 0x00, 0xd0, 0x89, 0xfd, 0xff, 0xff, 0xff,
  0xff, 0xff, 0xfd, 0x24, 0xfe, 0xff, 0xff, 0xff, 0xff, 0xff, 0x7c, 0x77, 0xfd,
  0xff, 0xff, 0xff, 0xff, 0xff, 0xbb, 0xf1, 0x00, 0x00, 0x00, 0x00, 0x00, 0x00,
  0xfe, 0x6f, 0xff, 0xff, 0xff, 0xff, 0xff, 0xff, 0xc2, 0x41, 0x01, 0x00, 0x00,
  0x00, 0x00, 0x00, 0xa2, 0xff, 0xff, 0xff, 0x04, 0x00, 0x00, 0x00, 0x50, 0x00,
  0x00, 0x00, 0x8d, 0xd7, 0xfe, 0xff, 0xff, 0xff, 0xff, 0xff, 0xd1, 0xfc, 0x00,
  0x00, 0x00, 0x00, 0x00, 0x00, 0x5f, 0xac, 0xff, 0xff, 0xff, 0xff, 0xff, 0xff,
  0x94, 0x1d, 0x00, 0x00, 0x00, 0x00, 0x00, 0x00, 0xb6, 0x13, 0xff, 0xff, 0xff,
  0xff, 0xff, 0xff, 0x69, 0x13, 0xfd, 0xff, 0xff, 0xff, 0xff, 0xff, 0x3d, 0x89,
  0x00, 0x00, 0x00, 0x00, 0x00, 0x00, 0x2e, 0xbd, 0x00, 0x00, 0x00, 0x00, 0x00,
  0x00, 0xcd, 0x11, 0xff, 0xff, 0xff, 0xff, 0xff, 0xff, 0x6b, 0x48, 0x00, 0x00,
  0x00, 0x00, 0x00, 0x00, 0x00, 0x00, 0x06, 0x00, 0x08, 0x00, 0x04, 0x00, 0x06,
  0x00, 0x00, 0x00, 0x04, 0x00, 0x00, 0x00, 0x60, 0x00, 0x00, 0x00, 0x27, 0x2a,
  0x01, 0x00, 0x00, 0x00, 0x00, 0x00, 0xea, 0x3d, 0x00, 0x00, 0x00, 0x00, 0x00,
  0x00, 0xf5, 0x17, 0x02, 0x00, 0x00, 0x00, 0x00, 0x00, 0x3e, 0xfb, 0xff, 0xff,
  0xff, 0xff, 0xff, 0xff, 0xa6, 0xe7, 0xfa, 0xff, 0xff, 0xff, 0xff, 0xff, 0xf2,
  0xea, 0x00, 0x00, 0x00, 0x00, 0x00, 0x00, 0x10, 0xa2, 0x01, 0x00, 0x00, 0x00,
  0x00, 0x00, 0xbc, 0xd0, 0x03, 0x00, 0x00, 0x00, 0x00, 0x00, 0x72, 0xc0, 0xff,
  0xff, 0xff, 0xff, 0xff, 0xff, 0x4a, 0x41, 0xff, 0xff, 0xff, 0xff, 0xff, 0xff,
  0x56, 0x6c, 0x03, 0x00, 0x00, 0x00, 0x00, 0x00, 0xb2, 0xe1, 0x01, 0x00, 0x00,
  0x00, 0x00, 0x00, 0x6c, 0xda, 0xff, 0xff, 0x70, 0xda, 0xff, 0xff, 0x0f, 0x00,
  0x00, 0x00, 0x4d, 0x4c, 0x49, 0x52, 0x20, 0x43, 0x6f, 0x6e, 0x76, 0x65, 0x72,
  0x74, 0x65, 0x64, 0x2e, 0x00, 0x01, 0x00, 0x00, 0x00, 0x14, 0x00, 0x00, 0x00,
  0x00, 0x00, 0x0e, 0x00, 0x18, 0x00, 0x14, 0x00, 0x10, 0x00, 0x0c, 0x00, 0x08,
  0x00, 0x04, 0x00, 0x0e, 0x00, 0x00, 0x00, 0x14, 0x00, 0x00, 0x00, 0x1c, 0x00,
  0x00, 0x00, 0x5c, 0x0c, 0x00, 0x00, 0x60, 0x0c, 0x00, 0x00, 0x64, 0x0c, 0x00,
  0x00, 0x04, 0x00, 0x00, 0x00, 0x6d, 0x61, 0x69, 0x6e, 0x00, 0x00, 0x00, 0x00,
  0x2f, 0x00, 0x00, 0x00, 0x20, 0x0c, 0x00, 0x00, 0xe4, 0x0b, 0x00, 0x00, 0x84,
  0x0b, 0x00, 0x00, 0x30, 0x0b, 0x00, 0x00, 0xe4, 0x0a, 0x00, 0x00, 0xa0, 0x0a,
  0x00, 0x00, 0x5c, 0x0a, 0x00, 0x00, 0x0c, 0x0a, 0x00, 0x00, 0xc8, 0x09, 0x00,
  0x00, 0x84, 0x09, 0x00, 0x00, 0x44, 0x09, 0x00, 0x00, 0x00, 0x09, 0x00, 0x00,
  0xbc, 0x08, 0x00, 0x00, 0x7c, 0x08, 0x00, 0x00, 0x3c, 0x08, 0x00, 0x00, 0xf8,
  0x07, 0x00, 0x00, 0xb4, 0x07, 0x00, 0x00, 0x70, 0x07, 0x00, 0x00, 0x2c, 0x07,
  0x00, 0x00, 0xe8, 0x06, 0x00, 0x00, 0xa8, 0x06, 0x00, 0x00, 0x64, 0x06, 0x00,
  0x00, 0x20, 0x06, 0x00, 0x00, 0xe0, 0x05, 0x00, 0x00, 0xa8, 0x05, 0x00, 0x00,
  0x64, 0x05, 0x00, 0x00, 0x20, 0x05, 0x00, 0x00, 0xdc, 0x04, 0x00, 0x00, 0x98,
  0x04, 0x00, 0x00, 0x54, 0x04, 0x00, 0x00, 0x14, 0x04, 0x00, 0x00, 0xd0, 0x03,
  0x00, 0x00, 0x8c, 0x03, 0x00, 0x00, 0x4c, 0x03, 0x00, 0x00, 0x14, 0x03, 0x00,
  0x00, 0xd0, 0x02, 0x00, 0x00, 0x8c, 0x02, 0x00, 0x00, 0x48, 0x02, 0x00, 0x00,
  0x04, 0x02, 0x00, 0x00, 0xc0, 0x01, 0x00, 0x00, 0x80, 0x01, 0x00, 0x00, 0x48,
  0x01, 0x00, 0x00, 0x14, 0x01, 0x00, 0x00, 0xc0, 0x00, 0x00, 0x00, 0x78, 0x00,
  0x00, 0x00, 0x28, 0x00, 0x00, 0x00, 0x04, 0x00, 0x00, 0x00, 0xa6, 0xf4, 0xff,
  0xff, 0x0c, 0x00, 0x00, 0x00, 0x10, 0x00, 0x00, 0x00, 0x06, 0x00, 0x00, 0x00,
  0x01, 0x00, 0x00, 0x00, 0x67, 0x00, 0x00, 0x00, 0x01, 0x00, 0x00, 0x00, 0x65,
  0x00, 0x00, 0x00, 0x5e, 0xf5, 0xff, 0xff, 0x20, 0x00, 0x00, 0x00, 0x00, 0x00,
  0x00, 0x01, 0x28, 0x00, 0x00, 0x00, 0x2c, 0x00, 0x00, 0x00, 0x02, 0x00, 0x00,
  0x00, 0x00, 0x00, 0x0a, 0x00, 0x10, 0x00, 0x0f, 0x00, 0x08, 0x00, 0x04, 0x00,
  0x0a, 0x00, 0x00, 0x00, 0x01, 0x00, 0x00, 0x00, 0x01, 0x00, 0x00, 0x00, 0x00,
  0x00, 0x00, 0x01, 0x01, 0x00, 0x00, 0x00, 0x65, 0x00, 0x00, 0x00, 0x03, 0x00,
  0x00, 0x00, 0x64, 0x00, 0x00, 0x00, 0x36, 0x00, 0x00, 0x00, 0x0a, 0x00, 0x00,
  0x00, 0xaa, 0xf5, 0xff, 0xff, 0x14, 0x00, 0x00, 0x00, 0x00, 0x00, 0x00, 0x02,
  0x20, 0x00, 0x00, 0x00, 0x24, 0x00, 0x00, 0x00, 0x01, 0x00, 0x00, 0x00, 0xbc,
  0xff, 0xff, 0xff, 0x01, 0x00, 0x00, 0x00, 0x01, 0x00, 0x00, 0x00, 0x01, 0x00,
  0x00, 0x00, 0x00, 0x00, 0x00, 0x01, 0x01, 0x00, 0x00, 0x00, 0x64, 0x00, 0x00,
  0x00, 0x03, 0x00, 0x00, 0x00, 0x63, 0x00, 0x00, 0x00, 0x35, 0x00, 0x00, 0x00,
  0x26, 0x00, 0x00, 0x00, 0xee, 0xf5, 0xff, 0xff, 0x20, 0x00, 0x00, 0x00, 0x00,
  0x00, 0x00, 0x02, 0x2c, 0x00, 0x00, 0x00, 0x30, 0x00, 0x00, 0x00, 0x01, 0x00,
  0x00, 0x00, 0x0c, 0x00, 0x14, 0x00, 0x13, 0x00, 0x0c, 0x00, 0x08, 0x00, 0x04,
  0x00, 0x0c, 0x00, 0x00, 0x00, 0x01, 0x00, 0x00, 0x00, 0x01, 0x00, 0x00, 0x00,
  0x01, 0x00, 0x00, 0x00, 0x00, 0x00, 0x00, 0x01, 0x01, 0x00, 0x00, 0x00, 0x63,
  0x00, 0x00, 0x00, 0x03, 0x00, 0x00, 0x00, 0x62, 0x00, 0x00, 0x00, 0x34, 0x00,
  0x00, 0x00, 0x26, 0x00, 0x00, 0x00, 0x3e, 0xf6, 0xff, 0xff, 0x14, 0x00, 0x00,
  0x00, 0x00, 0x00, 0x00, 0x0f, 0x10, 0x00, 0x00, 0x00, 0x14, 0x00, 0x00, 0x00,
  0x04, 0x00, 0x00, 0x00, 0x9c, 0xdc, 0xff, 0xff, 0x01, 0x00, 0x00, 0x00, 0x62,
  0x00, 0x00, 0x00, 0x02, 0x00, 0x00, 0x00, 0x61, 0x00, 0x00, 0x00, 0x37, 0x00,
  0x00, 0x00, 0x6e, 0xf6, 0xff, 0xff, 0x14, 0x00, 0x00, 0x00, 0x00, 0x00, 0x00,
  0x0b, 0x14, 0x00, 0x00, 0x00, 0x18, 0x00, 0x00, 0x00, 0x03, 0x00, 0x00, 0x00,
  0x78, 0xf9, 0xff, 0xff, 0x00, 0x00, 0x00, 0x00, 0x01, 0x00, 0x00, 0x00, 0x61,
  0x00, 0x00, 0x00, 0x02, 0x00, 0x00, 0x00, 0x5a, 0x00, 0x00, 0x00, 0x60, 0x00,
  0x00, 0x00, 0xa2, 0xf6, 0xff, 0xff, 0x14, 0x00, 0x00, 0x00, 0x00, 0x00, 0x00,
  0x01, 0x18, 0x00, 0x00, 0x00, 0x1c, 0x00, 0x00, 0x00, 0x02, 0x00, 0x00, 0x00,
  0x2a, 0xf7, 0xff, 0xff, 0x01, 0x00, 0x00, 0x00, 0x01, 0x00, 0x00, 0x00, 0x01,
  0x00, 0x00, 0x00, 0x60, 0x00, 0x00, 0x00, 0x03, 0x00, 0x00, 0x00, 0x5f, 0x00,
  0x00, 0x00, 0x33, 0x00, 0x00, 0x00, 0x09, 0x00, 0x00, 0x00, 0xde, 0xf6, 0xff,
  0xff, 0x14, 0x00, 0x00, 0x00, 0x00, 0x00, 0x00, 0x02, 0x1c, 0x00, 0x00, 0x00,
  0x20, 0x00, 0x00, 0x00, 0x01, 0x00, 0x00, 0x00, 0xd0, 0xf6, 0xff, 0xff, 0x01,
  0x00, 0x00, 0x00, 0x01, 0x00, 0x00, 0x00, 0x01, 0x00, 0x00, 0x00, 0x01, 0x00,
  0x00, 0x00, 0x5f, 0x00, 0x00, 0x00, 0x03, 0x00, 0x00, 0x00, 0x5e, 0x00, 0x00,
  0x00, 0x32, 0x00, 0x00, 0x00, 0x26, 0x00, 0x00, 0x00, 0x1e, 0xf7, 0xff, 0xff,
  0x14, 0x00, 0x00, 0x00, 0x00, 0x00, 0x00, 0x02, 0x1c, 0x00, 0x00, 0x00, 0x20,
  0x00, 0x00, 0x00, 0x01, 0x00, 0x00, 0x00, 0x10, 0xf7, 0xff, 0xff, 0x01, 0x00,
  0x00, 0x00, 0x01, 0x00, 0x00, 0x00, 0x01, 0x00, 0x00, 0x00, 0x01, 0x00, 0x00,
  0x00, 0x5e, 0x00, 0x00, 0x00, 0x03, 0x00, 0x00, 0x00, 0x5d, 0x00, 0x00, 0x00,
  0x31, 0x00, 0x00, 0x00, 0x26, 0x00, 0x00, 0x00, 0x5e, 0xf7, 0xff, 0xff, 0x14,
  0x00, 0x00, 0x00, 0x00, 0x00, 0x00, 0x01, 0x1c, 0x00, 0x00, 0x00, 0x20, 0x00,
  0x00, 0x00, 0x02, 0x00, 0x00, 0x00, 0xb4, 0xf8, 0xff, 0xff, 0x00, 0x00, 0x00,
  0x01, 0x01, 0x00, 0x00, 0x00, 0x01, 0x00, 0x00, 0x00, 0x01, 0x00, 0x00, 0x00,
  0x5d, 0x00, 0x00, 0x00, 0x03, 0x00, 0x00, 0x00, 0x5c, 0x00, 0x00, 0x00, 0x30,
  0x00, 0x00, 0x00, 0x04, 0x00, 0x00, 0x00, 0x9e, 0xf7, 0xff, 0xff, 0x14, 0x00,
  0x00, 0x00, 0x00, 0x00, 0x00, 0x02, 0x1c, 0x00, 0x00, 0x00, 0x20, 0x00, 0x00,
  0x00, 0x01, 0x00, 0x00, 0x00, 0x90, 0xf7, 0xff, 0xff, 0x01, 0x00, 0x00, 0x00,
  0x01, 0x00, 0x00, 0x00, 0x01, 0x00, 0x00, 0x00, 0x01, 0x00, 0x00, 0x00, 0x5c,
  0x00, 0x00, 0x00, 0x03, 0x00, 0x00, 0x00, 0x5b, 0x00, 0x00, 0x00, 0x2f, 0x00,
  0x00, 0x00, 0x26, 0x00, 0x00, 0x00, 0xde, 0xf7, 0xff, 0xff, 0x14, 0x00, 0x00,
  0x00, 0x00, 0x00, 0x00, 0x02, 0x1c, 0x00, 0x00, 0x00, 0x20, 0x00, 0x00, 0x00,
  0x01, 0x00, 0x00, 0x00, 0xd0, 0xf7, 0xff, 0xff, 0x01, 0x00, 0x00, 0x00, 0x01,
  0x00, 0x00, 0x00, 0x01, 0x00, 0x00, 0x00, 0x01, 0x00, 0x00, 0x00, 0x5b, 0x00,
  0x00, 0x00, 0x03, 0x00, 0x00, 0x00, 0x5a, 0x00, 0x00, 0x00, 0x2e, 0x00, 0x00,
  0x00, 0x26, 0x00, 0x00, 0x00, 0x1e, 0xf8, 0xff, 0xff, 0x14, 0x00, 0x00, 0x00,
  0x00, 0x00, 0x00, 0x0b, 0x14, 0x00, 0x00, 0x00, 0x18, 0x00, 0x00, 0x00, 0x03,
  0x00, 0x00, 0x00, 0x28, 0xfb, 0xff, 0xff, 0x00, 0x00, 0x00, 0x00, 0x01, 0x00,
  0x00, 0x00, 0x5a, 0x00, 0x00, 0x00, 0x02, 0x00, 0x00, 0x00, 0x59, 0x00, 0x00,
  0x00, 0x56, 0x00, 0x00, 0x00, 0x52, 0xf8, 0xff, 0xff, 0x14, 0x00, 0x00, 0x00,
  0x00, 0x00, 0x00, 0x01, 0x18, 0x00, 0x00, 0x00, 0x1c, 0x00, 0x00, 0x00, 0x02,
  0x00, 0x00, 0x00, 0xda, 0xf8, 0xff, 0xff, 0x01, 0x00, 0x00, 0x00, 0x01, 0x00,
  0x00, 0x00, 0x01, 0x00, 0x00, 0x00, 0x59, 0x00, 0x00, 0x00, 0x03, 0x00, 0x00,
  0x00, 0x58, 0x00, 0x00, 0x00, 0x2d, 0x00, 0x00, 0x00, 0x08, 0x00, 0x00, 0x00,
  0x8e, 0xf8, 0xff, 0xff, 0x14, 0x00, 0x00, 0x00, 0x00, 0x00, 0x00, 0x02, 0x1c,
  0x00, 0x00, 0x00, 0x20, 0x00, 0x00, 0x00, 0x01, 0x00, 0x00, 0x00, 0x80, 0xf8,
  0xff, 0xff, 0x01, 0x00, 0x00, 0x00, 0x01, 0x00, 0x00, 0x00, 0x01, 0x00, 0x00,
  0x00, 0x01, 0x00, 0x00, 0x00, 0x58, 0x00, 0x00, 0x00, 0x03, 0x00, 0x00, 0x00,
  0x57, 0x00, 0x00, 0x00, 0x2c, 0x00, 0x00, 0x00, 0x1c, 0x00, 0x00, 0x00, 0xce,
  0xf8, 0xff, 0xff, 0x14, 0x00, 0x00, 0x00, 0x00, 0x00, 0x00, 0x02, 0x1c, 0x00,
  0x00, 0x00, 0x20, 0x00, 0x00, 0x00, 0x01, 0x00, 0x00, 0x00, 0xc0, 0xf8, 0xff,
  0xff, 0x01, 0x00, 0x00, 0x00, 0x01, 0x00, 0x00, 0x00, 0x01, 0x00, 0x00, 0x00,
  0x01, 0x00, 0x00, 0x00, 0x57, 0x00, 0x00, 0x00, 0x03, 0x00, 0x00, 0x00, 0x50,
  0x00, 0x00, 0x00, 0x2b, 0x00, 0x00, 0x00, 0x1c, 0x00, 0x00, 0x00, 0x0e, 0xf9,
  0xff, 0xff, 0x14, 0x00, 0x00, 0x00, 0x00, 0x00, 0x00, 0x01, 0x18, 0x00, 0x00,
  0x00, 0x1c, 0x00, 0x00, 0x00, 0x02, 0x00, 0x00, 0x00, 0x96, 0xf9, 0xff, 0xff,
  0x01, 0x00, 0x00, 0x00, 0x01, 0x00, 0x00, 0x00, 0x01, 0x00, 0x00, 0x00, 0x56,
  0x00, 0x00, 0x00, 0x03, 0x00, 0x00, 0x00, 0x55, 0x00, 0x00, 0x00, 0x2a, 0x00,
  0x00, 0x00, 0x08, 0x00, 0x00, 0x00, 0x4a, 0xf9, 0xff, 0xff, 0x14, 0x00, 0x00,
  0x00, 0x00, 0x00, 0x00, 0x02, 0x1c, 0x00, 0x00, 0x00, 0x20, 0x00, 0x00, 0x00,
  0x01, 0x00, 0x00, 0x00, 0x3c, 0xf9, 0xff, 0xff, 0x01, 0x00, 0x00, 0x00, 0x01,
  0x00, 0x00, 0x00, 0x01, 0x00, 0x00, 0x00, 0x01, 0x00, 0x00, 0x00, 0x55, 0x00,
  0x00, 0x00, 0x03, 0x00, 0x00, 0x00, 0x54, 0x00, 0x00, 0x00, 0x29, 0x00, 0x00,
  0x00, 0x26, 0x00, 0x00, 0x00, 0x8a, 0xf9, 0xff, 0xff, 0x14, 0x00, 0x00, 0x00,
  0x00, 0x00, 0x00, 0x02, 0x1c, 0x00, 0x00, 0x00, 0x20, 0x00, 0x00, 0x00, 0x01,
  0x00, 0x00, 0x00, 0x7c, 0xf9, 0xff, 0xff, 0x01, 0x00, 0x00, 0x00, 0x01, 0x00,
  0x00, 0x00, 0x01, 0x00, 0x00, 0x00, 0x01, 0x00, 0x00, 0x00, 0x54, 0x00, 0x00,
  0x00, 0x03, 0x00, 0x00, 0x00, 0x53, 0x00, 0x00, 0x00, 0x28, 0x00, 0x00, 0x00,
  0x26, 0x00, 0x00, 0x00, 0xca, 0xf9, 0xff, 0xff, 0x14, 0x00, 0x00, 0x00, 0x00,
  0x00, 0x00, 0x01, 0x1c, 0x00, 0x00, 0x00, 0x20, 0x00, 0x00, 0x00, 0x02, 0x00,
  0x00, 0x00, 0x20, 0xfb, 0xff, 0xff, 0x00, 0x00, 0x00, 0x01, 0x01, 0x00, 0x00,
  0x00, 0x01, 0x00, 0x00, 0x00, 0x01, 0x00, 0x00, 0x00, 0x53, 0x00, 0x00, 0x00,
  0x03, 0x00, 0x00, 0x00, 0x52, 0x00, 0x00, 0x00, 0x27, 0x00, 0x00, 0x00, 0x03,
  0x00, 0x00, 0x00, 0x0a, 0xfa, 0xff, 0xff, 0x14, 0x00, 0x00, 0x00, 0x00, 0x00,
  0x00, 0x02, 0x1c, 0x00, 0x00, 0x00, 0x20, 0x00, 0x00, 0x00, 0x01, 0x00, 0x00,
  0x00, 0xfc, 0xf9, 0xff, 0xff, 0x01, 0x00, 0x00, 0x00, 0x01, 0x00, 0x00, 0x00,
  0x01, 0x00, 0x00, 0x00, 0x01, 0x00, 0x00, 0x00, 0x52, 0x00, 0x00, 0x00, 0x03,
  0x00, 0x00, 0x00, 0x51, 0x00, 0x00, 0x00, 0x25, 0x00, 0x00, 0x00, 0x1c, 0x00,
  0x00, 0x00, 0x4a, 0xfa, 0xff, 0xff, 0x14, 0x00, 0x00, 0x00, 0x00, 0x00, 0x00,
  0x02, 0x1c, 0x00, 0x00, 0x00, 0x20, 0x00, 0x00, 0x00, 0x01, 0x00, 0x00, 0x00,
  0x3c, 0xfa, 0xff, 0xff, 0x01, 0x00, 0x00, 0x00, 0x01, 0x00, 0x00, 0x00, 0x01,
  0x00, 0x00, 0x00, 0x01, 0x00, 0x00, 0x00, 0x51, 0x00, 0x00, 0x00, 0x03, 0x00,
  0x00, 0x00, 0x50, 0x00, 0x00, 0x00, 0x24, 0x00, 0x00, 0x00, 0x1c, 0x00, 0x00,
  0x00, 0x8a, 0xfa, 0xff, 0xff, 0x14, 0x00, 0x00, 0x00, 0x00, 0x00, 0x00, 0x0b,
  0x14, 0x00, 0x00, 0x00, 0x18, 0x00, 0x00, 0x00, 0x03, 0x00, 0x00, 0x00, 0x94,
  0xfd, 0xff, 0xff, 0x00, 0x00, 0x00, 0x00, 0x01, 0x00, 0x00, 0x00, 0x50, 0x00,
  0x00, 0x00, 0x02, 0x00, 0x00, 0x00, 0x4f, 0x00, 0x00, 0x00, 0x4c, 0x00, 0x00,
  0x00, 0xbe, 0xfa, 0xff, 0xff, 0x14, 0x00, 0x00, 0x00, 0x00, 0x00, 0x00, 0x01,
  0x18, 0x00, 0x00, 0x00, 0x1c, 0x00, 0x00, 0x00, 0x02, 0x00, 0x00, 0x00, 0x46,
  0xfb, 0xff, 0xff, 0x01, 0x00, 0x00, 0x00, 0x01, 0x00, 0x00, 0x00, 0x01, 0x00,
  0x00, 0x00, 0x4f, 0x00, 0x00, 0x00, 0x03, 0x00, 0x00, 0x00, 0x4e, 0x00, 0x00,
  0x00, 0x23, 0x00, 0x00, 0x00, 0x07, 0x00, 0x00, 0x00, 0xfa, 0xfa, 0xff, 0xff,
  0x14, 0x00, 0x00, 0x00, 0x00, 0x00, 0x00, 0x02, 0x1c, 0x00, 0x00, 0x00, 0x20,
  0x00, 0x00, 0x00, 0x01, 0x00, 0x00, 0x00, 0xec, 0xfa, 0xff, 0xff, 0x01, 0x00,
  0x00, 0x00, 0x01, 0x00, 0x00, 0x00, 0x01, 0x00, 0x00, 0x00, 0x01, 0x00, 0x00,
  0x00, 0x4e, 0x00, 0x00, 0x00, 0x03, 0x00, 0x00, 0x00, 0x4d, 0x00, 0x00, 0x00,
  0x22, 0x00, 0x00, 0x00, 0x12, 0x00, 0x00, 0x00, 0x3a, 0xfb, 0xff, 0xff, 0x14,
  0x00, 0x00, 0x00, 0x00, 0x00, 0x00, 0x02, 0x1c, 0x00, 0x00, 0x00, 0x20, 0x00,
  0x00, 0x00, 0x01, 0x00, 0x00, 0x00, 0x2c, 0xfb, 0xff, 0xff, 0x01, 0x00, 0x00,
  0x00, 0x01, 0x00, 0x00, 0x00, 0x01, 0x00, 0x00, 0x00, 0x01, 0x00, 0x00, 0x00,
  0x4d, 0x00, 0x00, 0x00, 0x03, 0x00, 0x00, 0x00, 0x46, 0x00, 0x00, 0x00, 0x21,
  0x00, 0x00, 0x00, 0x12, 0x00, 0x00, 0x00, 0x7a, 0xfb, 0xff, 0xff, 0x14, 0x00,
  0x00, 0x00, 0x00, 0x00, 0x00, 0x01, 0x18, 0x00, 0x00, 0x00, 0x1c, 0x00, 0x00,
  0x00, 0x02, 0x00, 0x00, 0x00, 0x02, 0xfc, 0xff, 0xff, 0x01, 0x00, 0x00, 0x00,
  0x01, 0x00, 0x00, 0x00, 0x01, 0x00, 0x00, 0x00, 0x4c, 0x00, 0x00, 0x00, 0x03,
  0x00, 0x00, 0x00, 0x4b, 0x00, 0x00, 0x00, 0x20, 0x00, 0x00, 0x00, 0x07, 0x00,
  0x00, 0x00, 0xb6, 0xfb, 0xff, 0xff, 0x14, 0x00, 0x00, 0x00, 0x00, 0x00, 0x00,
  0x02, 0x1c, 0x00, 0x00, 0x00, 0x20, 0x00, 0x00, 0x00, 0x01, 0x00, 0x00, 0x00,
  0xa8, 0xfb, 0xff, 0xff, 0x01, 0x00, 0x00, 0x00, 0x01, 0x00, 0x00, 0x00, 0x01,
  0x00, 0x00, 0x00, 0x01, 0x00, 0x00, 0x00, 0x4b, 0x00, 0x00, 0x00, 0x03, 0x00,
  0x00, 0x00, 0x4a, 0x00, 0x00, 0x00, 0x1f, 0x00, 0x00, 0x00, 0x1c, 0x00, 0x00,
  0x00, 0xf6, 0xfb, 0xff, 0xff, 0x14, 0x00, 0x00, 0x00, 0x00, 0x00, 0x00, 0x02,
  0x1c, 0x00, 0x00, 0x00, 0x20, 0x00, 0x00, 0x00, 0x01, 0x00, 0x00, 0x00, 0xe8,
  0xfb, 0xff, 0xff, 0x01, 0x00, 0x00, 0x00, 0x01, 0x00, 0x00, 0x00, 0x01, 0x00,
  0x00, 0x00, 0x01, 0x00, 0x00, 0x00, 0x4a, 0x00, 0x00, 0x00, 0x03, 0x00, 0x00,
  0x00, 0x49, 0x00, 0x00, 0x00, 0x1e, 0x00, 0x00, 0x00, 0x1c, 0x00, 0x00, 0x00,
  0x36, 0xfc, 0xff, 0xff, 0x14, 0x00, 0x00, 0x00, 0x00, 0x00, 0x00, 0x01, 0x1c,
  0x00, 0x00, 0x00, 0x20, 0x00, 0x00, 0x00, 0x02, 0x00, 0x00, 0x00, 0x8c, 0xfd,
  0xff, 0xff, 0x00, 0x00, 0x00, 0x01, 0x01, 0x00, 0x00, 0x00, 0x01, 0x00, 0x00,
  0x00, 0x01, 0x00, 0x00, 0x00, 0x49, 0x00, 0x00, 0x00, 0x03, 0x00, 0x00, 0x00,
  0x48, 0x00, 0x00, 0x00, 0x1d, 0x00, 0x00, 0x00, 0x02, 0x00, 0x00, 0x00, 0x76,
  0xfc, 0xff, 0xff, 0x14, 0x00, 0x00, 0x00, 0x00, 0x00, 0x00, 0x02, 0x1c, 0x00,
  0x00, 0x00, 0x20, 0x00, 0x00, 0x00, 0x01, 0x00, 0x00, 0x00, 0x68, 0xfc, 0xff,
  0xff, 0x01, 0x00, 0x00, 0x00, 0x01, 0x00, 0x00, 0x00, 0x01, 0x00, 0x00, 0x00,
  0x01, 0x00, 0x00, 0x00, 0x48, 0x00, 0x00, 0x00, 0x03, 0x00, 0x00, 0x00, 0x47,
  0x00, 0x00, 0x00, 0x1b, 0x00, 0x00, 0x00, 0x12, 0x00, 0x00, 0x00, 0xb6, 0xfc,
  0xff, 0xff, 0x14, 0x00, 0x00, 0x00, 0x00, 0x00, 0x00, 0x02, 0x1c, 0x00, 0x00,
  0x00, 0x20, 0x00, 0x00, 0x00, 0x01, 0x00, 0x00, 0x00, 0xa8, 0xfc, 0xff, 0xff,
  0x01, 0x00, 0x00, 0x00, 0x01, 0x00, 0x00, 0x00, 0x01, 0x00, 0x00, 0x00, 0x01,
  0x00, 0x00, 0x00, 0x47, 0x00, 0x00, 0x00, 0x03, 0x00, 0x00, 0x00, 0x46, 0x00,
  0x00, 0x00, 0x1a, 0x00, 0x00, 0x00, 0x12, 0x00, 0x00, 0x00, 0xf6, 0xfc, 0xff,
  0xff, 0x1c, 0x00, 0x00, 0x00, 0x00, 0x00, 0x00, 0x0b, 0x1c, 0x00, 0x00, 0x00,
  0x20, 0x00, 0x00, 0x00, 0x03, 0x00, 0x00, 0x00, 0x08, 0x00, 0x08, 0x00, 0x00,
  0x00, 0x07, 0x00, 0x08, 0x00, 0x00, 0x00, 0x00, 0x00, 0x00, 0x00, 0x01, 0x00,
  0x00, 0x00, 0x46, 0x00, 0x00, 0x00, 0x02, 0x00, 0x00, 0x00, 0x45, 0x00, 0x00,
  0x00, 0x42, 0x00, 0x00, 0x00, 0x32, 0xfd, 0xff, 0xff, 0x14, 0x00, 0x00, 0x00,
  0x00, 0x00, 0x00, 0x01, 0x18, 0x00, 0x00, 0x00, 0x1c, 0x00, 0x00, 0x00, 0x02,
  0x00, 0x00, 0x00, 0xba, 0xfd, 0xff, 0xff, 0x01, 0x00, 0x00, 0x00, 0x01, 0x00,
  0x00, 0x00, 0x01, 0x00, 0x00, 0x00, 0x45, 0x00, 0x00, 0x00, 0x03, 0x00, 0x00,
  0x00, 0x44, 0x00, 0x00, 0x00, 0x19, 0x00, 0x00, 0x00, 0x06, 0x00, 0x00, 0x00,
  0x6e, 0xfd, 0xff, 0xff, 0x14, 0x00, 0x00, 0x00, 0x00, 0x00, 0x00, 0x02, 0x1c,
  0x00, 0x00, 0x00, 0x20, 0x00, 0x00, 0x00, 0x01, 0x00, 0x00, 0x00, 0x60, 0xfd,
  0xff, 0xff, 0x01, 0x00, 0x00, 0x00, 0x01, 0x00, 0x00, 0x00, 0x01, 0x00, 0x00,
  0x00, 0x01, 0x00, 0x00, 0x00, 0x44, 0x00, 0x00, 0x00, 0x03, 0x00, 0x00, 0x00,
  0x43, 0x00, 0x00, 0x00, 0x18, 0x00, 0x00, 0x00, 0x0e, 0x00, 0x00, 0x00, 0xae,
  0xfd, 0xff, 0xff, 0x14, 0x00, 0x00, 0x00, 0x00, 0x00, 0x00, 0x02, 0x1c, 0x00,
  0x00, 0x00, 0x20, 0x00, 0x00, 0x00, 0x01, 0x00, 0x00, 0x00, 0xa0, 0xfd, 0xff,
  0xff, 0x01, 0x00, 0x00, 0x00, 0x01, 0x00, 0x00, 0x00, 0x01, 0x00, 0x00, 0x00,
  0x01, 0x00, 0x00, 0x00, 0x43, 0x00, 0x00, 0x00, 0x03, 0x00, 0x00, 0x00, 0x3c,
  0x00, 0x00, 0x00, 0x17, 0x00, 0x00, 0x00, 0x0e, 0x00, 0x00, 0x00, 0xee, 0xfd,
  0xff, 0xff, 0x14, 0x00, 0x00, 0x00, 0x00, 0x00, 0x00, 0x01, 0x18, 0x00, 0x00,
  0x00, 0x1c, 0x00, 0x00, 0x00, 0x02, 0x00, 0x00, 0x00, 0x76, 0xfe, 0xff, 0xff,
  0x01, 0x00, 0x00, 0x00, 0x01, 0x00, 0x00, 0x00, 0x01, 0x00, 0x00, 0x00, 0x42,
  0x00, 0x00, 0x00, 0x03, 0x00, 0x00, 0x00, 0x41, 0x00, 0x00, 0x00, 0x16, 0x00,
  0x00, 0x00, 0x06, 0x00, 0x00, 0x00, 0x2a, 0xfe, 0xff, 0xff, 0x14, 0x00, 0x00,
  0x00, 0x00, 0x00, 0x00, 0x02, 0x1c, 0x00, 0x00, 0x00, 0x20, 0x00, 0x00, 0x00,
  0x01, 0x00, 0x00, 0x00, 0x1c, 0xfe, 0xff, 0xff, 0x01, 0x00, 0x00, 0x00, 0x01,
  0x00, 0x00, 0x00, 0x01, 0x00, 0x00, 0x00, 0x01, 0x00, 0x00, 0x00, 0x41, 0x00,
  0x00, 0x00, 0x03, 0x00, 0x00, 0x00, 0x40, 0x00, 0x00, 0x00, 0x15, 0x00, 0x00,
  0x00, 0x12, 0x00, 0x00, 0x00, 0x6a, 0xfe, 0xff, 0xff, 0x14, 0x00, 0x00, 0x00,
  0x00, 0x00, 0x00, 0x02, 0x1c, 0x00, 0x00, 0x00, 0x20, 0x00, 0x00, 0x00, 0x01,
  0x00, 0x00, 0x00, 0x5c, 0xfe, 0xff, 0xff, 0x01, 0x00, 0x00, 0x00, 0x01, 0x00,
  0x00, 0x00, 0x01, 0x00, 0x00, 0x00, 0x01, 0x00, 0x00, 0x00, 0x40, 0x00, 0x00,
  0x00, 0x03, 0x00, 0x00, 0x00, 0x3f, 0x00, 0x00, 0x00, 0x14, 0x00, 0x00, 0x00,
  0x12, 0x00, 0x00, 0x00, 0xaa, 0xfe, 0xff, 0xff, 0x20, 0x00, 0x00, 0x00, 0x00,
  0x00, 0x00, 0x01, 0x28, 0x00, 0x00, 0x00, 0x2c, 0x00, 0x00, 0x00, 0x02, 0x00,
  0x00, 0x00, 0x0c, 0x00, 0x10, 0x00, 0x00, 0x00, 0x0c, 0x00, 0x08, 0x00, 0x07,
  0x00, 0x0c, 0x00, 0x00, 0x00, 0x00, 0x00, 0x00, 0x01, 0x01, 0x00, 0x00, 0x00,
  0x01, 0x00, 0x00, 0x00, 0x01, 0x00, 0x00, 0x00, 0x3f, 0x00, 0x00, 0x00, 0x03,
  0x00, 0x00, 0x00, 0x3e, 0x00, 0x00, 0x00, 0x13, 0x00, 0x00, 0x00, 0x01, 0x00,
  0x00, 0x00, 0xf6, 0xfe, 0xff, 0xff, 0x14, 0x00, 0x00, 0x00, 0x00, 0x00, 0x00,
  0x02, 0x1c, 0x00, 0x00, 0x00, 0x20, 0x00, 0x00, 0x00, 0x01, 0x00, 0x00, 0x00,
  0xe8, 0xfe, 0xff, 0xff, 0x01, 0x00, 0x00, 0x00, 0x01, 0x00, 0x00, 0x00, 0x01,
  0x00, 0x00, 0x00, 0x01, 0x00, 0x00, 0x00, 0x3e, 0x00, 0x00, 0x00, 0x03, 0x00,
  0x00, 0x00, 0x3d, 0x00, 0x00, 0x00, 0x11, 0x00, 0x00, 0x00, 0x0e, 0x00, 0x00,
  0x00, 0x36, 0xff, 0xff, 0xff, 0x14, 0x00, 0x00, 0x00, 0x00, 0x00, 0x00, 0x02,
  0x1c, 0x00, 0x00, 0x00, 0x20, 0x00, 0x00, 0x00, 0x01, 0x00, 0x00, 0x00, 0x28,
  0xff, 0xff, 0xff, 0x01, 0x00, 0x00, 0x00, 0x01, 0x00, 0x00, 0x00, 0x01, 0x00,
  0x00, 0x00, 0x01, 0x00, 0x00, 0x00, 0x3d, 0x00, 0x00, 0x00, 0x03, 0x00, 0x00,
  0x00, 0x3c, 0x00, 0x00, 0x00, 0x10, 0x00, 0x00, 0x00, 0x0e, 0x00, 0x00, 0x00,
  0x76, 0xff, 0xff, 0xff, 0x20, 0x00, 0x00, 0x00, 0x00, 0x00, 0x00, 0x01, 0x24,
  0x00, 0x00, 0x00, 0x28, 0x00, 0x00, 0x00, 0x02, 0x00, 0x00, 0x00, 0x00, 0x00,
  0x0a, 0x00, 0x0c, 0x00, 0x00, 0x00, 0x08, 0x00, 0x04, 0x00, 0x0a, 0x00, 0x00,
  0x00, 0x01, 0x00, 0x00, 0x00, 0x01, 0x00, 0x00, 0x00, 0x01, 0x00, 0x00, 0x00,
  0x3c, 0x00, 0x00, 0x00, 0x03, 0x00, 0x00, 0x00, 0x3b, 0x00, 0x00, 0x00, 0x0f,
  0x00, 0x00, 0x00, 0x05, 0x00, 0x00, 0x00, 0xbe, 0xff, 0xff, 0xff, 0x14, 0x00,
  0x00, 0x00, 0x00, 0x00, 0x00, 0x02, 0x1c, 0x00, 0x00, 0x00, 0x20, 0x00, 0x00,
  0x00, 0x01, 0x00, 0x00, 0x00, 0xb0, 0xff, 0xff, 0xff, 0x01, 0x00, 0x00, 0x00,
  0x01, 0x00, 0x00, 0x00, 0x02, 0x00, 0x00, 0x00, 0x01, 0x00, 0x00, 0x00, 0x3b,
  0x00, 0x00, 0x00, 0x03, 0x00, 0x00, 0x00, 0x3a, 0x00, 0x00, 0x00, 0x0d, 0x00,
  0x00, 0x00, 0x0b, 0x00, 0x00, 0x00, 0x00, 0x00, 0x0e, 0x00, 0x18, 0x00, 0x14,
  0x00, 0x10, 0x00, 0x0c, 0x00, 0x0b, 0x00, 0x04, 0x00, 0x0e, 0x00, 0x00, 0x00,
  0x20, 0x00, 0x00, 0x00, 0x00, 0x00, 0x00, 0x02, 0x28, 0x00, 0x00, 0x00, 0x2c,
  0x00, 0x00, 0x00, 0x01, 0x00, 0x00, 0x00, 0x0c, 0x00, 0x10, 0x00, 0x00, 0x00,
  0x0c, 0x00, 0x08, 0x00, 0x04, 0x00, 0x0c, 0x00, 0x00, 0x00, 0x01, 0x00, 0x00,
  0x00, 0x02, 0x00, 0x00, 0x00, 0x01, 0x00, 0x00, 0x00, 0x01, 0x00, 0x00, 0x00,
  0x3a, 0x00, 0x00, 0x00, 0x03, 0x00, 0x00, 0x00, 0x39, 0x00, 0x00, 0x00, 0x0c,
  0x00, 0x00, 0x00, 0x0b, 0x00, 0x00, 0x00, 0x00, 0x00, 0x0e, 0x00, 0x14, 0x00,
  0x00, 0x00, 0x10, 0x00, 0x0c, 0x00, 0x0b, 0x00, 0x04, 0x00, 0x0e, 0x00, 0x00,
  0x00, 0x10, 0x00, 0x00, 0x00, 0x00, 0x00, 0x00, 0x16, 0x0c, 0x00, 0x00, 0x00,
  0x10, 0x00, 0x00, 0x00, 0xc4, 0xe6, 0xff, 0xff, 0x01, 0x00, 0x00, 0x00, 0x39,
  0x00, 0x00, 0x00, 0x02, 0x00, 0x00, 0x00, 0x00, 0x00, 0x00, 0x00, 0x38, 0x00,
  0x00, 0x00, 0x00, 0x00, 0x0a, 0x00, 0x10, 0x00, 0x0c, 0x00, 0x08, 0x00, 0x04,
  0x00, 0x0a, 0x00, 0x00, 0x00, 0x0c, 0x00, 0x00, 0x00, 0x10, 0x00, 0x00, 0x00,
  0x05, 0x00, 0x00, 0x00, 0x01, 0x00, 0x00, 0x00, 0x00, 0x00, 0x00, 0x00, 0x01,
  0x00, 0x00, 0x00, 0x66, 0x00, 0x00, 0x00, 0x01, 0x00, 0x00, 0x00, 0x67, 0x00,
  0x00, 0x00, 0x01, 0x00, 0x00, 0x00, 0x66, 0x00, 0x00, 0x00, 0x68, 0x00, 0x00,
  0x00, 0xa0, 0x51, 0x00, 0x00, 0xac, 0x50, 0x00, 0x00, 0xec, 0x4f, 0x00, 0x00,
  0x40, 0x4f, 0x00, 0x00, 0x94, 0x4e, 0x00, 0x00, 0x88, 0x4d, 0x00, 0x00, 0xac,
  0x4c, 0x00, 0x00, 0xe8, 0x4b, 0x00, 0x00, 0x3c, 0x4b, 0x00, 0x00, 0x90, 0x4a,
  0x00, 0x00, 0x3c, 0x4a, 0x00, 0x00, 0xe8, 0x49, 0x00, 0x00, 0x54, 0x49, 0x00,
  0x00, 0xd4, 0x48, 0x00, 0x00, 0xcc, 0x47, 0x00, 0x00, 0x28, 0x46, 0x00, 0x00,
  0x80, 0x44, 0x00, 0x00, 0xd4, 0x42, 0x00, 0x00, 0xf4, 0x41, 0x00, 0x00, 0xa0,
  0x40, 0x00, 0x00, 0x48, 0x3f, 0x00, 0x00, 0xec, 0x3d, 0x00, 0x00, 0x94, 0x3c,
  0x00, 0x00, 0xec, 0x3a, 0x00, 0x00, 0x40, 0x39, 0x00, 0x00, 0xe8, 0x37, 0x00,
  0x00, 0x90, 0x36, 0x00, 0x00, 0x34, 0x35, 0x00, 0x00, 0x6c, 0x34, 0x00, 0x00,
  0x40, 0x33, 0x00, 0x00, 0x08, 0x32, 0x00, 0x00, 0xd4, 0x30, 0x00, 0x00, 0xa4,
  0x2f, 0x00, 0x00, 0x44, 0x2e, 0x00, 0x00, 0xe8, 0x2c, 0x00, 0x00, 0xb8, 0x2b,
  0x00, 0x00, 0x80, 0x2a, 0x00, 0x00, 0x4c, 0x29, 0x00, 0x00, 0x9c, 0x28, 0x00,
  0x00, 0x98, 0x27, 0x00, 0x00, 0x88, 0x26, 0x00, 0x00, 0x7c, 0x25, 0x00, 0x00,
  0x74, 0x24, 0x00, 0x00, 0x3c, 0x23, 0x00, 0x00, 0x08, 0x22, 0x00, 0x00, 0x00,
  0x21, 0x00, 0x00, 0xf0, 0x1f, 0x00, 0x00, 0xe4, 0x1e, 0x00, 0x00, 0xdc, 0x1d,
  0x00, 0x00, 0xcc, 0x1c, 0x00, 0x00, 0xc0, 0x1b, 0x00, 0x00, 0xb8, 0x1a, 0x00,
  0x00, 0xa8, 0x19, 0x00, 0x00, 0x9c, 0x18, 0x00, 0x00, 0x24, 0x18, 0x00, 0x00,
  0xf0, 0x17, 0x00, 0x00, 0xb8, 0x17, 0x00, 0x00, 0x48, 0x17, 0x00, 0x00, 0xcc,
  0x16, 0x00, 0x00, 0x50, 0x16, 0x00, 0x00, 0xbc, 0x15, 0x00, 0x00, 0x40, 0x15,
  0x00, 0x00, 0xc4, 0x14, 0x00, 0x00, 0x28, 0x14, 0x00, 0x00, 0xac, 0x13, 0x00,
  0x00, 0x30, 0x13, 0x00, 0x00, 0x94, 0x12, 0x00, 0x00, 0x18, 0x12, 0x00, 0x00,
  0x9c, 0x11, 0x00, 0x00, 0x00, 0x11, 0x00, 0x00, 0x8c, 0x10, 0x00, 0x00, 0x10,
  0x10, 0x00, 0x00, 0x94, 0x0f, 0x00, 0x00, 0xf0, 0x0e, 0x00, 0x00, 0x74, 0x0e,
  0x00, 0x00, 0xf8, 0x0d, 0x00, 0x00, 0x5c, 0x0d, 0x00, 0x00, 0xe0, 0x0c, 0x00,
  0x00, 0x64, 0x0c, 0x00, 0x00, 0xc8, 0x0b, 0x00, 0x00, 0x54, 0x0b, 0x00, 0x00,
  0xd8, 0x0a, 0x00, 0x00, 0x5c, 0x0a, 0x00, 0x00, 0xb8, 0x09, 0x00, 0x00, 0x3c,
  0x09, 0x00, 0x00, 0xc0, 0x08, 0x00, 0x00, 0x24, 0x08, 0x00, 0x00, 0xa8, 0x07,
  0x00, 0x00, 0x2c, 0x07, 0x00, 0x00, 0x90, 0x06, 0x00, 0x00, 0x1c, 0x06, 0x00,
  0x00, 0xa0, 0x05, 0x00, 0x00, 0x24, 0x05, 0x00, 0x00, 0x80, 0x04, 0x00, 0x00,
  0x04, 0x04, 0x00, 0x00, 0x88, 0x03, 0x00, 0x00, 0xec, 0x02, 0x00, 0x00, 0x78,
  0x02, 0x00, 0x00, 0xf4, 0x01, 0x00, 0x00, 0x78, 0x01, 0x00, 0x00, 0xfc, 0x00,
  0x00, 0x00, 0x78, 0x00, 0x00, 0x00, 0x44, 0x00, 0x00, 0x00, 0x04, 0x00, 0x00,
  0x00, 0xd0, 0xff, 0xff, 0xff, 0x08, 0x00, 0x00, 0x00, 0x14, 0x00, 0x00, 0x00,
  0x0a, 0x00, 0x00, 0x00, 0x42, 0x69, 0x61, 0x73, 0x41, 0x64, 0x64, 0x5f, 0x31,
  0x32, 0x00, 0x00, 0x04, 0x00, 0x00, 0x00, 0x01, 0x00, 0x00, 0x00, 0x38, 0x04,
  0x00, 0x00, 0x80, 0x07, 0x00, 0x00, 0x01, 0x00, 0x00, 0x00, 0x0c, 0x00, 0x0c,
  0x00, 0x08, 0x00, 0x00, 0x00, 0x00, 0x00, 0x04, 0x00, 0x0c, 0x00, 0x00, 0x00,
  0x08, 0x00, 0x00, 0x00, 0x14, 0x00, 0x00, 0x00, 0x0b, 0x00, 0x00, 0x00, 0x50,
  0x6c, 0x61, 0x63, 0x65, 0x68, 0x6f, 0x6c, 0x64, 0x65, 0x72, 0x00, 0x04, 0x00,
  0x00, 0x00, 0x01, 0x00, 0x00, 0x00, 0x38, 0x04, 0x00, 0x00, 0x80, 0x07, 0x00,
  0x00, 0x01, 0x00, 0x00, 0x00, 0x7a, 0xb0, 0xff, 0xff, 0x14, 0x00, 0x00, 0x00,
  0x4c, 0x00, 0x00, 0x00, 0x66, 0x00, 0x00, 0x00, 0x00, 0x00, 0x00, 0x07, 0x58,
  0x00, 0x00, 0x00, 0x6c, 0xb0, 0xff, 0xff, 0x10, 0x00, 0x00, 0x00, 0x1c, 0x00,
  0x00, 0x00, 0x20, 0x00, 0x00, 0x00, 0x24, 0x00, 0x00, 0x00, 0x01, 0x00, 0x00,
  0x00, 0x00, 0x00, 0x00, 0x00, 0x00, 0x00, 0x00, 0x00, 0x00, 0x00, 0x00, 0x00,
  0x01, 0x00, 0x00, 0x00, 0x93, 0xf0, 0xd8, 0x36, 0x01, 0x00, 0x00, 0x00, 0x8c,
  0xf4, 0x4e, 0x3e, 0x01, 0x00, 0x00, 0x00, 0xe1, 0xee, 0x58, 0xbe, 0x10, 0x00,
  0x00, 0x00, 0x42, 0x69, 0x61, 0x73, 0x41, 0x64, 0x64, 0x5f, 0x31, 0x32, 0x5f,
  0x69, 0x6e, 0x74, 0x31, 0x36, 0x00, 0x00, 0x00, 0x00, 0x04, 0x00, 0x00, 0x00,
  0x01, 0x00, 0x00, 0x00, 0x38, 0x04, 0x00, 0x00, 0x80, 0x07, 0x00, 0x00, 0x01,
  0x00, 0x00, 0x00, 0xfa, 0xb0, 0xff, 0xff, 0x14, 0x00, 0x00, 0x00, 0x48, 0x00,
  0x00, 0x00, 0x65, 0x00, 0x00, 0x00, 0x00, 0x00, 0x00, 0x07, 0x50, 0x00, 0x00,
  0x00, 0xec, 0xb0, 0xff, 0xff, 0x10, 0x00, 0x00, 0x00, 0x18, 0x00, 0x00, 0x00,
  0x1c, 0x00, 0x00, 0x00, 0x20, 0x00, 0x00, 0x00, 0x01, 0x00, 0x00, 0x00, 0x00,
  0x00, 0x00, 0x00, 0x00, 0x00, 0x00, 0x00, 0x01, 0x00, 0x00, 0x00, 0xaf, 0x8b,
  0x20, 0x39, 0x01, 0x00, 0x00, 0x00, 0x6e, 0x8a, 0xa0, 0x40, 0x01, 0x00, 0x00,
  0x00, 0x04, 0x12, 0x30, 0xc0, 0x0d, 0x00, 0x00, 0x00, 0x64, 0x65, 0x70, 0x74,
  0x68, 0x77, 0x69, 0x73, 0x65, 0x5f, 0x32, 0x35, 0x32, 0x00, 0x00, 0x00, 0x04,
  0x00, 0x00, 0x00, 0x01, 0x00, 0x00, 0x00, 0x38, 0x04, 0x00, 0x00, 0x80, 0x07,
  0x00, 0x00, 0x08, 0x00, 0x00, 0x00, 0x72, 0xb1, 0xff, 0xff, 0x14, 0x00, 0x00,
  0x00, 0x48, 0x00, 0x00, 0x00, 0x64, 0x00, 0x00, 0x00, 0x00, 0x00, 0x00, 0x07,
  0x50, 0x00, 0x00, 0x00, 0x64, 0xb1, 0xff, 0xff, 0x10, 0x00, 0x00, 0x00, 0x18,
  0x00, 0x00, 0x00, 0x1c, 0x00, 0x00, 0x00, 0x20, 0x00, 0x00, 0x00, 0x01, 0x00,
  0x00, 0x00, 0x00, 0x00, 0x00, 0x00, 0x00, 0x00, 0x00, 0x00, 0x01, 0x00, 0x00,
  0x00, 0xa0, 0x0a, 0x59, 0x3a, 0x01, 0x00, 0x00, 0x00, 0xcc, 0x9e, 0x7a, 0x41,
  0x01, 0x00, 0x00, 0x00, 0xee, 0x08, 0xd9, 0xc1, 0x0d, 0x00, 0x00, 0x00, 0x64,
  0x65, 0x70, 0x74, 0x68, 0x77, 0x69, 0x73, 0x65, 0x5f, 0x32, 0x34, 0x31, 0x00,
  0x00, 0x00, 0x04, 0x00, 0x00, 0x00, 0x01, 0x00, 0x00, 0x00, 0x38, 0x04, 0x00,
  0x00, 0x82, 0x07, 0x00, 0x00, 0x08, 0x00, 0x00, 0x00, 0xea, 0xb1, 0xff, 0xff,
  0x14, 0x00, 0x00, 0x00, 0x48, 0x00, 0x00, 0x00, 0x63, 0x00, 0x00, 0x00, 0x00,
  0x00, 0x00, 0x07, 0x58, 0x00, 0x00, 0x00, 0xdc, 0xb1, 0xff, 0xff, 0x10, 0x00,
  0x00, 0x00, 0x18, 0x00, 0x00, 0x00, 0x1c, 0x00, 0x00, 0x00, 0x20, 0x00, 0x00,
  0x00, 0x01, 0x00, 0x00, 0x00, 0x00, 0x00, 0x00, 0x00, 0x00, 0x00, 0x00, 0x00,
  0x01, 0x00, 0x00, 0x00, 0x96, 0xac, 0x1b, 0x3c, 0x01, 0x00, 0x00, 0x00, 0xdb,
  0x09, 0xc4, 0x42, 0x01, 0x00, 0x00, 0x00, 0x5f, 0xab, 0x9b, 0xc3, 0x15, 0x00,
  0x00, 0x00, 0x72, 0x65, 0x73, 0x69, 0x7a, 0x65, 0x2f, 0x52, 0x65, 0x73, 0x69,
  0x7a, 0x65, 0x42, 0x69, 0x6c, 0x69, 0x6e, 0x65, 0x61, 0x72, 0x00, 0x00, 0x00,
  0x04, 0x00, 0x00, 0x00, 0x01, 0x00, 0x00, 0x00, 0x3a, 0x04, 0x00, 0x00, 0x82,
  0x07, 0x00, 0x00, 0x08, 0x00, 0x00, 0x00, 0x6a, 0xb2, 0xff, 0xff, 0x14, 0x00,
  0x00, 0x00, 0x48, 0x00, 0x00, 0x00, 0x62, 0x00, 0x00, 0x00, 0x00, 0x00, 0x00,
  0x07, 0x48, 0x00, 0x00, 0x00, 0x5c, 0xb2, 0xff, 0xff, 0x10, 0x00, 0x00, 0x00,
  0x18, 0x00, 0x00, 0x00, 0x1c, 0x00, 0x00, 0x00, 0x20, 0x00, 0x00, 0x00, 0x01,
  0x00, 0x00, 0x00, 0x00, 0x00, 0x00, 0x00, 0x00, 0x00, 0x00, 0x00, 0x01, 0x00,
  0x00, 0x00, 0x96, 0xac, 0x1b, 0x3c, 0x01, 0x00, 0x00, 0x00, 0xdb, 0x09, 0xc4,
  0x42, 0x01, 0x00, 0x00, 0x00, 0x5f, 0xab, 0x9b, 0xc3, 0x05, 0x00, 0x00, 0x00,
  0x41, 0x64, 0x64, 0x5f, 0x34, 0x00, 0x00, 0x00, 0x04, 0x00, 0x00, 0x00, 0x01,
  0x00, 0x00, 0x00, 0x1d, 0x02, 0x00, 0x00, 0xc1, 0x03, 0x00, 0x00, 0x08, 0x00,
  0x00, 0x00, 0xda, 0xb2, 0xff, 0xff, 0x14, 0x00, 0x00, 0x00, 0x48, 0x00, 0x00,
  0x00, 0x61, 0x00, 0x00, 0x00, 0x00, 0x00, 0x00, 0x07, 0x70, 0x00, 0x00, 0x00,
  0xcc, 0xb2, 0xff, 0xff, 0x10, 0x00, 0x00, 0x00, 0x18, 0x00, 0x00, 0x00, 0x1c,
  0x00, 0x00, 0x00, 0x20, 0x00, 0x00, 0x00, 0x01, 0x00, 0x00, 0x00, 0x00, 0x00,
  0x00, 0x00, 0x00, 0x00, 0x00, 0x00, 0x01, 0x00, 0x00, 0x00, 0x1f, 0x38, 0x22,
  0x3c, 0x01, 0x00, 0x00, 0x00, 0x2c, 0xf8, 0xc0, 0x42, 0x01, 0x00, 0x00, 0x00,
  0xdb, 0x36, 0xa2, 0xc3, 0x2c, 0x00, 0x00, 0x00, 0x42, 0x69, 0x61, 0x73, 0x41,
  0x64, 0x64, 0x5f, 0x31, 0x31, 0x3b, 0x64, 0x65, 0x70, 0x74, 0x68, 0x77, 0x69,
  0x73, 0x65, 0x5f, 0x32, 0x35, 0x3b, 0x43, 0x6f, 0x6e, 0x76, 0x32, 0x44, 0x5f,
  0x31, 0x31, 0x3b, 0x63, 0x6f, 0x6e, 0x76, 0x5f, 0x34, 0x5f, 0x31, 0x5f, 0x62,
  0x00, 0x00, 0x00, 0x00, 0x04, 0x00, 0x00, 0x00, 0x01, 0x00, 0x00, 0x00, 0x1d,
  0x02, 0x00, 0x00, 0xc1, 0x03, 0x00, 0x00, 0x08, 0x00, 0x00, 0x00, 0x72, 0xb3,
  0xff, 0xff, 0x14, 0x00, 0x00, 0x00, 0x48, 0x00, 0x00, 0x00, 0x60, 0x00, 0x00,
  0x00, 0x00, 0x00, 0x00, 0x07, 0x50, 0x00, 0x00, 0x00, 0x64, 0xb3, 0xff, 0xff,
  0x10, 0x00, 0x00, 0x00, 0x18, 0x00, 0x00, 0x00, 0x1c, 0x00, 0x00, 0x00, 0x20,
  0x00, 0x00, 0x00, 0x01, 0x00, 0x00, 0x00, 0x00, 0x00, 0x00, 0x00, 0x00, 0x00,
  0x00, 0x00, 0x01, 0x00, 0x00, 0x00, 0x0b, 0x18, 0xa2, 0x3b, 0x01, 0x00, 0x00,
  0x00, 0x47, 0x5a, 0xeb, 0x42, 0x01, 0x00, 0x00, 0x00, 0xc7, 0x16, 0x22, 0xc3,
  0x0d, 0x00, 0x00, 0x00, 0x64, 0x65, 0x70, 0x74, 0x68, 0x77, 0x69, 0x73, 0x65,
  0x5f, 0x32, 0x33, 0x31, 0x00, 0x00, 0x00, 0x04, 0x00, 0x00, 0x00, 0x01, 0x00,
  0x00, 0x00, 0x1d, 0x02, 0x00, 0x00, 0xc1, 0x03, 0x00, 0x00, 0x08, 0x00, 0x00,
  0x00, 0xea, 0xb3, 0xff, 0xff, 0x14, 0x00, 0x00, 0x00, 0x48, 0x00, 0x00, 0x00,
  0x5f, 0x00, 0x00, 0x00, 0x00, 0x00, 0x00, 0x07, 0x50, 0x00, 0x00, 0x00, 0xdc,
  0xb3, 0xff, 0xff, 0x10, 0x00, 0x00, 0x00, 0x18, 0x00, 0x00, 0x00, 0x1c, 0x00,
  0x00, 0x00, 0x20, 0x00, 0x00, 0x00, 0x01, 0x00, 0x00, 0x00, 0x00, 0x00, 0x00,
  0x00, 0x00, 0x00, 0x00, 0x00, 0x01, 0x00, 0x00, 0x00, 0x41, 0x41, 0x6c, 0x3b,
  0x01, 0x00, 0x00, 0x00, 0x68, 0x3f, 0xec, 0x42, 0x01, 0x00, 0x00, 0x00, 0x3e,
  0xf2, 0xcb, 0xc2, 0x0d, 0x00, 0x00, 0x00, 0x64, 0x65, 0x70, 0x74, 0x68, 0x77,
  0x69, 0x73, 0x65, 0x5f, 0x32, 0x32, 0x31, 0x00, 0x00, 0x00, 0x04, 0x00, 0x00,
  0x00, 0x01, 0x00, 0x00, 0x00, 0x1d, 0x02, 0x00, 0x00, 0xc1, 0x03, 0x00, 0x00,
  0x08, 0x00, 0x00, 0x00, 0x62, 0xb4, 0xff, 0xff, 0x14, 0x00, 0x00, 0x00, 0x4c,
  0x00, 0x00, 0x00, 0x5e, 0x00, 0x00, 0x00, 0x00, 0x00, 0x00, 0x07, 0x78, 0x00,
  0x00, 0x00, 0x54, 0xb4, 0xff, 0xff, 0x10, 0x00, 0x00, 0x00, 0x1c, 0x00, 0x00,
  0x00, 0x20, 0x00, 0x00, 0x00, 0x24, 0x00, 0x00, 0x00, 0x01, 0x00, 0x00, 0x00,
  0x00, 0x00, 0x00, 0x00, 0x00, 0x00, 0x00, 0x00, 0x00, 0x00, 0x00, 0x00, 0x01,
  0x00, 0x00, 0x00, 0x9b, 0x18, 0x85, 0x3b, 0x01, 0x00, 0x00, 0x00, 0x91, 0x17,
  0x05, 0x43, 0x01, 0x00, 0x00, 0x00, 0x00, 0x00, 0x00, 0x00, 0x33, 0x00, 0x00,
  0x00, 0x52, 0x65, 0x6c, 0x75, 0x5f, 0x33, 0x3b, 0x42, 0x69, 0x61, 0x73, 0x41,
  0x64, 0x64, 0x5f, 0x31, 0x30, 0x3b, 0x64, 0x65, 0x70, 0x74, 0x68, 0x77, 0x69,
  0x73, 0x65, 0x5f, 0x32, 0x35, 0x3b, 0x43, 0x6f, 0x6e, 0x76, 0x32, 0x44, 0x5f,
  0x31, 0x30, 0x3b, 0x63, 0x6f, 0x6e, 0x76, 0x5f, 0x34, 0x5f, 0x30, 0x5f, 0x62,
  0x00, 0x04, 0x00, 0x00, 0x00, 0x01, 0x00, 0x00, 0x00, 0x1d, 0x02, 0x00, 0x00,
  0xc1, 0x03, 0x00, 0x00, 0x08, 0x00, 0x00, 0x00, 0x02, 0xb5, 0xff, 0xff, 0x14,
  0x00, 0x00, 0x00, 0x48, 0x00, 0x00, 0x00, 0x5d, 0x00, 0x00, 0x00, 0x00, 0x00,
  0x00, 0x07, 0x50, 0x00, 0x00, 0x00, 0xf4, 0xb4, 0xff, 0xff, 0x10, 0x00, 0x00,
  0x00, 0x18, 0x00, 0x00, 0x00, 0x1c, 0x00, 0x00, 0x00, 0x20, 0x00, 0x00, 0x00,
  0x01, 0x00, 0x00, 0x00, 0x00, 0x00, 0x00, 0x00, 0x00, 0x00, 0x00, 0x00, 0x01,
  0x00, 0x00, 0x00, 0x1e, 0xc0, 0x56, 0x3b, 0x01, 0x00, 0x00, 0x00, 0x8c, 0xa2,
  0x82, 0x42, 0x01, 0x00, 0x00, 0x00, 0x70, 0xbe, 0xd6, 0xc2, 0x0d, 0x00, 0x00,
  0x00, 0x64, 0x65, 0x70, 0x74, 0x68, 0x77, 0x69, 0x73, 0x65, 0x5f, 0x32, 0x31,
  0x31, 0x00, 0x00, 0x00, 0x04, 0x00, 0x00, 0x00, 0x01, 0x00, 0x00, 0x00, 0x1d,
  0x02, 0x00, 0x00, 0xc1, 0x03, 0x00, 0x00, 0x08, 0x00, 0x00, 0x00, 0x7a, 0xb5,
  0xff, 0xff, 0x14, 0x00, 0x00, 0x00, 0x48, 0x00, 0x00, 0x00, 0x5c, 0x00, 0x00,
  0x00, 0x00, 0x00, 0x00, 0x07, 0x50, 0x00, 0x00, 0x00, 0x6c, 0xb5, 0xff, 0xff,
  0x10, 0x00, 0x00, 0x00, 0x18, 0x00, 0x00, 0x00, 0x1c, 0x00, 0x00, 0x00, 0x20,
  0x00, 0x00, 0x00, 0x01, 0x00, 0x00, 0x00, 0x00, 0x00, 0x00, 0x00, 0x00, 0x00,
  0x00, 0x00, 0x01, 0x00, 0x00, 0x00, 0x5b, 0x0f, 0xfd, 0x3a, 0x01, 0x00, 0x00,
  0x00, 0x61, 0x0d, 0x7d, 0x42, 0x01, 0x00, 0x00, 0x00, 0xee, 0xa5, 0x2a, 0xc2,
  0x0d, 0x00, 0x00, 0x00, 0x64, 0x65, 0x70, 0x74, 0x68, 0x77, 0x69, 0x73, 0x65,
  0x5f, 0x32, 0x30, 0x31, 0x00, 0x00, 0x00, 0x04, 0x00, 0x00, 0x00, 0x01, 0x00,
  0x00, 0x00, 0x1d, 0x02, 0x00, 0x00, 0xc1, 0x03, 0x00, 0x00, 0x08, 0x00, 0x00,
  0x00, 0xf2, 0xb5, 0xff, 0xff, 0x14, 0x00, 0x00, 0x00, 0x48, 0x00, 0x00, 0x00,
  0x5b, 0x00, 0x00, 0x00, 0x00, 0x00, 0x00, 0x07, 0x48, 0x00, 0x00, 0x00, 0xe4,
  0xb5, 0xff, 0xff, 0x10, 0x00, 0x00, 0x00, 0x18, 0x00, 0x00, 0x00, 0x1c, 0x00,
  0x00, 0x00, 0x20, 0x00, 0x00, 0x00, 0x01, 0x00, 0x00, 0x00, 0x00, 0x00, 0x00,
  0x00, 0x00, 0x00, 0x00, 0x00, 0x01, 0x00, 0x00, 0x00, 0x17, 0xc1, 0x0d, 0x3b,
  0x01, 0x00, 0x00, 0x00, 0xfb, 0xbf, 0x8d, 0x42, 0x01, 0x00, 0x00, 0x00, 0xdf,
  0xba, 0x72, 0xc2, 0x05, 0x00, 0x00, 0x00, 0x41, 0x64, 0x64, 0x5f, 0x33, 0x00,
  0x00, 0x00, 0x04, 0x00, 0x00, 0x00, 0x01, 0x00, 0x00, 0x00, 0x1d, 0x02, 0x00,
  0x00, 0xc1, 0x03, 0x00, 0x00, 0x08, 0x00, 0x00, 0x00, 0x62, 0xb6, 0xff, 0xff,
  0x14, 0x00, 0x00, 0x00, 0x4c, 0x00, 0x00, 0x00, 0x5a, 0x00, 0x00, 0x00, 0x00,
  0x00, 0x00, 0x07, 0x70, 0x00, 0x00, 0x00, 0x54, 0xb6, 0xff, 0xff, 0x10, 0x00,
  0x00, 0x00, 0x1c, 0x00, 0x00, 0x00, 0x20, 0x00, 0x00, 0x00, 0x24, 0x00, 0x00,
  0x00, 0x01, 0x00, 0x00, 0x00, 0x00, 0x00, 0x00, 0x00, 0x00, 0x00, 0x00, 0x00,
  0x00, 0x00, 0x00, 0x00, 0x01, 0x00, 0x00, 0x00, 0x5b, 0x2e, 0x00, 0x3b, 0x01,
  0x00, 0x00, 0x00, 0x5b, 0x2d, 0x80, 0x42, 0x01, 0x00, 0x00, 0x00, 0xe0, 0x59,
  0x1f, 0xc2, 0x2a, 0x00, 0x00, 0x00, 0x42, 0x69, 0x61, 0x73, 0x41, 0x64, 0x64,
  0x5f, 0x39, 0x3b, 0x64, 0x65, 0x70, 0x74, 0x68, 0x77, 0x69, 0x73, 0x65, 0x5f,
  0x32, 0x35, 0x3b, 0x43, 0x6f, 0x6e, 0x76, 0x32, 0x44, 0x5f, 0x39, 0x3b, 0x63,
  0x6f, 0x6e, 0x76, 0x5f, 0x33, 0x5f, 0x31, 0x5f, 0x62, 0x00, 0x00, 0x04, 0x00,
  0x00, 0x00, 0x01, 0x00, 0x00, 0x00, 0x1d, 0x02, 0x00, 0x00, 0xc1, 0x03, 0x00,
  0x00, 0x08, 0x00, 0x00, 0x00, 0xfa, 0xb6, 0xff, 0xff, 0x14, 0x00, 0x00, 0x00,
  0x48, 0x00, 0x00, 0x00, 0x59, 0x00, 0x00, 0x00, 0x00, 0x00, 0x00, 0x07, 0x50,
  0x00, 0x00, 0x00, 0xec, 0xb6, 0xff, 0xff, 0x10, 0x00, 0x00, 0x00, 0x18, 0x00,
  0x00, 0x00, 0x1c, 0x00, 0x00, 0x00, 0x20, 0x00, 0x00, 0x00, 0x01, 0x00, 0x00,
  0x00, 0x00, 0x00, 0x00, 0x00, 0x00, 0x00, 0x00, 0x00, 0x01, 0x00, 0x00, 0x00,
  0xb4, 0x09, 0x66, 0x3a, 0x01, 0x00, 0x00, 0x00, 0xe8, 0x07, 0xe6, 0x41, 0x01,
  0x00, 0x00, 0x00, 0x98, 0x76, 0x82, 0xc1, 0x0d, 0x00, 0x00, 0x00, 0x64, 0x65,
  0x70, 0x74, 0x68, 0x77, 0x69, 0x73, 0x65, 0x5f, 0x31, 0x39, 0x32, 0x00, 0x00,
  0x00, 0x04, 0x00, 0x00, 0x00, 0x01, 0x00, 0x00, 0x00, 0x1d, 0x02, 0x00, 0x00,
  0xc1, 0x03, 0x00, 0x00, 0x0a, 0x00, 0x00, 0x00, 0x72, 0xb7, 0xff, 0xff, 0x14,
  0x00, 0x00, 0x00, 0x48, 0x00, 0x00, 0x00, 0x58, 0x00, 0x00, 0x00, 0x00, 0x00,
  0x00, 0x07, 0x50, 0x00, 0x00, 0x00, 0x64, 0xb7, 0xff, 0xff, 0x10, 0x00, 0x00,
  0x00, 0x18, 0x00, 0x00, 0x00, 0x1c, 0x00, 0x00, 0x00, 0x20, 0x00, 0x00, 0x00,
  0x01, 0x00, 0x00, 0x00, 0x00, 0x00, 0x00, 0x00, 0x00, 0x00, 0x00, 0x00, 0x01,
  0x00, 0x00, 0x00, 0xcf, 0xe9, 0xad, 0x3a, 0x01, 0x00, 0x00, 0x00, 0x54, 0x34,
  0xf6, 0x41, 0x01, 0x00, 0x00, 0x00, 0x73, 0xe8, 0x2d, 0xc2, 0x0d, 0x00, 0x00,
  0x00, 0x64, 0x65, 0x70, 0x74, 0x68, 0x77, 0x69, 0x73, 0x65, 0x5f, 0x31, 0x38,
  0x31, 0x00, 0x00, 0x00, 0x04, 0x00, 0x00, 0x00, 0x01, 0x00, 0x00, 0x00, 0x1d,
  0x02, 0x00, 0x00, 0xc1, 0x03, 0x00, 0x00, 0x0a, 0x00, 0x00, 0x00, 0xea, 0xb7,
  0xff, 0xff, 0x14, 0x00, 0x00, 0x00, 0x4c, 0x00, 0x00, 0x00, 0x57, 0x00, 0x00,
  0x00, 0x00, 0x00, 0x00, 0x07, 0x70, 0x00, 0x00, 0x00, 0xdc, 0xb7, 0xff, 0xff,
  0x10, 0x00, 0x00, 0x00, 0x1c, 0x00, 0x00, 0x00, 0x20, 0x00, 0x00, 0x00, 0x24,
  0x00, 0x00, 0x00, 0x01, 0x00, 0x00, 0x00, 0x00, 0x00, 0x00, 0x00, 0x00, 0x00,
  0x00, 0x00, 0x00, 0x00, 0x00, 0x00, 0x01, 0x00, 0x00, 0x00, 0xba, 0x1e, 0x06,
  0x3b, 0x01, 0x00, 0x00, 0x00, 0x8c, 0x98, 0x50, 0x42, 0x01, 0x00, 0x00, 0x00,
  0xae, 0x1d, 0x86, 0xc2, 0x2a, 0x00, 0x00, 0x00, 0x42, 0x69, 0x61, 0x73, 0x41,
  0x64, 0x64, 0x5f, 0x38, 0x3b, 0x64, 0x65, 0x70, 0x74, 0x68, 0x77, 0x69, 0x73,
  0x65, 0x5f, 0x32, 0x35, 0x3b, 0x43, 0x6f, 0x6e, 0x76, 0x32, 0x44, 0x5f, 0x38,
  0x3b, 0x63, 0x6f, 0x6e, 0x76, 0x5f, 0x33, 0x5f, 0x31, 0x5f, 0x62, 0x00, 0x00,
  0x04, 0x00, 0x00, 0x00, 0x01, 0x00, 0x00, 0x00, 0x1d, 0x02, 0x00, 0x00, 0xc1,
  0x03, 0x00, 0x00, 0x08, 0x00, 0x00, 0x00, 0x82, 0xb8, 0xff, 0xff, 0x14, 0x00,
  0x00, 0x00, 0x48, 0x00, 0x00, 0x00, 0x56, 0x00, 0x00, 0x00, 0x00, 0x00, 0x00,
  0x07, 0x50, 0x00, 0x00, 0x00, 0x74, 0xb8, 0xff, 0xff, 0x10, 0x00, 0x00, 0x00,
  0x18, 0x00, 0x00, 0x00, 0x1c, 0x00, 0x00, 0x00, 0x20, 0x00, 0x00, 0x00, 0x01,
  0x00, 0x00, 0x00, 0x00, 0x00, 0x00, 0x00, 0x00, 0x00, 0x00, 0x00, 0x01, 0x00,
  0x00, 0x00, 0x24, 0x79, 0x90, 0x3a, 0x01, 0x00, 0x00, 0x00, 0x36, 0x0c, 0xc4,
  0x41, 0x01, 0x00, 0x00, 0x00, 0x03, 0x78, 0x10, 0xc2, 0x0d, 0x00, 0x00, 0x00,
  0x64, 0x65, 0x70, 0x74, 0x68, 0x77, 0x69, 0x73, 0x65, 0x5f, 0x31, 0x37, 0x31,
  0x00, 0x00, 0x00, 0x04, 0x00, 0x00, 0x00, 0x01, 0x00, 0x00, 0x00, 0x1d, 0x02,
  0x00, 0x00, 0xc1, 0x03, 0x00, 0x00, 0x08, 0x00, 0x00, 0x00, 0xfa, 0xb8, 0xff,
  0xff, 0x14, 0x00, 0x00, 0x00, 0x48, 0x00, 0x00, 0x00, 0x55, 0x00, 0x00, 0x00,
  0x00, 0x00, 0x00, 0x07, 0x50, 0x00, 0x00, 0x00, 0xec, 0xb8, 0xff, 0xff, 0x10,
  0x00, 0x00, 0x00, 0x18, 0x00, 0x00, 0x00, 0x1c, 0x00, 0x00, 0x00, 0x20, 0x00,
  0x00, 0x00, 0x01, 0x00, 0x00, 0x00, 0x00, 0x00, 0x00, 0x00, 0x00, 0x00, 0x00,
  0x00, 0x01, 0x00, 0x00, 0x00, 0xab, 0x47, 0xa0, 0x3a, 0x01, 0x00, 0x00, 0x00,
  0x6a, 0x46, 0x20, 0x42, 0x01, 0x00, 0x00, 0x00, 0x0b, 0x5f, 0x15, 0xc2, 0x0d,
  0x00, 0x00, 0x00, 0x64, 0x65, 0x70, 0x74, 0x68, 0x77, 0x69, 0x73, 0x65, 0x5f,
  0x31, 0x36, 0x31, 0x00, 0x00, 0x00, 0x04, 0x00, 0x00, 0x00, 0x01, 0x00, 0x00,
  0x00, 0x1d, 0x02, 0x00, 0x00, 0xc1, 0x03, 0x00, 0x00, 0x08, 0x00, 0x00, 0x00,
  0x72, 0xb9, 0xff, 0xff, 0x14, 0x00, 0x00, 0x00, 0x4c, 0x00, 0x00, 0x00, 0x54,
  0x00, 0x00, 0x00, 0x00, 0x00, 0x00, 0x07, 0x78, 0x00, 0x00, 0x00, 0x64, 0xb9,
  0xff, 0xff, 0x10, 0x00, 0x00, 0x00, 0x1c, 0x00, 0x00, 0x00, 0x20, 0x00, 0x00,
  0x00, 0x24, 0x00, 0x00, 0x00, 0x01, 0x00, 0x00, 0x00, 0x00, 0x00, 0x00, 0x00,
  0x00, 0x00, 0x00, 0x00, 0x00, 0x00, 0x00, 0x00, 0x01, 0x00, 0x00, 0x00, 0xfa,
  0xd7, 0xb1, 0x3a, 0x01, 0x00, 0x00, 0x00, 0x96, 0xd6, 0x31, 0x42, 0x01, 0x00,
  0x00, 0x00, 0x00, 0x00, 0x00, 0x00, 0x31, 0x00, 0x00, 0x00, 0x52, 0x65, 0x6c,
  0x75, 0x5f, 0x32, 0x3b, 0x42, 0x69, 0x61, 0x73, 0x41, 0x64, 0x64, 0x5f, 0x37,
  0x3b, 0x64, 0x65, 0x70, 0x74, 0x68, 0x77, 0x69, 0x73, 0x65, 0x5f, 0x32, 0x35,
  0x3b, 0x43, 0x6f, 0x6e, 0x76, 0x32, 0x44, 0x5f, 0x37, 0x3b, 0x63, 0x6f, 0x6e,
  0x76, 0x5f, 0x33, 0x5f, 0x30, 0x5f, 0x62, 0x00, 0x00, 0x00, 0x04, 0x00, 0x00,
  0x00, 0x01, 0x00, 0x00, 0x00, 0x1d, 0x02, 0x00, 0x00, 0xc1, 0x03, 0x00, 0x00,
  0x08, 0x00, 0x00, 0x00, 0x12, 0xba, 0xff, 0xff, 0x14, 0x00, 0x00, 0x00, 0x48,
  0x00, 0x00, 0x00, 0x53, 0x00, 0x00, 0x00, 0x00, 0x00, 0x00, 0x07, 0x50, 0x00,
  0x00, 0x00, 0x04, 0xba, 0xff, 0xff, 0x10, 0x00, 0x00, 0x00, 0x18, 0x00, 0x00,
  0x00, 0x1c, 0x00, 0x00, 0x00, 0x20, 0x00, 0x00, 0x00, 0x01, 0x00, 0x00, 0x00,
  0x00, 0x00, 0x00, 0x00, 0x00, 0x00, 0x00, 0x00, 0x01, 0x00, 0x00, 0x00, 0x13,
  0x1c, 0xb5, 0x3a, 0x01, 0x00, 0x00, 0x00, 0xa9, 0x1a, 0x35, 0x42, 0x01, 0x00,
  0x00, 0x00, 0xa4, 0x8c, 0x19, 0xc2, 0x0d, 0x00, 0x00, 0x00, 0x64, 0x65, 0x70,
  0x74, 0x68, 0x77, 0x69, 0x73, 0x65, 0x5f, 0x31, 0x35, 0x31, 0x00, 0x00, 0x00,
  0x04, 0x00, 0x00, 0x00, 0x01, 0x00, 0x00, 0x00, 0x1d, 0x02, 0x00, 0x00, 0xc1,
  0x03, 0x00, 0x00, 0x0a, 0x00, 0x00, 0x00, 0x8a, 0xba, 0xff, 0xff, 0x14, 0x00,
  0x00, 0x00, 0x48, 0x00, 0x00, 0x00, 0x52, 0x00, 0x00, 0x00, 0x00, 0x00, 0x00,
  0x07, 0x50, 0x00, 0x00, 0x00, 0x7c, 0xba, 0xff, 0xff, 0x10, 0x00, 0x00, 0x00,
  0x18, 0x00, 0x00, 0x00, 0x1c, 0x00, 0x00, 0x00, 0x20, 0x00, 0x00, 0x00, 0x01,
  0x00, 0x00, 0x00, 0x00, 0x00, 0x00, 0x00, 0x00, 0x00, 0x00, 0x00, 0x01, 0x00,
  0x00, 0x00, 0x5a, 0xc2, 0xf1, 0x3a, 0x01, 0x00, 0x00, 0x00, 0xe8, 0x40, 0x4f,
  0x42, 0x01, 0x00, 0x00, 0x00, 0x76, 0xc0, 0x71, 0xc2, 0x0d, 0x00, 0x00, 0x00,
  0x64, 0x65, 0x70, 0x74, 0x68, 0x77, 0x69, 0x73, 0x65, 0x5f, 0x31, 0x34, 0x31,
  0x00, 0x00, 0x00, 0x04, 0x00, 0x00, 0x00, 0x01, 0x00, 0x00, 0x00, 0x1d, 0x02,
  0x00, 0x00, 0xc1, 0x03, 0x00, 0x00, 0x0a, 0x00, 0x00, 0x00, 0x02, 0xbb, 0xff,
  0xff, 0x14, 0x00, 0x00, 0x00, 0x48, 0x00, 0x00, 0x00, 0x51, 0x00, 0x00, 0x00,
  0x00, 0x00, 0x00, 0x07, 0x48, 0x00, 0x00, 0x00, 0xf4, 0xba, 0xff, 0xff, 0x10,
  0x00, 0x00, 0x00, 0x18, 0x00, 0x00, 0x00, 0x1c, 0x00, 0x00, 0x00, 0x20, 0x00,
  0x00, 0x00, 0x01, 0x00, 0x00, 0x00, 0x00, 0x00, 0x00, 0x00, 0x00, 0x00, 0x00,
  0x00, 0x01, 0x00, 0x00, 0x00, 0xf9, 0x91, 0x17, 0x3b, 0x01, 0x00, 0x00, 0x00,
  0xec, 0x4a, 0x4d, 0x42, 0x01, 0x00, 0x00, 0x00, 0xca, 0x90, 0x97, 0xc2, 0x05,
  0x00, 0x00, 0x00, 0x41, 0x64, 0x64, 0x5f, 0x32, 0x00, 0x00, 0x00, 0x04, 0x00,
  0x00, 0x00, 0x01, 0x00, 0x00, 0x00, 0x1d, 0x02, 0x00, 0x00, 0xc1, 0x03, 0x00,
  0x00, 0x0a, 0x00, 0x00, 0x00, 0x72, 0xbb, 0xff, 0xff, 0x14, 0x00, 0x00, 0x00,
  0x4c, 0x00, 0x00, 0x00, 0x50, 0x00, 0x00, 0x00, 0x00, 0x00, 0x00, 0x07, 0x70,
  0x00, 0x00, 0x00, 0x64, 0xbb, 0xff, 0xff, 0x10, 0x00, 0x00, 0x00, 0x1c, 0x00,
  0x00, 0x00, 0x20, 0x00, 0x00, 0x00, 0x24, 0x00, 0x00, 0x00, 0x01, 0x00, 0x00,
  0x00, 0x00, 0x00, 0x00, 0x00, 0x00, 0x00, 0x00, 0x00, 0x00, 0x00, 0x00, 0x00,
  0x01, 0x00, 0x00, 0x00, 0x30, 0x32, 0xb5, 0x3a, 0x01, 0x00, 0x00, 0x00, 0xc6,
  0x30, 0x35, 0x42, 0x01, 0x00, 0x00, 0x00, 0x6e, 0x09, 0x2b, 0xc2, 0x2a, 0x00,
  0x00, 0x00, 0x42, 0x69, 0x61, 0x73, 0x41, 0x64, 0x64, 0x5f, 0x36, 0x3b, 0x64,
  0x65, 0x70, 0x74, 0x68, 0x77, 0x69, 0x73, 0x65, 0x5f, 0x31, 0x39, 0x3b, 0x43,
  0x6f, 0x6e, 0x76, 0x32, 0x44, 0x5f, 0x36, 0x3b, 0x63, 0x6f, 0x6e, 0x76, 0x5f,
  0x32, 0x5f, 0x31, 0x5f, 0x62, 0x00, 0x00, 0x04, 0x00, 0x00, 0x00, 0x01, 0x00,
  0x00, 0x00, 0x1d, 0x02, 0x00, 0x00, 0xc1, 0x03, 0x00, 0x00, 0x0a, 0x00, 0x00,
  0x00, 0x0a, 0xbc, 0xff, 0xff, 0x14, 0x00, 0x00, 0x00, 0x48, 0x00, 0x00, 0x00,
  0x4f, 0x00, 0x00, 0x00, 0x00, 0x00, 0x00, 0x07, 0x50, 0x00, 0x00, 0x00, 0xfc,
  0xbb, 0xff, 0xff, 0x10, 0x00, 0x00, 0x00, 0x18, 0x00, 0x00, 0x00, 0x1c, 0x00,
  0x00, 0x00, 0x20, 0x00, 0x00, 0x00, 0x01, 0x00, 0x00, 0x00, 0x00, 0x00, 0x00,
  0x00, 0x00, 0x00, 0x00, 0x00, 0x01, 0x00, 0x00, 0x00, 0x57, 0x44, 0x2d, 0x3a,
  0x01, 0x00, 0x00, 0x00, 0xfc, 0x42, 0xad, 0x41, 0x01, 0x00, 0x00, 0x00, 0x41,
  0x4a, 0x95, 0xc1, 0x0d, 0x00, 0x00, 0x00, 0x64, 0x65, 0x70, 0x74, 0x68, 0x77,
  0x69, 0x73, 0x65, 0x5f, 0x31, 0x33, 0x32, 0x00, 0x00, 0x00, 0x04, 0x00, 0x00,
  0x00, 0x01, 0x00, 0x00, 0x00, 0x1d, 0x02, 0x00, 0x00, 0xc1, 0x03, 0x00, 0x00,
  0x0c, 0x00, 0x00, 0x00, 0x82, 0xbc, 0xff, 0xff, 0x14, 0x00, 0x00, 0x00, 0x48,
  0x00, 0x00, 0x00, 0x4e, 0x00, 0x00, 0x00, 0x00, 0x00, 0x00, 0x07, 0x50, 0x00,
  0x00, 0x00, 0x74, 0xbc, 0xff, 0xff, 0x10, 0x00, 0x00, 0x00, 0x18, 0x00, 0x00,
  0x00, 0x1c, 0x00, 0x00, 0x00, 0x20, 0x00, 0x00, 0x00, 0x01, 0x00, 0x00, 0x00,
  0x00, 0x00, 0x00, 0x00, 0x00, 0x00, 0x00, 0x00, 0x01, 0x00, 0x00, 0x00, 0x88,
  0xa2, 0x82, 0x3a, 0x01, 0x00, 0x00, 0x00, 0x91, 0xd1, 0xbc, 0x41, 0x01, 0x00,
  0x00, 0x00, 0x83, 0xa1, 0x02, 0xc2, 0x0d, 0x00, 0x00, 0x00, 0x64, 0x65, 0x70,
  0x74, 0x68, 0x77, 0x69, 0x73, 0x65, 0x5f, 0x31, 0x32, 0x31, 0x00, 0x00, 0x00,
  0x04, 0x00, 0x00, 0x00, 0x01, 0x00, 0x00, 0x00, 0x1d, 0x02, 0x00, 0x00, 0xc1,
  0x03, 0x00, 0x00, 0x0c, 0x00, 0x00, 0x00, 0xfa, 0xbc, 0xff, 0xff, 0x14, 0x00,
  0x00, 0x00, 0x4c, 0x00, 0x00, 0x00, 0x4d, 0x00, 0x00, 0x00, 0x00, 0x00, 0x00,
  0x07, 0x70, 0x00, 0x00, 0x00, 0xec, 0xbc, 0xff, 0xff, 0x10, 0x00, 0x00, 0x00,
  0x1c, 0x00, 0x00, 0x00, 0x20, 0x00, 0x00, 0x00, 0x24, 0x00, 0x00, 0x00, 0x01,
  0x00, 0x00, 0x00, 0x00, 0x00, 0x00, 0x00, 0x00, 0x00, 0x00, 0x00, 0x00, 0x00,
  0x00, 0x00, 0x01, 0x00, 0x00, 0x00, 0x69, 0x28, 0xd8, 0x3a, 0x01, 0x00, 0x00,
  0x00, 0xb9, 0x26, 0x58, 0x42, 0x01, 0x00, 0x00, 0x00, 0xf2, 0xc2, 0x57, 0xc2,
  0x2a, 0x00, 0x00, 0x00, 0x42, 0x69, 0x61, 0x73, 0x41, 0x64, 0x64, 0x5f, 0x35,
  0x3b, 0x64, 0x65, 0x70, 0x74, 0x68, 0x77, 0x69, 0x73, 0x65, 0x5f, 0x31, 0x39,
  0x3b, 0x43, 0x6f, 0x6e, 0x76, 0x32, 0x44, 0x5f, 0x35, 0x3b, 0x63, 0x6f, 0x6e,
  0x76, 0x5f, 0x32, 0x5f, 0x31, 0x5f, 0x62, 0x00, 0x00, 0x04, 0x00, 0x00, 0x00,
  0x01, 0x00, 0x00, 0x00, 0x1d, 0x02, 0x00, 0x00, 0xc1, 0x03, 0x00, 0x00, 0x0a,
  0x00, 0x00, 0x00, 0x92, 0xbd, 0xff, 0xff, 0x14, 0x00, 0x00, 0x00, 0x48, 0x00,
  0x00, 0x00, 0x4c, 0x00, 0x00, 0x00, 0x00, 0x00, 0x00, 0x07, 0x50, 0x00, 0x00,
  0x00, 0x84, 0xbd, 0xff, 0xff, 0x10, 0x00, 0x00, 0x00, 0x18, 0x00, 0x00, 0x00,
  0x1c, 0x00, 0x00, 0x00, 0x20, 0x00, 0x00, 0x00, 0x01, 0x00, 0x00, 0x00, 0x00,
  0x00, 0x00, 0x00, 0x00, 0x00, 0x00, 0x00, 0x01, 0x00, 0x00, 0x00, 0x0d, 0x26,
  0x5d, 0x3a, 0x01, 0x00, 0x00, 0x00, 0x1b, 0x16, 0xca, 0x41, 0x01, 0x00, 0x00,
  0x00, 0x53, 0x24, 0xdd, 0xc1, 0x0d, 0x00, 0x00, 0x00, 0x64, 0x65, 0x70, 0x74,
  0x68, 0x77, 0x69, 0x73, 0x65, 0x5f, 0x31, 0x31, 0x31, 0x00, 0x00, 0x00, 0x04,
  0x00, 0x00, 0x00, 0x01, 0x00, 0x00, 0x00, 0x1d, 0x02, 0x00, 0x00, 0xc1, 0x03,
  0x00, 0x00, 0x0a, 0x00, 0x00, 0x00, 0x0a, 0xbe, 0xff, 0xff, 0x14, 0x00, 0x00,
  0x00, 0x48, 0x00, 0x00, 0x00, 0x4b, 0x00, 0x00, 0x00, 0x00, 0x00, 0x00, 0x07,
  0x50, 0x00, 0x00, 0x00, 0xfc, 0xbd, 0xff, 0xff, 0x10, 0x00, 0x00, 0x00, 0x18,
  0x00, 0x00, 0x00, 0x1c, 0x00, 0x00, 0x00, 0x20, 0x00, 0x00, 0x00, 0x01, 0x00,
  0x00, 0x00, 0x00, 0x00, 0x00, 0x00, 0x00, 0x00, 0x00, 0x00, 0x01, 0x00, 0x00,
  0x00, 0xfe, 0xf0, 0xaa, 0x3a, 0x01, 0x00, 0x00, 0x00, 0xa8, 0xef, 0x2a, 0x42,
  0x01, 0x00, 0x00, 0x00, 0x08, 0x72, 0x08, 0xc2, 0x0d, 0x00, 0x00, 0x00, 0x64,
  0x65, 0x70, 0x74, 0x68, 0x77, 0x69, 0x73, 0x65, 0x5f, 0x31, 0x30, 0x31, 0x00,
  0x00, 0x00, 0x04, 0x00, 0x00, 0x00, 0x01, 0x00, 0x00, 0x00, 0x1d, 0x02, 0x00,
  0x00, 0xc1, 0x03, 0x00, 0x00, 0x0a, 0x00, 0x00, 0x00, 0x82, 0xbe, 0xff, 0xff,
  0x14, 0x00, 0x00, 0x00, 0x4c, 0x00, 0x00, 0x00, 0x4a, 0x00, 0x00, 0x00, 0x00,
  0x00, 0x00, 0x07, 0x78, 0x00, 0x00, 0x00, 0x74, 0xbe, 0xff, 0xff, 0x10, 0x00,
  0x00, 0x00, 0x1c, 0x00, 0x00, 0x00, 0x20, 0x00, 0x00, 0x00, 0x24, 0x00, 0x00,
  0x00, 0x01, 0x00, 0x00, 0x00, 0x00, 0x00, 0x00, 0x00, 0x00, 0x00, 0x00, 0x00,
  0x00, 0x00, 0x00, 0x00, 0x01, 0x00, 0x00, 0x00, 0x65, 0x24, 0x96, 0x3a, 0x01,
  0x00, 0x00, 0x00, 0x39, 0x23, 0x16, 0x42, 0x01, 0x00, 0x00, 0x00, 0x00, 0x00,
  0x00, 0x00, 0x31, 0x00, 0x00, 0x00, 0x52, 0x65, 0x6c, 0x75, 0x5f, 0x31, 0x3b,
  0x42, 0x69, 0x61, 0x73, 0x41, 0x64, 0x64, 0x5f, 0x34, 0x3b, 0x64, 0x65, 0x70,
  0x74, 0x68, 0x77, 0x69, 0x73, 0x65, 0x5f, 0x31, 0x39, 0x3b, 0x43, 0x6f, 0x6e,
  0x76, 0x32, 0x44, 0x5f, 0x34, 0x3b, 0x63, 0x6f, 0x6e, 0x76, 0x5f, 0x32, 0x5f,
  0x30, 0x5f, 0x62, 0x00, 0x00, 0x00, 0x04, 0x00, 0x00, 0x00, 0x01, 0x00, 0x00,
  0x00, 0x1d, 0x02, 0x00, 0x00, 0xc1, 0x03, 0x00, 0x00, 0x0a, 0x00, 0x00, 0x00,
  0x22, 0xbf, 0xff, 0xff, 0x14, 0x00, 0x00, 0x00, 0x48, 0x00, 0x00, 0x00, 0x49,
  0x00, 0x00, 0x00, 0x00, 0x00, 0x00, 0x07, 0x50, 0x00, 0x00, 0x00, 0x14, 0xbf,
  0xff, 0xff, 0x10, 0x00, 0x00, 0x00, 0x18, 0x00, 0x00, 0x00, 0x1c, 0x00, 0x00,
  0x00, 0x20, 0x00, 0x00, 0x00, 0x01, 0x00, 0x00, 0x00, 0x00, 0x00, 0x00, 0x00,
  0x00, 0x00, 0x00, 0x00, 0x01, 0x00, 0x00, 0x00, 0x2b, 0x81, 0xa9, 0x3a, 0x01,
  0x00, 0x00, 0x00, 0xd8, 0x7f, 0x29, 0x42, 0x01, 0x00, 0x00, 0x00, 0x7f, 0xba,
  0x9f, 0xc1, 0x0c, 0x00, 0x00, 0x00, 0x64, 0x65, 0x70, 0x74, 0x68, 0x77, 0x69,
  0x73, 0x65, 0x5f, 0x39, 0x31, 0x00, 0x00, 0x00, 0x00, 0x04, 0x00, 0x00, 0x00,
  0x01, 0x00, 0x00, 0x00, 0x1d, 0x02, 0x00, 0x00, 0xc1, 0x03, 0x00, 0x00, 0x0c,
  0x00, 0x00, 0x00, 0x9a, 0xbf, 0xff, 0xff, 0x14, 0x00, 0x00, 0x00, 0x48, 0x00,
  0x00, 0x00, 0x48, 0x00, 0x00, 0x00, 0x00, 0x00, 0x00, 0x07, 0x50, 0x00, 0x00,
  0x00, 0x8c, 0xbf, 0xff, 0xff, 0x10, 0x00, 0x00, 0x00, 0x18, 0x00, 0x00, 0x00,
  0x1c, 0x00, 0x00, 0x00, 0x20, 0x00, 0x00, 0x00, 0x01, 0x00, 0x00, 0x00, 0x00,
  0x00, 0x00, 0x00, 0x00, 0x00, 0x00, 0x00, 0x01, 0x00, 0x00, 0x00, 0xc7, 0x3f,
  0xaa, 0x3a, 0x01, 0x00, 0x00, 0x00, 0xac, 0xaa, 0x12, 0x42, 0x01, 0x00, 0x00,
  0x00, 0x73, 0x3e, 0x2a, 0xc2, 0x0c, 0x00, 0x00, 0x00, 0x64, 0x65, 0x70, 0x74,
  0x68, 0x77, 0x69, 0x73, 0x65, 0x5f, 0x38, 0x31, 0x00, 0x00, 0x00, 0x00, 0x04,
  0x00, 0x00, 0x00, 0x01, 0x00, 0x00, 0x00, 0x1d, 0x02, 0x00, 0x00, 0xc1, 0x03,
  0x00, 0x00, 0x0c, 0x00, 0x00, 0x00, 0x12, 0xc0, 0xff, 0xff, 0x14, 0x00, 0x00,
  0x00, 0x48, 0x00, 0x00, 0x00, 0x47, 0x00, 0x00, 0x00, 0x00, 0x00, 0x00, 0x07,
  0x48, 0x00, 0x00, 0x00, 0x04, 0xc0, 0xff, 0xff, 0x10, 0x00, 0x00, 0x00, 0x18,
  0x00, 0x00, 0x00, 0x1c, 0x00, 0x00, 0x00, 0x20, 0x00, 0x00, 0x00, 0x01, 0x00,
  0x00, 0x00, 0x00, 0x00, 0x00, 0x00, 0x00, 0x00, 0x00, 0x00, 0x01, 0x00, 0x00,
  0x00, 0x27, 0xf0, 0x8b, 0x3a, 0x01, 0x00, 0x00, 0x00, 0x0f, 0xef, 0x0b, 0x42,
  0x01, 0x00, 0x00, 0x00, 0x02, 0x79, 0xf9, 0xc1, 0x05, 0x00, 0x00, 0x00, 0x41,
  0x64, 0x64, 0x5f, 0x31, 0x00, 0x00, 0x00, 0x04, 0x00, 0x00, 0x00, 0x01, 0x00,
  0x00, 0x00, 0x1d, 0x02, 0x00, 0x00, 0xc1, 0x03, 0x00, 0x00, 0x0c, 0x00, 0x00,
  0x00, 0x82, 0xc0, 0xff, 0xff, 0x14, 0x00, 0x00, 0x00, 0x4c, 0x00, 0x00, 0x00,
  0x46, 0x00, 0x00, 0x00, 0x00, 0x00, 0x00, 0x07, 0x70, 0x00, 0x00, 0x00, 0x74,
  0xc0, 0xff, 0xff, 0x10, 0x00, 0x00, 0x00, 0x1c, 0x00, 0x00, 0x00, 0x20, 0x00,
  0x00, 0x00, 0x24, 0x00, 0x00, 0x00, 0x01, 0x00, 0x00, 0x00, 0x00, 0x00, 0x00,
  0x00, 0x00, 0x00, 0x00, 0x00, 0x00, 0x00, 0x00, 0x00, 0x01, 0x00, 0x00, 0x00,
  0x62, 0xd8, 0x8d, 0x3a, 0x01, 0x00, 0x00, 0x00, 0x98, 0x5c, 0x00, 0x42, 0x01,
  0x00, 0x00, 0x00, 0x46, 0xd7, 0x0d, 0xc2, 0x2a, 0x00, 0x00, 0x00, 0x42, 0x69,
  0x61, 0x73, 0x41, 0x64, 0x64, 0x5f, 0x33, 0x3b, 0x64, 0x65, 0x70, 0x74, 0x68,
  0x77, 0x69, 0x73, 0x65, 0x5f, 0x31, 0x33, 0x3b, 0x43, 0x6f, 0x6e, 0x76, 0x32,
  0x44, 0x5f, 0x33, 0x3b, 0x63, 0x6f, 0x6e, 0x76, 0x5f, 0x31, 0x5f, 0x31, 0x5f,
  0x62, 0x00, 0x00, 0x04, 0x00, 0x00, 0x00, 0x01, 0x00, 0x00, 0x00, 0x1d, 0x02,
  0x00, 0x00, 0xc1, 0x03, 0x00, 0x00, 0x0c, 0x00, 0x00, 0x00, 0x1a, 0xc1, 0xff,
  0xff, 0x14, 0x00, 0x00, 0x00, 0x48, 0x00, 0x00, 0x00, 0x45, 0x00, 0x00, 0x00,
  0x00, 0x00, 0x00, 0x07, 0x50, 0x00, 0x00, 0x00, 0x0c, 0xc1, 0xff, 0xff, 0x10,
  0x00, 0x00, 0x00, 0x18, 0x00, 0x00, 0x00, 0x1c, 0x00, 0x00, 0x00, 0x20, 0x00,
  0x00, 0x00, 0x01, 0x00, 0x00, 0x00, 0x00, 0x00, 0x00, 0x00, 0x00, 0x00, 0x00,
  0x00, 0x01, 0x00, 0x00, 0x00, 0x4f, 0x0e, 0x04, 0x3a, 0x01, 0x00, 0x00, 0x00,
  0x47, 0x0d, 0x84, 0x41, 0x01, 0x00, 0x00, 0x00, 0xdc, 0x8f, 0x25, 0xc1, 0x0c,
  0x00, 0x00, 0x00, 0x64, 0x65, 0x70, 0x74, 0x68, 0x77, 0x69, 0x73, 0x65, 0x5f,
  0x37, 0x32, 0x00, 0x00, 0x00, 0x00, 0x04, 0x00, 0x00, 0x00, 0x01, 0x00, 0x00,
  0x00, 0x1d, 0x02, 0x00, 0x00, 0xc1, 0x03, 0x00, 0x00, 0x10, 0x00, 0x00, 0x00,
  0x92, 0xc1, 0xff, 0xff, 0x14, 0x00, 0x00, 0x00, 0x48, 0x00, 0x00, 0x00, 0x44,
  0x00, 0x00, 0x00, 0x00, 0x00, 0x00, 0x07, 0x50, 0x00, 0x00, 0x00, 0x84, 0xc1,
  0xff, 0xff, 0x10, 0x00, 0x00, 0x00, 0x18, 0x00, 0x00, 0x00, 0x1c, 0x00, 0x00,
  0x00, 0x20, 0x00, 0x00, 0x00, 0x01, 0x00, 0x00, 0x00, 0x00, 0x00, 0x00, 0x00,
  0x00, 0x00, 0x00, 0x00, 0x01, 0x00, 0x00, 0x00, 0xbe, 0xeb, 0x2d, 0x3a, 0x01,
  0x00, 0x00, 0x00, 0x62, 0xea, 0xad, 0x41, 0x01, 0x00, 0x00, 0x00, 0x43, 0x9b,
  0x3d, 0xc1, 0x0c, 0x00, 0x00, 0x00, 0x64, 0x65, 0x70, 0x74, 0x68, 0x77, 0x69,
  0x73, 0x65, 0x5f, 0x36, 0x31, 0x00, 0x00, 0x00, 0x00, 0x04, 0x00, 0x00, 0x00,
  0x01, 0x00, 0x00, 0x00, 0x1d, 0x02, 0x00, 0x00, 0xc1, 0x03, 0x00, 0x00, 0x10,
  0x00, 0x00, 0x00, 0x0a, 0xc2, 0xff, 0xff, 0x14, 0x00, 0x00, 0x00, 0x4c, 0x00,
  0x00, 0x00, 0x43, 0x00, 0x00, 0x00, 0x00, 0x00, 0x00, 0x07, 0x70, 0x00, 0x00,
  0x00, 0xfc, 0xc1, 0xff, 0xff, 0x10, 0x00, 0x00, 0x00, 0x1c, 0x00, 0x00, 0x00,
  0x20, 0x00, 0x00, 0x00, 0x24, 0x00, 0x00, 0x00, 0x01, 0x00, 0x00, 0x00, 0x00,
  0x00, 0x00, 0x00, 0x00, 0x00, 0x00, 0x00, 0x00, 0x00, 0x00, 0x00, 0x01, 0x00,
  0x00, 0x00, 0x0c, 0x41, 0x8a, 0x3a, 0x01, 0x00, 0x00, 0x00, 0x9a, 0x53, 0x05,
  0x42, 0x01, 0x00, 0x00, 0x00, 0xf7, 0x3f, 0x0a, 0xc2, 0x2a, 0x00, 0x00, 0x00,
  0x42, 0x69, 0x61, 0x73, 0x41, 0x64, 0x64, 0x5f, 0x32, 0x3b, 0x64, 0x65, 0x70,
  0x74, 0x68, 0x77, 0x69, 0x73, 0x65, 0x5f, 0x31, 0x33, 0x3b, 0x43, 0x6f, 0x6e,
  0x76, 0x32, 0x44, 0x5f, 0x32, 0x3b, 0x63, 0x6f, 0x6e, 0x76, 0x5f, 0x31, 0x5f,
  0x31, 0x5f, 0x62, 0x00, 0x00, 0x04, 0x00, 0x00, 0x00, 0x01, 0x00, 0x00, 0x00,
  0x1d, 0x02, 0x00, 0x00, 0xc1, 0x03, 0x00, 0x00, 0x0c, 0x00, 0x00, 0x00, 0xa2,
  0xc2, 0xff, 0xff, 0x14, 0x00, 0x00, 0x00, 0x48, 0x00, 0x00, 0x00, 0x42, 0x00,
  0x00, 0x00, 0x00, 0x00, 0x00, 0x07, 0x50, 0x00, 0x00, 0x00, 0x94, 0xc2, 0xff,
  0xff, 0x10, 0x00, 0x00, 0x00, 0x18, 0x00, 0x00, 0x00, 0x1c, 0x00, 0x00, 0x00,
  0x20, 0x00, 0x00, 0x00, 0x01, 0x00, 0x00, 0x00, 0x00, 0x00, 0x00, 0x00, 0x00,
  0x00, 0x00, 0x00, 0x01, 0x00, 0x00, 0x00, 0xc4, 0x85, 0x38, 0x3a, 0x01, 0x00,
  0x00, 0x00, 0x53, 0x7a, 0xa7, 0x41, 0x01, 0x00, 0x00, 0x00, 0x53, 0x84, 0xb8,
  0xc1, 0x0c, 0x00, 0x00, 0x00, 0x64, 0x65, 0x70, 0x74, 0x68, 0x77, 0x69, 0x73,
  0x65, 0x5f, 0x35, 0x31, 0x00, 0x00, 0x00, 0x00, 0x04, 0x00, 0x00, 0x00, 0x01,
  0x00, 0x00, 0x00, 0x1d, 0x02, 0x00, 0x00, 0xc1, 0x03, 0x00, 0x00, 0x0c, 0x00,
  0x00, 0x00, 0x1a, 0xc3, 0xff, 0xff, 0x14, 0x00, 0x00, 0x00, 0x48, 0x00, 0x00,
  0x00, 0x41, 0x00, 0x00, 0x00, 0x00, 0x00, 0x00, 0x07, 0x50, 0x00, 0x00, 0x00,
  0x0c, 0xc3, 0xff, 0xff, 0x10, 0x00, 0x00, 0x00, 0x18, 0x00, 0x00, 0x00, 0x1c,
  0x00, 0x00, 0x00, 0x20, 0x00, 0x00, 0x00, 0x01, 0x00, 0x00, 0x00, 0x00, 0x00,
  0x00, 0x00, 0x00, 0x00, 0x00, 0x00, 0x01, 0x00, 0x00, 0x00, 0xbb, 0x65, 0x90,
  0x3a, 0x01, 0x00, 0x00, 0x00, 0x9a, 0x64, 0x10, 0x42, 0x01, 0x00, 0x00, 0x00,
  0x74, 0x96, 0x05, 0xc2, 0x0c, 0x00, 0x00, 0x00, 0x64, 0x65, 0x70, 0x74, 0x68,
  0x77, 0x69, 0x73, 0x65, 0x5f, 0x34, 0x31, 0x00, 0x00, 0x00, 0x00, 0x04, 0x00,
  0x00, 0x00, 0x01, 0x00, 0x00, 0x00, 0x1d, 0x02, 0x00, 0x00, 0xc1, 0x03, 0x00,
  0x00, 0x0c, 0x00, 0x00, 0x00, 0x92, 0xc3, 0xff, 0xff, 0x14, 0x00, 0x00, 0x00,
  0x48, 0x00, 0x00, 0x00, 0x40, 0x00, 0x00, 0x00, 0x00, 0x00, 0x00, 0x07, 0x70,
  0x00, 0x00, 0x00, 0x84, 0xc3, 0xff, 0xff, 0x10, 0x00, 0x00, 0x00, 0x18, 0x00,
  0x00, 0x00, 0x1c, 0x00, 0x00, 0x00, 0x20, 0x00, 0x00, 0x00, 0x01, 0x00, 0x00,
  0x00, 0x00, 0x00, 0x00, 0x00, 0x00, 0x00, 0x00, 0x00, 0x01, 0x00, 0x00, 0x00,
  0x9e, 0x76, 0x62, 0x3a, 0x01, 0x00, 0x00, 0x00, 0xd9, 0x74, 0xe2, 0x41, 0x01,
  0x00, 0x00, 0x00, 0x00, 0x00, 0x00, 0x00, 0x2f, 0x00, 0x00, 0x00, 0x52, 0x65,
  0x6c, 0x75, 0x3b, 0x42, 0x69, 0x61, 0x73, 0x41, 0x64, 0x64, 0x5f, 0x31, 0x3b,
  0x64, 0x65, 0x70, 0x74, 0x68, 0x77, 0x69, 0x73, 0x65, 0x5f, 0x31, 0x33, 0x3b,
  0x43, 0x6f, 0x6e, 0x76, 0x32, 0x44, 0x5f, 0x31, 0x3b, 0x63, 0x6f, 0x6e, 0x76,
  0x5f, 0x31, 0x5f, 0x30, 0x5f, 0x62, 0x00, 0x04, 0x00, 0x00, 0x00, 0x01, 0x00,
  0x00, 0x00, 0x1d, 0x02, 0x00, 0x00, 0xc1, 0x03, 0x00, 0x00, 0x0c, 0x00, 0x00,
  0x00, 0x2a, 0xc4, 0xff, 0xff, 0x14, 0x00, 0x00, 0x00, 0x48, 0x00, 0x00, 0x00,
  0x3f, 0x00, 0x00, 0x00, 0x00, 0x00, 0x00, 0x07, 0x50, 0x00, 0x00, 0x00, 0x1c,
  0xc4, 0xff, 0xff, 0x10, 0x00, 0x00, 0x00, 0x18, 0x00, 0x00, 0x00, 0x1c, 0x00,
  0x00, 0x00, 0x20, 0x00, 0x00, 0x00, 0x01, 0x00, 0x00, 0x00, 0x00, 0x00, 0x00,
  0x00, 0x00, 0x00, 0x00, 0x00, 0x01, 0x00, 0x00, 0x00, 0x59, 0x9e, 0xb2, 0x39,
  0x01, 0x00, 0x00, 0x00, 0x2a, 0xf2, 0x2e, 0x41, 0x01, 0x00, 0x00, 0x00, 0xf4,
  0x9c, 0x32, 0xc1, 0x0c, 0x00, 0x00, 0x00, 0x64, 0x65, 0x70, 0x74, 0x68, 0x77,
  0x69, 0x73, 0x65, 0x5f, 0x33, 0x31, 0x00, 0x00, 0x00, 0x00, 0x04, 0x00, 0x00,
  0x00, 0x01, 0x00, 0x00, 0x00, 0x1d, 0x02, 0x00, 0x00, 0xc1, 0x03, 0x00, 0x00,
  0x10, 0x00, 0x00, 0x00, 0xa2, 0xc4, 0xff, 0xff, 0x14, 0x00, 0x00, 0x00, 0x48,
  0x00, 0x00, 0x00, 0x3e, 0x00, 0x00, 0x00, 0x00, 0x00, 0x00, 0x07, 0x50, 0x00,
  0x00, 0x00, 0x94, 0xc4, 0xff, 0xff, 0x10, 0x00, 0x00, 0x00, 0x18, 0x00, 0x00,
  0x00, 0x1c, 0x00, 0x00, 0x00, 0x20, 0x00, 0x00, 0x00, 0x01, 0x00, 0x00, 0x00,
  0x00, 0x00, 0x00, 0x00, 0x00, 0x00, 0x00, 0x00, 0x01, 0x00, 0x00, 0x00, 0xb3,
  0x3e, 0x38, 0x3a, 0x01, 0x00, 0x00, 0x00, 0xb9, 0x81, 0xae, 0x40, 0x01, 0x00,
  0x00, 0x00, 0x43, 0x3d, 0xb8, 0xc1, 0x0c, 0x00, 0x00, 0x00, 0x64, 0x65, 0x70,
  0x74, 0x68, 0x77, 0x69, 0x73, 0x65, 0x5f, 0x32, 0x36, 0x00, 0x00, 0x00, 0x00,
  0x04, 0x00, 0x00, 0x00, 0x01, 0x00, 0x00, 0x00, 0x1d, 0x02, 0x00, 0x00, 0xc1,
  0x03, 0x00, 0x00, 0x10, 0x00, 0x00, 0x00, 0x1a, 0xc5, 0xff, 0xff, 0x14, 0x00,
  0x00, 0x00, 0x4c, 0x00, 0x00, 0x00, 0x3d, 0x00, 0x00, 0x00, 0x00, 0x00, 0x00,
  0x07, 0x68, 0x00, 0x00, 0x00, 0x0c, 0xc5, 0xff, 0xff, 0x10, 0x00, 0x00, 0x00,
  0x1c, 0x00, 0x00, 0x00, 0x20, 0x00, 0x00, 0x00, 0x24, 0x00, 0x00, 0x00, 0x01,
  0x00, 0x00, 0x00, 0x00, 0x00, 0x00, 0x00, 0x00, 0x00, 0x00, 0x00, 0x00, 0x00,
  0x00, 0x00, 0x01, 0x00, 0x00, 0x00, 0x79, 0xa3, 0x04, 0x3a, 0x01, 0x00, 0x00,
  0x00, 0x70, 0xa2, 0x84, 0x41, 0x01, 0x00, 0x00, 0x00, 0x50, 0x16, 0x31, 0xc1,
  0x23, 0x00, 0x00, 0x00, 0x42, 0x69, 0x61, 0x73, 0x41, 0x64, 0x64, 0x3b, 0x64,
  0x65, 0x70, 0x74, 0x68, 0x77, 0x69, 0x73, 0x65, 0x5f, 0x37, 0x3b, 0x43, 0x6f,
  0x6e, 0x76, 0x32, 0x44, 0x3b, 0x63, 0x6f, 0x6e, 0x76, 0x5f, 0x30, 0x5f, 0x62,
  0x00, 0x04, 0x00, 0x00, 0x00, 0x01, 0x00, 0x00, 0x00, 0x1d, 0x02, 0x00, 0x00,
  0xc1, 0x03, 0x00, 0x00, 0x10, 0x00, 0x00, 0x00, 0xaa, 0xc5, 0xff, 0xff, 0x14,
  0x00, 0x00, 0x00, 0x48, 0x00, 0x00, 0x00, 0x3c, 0x00, 0x00, 0x00, 0x00, 0x00,
  0x00, 0x07, 0x50, 0x00, 0x00, 0x00, 0x9c, 0xc5, 0xff, 0xff, 0x10, 0x00, 0x00,
  0x00, 0x18, 0x00, 0x00, 0x00, 0x1c, 0x00, 0x00, 0x00, 0x20, 0x00, 0x00, 0x00,
  0x01, 0x00, 0x00, 0x00, 0x00, 0x00, 0x00, 0x00, 0x00, 0x00, 0x00, 0x00, 0x01,
  0x00, 0x00, 0x00, 0x3d, 0xb2, 0x7b, 0x39, 0x01, 0x00, 0x00, 0x00, 0x46, 0xb0,
  0xfb, 0x40, 0x01, 0x00, 0x00, 0x00, 0xa0, 0xba, 0xd1, 0xbf, 0x0d, 0x00, 0x00,
  0x00, 0x64, 0x65, 0x70, 0x74, 0x68, 0x77, 0x69, 0x73, 0x65, 0x5f, 0x31, 0x31,
  0x30, 0x00, 0x00, 0x00, 0x04, 0x00, 0x00, 0x00, 0x01, 0x00, 0x00, 0x00, 0x1d,
  0x02, 0x00, 0x00, 0xc1, 0x03, 0x00, 0x00, 0x01, 0x00, 0x00, 0x00, 0x22, 0xc6,
  0xff, 0xff, 0x14, 0x00, 0x00, 0x00, 0x4c, 0x00, 0x00, 0x00, 0x3b, 0x00, 0x00,
  0x00, 0x00, 0x00, 0x00, 0x07, 0x50, 0x00, 0x00, 0x00, 0x14, 0xc6, 0xff, 0xff,
  0x10, 0x00, 0x00, 0x00, 0x1c, 0x00, 0x00, 0x00, 0x20, 0x00, 0x00, 0x00, 0x24,
  0x00, 0x00, 0x00, 0x01, 0x00, 0x00, 0x00, 0x00, 0x00, 0x00, 0x00, 0x00, 0x00,
  0x00, 0x00, 0x00, 0x00, 0x00, 0x00, 0x01, 0x00, 0x00, 0x00, 0x63, 0xb0, 0xb8,
  0x38, 0x01, 0x00, 0x00, 0x00, 0xf2, 0xae, 0x38, 0x40, 0x01, 0x00, 0x00, 0x00,
  0x47, 0xb9, 0x7e, 0xbe, 0x0a, 0x00, 0x00, 0x00, 0x64, 0x65, 0x70, 0x74, 0x68,
  0x77, 0x69, 0x73, 0x65, 0x31, 0x00, 0x00, 0x04, 0x00, 0x00, 0x00, 0x01, 0x00,
  0x00, 0x00, 0x1d, 0x02, 0x00, 0x00, 0x82, 0x07, 0x00, 0x00, 0x01, 0x00, 0x00,
  0x00, 0x9a, 0xc6, 0xff, 0xff, 0x14, 0x00, 0x00, 0x00, 0x48, 0x00, 0x00, 0x00,
  0x3a, 0x00, 0x00, 0x00, 0x00, 0x00, 0x00, 0x07, 0x44, 0x00, 0x00, 0x00, 0x8c,
  0xc6, 0xff, 0xff, 0x10, 0x00, 0x00, 0x00, 0x18, 0x00, 0x00, 0x00, 0x1c, 0x00,
  0x00, 0x00, 0x20, 0x00, 0x00, 0x00, 0x01, 0x00, 0x00, 0x00, 0x00, 0x00, 0x00,
  0x00, 0x00, 0x00, 0x00, 0x00, 0x01, 0x00, 0x00, 0x00, 0x00, 0x01, 0x00, 0x38,
  0x01, 0x00, 0x00, 0x00, 0x00, 0x00, 0x80, 0x3f, 0x01, 0x00, 0x00, 0x00, 0x00,
  0x00, 0x00, 0x00, 0x03, 0x00, 0x00, 0x00, 0x50, 0x61, 0x64, 0x00, 0x04, 0x00,
  0x00, 0x00, 0x01, 0x00, 0x00, 0x00, 0x3a, 0x04, 0x00, 0x00, 0x82, 0x07, 0x00,
  0x00, 0x01, 0x00, 0x00, 0x00, 0x06, 0xc7, 0xff, 0xff, 0x14, 0x00, 0x00, 0x00,
  0x14, 0x00, 0x00, 0x00, 0x39, 0x00, 0x00, 0x00, 0x00, 0x00, 0x00, 0x02, 0x14,
  0x00, 0x00, 0x00, 0xcc, 0xff, 0xff, 0xff, 0x07, 0x00, 0x00, 0x00, 0x43, 0x6f,
  0x6e, 0x73, 0x74, 0x5f, 0x31, 0x00, 0x02, 0x00, 0x00, 0x00, 0x04, 0x00, 0x00,
  0x00, 0x02, 0x00, 0x00, 0x00, 0x3a, 0xc7, 0xff, 0xff, 0x18, 0x00, 0x00, 0x00,
  0x18, 0x00, 0x00, 0x00, 0x38, 0x00, 0x00, 0x00, 0x00, 0x00, 0x00, 0x02, 0x14,
  0x00, 0x00, 0x00, 0x04, 0x00, 0x04, 0x00, 0x04, 0x00, 0x00, 0x00, 0x03, 0x00,
  0x00, 0x00, 0x61, 0x64, 0x64, 0x00, 0x01, 0x00, 0x00, 0x00, 0x02, 0x00, 0x00,
  0x00, 0x6a, 0xc7, 0xff, 0xff, 0x14, 0x00, 0x00, 0x00, 0x48, 0x00, 0x00, 0x00,
  0x37, 0x00, 0x00, 0x00, 0x00, 0x00, 0x00, 0x09, 0x4c, 0x00, 0x00, 0x00, 0x5c,
  0xc7, 0xff, 0xff, 0x10, 0x00, 0x00, 0x00, 0x18, 0x00, 0x00, 0x00, 0x1c, 0x00,
  0x00, 0x00, 0x20, 0x00, 0x00, 0x00, 0x01, 0x00, 0x00, 0x00, 0x00, 0x00, 0x00,
  0x00, 0x00, 0x00, 0x00, 0x00, 0x01, 0x00, 0x00, 0x00, 0x12, 0x70, 0x8e, 0x3a,
  0x01, 0x00, 0x00, 0x00, 0x32, 0x53, 0x0d, 0x3e, 0x01, 0x00, 0x00, 0x00, 0x6e,
  0x73, 0x86, 0xbd, 0x0a, 0x00, 0x00, 0x00, 0x43, 0x6f, 0x6e, 0x76, 0x32, 0x44,
  0x5f, 0x31, 0x32, 0x31, 0x00, 0x00, 0x04, 0x00, 0x00, 0x00, 0x01, 0x00, 0x00,
  0x00, 0x01, 0x00, 0x00, 0x00, 0x01, 0x00, 0x00, 0x00, 0x08, 0x00, 0x00, 0x00,
  0xde, 0xc7, 0xff, 0xff, 0x14, 0x00, 0x00, 0x00, 0xd8, 0x00, 0x00, 0x00, 0x36,
  0x00, 0x00, 0x00, 0x00, 0x00, 0x00, 0x09, 0xe0, 0x00, 0x00, 0x00, 0xea, 0xcf,
  0xff, 0xff, 0x03, 0x00, 0x00, 0x00, 0x10, 0x00, 0x00, 0x00, 0x50, 0x00, 0x00,
  0x00, 0x70, 0x00, 0x00, 0x00, 0x90, 0x00, 0x00, 0x00, 0x08, 0x00, 0x00, 0x00,
  0x00, 0x00, 0x00, 0x00, 0x00, 0x00, 0x00, 0x00, 0x00, 0x00, 0x00, 0x00, 0x00,
  0x00, 0x00, 0x00, 0x00, 0x00, 0x00, 0x00, 0x00, 0x00, 0x00, 0x00, 0x00, 0x00,
  0x00, 0x00, 0x00, 0x00, 0x00, 0x00, 0x00, 0x00, 0x00, 0x00, 0x00, 0x00, 0x00,
  0x00, 0x00, 0x00, 0x00, 0x00, 0x00, 0x00, 0x00, 0x00, 0x00, 0x00, 0x00, 0x00,
  0x00, 0x00, 0x00, 0x00, 0x00, 0x00, 0x00, 0x00, 0x00, 0x00, 0x00, 0x00, 0x08,
  0x00, 0x00, 0x00, 0x39, 0x4b, 0x35, 0x3b, 0x9a, 0x06, 0x0c, 0x3b, 0x98, 0x32,
  0xa8, 0x3a, 0x84, 0xd8, 0xa6, 0x3a, 0x72, 0xde, 0x8b, 0x3a, 0xf0, 0x37, 0xca,
  0x3a, 0x59, 0x9d, 0x27, 0x3a, 0x52, 0x9a, 0x95, 0x3a, 0x08, 0x00, 0x00, 0x00,
  0xee, 0xbd, 0xc0, 0x3d, 0xc2, 0xd6, 0x1f, 0x3e, 0x33, 0xe2, 0x26, 0x3e, 0xc6,
  0x02, 0x7b, 0x3d, 0xeb, 0xe0, 0x11, 0x3d, 0x80, 0xa3, 0x48, 0x3e, 0x1e, 0x4e,
  0xa6, 0x3d, 0xea, 0xa4, 0xb5, 0x3b, 0x08, 0x00, 0x00, 0x00, 0xa3, 0xe0, 0xb3,
  0xbe, 0x8d, 0xee, 0x8a, 0xbe, 0x43, 0x8f, 0x6a, 0x3d, 0xd3, 0x8a, 0x25, 0xbe,
  0xb5, 0xc6, 0x0a, 0xbe, 0xf1, 0xe2, 0xe2, 0xbd, 0x16, 0xc3, 0xd8, 0x3a, 0x1d,
  0x6f, 0x14, 0xbe, 0x0d, 0x00, 0x00, 0x00, 0x64, 0x65, 0x70, 0x74, 0x68, 0x77,
  0x69, 0x73, 0x65, 0x5f, 0x32, 0x35, 0x31, 0x00, 0x00, 0x00, 0x04, 0x00, 0x00,
  0x00, 0x01, 0x00, 0x00, 0x00, 0x01, 0x00, 0x00, 0x00, 0x03, 0x00, 0x00, 0x00,
  0x08, 0x00, 0x00, 0x00, 0xe6, 0xc8, 0xff, 0xff, 0x14, 0x00, 0x00, 0x00, 0xdc,
  0x00, 0x00, 0x00, 0x35, 0x00, 0x00, 0x00, 0x00, 0x00, 0x00, 0x09, 0xe4, 0x00,
  0x00, 0x00, 0xf2, 0xd0, 0xff, 0xff, 0x03, 0x00, 0x00, 0x00, 0x10, 0x00, 0x00,
  0x00, 0x54, 0x00, 0x00, 0x00, 0x74, 0x00, 0x00, 0x00, 0x94, 0x00, 0x00, 0x00,
  0x08, 0x00, 0x00, 0x00, 0x00, 0x00, 0x00, 0x00, 0x00, 0x00, 0x00, 0x00, 0x00,
  0x00, 0x00, 0x00, 0x00, 0x00, 0x00, 0x00, 0x00, 0x00, 0x00, 0x00, 0x00, 0x00,
  0x00, 0x00, 0x00, 0x00, 0x00, 0x00, 0x00, 0x00, 0x00, 0x00, 0x00, 0x00, 0x00,
  0x00, 0x00, 0x00, 0x00, 0x00, 0x00, 0x00, 0x00, 0x00, 0x00, 0x00, 0x00, 0x00,
  0x00, 0x00, 0x00, 0x00, 0x00, 0x00, 0x00, 0x00, 0x00, 0x00, 0x00, 0x00, 0x00,
  0x00, 0x00, 0x00, 0x00, 0x00, 0x00, 0x00, 0x08, 0x00, 0x00, 0x00, 0xcf, 0x95,
  0x5b, 0x3a, 0xf7, 0x09, 0x8a, 0x3a, 0x0c, 0x18, 0x0e, 0x3b, 0xe5, 0xc1, 0x14,
  0x3b, 0xc4, 0xb5, 0x17, 0x3b, 0xd5, 0x03, 0x9d, 0x3a, 0x00, 0x87, 0xda, 0x39,
  0xa5, 0x8f, 0xea, 0x3a, 0x08, 0x00, 0x00, 0x00, 0xb7, 0xc4, 0xd9, 0x3b, 0xe3,
  0xf5, 0x08, 0x3e, 0x58, 0x08, 0x18, 0x3e, 0x61, 0x98, 0x93, 0x3e, 0x5d, 0x41,
  0x71, 0x3e, 0xcd, 0xc9, 0x1b, 0x3e, 0xf2, 0xd1, 0x58, 0x3d, 0x86, 0xba, 0x68,
  0x3e, 0x08, 0x00, 0x00, 0x00, 0xa3, 0xde, 0xd9, 0xbd, 0x36, 0x01, 0x7e, 0x3d,
  0xdc, 0xfb, 0x8c, 0xbe, 0xc2, 0xd8, 0x51, 0xbe, 0x58, 0x86, 0x96, 0xbe, 0xf1,
  0xbf, 0x75, 0x3d, 0xfa, 0x95, 0xbf, 0x3c, 0x11, 0x2f, 0xc1, 0xbd, 0x0c, 0x00,
  0x00, 0x00, 0x64, 0x65, 0x70, 0x74, 0x68, 0x77, 0x69, 0x73, 0x65, 0x5f, 0x32,
  0x34, 0x00, 0x00, 0x00, 0x00, 0x04, 0x00, 0x00, 0x00, 0x01, 0x00, 0x00, 0x00,
  0x03, 0x00, 0x00, 0x00, 0x01, 0x00, 0x00, 0x00, 0x08, 0x00, 0x00, 0x00, 0xf2,
  0xc9, 0xff, 0xff, 0x14, 0x00, 0x00, 0x00, 0xd8, 0x00, 0x00, 0x00, 0x34, 0x00,
  0x00, 0x00, 0x00, 0x00, 0x00, 0x09, 0xdc, 0x00, 0x00, 0x00, 0xe4, 0xc9, 0xff,
  0xff, 0x10, 0x00, 0x00, 0x00, 0x54, 0x00, 0x00, 0x00, 0x74, 0x00, 0x00, 0x00,
  0x94, 0x00, 0x00, 0x00, 0x08, 0x00, 0x00, 0x00, 0x00, 0x00, 0x00, 0x00, 0x00,
  0x00, 0x00, 0x00, 0x00, 0x00, 0x00, 0x00, 0x00, 0x00, 0x00, 0x00, 0x00, 0x00,
  0x00, 0x00, 0x00, 0x00, 0x00, 0x00, 0x00, 0x00, 0x00, 0x00, 0x00, 0x00, 0x00,
  0x00, 0x00, 0x00, 0x00, 0x00, 0x00, 0x00, 0x00, 0x00, 0x00, 0x00, 0x00, 0x00,
  0x00, 0x00, 0x00, 0x00, 0x00, 0x00, 0x00, 0x00, 0x00, 0x00, 0x00, 0x00, 0x00,
  0x00, 0x00, 0x00, 0x00, 0x00, 0x00, 0x00, 0x00, 0x00, 0x00, 0x00, 0x08, 0x00,
  0x00, 0x00, 0x5a, 0x9f, 0x1c, 0x3c, 0x83, 0x48, 0xa1, 0x3b, 0x98, 0x06, 0xb3,
  0x3c, 0xff, 0xc1, 0xdb, 0x3b, 0xfd, 0xe2, 0xb0, 0x3c, 0xf6, 0xd3, 0x31, 0x3b,
  0x72, 0x36, 0xf9, 0x3b, 0x32, 0xb1, 0x4f, 0x3c, 0x08, 0x00, 0x00, 0x00, 0xbe,
  0x5c, 0xf3, 0x3d, 0xf2, 0x05, 0x20, 0x3f, 0xca, 0xf2, 0xb4, 0x3f, 0x69, 0x49,
  0x4a, 0x3f, 0x3a, 0xe8, 0x0f, 0x40, 0x3e, 0x4c, 0x6d, 0x3e, 0x3e, 0x86, 0x19,
  0x3f, 0x49, 0x59, 0xc0, 0x3f, 0x08, 0x00, 0x00, 0x00, 0x1b, 0x66, 0x9b, 0xbf,
  0xfb, 0x99, 0x85, 0xbe, 0x8b, 0xa0, 0x31, 0xc0, 0x7b, 0x0a, 0x5a, 0xbf, 0x37,
  0x81, 0x2f, 0xc0, 0x4e, 0x70, 0xb0, 0xbe, 0x05, 0x44, 0x77, 0xbf, 0xd0, 0x11,
  0xce, 0xbf, 0x09, 0x00, 0x00, 0x00, 0x43, 0x6f, 0x6e, 0x76, 0x32, 0x44, 0x5f,
  0x31, 0x31, 0x00, 0x00, 0x00, 0x04, 0x00, 0x00, 0x00, 0x08, 0x00, 0x00, 0x00,
  0x01, 0x00, 0x00, 0x00, 0x01, 0x00, 0x00, 0x00, 0x08, 0x00, 0x00, 0x00, 0xf6,
  0xca, 0xff, 0xff, 0x14, 0x00, 0x00, 0x00, 0xd8, 0x00, 0x00, 0x00, 0x33, 0x00,
  0x00, 0x00, 0x00, 0x00, 0x00, 0x09, 0xe0, 0x00, 0x00, 0x00, 0x02, 0xd3, 0xff,
  0xff, 0x03, 0x00, 0x00, 0x00, 0x10, 0x00, 0x00, 0x00, 0x50, 0x00, 0x00, 0x00,
  0x70, 0x00, 0x00, 0x00, 0x90, 0x00, 0x00, 0x00, 0x08, 0x00, 0x00, 0x00, 0x00,
  0x00, 0x00, 0x00, 0x00, 0x00, 0x00, 0x00, 0x00, 0x00, 0x00, 0x00, 0x00, 0x00,
  0x00, 0x00, 0x00, 0x00, 0x00, 0x00, 0x00, 0x00, 0x00, 0x00, 0x00, 0x00, 0x00,
  0x00, 0x00, 0x00, 0x00, 0x00, 0x00, 0x00, 0x00, 0x00, 0x00, 0x00, 0x00, 0x00,
  0x00, 0x00, 0x00, 0x00, 0x00, 0x00, 0x00, 0x00, 0x00, 0x00, 0x00, 0x00, 0x00,
  0x00, 0x00, 0x00, 0x00, 0x00, 0x00, 0x00, 0x00, 0x00, 0x00, 0x00, 0x08, 0x00,
  0x00, 0x00, 0x3d, 0x4b, 0x11, 0x3c, 0x87, 0x0f, 0xf1, 0x3b, 0xc7, 0x31, 0x41,
  0x3c, 0x7a, 0x36, 0x23, 0x3c, 0x6d, 0xc1, 0x43, 0x3c, 0x5a, 0x20, 0xf6, 0x3b,
  0x1a, 0x8b, 0x37, 0x3b, 0x47, 0x20, 0xbc, 0x3b, 0x08, 0x00, 0x00, 0x00, 0x42,
  0x2b, 0x44, 0x3e, 0x68, 0x2d, 0x6f, 0x3f, 0x4b, 0x40, 0x12, 0x3e, 0x33, 0x54,
  0xdf, 0x3d, 0x12, 0xb9, 0x13, 0x3e, 0x19, 0x34, 0x74, 0x3f, 0x04, 0x1c, 0xb6,
  0x3e, 0xa1, 0x07, 0x8d, 0x3e, 0x08, 0x00, 0x00, 0x00, 0xa7, 0x28, 0x90, 0xbf,
  0xb7, 0xa1, 0x4b, 0xbe, 0x63, 0xaf, 0xbf, 0xbf, 0x0d, 0xf0, 0xa1, 0xbf, 0xea,
  0x39, 0xc2, 0xbf, 0x1e, 0x98, 0x8a, 0xbe, 0xa8, 0x93, 0x8c, 0xbd, 0x06, 0xa8,
  0x3a, 0xbf, 0x0c, 0x00, 0x00, 0x00, 0x64, 0x65, 0x70, 0x74, 0x68, 0x77, 0x69,
  0x73, 0x65, 0x5f, 0x32, 0x33, 0x00, 0x00, 0x00, 0x00, 0x04, 0x00, 0x00, 0x00,
  0x01, 0x00, 0x00, 0x00, 0x01, 0x00, 0x00, 0x00, 0x03, 0x00, 0x00, 0x00, 0x08,
  0x00, 0x00, 0x00, 0xfe, 0xcb, 0xff, 0xff, 0x14, 0x00, 0x00, 0x00, 0xdc, 0x00,
  0x00, 0x00, 0x32, 0x00, 0x00, 0x00, 0x00, 0x00, 0x00, 0x09, 0xe4, 0x00, 0x00,
  0x00, 0x0a, 0xd4, 0xff, 0xff, 0x03, 0x00, 0x00, 0x00, 0x10, 0x00, 0x00, 0x00,
  0x54, 0x00, 0x00, 0x00, 0x74, 0x00, 0x00, 0x00, 0x94, 0x00, 0x00, 0x00, 0x08,
  0x00, 0x00, 0x00, 0x00, 0x00, 0x00, 0x00, 0x00, 0x00, 0x00, 0x00, 0x00, 0x00,
  0x00, 0x00, 0x00, 0x00, 0x00, 0x00, 0x00, 0x00, 0x00, 0x00, 0x00, 0x00, 0x00,
  0x00, 0x00, 0x00, 0x00, 0x00, 0x00, 0x00, 0x00, 0x00, 0x00, 0x00, 0x00, 0x00,
  0x00, 0x00, 0x00, 0x00, 0x00, 0x00, 0x00, 0x00, 0x00, 0x00, 0x00, 0x00, 0x00,
  0x00, 0x00, 0x00, 0x00, 0x00, 0x00, 0x00, 0x00, 0x00, 0x00, 0x00, 0x00, 0x00,
  0x00, 0x00, 0x00, 0x00, 0x00, 0x00, 0x08, 0x00, 0x00, 0x00, 0xf8, 0xf6, 0xc0,
  0x3a, 0x4a, 0x45, 0x5f, 0x3b, 0xb1, 0x86, 0x0f, 0x3c, 0xae, 0x08, 0x09, 0x3c,
  0x86, 0x01, 0x04, 0x3c, 0xf0, 0x8c, 0xbc, 0x3b, 0x14, 0x3d, 0xd1, 0x3b, 0x01,
  0x70, 0x02, 0x3c, 0x08, 0x00, 0x00, 0x00, 0x9b, 0x7d, 0x36, 0x3e, 0xbf, 0x86,
  0xdd, 0x3e, 0xa4, 0x67, 0x8e, 0x3f, 0x38, 0x38, 0x38, 0x3f, 0x83, 0xf9, 0x82,
  0x3f, 0xd6, 0x13, 0x3b, 0x3f, 0x9a, 0x9a, 0x4f, 0x3f, 0xc2, 0x42, 0x1f, 0x3e,
  0x08, 0x00, 0x00, 0x00, 0x0a, 0x75, 0x3f, 0xbe, 0x5c, 0x36, 0xbf, 0xbe, 0x9b,
  0x7c, 0xc3, 0x3d, 0x9d, 0xf6, 0x87, 0xbf, 0x08, 0xe4, 0x56, 0xbe, 0x48, 0xa9,
  0x79, 0xbe, 0x71, 0x89, 0xa7, 0x3e, 0x21, 0x6b, 0x81, 0xbf, 0x0c, 0x00, 0x00,
  0x00, 0x64, 0x65, 0x70, 0x74, 0x68, 0x77, 0x69, 0x73, 0x65, 0x5f, 0x32, 0x32,
  0x00, 0x00, 0x00, 0x00, 0x04, 0x00, 0x00, 0x00, 0x01, 0x00, 0x00, 0x00, 0x03,
  0x00, 0x00, 0x00, 0x01, 0x00, 0x00, 0x00, 0x08, 0x00, 0x00, 0x00, 0x0a, 0xcd,
  0xff, 0xff, 0x14, 0x00, 0x00, 0x00, 0xd8, 0x00, 0x00, 0x00, 0x31, 0x00, 0x00,
  0x00, 0x00, 0x00, 0x00, 0x09, 0xdc, 0x00, 0x00, 0x00, 0xfc, 0xcc, 0xff, 0xff,
  0x10, 0x00, 0x00, 0x00, 0x54, 0x00, 0x00, 0x00, 0x74, 0x00, 0x00, 0x00, 0x94,
  0x00, 0x00, 0x00, 0x08, 0x00, 0x00, 0x00, 0x00, 0x00, 0x00, 0x00, 0x00, 0x00,
  0x00, 0x00, 0x00, 0x00, 0x00, 0x00, 0x00, 0x00, 0x00, 0x00, 0x00, 0x00, 0x00,
  0x00, 0x00, 0x00, 0x00, 0x00, 0x00, 0x00, 0x00, 0x00, 0x00, 0x00, 0x00, 0x00,
  0x00, 0x00, 0x00, 0x00, 0x00, 0x00, 0x00, 0x00, 0x00, 0x00, 0x00, 0x00, 0x00,
  0x00, 0x00, 0x00, 0x00, 0x00, 0x00, 0x00, 0x00, 0x00, 0x00, 0x00, 0x00, 0x00,
  0x00, 0x00, 0x00, 0x00, 0x00, 0x00, 0x00, 0x00, 0x00, 0x00, 0x08, 0x00, 0x00,
  0x00, 0x12, 0xd0, 0x5c, 0x3c, 0x34, 0x98, 0x23, 0x3c, 0xaf, 0xb5, 0x2c, 0x3c,
  0x98, 0x03, 0x42, 0x3c, 0x87, 0x07, 0x2a, 0x3c, 0x08, 0xe9, 0xf9, 0x3b, 0xdc,
  0x52, 0x3f, 0x3c, 0xb1, 0x9e, 0x41, 0x3c, 0x08, 0x00, 0x00, 0x00, 0x72, 0x16,
  0xdb, 0x3f, 0x2c, 0xdd, 0x12, 0x3f, 0x44, 0x5c, 0xab, 0x3f, 0x91, 0x7f, 0xc0,
  0x3f, 0x78, 0xb3, 0xa8, 0x3f, 0x36, 0xf5, 0x77, 0x3f, 0x36, 0xd4, 0xbd, 0x3f,
  0x16, 0xa3, 0x85, 0x3f, 0x08, 0x00, 0x00, 0x00, 0xb4, 0x9d, 0x8f, 0xbf, 0x04,
  0x51, 0xa2, 0xbf, 0xe6, 0xb2, 0xe1, 0xbc, 0x76, 0x16, 0x01, 0xbe, 0x00, 0xf4,
  0x1e, 0xbe, 0x4e, 0x09, 0x6e, 0xbf, 0x1a, 0x18, 0xa8, 0xbe, 0x74, 0x1b, 0xc0,
  0xbf, 0x09, 0x00, 0x00, 0x00, 0x43, 0x6f, 0x6e, 0x76, 0x32, 0x44, 0x5f, 0x31,
  0x30, 0x00, 0x00, 0x00, 0x04, 0x00, 0x00, 0x00, 0x08, 0x00, 0x00, 0x00, 0x01,
  0x00, 0x00, 0x00, 0x01, 0x00, 0x00, 0x00, 0x08, 0x00, 0x00, 0x00, 0x0e, 0xce,
  0xff, 0xff, 0x14, 0x00, 0x00, 0x00, 0xd8, 0x00, 0x00, 0x00, 0x30, 0x00, 0x00,
  0x00, 0x00, 0x00, 0x00, 0x09, 0xe0, 0x00, 0x00, 0x00, 0x1a, 0xd6, 0xff, 0xff,
  0x03, 0x00, 0x00, 0x00, 0x10, 0x00, 0x00, 0x00, 0x50, 0x00, 0x00, 0x00, 0x70,
  0x00, 0x00, 0x00, 0x90, 0x00, 0x00, 0x00, 0x08, 0x00, 0x00, 0x00, 0x00, 0x00,
  0x00, 0x00, 0x00, 0x00, 0x00, 0x00, 0x00, 0x00, 0x00, 0x00, 0x00, 0x00, 0x00,
  0x00, 0x00, 0x00, 0x00, 0x00, 0x00, 0x00, 0x00, 0x00, 0x00, 0x00, 0x00, 0x00,
  0x00, 0x00, 0x00, 0x00, 0x00, 0x00, 0x00, 0x00, 0x00, 0x00, 0x00, 0x00, 0x00,
  0x00, 0x00, 0x00, 0x00, 0x00, 0x00, 0x00, 0x00, 0x00, 0x00, 0x00, 0x00, 0x00,
  0x00, 0x00, 0x00, 0x00, 0x00, 0x00, 0x00, 0x00, 0x00, 0x00, 0x08, 0x00, 0x00,
  0x00, 0xd5, 0x10, 0xda, 0x3b, 0x13, 0x65, 0x8c, 0x3b, 0x29, 0xb5, 0x4d, 0x3c,
  0x29, 0x17, 0xa5, 0x3b, 0x53, 0xc3, 0x3a, 0x3c, 0x08, 0x3c, 0xa3, 0x3b, 0xad,
