const unsigned char sr3by2ra_3_tflite[] = {
  0x20, 0x00, 0x00, 0x00, 0x54, 0x46, 0x4c, 0x33, 0x00, 0x00, 0x00, 0x00, 0x00,
  0x00, 0x12, 0x00, 0x1c, 0x00, 0x18, 0x00, 0x14, 0x00, 0x10, 0x00, 0x0c, 0x00,
  0x08, 0x00, 0x00, 0x00, 0x04, 0x00, 0x12, 0x00, 0x00, 0x00, 0x18, 0x00, 0x00,
  0x00, 0x70, 0x00, 0x00, 0x00, 0x9c, 0x1b, 0x00, 0x00, 0xac, 0x1b, 0x00, 0x00,
  0x2c, 0xa3, 0x00, 0x00, 0x03, 0x00, 0x00, 0x00, 0x02, 0x00, 0x00, 0x00, 0x34,
  0x00, 0x00, 0x00, 0x04, 0x00, 0x00, 0x00, 0xdc, 0xff, 0xff, 0xff, 0x92, 0x00,
  0x00, 0x00, 0x04, 0x00, 0x00, 0x00, 0x13, 0x00, 0x00, 0x00, 0x43, 0x4f, 0x4e,
  0x56, 0x45, 0x52, 0x53, 0x49, 0x4f, 0x4e, 0x5f, 0x4d, 0x45, 0x54, 0x41, 0x44,
  0x41, 0x54, 0x41, 0x00, 0x08, 0x00, 0x0c, 0x00, 0x08, 0x00, 0x04, 0x00, 0x08,
  0x00, 0x00, 0x00, 0x91, 0x00, 0x00, 0x00, 0x04, 0x00, 0x00, 0x00, 0x13, 0x00,
  0x00, 0x00, 0x6d, 0x69, 0x6e, 0x5f, 0x72, 0x75, 0x6e, 0x74, 0x69, 0x6d, 0x65,
  0x5f, 0x76, 0x65, 0x72, 0x73, 0x69, 0x6f, 0x6e, 0x00, 0x93, 0x00, 0x00, 0x00,
  0x28, 0x1b, 0x00, 0x00, 0x20, 0x1b, 0x00, 0x00, 0xe8, 0x1a, 0x00, 0x00, 0xa8,
  0x1a, 0x00, 0x00, 0x60, 0x1a, 0x00, 0x00, 0x08, 0x1a, 0x00, 0x00, 0x98, 0x19,
  0x00, 0x00, 0x10, 0x19, 0x00, 0x00, 0xe0, 0x18, 0x00, 0x00, 0xc8, 0x18, 0x00,
  0x00, 0xb0, 0x18, 0x00, 0x00, 0x98, 0x18, 0x00, 0x00, 0xe8, 0x17, 0x00, 0x00,
  0xc4, 0x17, 0x00, 0x00, 0x78, 0x17, 0x00, 0x00, 0x2c, 0x17, 0x00, 0x00, 0xa4,
  0x16, 0x00, 0x00, 0x68, 0x15, 0x00, 0x00, 0x0c, 0x15, 0x00, 0x00, 0xb0, 0x14,
  0x00, 0x00, 0xbc, 0x13, 0x00, 0x00, 0x70, 0x13, 0x00, 0x00, 0x24, 0x13, 0x00,
  0x00, 0xe8, 0x11, 0x00, 0x00, 0xa8, 0x11, 0x00, 0x00, 0x68, 0x11, 0x00, 0x00,
  0xf8, 0x10, 0x00, 0x00, 0x34, 0x10, 0x00, 0x00, 0xe8, 0x0f, 0x00, 0x00, 0x9c,
  0x0f, 0x00, 0x00, 0xfc, 0x0e, 0x00, 0x00, 0xbc, 0x0e, 0x00, 0x00, 0x7c, 0x0e,
  0x00, 0x00, 0xb8, 0x0d, 0x00, 0x00, 0x84, 0x0d, 0x00, 0x00, 0x50, 0x0d, 0x00,
  0x00, 0xf8, 0x0c, 0x00, 0x00, 0x7c, 0x0c, 0x00, 0x00, 0x3c, 0x0c, 0x00, 0x00,
  0xfc, 0x0b, 0x00, 0x00, 0x98, 0x0b, 0x00, 0x00, 0x64, 0x0b, 0x00, 0x00, 0x30,
  0x0b, 0x00, 0x00, 0xb4, 0x0a, 0x00, 0x00, 0x88, 0x0a, 0x00, 0x00, 0x5c, 0x0a,
  0x00, 0x00, 0x14, 0x0a, 0x00, 0x00, 0xc4, 0x09, 0x00, 0x00, 0x90, 0x09, 0x00,
  0x00, 0x5c, 0x09, 0x00, 0x00, 0x18, 0x09, 0x00, 0x00, 0xec, 0x08, 0x00, 0x00,
  0xc0, 0x08, 0x00, 0x00, 0x70, 0x08, 0x00, 0x00, 0x48, 0x08, 0x00, 0x00, 0x20,
  0x08, 0x00, 0x00, 0xe8, 0x07, 0x00, 0x00, 0xb4, 0x07, 0x00, 0x00, 0x88, 0x07,
  0x00, 0x00, 0x5c, 0x07, 0x00, 0x00, 0x30, 0x07, 0x00, 0x00, 0x08, 0x07, 0x00,
  0x00, 0xe0, 0x06, 0x00, 0x00, 0xac, 0x06, 0x00, 0x00, 0x8c, 0x06, 0x00, 0x00,
  0x6c, 0x06, 0x00, 0x00, 0x40, 0x06, 0x00, 0x00, 0x14, 0x06, 0x00, 0x00, 0xe8,
  0x05, 0x00, 0x00, 0xbc, 0x05, 0x00, 0x00, 0x90, 0x05, 0x00, 0x00, 0x64, 0x05,
  0x00, 0x00, 0x4c, 0x05, 0x00, 0x00, 0x9c, 0x04, 0x00, 0x00, 0x14, 0x04, 0x00,
  0x00, 0xa4, 0x03, 0x00, 0x00, 0x4c, 0x03, 0x00, 0x00, 0x04, 0x03, 0x00, 0x00,
  0xcc, 0x02, 0x00, 0x00, 0x94, 0x02, 0x00, 0x00, 0x7c, 0x02, 0x00, 0x00, 0x74,
  0x02, 0x00, 0x00, 0x6c, 0x02, 0x00, 0x00, 0x64, 0x02, 0x00, 0x00, 0x5c, 0x02,
  0x00, 0x00, 0x54, 0x02, 0x00, 0x00, 0x4c, 0x02, 0x00, 0x00, 0x44, 0x02, 0x00,
  0x00, 0x3c, 0x02, 0x00, 0x00, 0x34, 0x02, 0x00, 0x00, 0x2c, 0x02, 0x00, 0x00,
  0x24, 0x02, 0x00, 0x00, 0x1c, 0x02, 0x00, 0x00, 0x14, 0x02, 0x00, 0x00, 0x0c,
  0x02, 0x00, 0x00, 0x04, 0x02, 0x00, 0x00, 0xfc, 0x01, 0x00, 0x00, 0xf4, 0x01,
  0x00, 0x00, 0xec, 0x01, 0x00, 0x00, 0xe4, 0x01, 0x00, 0x00, 0xdc, 0x01, 0x00,
  0x00, 0xd4, 0x01, 0x00, 0x00, 0xcc, 0x01, 0x00, 0x00, 0xc4, 0x01, 0x00, 0x00,
  0xbc, 0x01, 0x00, 0x00, 0xb4, 0x01, 0x00, 0x00, 0xac, 0x01, 0x00, 0x00, 0xa4,
  0x01, 0x00, 0x00, 0x9c, 0x01, 0x00, 0x00, 0x94, 0x01, 0x00, 0x00, 0x8c, 0x01,
  0x00, 0x00, 0x84, 0x01, 0x00, 0x00, 0x7c, 0x01, 0x00, 0x00, 0x74, 0x01, 0x00,
  0x00, 0x6c, 0x01, 0x00, 0x00, 0x64, 0x01, 0x00, 0x00, 0x5c, 0x01, 0x00, 0x00,
  0x54, 0x01, 0x00, 0x00, 0x4c, 0x01, 0x00, 0x00, 0x44, 0x01, 0x00, 0x00, 0x3c,
  0x01, 0x00, 0x00, 0x34, 0x01, 0x00, 0x00, 0x2c, 0x01, 0x00, 0x00, 0x24, 0x01,
  0x00, 0x00, 0x1c, 0x01, 0x00, 0x00, 0x14, 0x01, 0x00, 0x00, 0x0c, 0x01, 0x00,
  0x00, 0x04, 0x01, 0x00, 0x00, 0xfc, 0x00, 0x00, 0x00, 0xf4, 0x00, 0x00, 0x00,
  0xec, 0x00, 0x00, 0x00, 0xe4, 0x00, 0x00, 0x00, 0xdc, 0x00, 0x00, 0x00, 0xd4,
  0x00, 0x00, 0x00, 0xcc, 0x00, 0x00, 0x00, 0xc4, 0x00, 0x00, 0x00, 0xbc, 0x00,
  0x00, 0x00, 0xb4, 0x00, 0x00, 0x00, 0xac, 0x00, 0x00, 0x00, 0xa4, 0x00, 0x00,
  0x00, 0x9c, 0x00, 0x00, 0x00, 0x94, 0x00, 0x00, 0x00, 0x8c, 0x00, 0x00, 0x00,
  0x84, 0x00, 0x00, 0x00, 0x7c, 0x00, 0x00, 0x00, 0x5c, 0x00, 0x00, 0x00, 0x04,
  0x00, 0x00, 0x00, 0x62, 0xe7, 0xff, 0xff, 0x04, 0x00, 0x00, 0x00, 0x48, 0x00,
  0x00, 0x00, 0x04, 0x00, 0x00, 0x00, 0xdc, 0xff, 0xff, 0xff, 0x10, 0x00, 0x00,
  0x00, 0x24, 0x00, 0x00, 0x00, 0x00, 0x00, 0x06, 0x00, 0x08, 0x00, 0x04, 0x00,
  0x06, 0x00, 0x00, 0x00, 0x04, 0x00, 0x00, 0x00, 0x01, 0x00, 0x00, 0x00, 0xec,
  0x03, 0x00, 0x00, 0x08, 0x00, 0x0c, 0x00, 0x08, 0x00, 0x04, 0x00, 0x08, 0x00,
  0x00, 0x00, 0x01, 0x00, 0x00, 0x00, 0x04, 0x00, 0x00, 0x00, 0x05, 0x00, 0x00,
  0x00, 0x32, 0x2e, 0x39, 0x2e, 0x30, 0x00, 0x00, 0x00, 0xb6, 0xe7, 0xff, 0xff,
  0x04, 0x00, 0x00, 0x00, 0x10, 0x00, 0x00, 0x00, 0x31, 0x2e, 0x35, 0x2e, 0x30,
  0x00, 0x00, 0x00, 0x00, 0x00, 0x00, 0x00, 0x00, 0x00, 0x00, 0x00, 0xe0, 0x64,
  0xff, 0xff, 0xe4, 0x64, 0xff, 0xff, 0xe8, 0x64, 0xff, 0xff, 0xec, 0x64, 0xff,
  0xff, 0xf0, 0x64, 0xff, 0xff, 0xf4, 0x64, 0xff, 0xff, 0xf8, 0x64, 0xff, 0xff,
  0xfc, 0x64, 0xff, 0xff, 0x00, 0x65, 0xff, 0xff, 0x04, 0x65, 0xff, 0xff, 0x08,
  0x65, 0xff, 0xff, 0x0c, 0x65, 0xff, 0xff, 0x10, 0x65, 0xff, 0xff, 0x14, 0x65,
  0xff, 0xff, 0x18, 0x65, 0xff, 0xff, 0x1c, 0x65, 0xff, 0xff, 0x20, 0x65, 0xff,
  0xff, 0x24, 0x65, 0xff, 0xff, 0x28, 0x65, 0xff, 0xff, 0x2c, 0x65, 0xff, 0xff,
  0x30, 0x65, 0xff, 0xff, 0x34, 0x65, 0xff, 0xff, 0x38, 0x65, 0xff, 0xff, 0x3c,
  0x65, 0xff, 0xff, 0x40, 0x65, 0xff, 0xff, 0x44, 0x65, 0xff, 0xff, 0x48, 0x65,
  0xff, 0xff, 0x4c, 0x65, 0xff, 0xff, 0x50, 0x65, 0xff, 0xff, 0x54, 0x65, 0xff,
  0xff, 0x58, 0x65, 0xff, 0xff, 0x5c, 0x65, 0xff, 0xff, 0x60, 0x65, 0xff, 0xff,
  0x64, 0x65, 0xff, 0xff, 0x68, 0x65, 0xff, 0xff, 0x6c, 0x65, 0xff, 0xff, 0x70,
  0x65, 0xff, 0xff, 0x74, 0x65, 0xff, 0xff, 0x78, 0x65, 0xff, 0xff, 0x7c, 0x65,
  0xff, 0xff, 0x80, 0x65, 0xff, 0xff, 0x84, 0x65, 0xff, 0xff, 0x88, 0x65, 0xff,
  0xff, 0x8c, 0x65, 0xff, 0xff, 0x90, 0x65, 0xff, 0xff, 0x94, 0x65, 0xff, 0xff,
  0x98, 0x65, 0xff, 0xff, 0x9c, 0x65, 0xff, 0xff, 0xa0, 0x65, 0xff, 0xff, 0xa4,
  0x65, 0xff, 0xff, 0xa8, 0x65, 0xff, 0xff, 0xac, 0x65, 0xff, 0xff, 0xb0, 0x65,
  0xff, 0xff, 0xb4, 0x65, 0xff, 0xff, 0xb8, 0x65, 0xff, 0xff, 0xbc, 0x65, 0xff,
  0xff, 0xc0, 0x65, 0xff, 0xff, 0xc4, 0x65, 0xff, 0xff, 0xc8, 0x65, 0xff, 0xff,
  0xcc, 0x65, 0xff, 0xff, 0xd0, 0x65, 0xff, 0xff, 0xd4, 0x65, 0xff, 0xff, 0xd8,
  0x65, 0xff, 0xff, 0xdc, 0x65, 0xff, 0xff, 0xd2, 0xe8, 0xff, 0xff, 0x04, 0x00,
  0x00, 0x00, 0x08, 0x00, 0x00, 0x00, 0x39, 0xd7, 0xff, 0xff, 0xff, 0xff, 0xff,
  0xff, 0xe6, 0xe8, 0xff, 0xff, 0x04, 0x00, 0x00, 0x00, 0x28, 0x00, 0x00, 0x00,
  0xe4, 0xd0, 0xff, 0xff, 0xff, 0xff, 0xff, 0xff, 0x35, 0x7f, 0x00, 0x00, 0x00,
  0x00, 0x00, 0x00, 0x06, 0x17, 0x00, 0x00, 0x00, 0x00, 0x00, 0x00, 0xa6, 0x03,
  0x00, 0x00, 0x00, 0x00, 0x00, 0x00, 0x64, 0xce, 0xff, 0xff, 0xff, 0xff, 0xff,
  0xff, 0x1a, 0xe9, 0xff, 0xff, 0x04, 0x00, 0x00, 0x00, 0x28, 0x00, 0x00, 0x00,
  0xb1, 0xf5, 0xfe, 0xff, 0xff, 0xff, 0xff, 0xff, 0x8a, 0x87, 0x00, 0x00, 0x00,
  0x00, 0x00, 0x00, 0xad, 0x50, 0x01, 0x00, 0x00, 0x00, 0x00, 0x00, 0x10, 0xbe,
  0xff, 0xff, 0xff, 0xff, 0xff, 0xff, 0xf9, 0xdb, 0xff, 0xff, 0xff, 0xff, 0xff,
  0xff, 0x4e, 0xe9, 0xff, 0xff, 0x04, 0x00, 0x00, 0x00, 0x38, 0x00, 0x00, 0x00,
  0x3f, 0x1a, 0x00, 0x00, 0x00, 0x00, 0x00, 0x00, 0x8a, 0xdf, 0xff, 0xff, 0xff,
  0xff, 0xff, 0xff, 0xca, 0xe0, 0xff, 0xff, 0xff, 0xff, 0xff, 0xff, 0x1b, 0x74,
  0x01, 0x00, 0x00, 0x00, 0x00, 0x00, 0xdd, 0xcc, 0xff, 0xff, 0xff, 0xff, 0xff,
  0xff, 0x48, 0x48, 0x01, 0x00, 0x00, 0x00, 0x00, 0x00, 0x90, 0x01, 0x00, 0x00,
  0x00, 0x00, 0x00, 0x00, 0x92, 0xe9, 0xff, 0xff, 0x04, 0x00, 0x00, 0x00, 0x48,
  0x00, 0x00, 0x00, 0x3c, 0x1c, 0x00, 0x00, 0x00, 0x00, 0x00, 0x00, 0xd9, 0x0a,
  0x00, 0x00, 0x00, 0x00, 0x00, 0x00, 0x08, 0x2b, 0x00, 0x00, 0x00, 0x00, 0x00,
  0x00, 0xe8, 0x1b, 0x00, 0x00, 0x00, 0x00, 0x00, 0x00, 0x94, 0xfa, 0xff, 0xff,
  0xff, 0xff, 0xff, 0xff, 0x53, 0xb0, 0xff, 0xff, 0xff, 0xff, 0xff, 0xff, 0x33,
  0xd4, 0xff, 0xff, 0xff, 0xff, 0xff, 0xff, 0xfa, 0xf3, 0xff, 0xff, 0xff, 0xff,
  0xff, 0xff, 0xb6, 0xd9, 0xff, 0xff, 0xff, 0xff, 0xff, 0xff, 0xe6, 0xe9, 0xff,
  0xff, 0x04, 0x00, 0x00, 0x00, 0x60, 0x00, 0x00, 0x00, 0xec, 0xf8, 0xff, 0xff,
  0xff, 0xff, 0xff, 0xff, 0x57, 0x18, 0x00, 0x00, 0x00, 0x00, 0x00, 0x00, 0xf2,
  0x1b, 0x00, 0x00, 0x00, 0x00, 0x00, 0x00, 0x4d, 0xd1, 0xff, 0xff, 0xff, 0xff,
  0xff, 0xff, 0xcc, 0x50, 0x00, 0x00, 0x00, 0x00, 0x00, 0x00, 0x07, 0x20, 0x00,
  0x00, 0x00, 0x00, 0x00, 0x00, 0x22, 0xec, 0xff, 0xff, 0xff, 0xff, 0xff, 0xff,
  0x49, 0xb7, 0xff, 0xff, 0xff, 0xff, 0xff, 0xff, 0x83, 0x89, 0x00, 0x00, 0x00,
  0x00, 0x00, 0x00, 0x98, 0xb3, 0xff, 0xff, 0xff, 0xff, 0xff, 0xff, 0x1b, 0x42,
  0x00, 0x00, 0x00, 0x00, 0x00, 0x00, 0x81, 0xdf, 0xff, 0xff, 0xff, 0xff, 0xff,
  0xff, 0x52, 0xea, 0xff, 0xff, 0x04, 0x00, 0x00, 0x00, 0x78, 0x00, 0x00, 0x00,
  0xd6, 0xd9, 0xff, 0xff, 0xff, 0xff, 0xff, 0xff, 0xb7, 0xe5, 0xff, 0xff, 0xff,
  0xff, 0xff, 0xff, 0xf5, 0x05, 0x00, 0x00, 0x00, 0x00, 0x00, 0x00, 0x6f, 0xf8,
  0xff, 0xff, 0xff, 0xff, 0xff, 0xff, 0x29, 0x03, 0x00, 0x00, 0x00, 0x00, 0x00,
  0x00, 0x38, 0x34, 0x00, 0x00, 0x00, 0x00, 0x00, 0x00, 0x3c, 0x22, 0x00, 0x00,
  0x00, 0x00, 0x00, 0x00, 0xb6, 0xed, 0xff, 0xff, 0xff, 0xff, 0xff, 0xff, 0x80,
  0x29, 0x00, 0x00, 0x00, 0x00, 0x00, 0x00, 0x6c, 0x11, 0x00, 0x00, 0x00, 0x00,
  0x00, 0x00, 0x34, 0x18, 0x00, 0x00, 0x00, 0x00, 0x00, 0x00, 0x61, 0xf1, 0xff,
  0xff, 0xff, 0xff, 0xff, 0xff, 0xba, 0xfd, 0xff, 0xff, 0xff, 0xff, 0xff, 0xff,
  0xfb, 0x04, 0x00, 0x00, 0x00, 0x00, 0x00, 0x00, 0xd4, 0xfb, 0xff, 0xff, 0xff,
  0xff, 0xff, 0xff, 0xd6, 0xea, 0xff, 0xff, 0x04, 0x00, 0x00, 0x00, 0xa0, 0x00,
  0x00, 0x00, 0x90, 0x3c, 0x02, 0x00, 0x00, 0x00, 0x00, 0x00, 0x82, 0xf4, 0xfc,
  0xff, 0xff, 0xff, 0xff, 0xff, 0x62, 0xc6, 0xfa, 0xff, 0xff, 0xff, 0xff, 0xff,
  0xa6, 0xe3, 0x1e, 0x00, 0x00, 0x00, 0x00, 0x00, 0x3d, 0x70, 0x01, 0x00, 0x00,
  0x00, 0x00, 0x00, 0x0e, 0xbe, 0x0a, 0x00, 0x00, 0x00, 0x00, 0x00, 0xf9, 0x49,
  0xff, 0xff, 0xff, 0xff, 0xff, 0xff, 0x31, 0x04, 0x03, 0x00, 0x00, 0x00, 0x00,
  0x00, 0x2f, 0x76, 0x0a, 0x00, 0x00, 0x00, 0x00, 0x00, 0x66, 0xa8, 0xfd, 0xff,
  0xff, 0xff, 0xff, 0xff, 0x02, 0xbc, 0xe6, 0xff, 0xff, 0xff, 0xff, 0xff, 0xb0,
  0x79, 0x08, 0x00, 0x00, 0x00, 0x00, 0x00, 0x1c, 0x81, 0xfe, 0xff, 0xff, 0xff,
  0xff, 0xff, 0x08, 0xa5, 0xde, 0xff, 0xff, 0xff, 0xff, 0xff, 0xd3, 0x98, 0xd8,
  0xff, 0xff, 0xff, 0xff, 0xff, 0xa6, 0xa6, 0x02, 0x00, 0x00, 0x00, 0x00, 0x00,
  0x86, 0x2f, 0x1a, 0x00, 0x00, 0x00, 0x00, 0x00, 0x8e, 0x30, 0xde, 0xff, 0xff,
  0xff, 0xff, 0xff, 0x5d, 0x04, 0x01, 0x00, 0x00, 0x00, 0x00, 0x00, 0xb8, 0xe5,
  0xfa, 0xff, 0xff, 0xff, 0xff, 0xff, 0x82, 0xeb, 0xff, 0xff, 0x04, 0x00, 0x00,
  0x00, 0x05, 0x00, 0x00, 0x00, 0x90, 0x8e, 0x9d, 0x23, 0x81, 0x00, 0x00, 0x00,
  0x96, 0xeb, 0xff, 0xff, 0x04, 0x00, 0x00, 0x00, 0x19, 0x00, 0x00, 0x00, 0x0e,
  0x12, 0xe3, 0xa1, 0xf6, 0x0f, 0xfc, 0x20, 0x6a, 0xff, 0x10, 0x45, 0x0f, 0xb6,
  0x81, 0x7f, 0x7f, 0xb9, 0x81, 0x59, 0x28, 0x3b, 0x7f, 0x42, 0x1f, 0x00, 0x00,
  0x00, 0xbe, 0xeb, 0xff, 0xff, 0x04, 0x00, 0x00, 0x00, 0x19, 0x00, 0x00, 0x00,
  0x08, 0x18, 0x04, 0xa0, 0xf6, 0x1b, 0xce, 0xe8, 0xce, 0xea, 0x31, 0x7f, 0xa1,
  0xc8, 0x81, 0x81, 0x20, 0xd4, 0x94, 0xe8, 0xf4, 0xb8, 0x81, 0x7f, 0xec, 0x00,
  0x00, 0x00, 0xe6, 0xeb, 0xff, 0xff, 0x04, 0x00, 0x00, 0x00, 0x19, 0x00, 0x00,
  0x00, 0x9a, 0x7f, 0xd6, 0x06, 0xd1, 0x17, 0x81, 0xe3, 0x65, 0x4e, 0x62, 0xf8,
  0x7f, 0x00, 0x4c, 0xc3, 0xff, 0x81, 0x1d, 0xe9, 0x90, 0x46, 0x81, 0x68, 0xdc,
  0x00, 0x00, 0x00, 0x0e, 0xec, 0xff, 0xff, 0x04, 0x00, 0x00, 0x00, 0x19, 0x00,
  0x00, 0x00, 0x81, 0x98, 0xc4, 0x00, 0xe0, 0xbd, 0x68, 0xaa, 0xab, 0x81, 0x98,
  0x81, 0x81, 0x81, 0xc9, 0xcf, 0x0c, 0x92, 0xb3, 0x10, 0x13, 0x01, 0xda, 0xe6,
  0xf1, 0x00, 0x00, 0x00, 0x36, 0xec, 0xff, 0xff, 0x04, 0x00, 0x00, 0x00, 0x19,
  0x00, 0x00, 0x00, 0x81, 0x11, 0x5f, 0x33, 0xf8, 0x25, 0x81, 0x81, 0x77, 0x7f,
  0x97, 0xf3, 0x07, 0x7f, 0x24, 0x0c, 0x09, 0x1a, 0x06, 0xdd, 0xff, 0xfb, 0x00,
  0xfa, 0x1b, 0x00, 0x00, 0x00, 0x5e, 0xec, 0xff, 0xff, 0x04, 0x00, 0x00, 0x00,
  0x19, 0x00, 0x00, 0x00, 0x3e, 0x82, 0x79, 0x7f, 0xe1, 0x3d, 0x81, 0xa2, 0xc5,
  0x44, 0xf6, 0x17, 0x13, 0x02, 0x7f, 0x65, 0x51, 0x8d, 0x7f, 0xff, 0x2b, 0x81,
  0x77, 0x60, 0x09, 0x00, 0x00, 0x00, 0x86, 0xec, 0xff, 0xff, 0x04, 0x00, 0x00,
  0x00, 0x0f, 0x00, 0x00, 0x00, 0x24, 0x21, 0xcf, 0xd8, 0x81, 0xba, 0x18, 0x55,
  0x51, 0x9e, 0x81, 0x7f, 0x81, 0x81, 0xbe, 0x00, 0xa2, 0xec, 0xff, 0xff, 0x04,
  0x00, 0x00, 0x00, 0x0f, 0x00, 0x00, 0x00, 0xfc, 0xc8, 0xda, 0x02, 0x23, 0x7f,
  0x81, 0x46, 0xf1, 0xb2, 0xf7, 0xc5, 0x81, 0x81, 0x7f, 0x00, 0xbe, 0xec, 0xff,
  0xff, 0x04, 0x00, 0x00, 0x00, 0x23, 0x00, 0x00, 0x00, 0xa5, 0x54, 0x0a, 0x60,
  0x99, 0x81, 0x7b, 0x7f, 0x05, 0x1d, 0xf0, 0xf4, 0xe0, 0x61, 0x1f, 0x06, 0x7f,
  0xf8, 0xed, 0xfc, 0xc0, 0xa4, 0xd8, 0x26, 0x7f, 0x35, 0xe6, 0xf8, 0xfb, 0xa4,
  0x2a, 0x41, 0x81, 0x3f, 0x19, 0x00, 0xee, 0xec, 0xff, 0xff, 0x04, 0x00, 0x00,
  0x00, 0x15, 0x00, 0x00, 0x00, 0xfb, 0x45, 0x3e, 0x14, 0x15, 0x0b, 0x2e, 0x7f,
  0x81, 0x7f, 0xe3, 0xf3, 0x7f, 0x4b, 0xe6, 0xc8, 0x0b, 0x7f, 0x7f, 0xda, 0x7f,
  0x00, 0x00, 0x00, 0x12, 0xed, 0xff, 0xff, 0x04, 0x00, 0x00, 0x00, 0x15, 0x00,
  0x00, 0x00, 0xe1, 0x3d, 0x5d, 0x92, 0x81, 0x81, 0x60, 0x81, 0x81, 0x7f, 0x81,
  0x52, 0x20, 0x7f, 0x96, 0xd4, 0x24, 0x13, 0xfe, 0x6e, 0x2b, 0x00, 0x00, 0x00,
  0x36, 0xed, 0xff, 0xff, 0x04, 0x00, 0x00, 0x00, 0x19, 0x00, 0x00, 0x00, 0x7f,
  0x98, 0x3d, 0xcb, 0xfc, 0xf2, 0x7f, 0x36, 0x65, 0x37, 0x04, 0x63, 0x4e, 0x7f,
  0x01, 0x24, 0xa6, 0x15, 0xf6, 0x81, 0xf2, 0x01, 0x77, 0x6d, 0x7f, 0x00, 0x00,
  0x00, 0x5e, 0xed, 0xff, 0xff, 0x04, 0x00, 0x00, 0x00, 0x19, 0x00, 0x00, 0x00,
  0xf6, 0xfa, 0xe9, 0xf5, 0x7f, 0x67, 0xa5, 0xc9, 0xc2, 0x5b, 0x7f, 0x81, 0xed,
  0x81, 0x48, 0xb5, 0xc1, 0x7f, 0xaa, 0x39, 0x18, 0xe5, 0x45, 0xba, 0x54, 0x00,
  0x00, 0x00, 0x86, 0xed, 0xff, 0xff, 0x04, 0x00, 0x00, 0x00, 0x19, 0x00, 0x00,
  0x00, 0x12, 0x04, 0x02, 0x39, 0x85, 0x00, 0x00, 0xef, 0x33, 0x7f, 0x63, 0xc4,
  0x3a, 0x7f, 0x25, 0x81, 0x81, 0x7f, 0x74, 0x14, 0x5a, 0xde, 0x04, 0x63, 0x46,
  0x00, 0x00, 0x00, 0xae, 0xed, 0xff, 0xff, 0x04, 0x00, 0x00, 0x00, 0x23, 0x00,
  0x00, 0x00, 0xf4, 0xf5, 0x17, 0x04, 0x25, 0x81, 0x9d, 0x08, 0x82, 0x94, 0xeb,
  0xb5, 0x52, 0x7f, 0xbb, 0x81, 0x93, 0x89, 0xf2, 0x2b, 0x2b, 0x3b, 0xd0, 0xf1,
  0x26, 0x81, 0x12, 0xf0, 0xad, 0x56, 0xdd, 0x98, 0x1c, 0x7f, 0x43, 0x00, 0xde,
  0xed, 0xff, 0xff, 0x04, 0x00, 0x00, 0x00, 0x28, 0x00, 0x00, 0x00, 0x00, 0x00,
  0x00, 0x00, 0x00, 0x00, 0x00, 0x00, 0x00, 0x00, 0x00, 0x00, 0x00, 0x00, 0x00,
  0x00, 0x00, 0x00, 0x00, 0x00, 0x00, 0x00, 0x00, 0x00, 0x00, 0x00, 0x00, 0x00,
  0x00, 0x00, 0x00, 0x00, 0x00, 0x00, 0x00, 0x00, 0x00, 0x00, 0x00, 0x00, 0x12,
  0xee, 0xff, 0xff, 0x04, 0x00, 0x00, 0x00, 0x15, 0x00, 0x00, 0x00, 0xa8, 0x81,
  0x7f, 0xa6, 0x3a, 0xc8, 0x89, 0xa5, 0x8e, 0xc6, 0xf9, 0x9e, 0x81, 0xf1, 0x7f,
  0xa5, 0xfa, 0x81, 0x7f, 0x8a, 0x81, 0x00, 0x00, 0x00, 0x36, 0xee, 0xff, 0xff,
  0x04, 0x00, 0x00, 0x00, 0x15, 0x00, 0x00, 0x00, 0x3e, 0x78, 0x7f, 0x81, 0x81,
  0x81, 0x7f, 0x56, 0x7f, 0xfd, 0x0c, 0xf3, 0x57, 0xe2, 0x7f, 0x0f, 0x23, 0xf6,
  0xb1, 0x13, 0xde, 0x00, 0x00, 0x00, 0x5a, 0xee, 0xff, 0xff, 0x04, 0x00, 0x00,
  0x00, 0x3f, 0x00, 0x00, 0x00, 0x13, 0xda, 0xef, 0x98, 0xab, 0xac, 0x81, 0xb3,
  0x44, 0x9e, 0x42, 0x33, 0x81, 0xfb, 0xc6, 0x02, 0xb3, 0x53, 0x81, 0x1c, 0x39,
  0x94, 0x94, 0x6e, 0xaf, 0x4f, 0x61, 0xb6, 0xb0, 0xf7, 0xb7, 0x69, 0x7f, 0x6c,
  0xe4, 0x1b, 0xc3, 0x47, 0x7f, 0x0a, 0x15, 0x18, 0xf4, 0x01, 0xf3, 0x7f, 0x5e,
  0x2d, 0xc5, 0x20, 0x16, 0xf9, 0x23, 0x44, 0xd9, 0x6f, 0x67, 0xef, 0xec, 0xe7,
  0x68, 0x4b, 0x81, 0x00, 0xa6, 0xee, 0xff, 0xff, 0x04, 0x00, 0x00, 0x00, 0x1b,
  0x00, 0x00, 0x00, 0x0f, 0x24, 0x0f, 0x81, 0x1a, 0x22, 0xac, 0xf6, 0xb6, 0x37,
  0x7f, 0xd9, 0x83, 0x09, 0x32, 0x93, 0xf2, 0x72, 0x7f, 0x3a, 0x81, 0xac, 0x7f,
  0x7f, 0x7f, 0x81, 0x7f, 0x00, 0xce, 0xee, 0xff, 0xff, 0x04, 0x00, 0x00, 0x00,
  0x1b, 0x00, 0x00, 0x00, 0x82, 0x9d, 0xd5, 0x7f, 0xca, 0x81, 0x2d, 0x81, 0x7f,
  0x7f, 0x81, 0x81, 0x14, 0xd4, 0x16, 0x7f, 0x19, 0xe1, 0x06, 0x3e, 0x71, 0x19,
  0x81, 0xc2, 0xdd, 0xf2, 0x18, 0x00, 0xf6, 0xee, 0xff, 0xff, 0x04, 0x00, 0x00,
  0x00, 0x31, 0x00, 0x00, 0x00, 0x7f, 0x8d, 0x70, 0x31, 0xba, 0xf8, 0xea, 0x08,
  0x01, 0x08, 0x81, 0xe7, 0xed, 0xfc, 0x57, 0x81, 0x65, 0x8d, 0x66, 0xe9, 0xfa,
  0x28, 0x00, 0x38, 0x7f, 0xee, 0x1c, 0x96, 0xd0, 0xfb, 0xe3, 0xb6, 0x81, 0xc2,
  0x5c, 0x6f, 0xbe, 0x54, 0x67, 0x55, 0x7f, 0xa1, 0x2f, 0xc7, 0x17, 0x5e, 0x16,
  0x81, 0x87, 0x00, 0x00, 0x00, 0x36, 0xef, 0xff, 0xff, 0x04, 0x00, 0x00, 0x00,
  0x23, 0x00, 0x00, 0x00, 0x11, 0x00, 0xe0, 0xe1, 0x33, 0x05, 0x17, 0x53, 0xa1,
  0x81, 0xcf, 0x2b, 0x10, 0x81, 0x7f, 0xa8, 0xc3, 0x8f, 0x53, 0x61, 0xc5, 0x10,
  0x7f, 0xee, 0x7f, 0x30, 0x7f, 0xdd, 0x23, 0x53, 0x1b, 0xc3, 0x7f, 0x24, 0xef,
  0x00, 0x66, 0xef, 0xff, 0xff, 0x04, 0x00, 0x00, 0x00, 0x23, 0x00, 0x00, 0x00,
  0x37, 0xf6, 0x1a, 0xef, 0x7f, 0xfe, 0xca, 0x7f, 0x7f, 0x7f, 0xf8, 0x44, 0x81,
  0x81, 0xea, 0x3c, 0x01, 0x81, 0x10, 0xe2, 0xd5, 0x14, 0xf8, 0xf8, 0x3f, 0x24,
  0xc4, 0xf1, 0x09, 0x03, 0xfe, 0xef, 0x6b, 0xe5, 0xd8, 0x00, 0x96, 0xef, 0xff,
  0xff, 0x04, 0x00, 0x00, 0x00, 0x3f, 0x00, 0x00, 0x00, 0x20, 0x0e, 0x35, 0xd5,
  0x35, 0xfa, 0x9f, 0x7f, 0x45, 0xe0, 0xd2, 0x6f, 0xc2, 0x81, 0x84, 0x12, 0x07,
  0xf9, 0x65, 0xb8, 0x77, 0xd2, 0xd6, 0x7f, 0xa9, 0xc8, 0xf6, 0xda, 0x1f, 0x9f,
  0x31, 0xa8, 0x1d, 0x7f, 0xe8, 0xfd, 0x7f, 0x60, 0xd2, 0x3d, 0xd3, 0xc5, 0x57,
  0xf5, 0x99, 0xea, 0x4a, 0xd0, 0xa0, 0xc8, 0xcb, 0x07, 0x81, 0x70, 0xf5, 0x81,
  0x4a, 0x98, 0x01, 0x28, 0xd3, 0xa8, 0xb7, 0x00, 0xe2, 0xef, 0xff, 0xff, 0x04,
  0x00, 0x00, 0x00, 0x38, 0x00, 0x00, 0x00, 0x00, 0x00, 0x00, 0x00, 0x00, 0x00,
  0x00, 0x00, 0x00, 0x00, 0x00, 0x00, 0x00, 0x00, 0x00, 0x00, 0x00, 0x00, 0x00,
  0x00, 0x00, 0x00, 0x00, 0x00, 0x00, 0x00, 0x00, 0x00, 0x00, 0x00, 0x00, 0x00,
  0x00, 0x00, 0x00, 0x00, 0x00, 0x00, 0x00, 0x00, 0x00, 0x00, 0x00, 0x00, 0x00,
  0x00, 0x00, 0x00, 0x00, 0x00, 0x00, 0x00, 0x00, 0x00, 0x00, 0x00, 0x26, 0xf0,
  0xff, 0xff, 0x04, 0x00, 0x00, 0x00, 0x1b, 0x00, 0x00, 0x00, 0xd0, 0x24, 0x22,
  0x7f, 0x7f, 0xd9, 0x36, 0x13, 0x37, 0x7f, 0x1d, 0x6f, 0x22, 0x14, 0xbc, 0x7f,
  0x36, 0x36, 0x6f, 0x7f, 0x7f, 0x49, 0x08, 0x81, 0xd0, 0x7f, 0x7f, 0x00, 0x4e,
  0xf0, 0xff, 0xff, 0x04, 0x00, 0x00, 0x00, 0x1b, 0x00, 0x00, 0x00, 0x81, 0x7f,
  0xa4, 0x16, 0x7f, 0xe6, 0x81, 0x81, 0x7f, 0x24, 0x18, 0x81, 0x10, 0x15, 0x7f,
  0xea, 0xf8, 0x99, 0xf8, 0x06, 0x03, 0x7f, 0xbd, 0x2c, 0x06, 0xea, 0x10, 0x00,
  0x76, 0xf0, 0xff, 0xff, 0x04, 0x00, 0x00, 0x00, 0x6c, 0x00, 0x00, 0x00, 0x01,
  0x00, 0xd5, 0x29, 0xae, 0x81, 0x23, 0x3d, 0x35, 0x13, 0x14, 0x4a, 0x01, 0x81,
  0xfc, 0xdd, 0x95, 0x9b, 0x0d, 0x3e, 0x4b, 0xdd, 0x30, 0x4a, 0xca, 0x25, 0x0c,
  0x7f, 0xea, 0x5d, 0xa5, 0x3e, 0x02, 0xe4, 0x9c, 0xdf, 0x70, 0xfb, 0xda, 0x28,
  0xc5, 0x66, 0x68, 0x8d, 0x1d, 0x75, 0x7f, 0xb9, 0xd0, 0xda, 0xbb, 0xe3, 0x10,
  0xf1, 0xfb, 0x81, 0xc7, 0x14, 0x20, 0x63, 0x73, 0x41, 0xed, 0x40, 0xea, 0x1a,
  0x7f, 0x28, 0xab, 0x1a, 0xea, 0x59, 0x99, 0xe1, 0x21, 0xfe, 0x2e, 0x44, 0xa1,
  0x4a, 0xfa, 0x81, 0xd7, 0xad, 0xf7, 0xb5, 0x52, 0x31, 0xd5, 0x45, 0x2e, 0xe9,
  0x7f, 0xae, 0x74, 0x5c, 0xfe, 0xc4, 0x7f, 0x12, 0xbe, 0xec, 0xec, 0x5a, 0xe4,
  0x47, 0x38, 0x09, 0xee, 0xf0, 0xff, 0xff, 0x04, 0x00, 0x00, 0x00, 0x24, 0x00,
  0x00, 0x00, 0x43, 0x34, 0xbd, 0x24, 0x70, 0x9e, 0xb8, 0xf4, 0x23, 0x15, 0xfa,
  0x39, 0xb8, 0x7f, 0x81, 0x81, 0x7f, 0x81, 0x34, 0x81, 0x3e, 0x7f, 0x7f, 0xae,
  0x7f, 0x74, 0xa9, 0xfb, 0x7a, 0x65, 0x7f, 0xcf, 0x81, 0x19, 0x4a, 0x81, 0x1e,
  0xf1, 0xff, 0xff, 0x04, 0x00, 0x00, 0x00, 0x24, 0x00, 0x00, 0x00, 0x7f, 0x56,
  0x72, 0xbe, 0x19, 0xf1, 0x7d, 0xe9, 0x1d, 0x14, 0x81, 0xc7, 0xf3, 0x81, 0x7f,
  0x7f, 0x7f, 0x81, 0x81, 0xf7, 0x7f, 0x1a, 0x03, 0x7f, 0xd9, 0xd0, 0x63, 0x06,
  0x3a, 0xd1, 0x07, 0x81, 0xec, 0x81, 0x1b, 0x18, 0x4e, 0xf1, 0xff, 0xff, 0x04,
  0x00, 0x00, 0x00, 0x51, 0x00, 0x00, 0x00, 0x00, 0x2e, 0xfa, 0xdd, 0xe4, 0x81,
  0x0c, 0xf8, 0xe1, 0x05, 0x19, 0x15, 0x02, 0x13, 0x13, 0x34, 0x81, 0xdb, 0x66,
  0x9f, 0xb6, 0x7f, 0x0e, 0x32, 0xbe, 0xb4, 0x94, 0x14, 0xf4, 0x7f, 0x54, 0x5f,
  0x2e, 0x3f, 0xc5, 0x0f, 0xc9, 0x36, 0xfa, 0xe5, 0xf6, 0x1f, 0xce, 0x7f, 0x05,
  0xa8, 0xde, 0xc1, 0x22, 0x9c, 0xf9, 0x7f, 0xf7, 0x36, 0x51, 0xcb, 0xb2, 0x15,
  0xe7, 0x1c, 0x7f, 0xb2, 0x8d, 0x40, 0xee, 0xf3, 0xed, 0x03, 0x81, 0x1d, 0xdc,
  0xa3, 0x49, 0x81, 0x95, 0x48, 0xb5, 0xa8, 0xcb, 0x36, 0xb3, 0x00, 0x00, 0x00,
  0xae, 0xf1, 0xff, 0xff, 0x04, 0x00, 0x00, 0x00, 0x2d, 0x00, 0x00, 0x00, 0x00,
  0xf0, 0x6c, 0xf5, 0xa0, 0x27, 0x4b, 0xf0, 0xf8, 0x7f, 0x52, 0x00, 0x15, 0xb1,
  0x33, 0x72, 0x17, 0x25, 0x4e, 0x7f, 0x81, 0x7f, 0x7a, 0x3d, 0x66, 0xb9, 0x7f,
  0x03, 0xfa, 0xbc, 0x57, 0x0b, 0xa9, 0xe6, 0x81, 0x27, 0x00, 0xe7, 0x3b, 0xfc,
  0x81, 0x7f, 0x7f, 0xa4, 0x0b, 0x00, 0x00, 0x00, 0xea, 0xf1, 0xff, 0xff, 0x04,
  0x00, 0x00, 0x00, 0x2d, 0x00, 0x00, 0x00, 0xeb, 0x15, 0xfa, 0x66, 0x1d, 0xb1,
  0xfa, 0x81, 0x08, 0x7f, 0x7f, 0x0e, 0x05, 0x39, 0x81, 0x7f, 0xfe, 0x41, 0x36,
  0x44, 0x81, 0x81, 0x7f, 0xbb, 0x26, 0xb8, 0x7f, 0x01, 0xe6, 0xed, 0xce, 0x49,
  0xe6, 0x22, 0xa3, 0x70, 0x14, 0x01, 0xf7, 0x2a, 0xdc, 0x89, 0xf7, 0x52, 0xd9,
  0x00, 0x00, 0x00, 0x26, 0xf2, 0xff, 0xff, 0x04, 0x00, 0x00, 0x00, 0x6c, 0x00,
  0x00, 0x00, 0x9c, 0x7f, 0xbd, 0xe4, 0xe4, 0xe0, 0x14, 0xde, 0x1e, 0xa1, 0x29,
  0xfa, 0xe4, 0x81, 0x39, 0x84, 0x14, 0x79, 0xec, 0xf8, 0x32, 0x17, 0x02, 0x02,
  0xd5, 0xea, 0xf7, 0x60, 0xf2, 0xde, 0x77, 0x2e, 0xdd, 0xb5, 0xae, 0x81, 0xce,
  0x43, 0xa5, 0x22, 0x79, 0x4c, 0x13, 0x81, 0xf1, 0x42, 0x4a, 0xe6, 0x4a, 0x0f,
  0x05, 0x29, 0xbc, 0xc7, 0xef, 0x20, 0xb6, 0x1b, 0x52, 0x7f, 0xbd, 0xb3, 0x83,
  0x73, 0x36, 0x1d, 0xf7, 0xf2, 0x35, 0xd0, 0x61, 0x7f, 0x48, 0x15, 0x26, 0x8d,
  0x11, 0x25, 0xa4, 0xd6, 0x7f, 0x4a, 0x67, 0x5d, 0x99, 0xea, 0xea, 0xbf, 0x1e,
  0x13, 0x36, 0xc9, 0x1d, 0x60, 0x7f, 0xdf, 0x7f, 0x2f, 0x25, 0xf4, 0x44, 0xe9,
  0x6f, 0x25, 0x43, 0xdd, 0x55, 0x79, 0x9e, 0xf2, 0xff, 0xff, 0x04, 0x00, 0x00,
  0x00, 0x48, 0x00, 0x00, 0x00, 0x00, 0x00, 0x00, 0x00, 0x00, 0x00, 0x00, 0x00,
  0x00, 0x00, 0x00, 0x00, 0x00, 0x00, 0x00, 0x00, 0x00, 0x00, 0x00, 0x00, 0x00,
  0x00, 0x00, 0x00, 0x00, 0x00, 0x00, 0x00, 0x00, 0x00, 0x00, 0x00, 0x00, 0x00,
  0x00, 0x00, 0x00, 0x00, 0x00, 0x00, 0x00, 0x00, 0x00, 0x00, 0x00, 0x00, 0x00,
  0x00, 0x00, 0x00, 0x00, 0x00, 0x00, 0x00, 0x00, 0x00, 0x00, 0x00, 0x00, 0x00,
  0x00, 0x00, 0x00, 0x00, 0x00, 0x00, 0x00, 0x00, 0x00, 0x00, 0x00, 0x00, 0xf2,
  0xf2, 0xff, 0xff, 0x04, 0x00, 0x00, 0x00, 0x24, 0x00, 0x00, 0x00, 0xb6, 0xea,
  0x05, 0x99, 0x7d, 0x7f, 0x72, 0x5a, 0xf6, 0x0d, 0xcc, 0x48, 0x81, 0x81, 0xa9,
  0x22, 0x7f, 0x34, 0xb6, 0x1d, 0x84, 0x0b, 0xa7, 0x7f, 0xcd, 0xf2, 0x81, 0x81,
  0xfd, 0x58, 0x7f, 0x7f, 0x81, 0x7f, 0x81, 0x52, 0x22, 0xf3, 0xff, 0xff, 0x04,
  0x00, 0x00, 0x00, 0x24, 0x00, 0x00, 0x00, 0x81, 0x96, 0x15, 0x5e, 0x93, 0x81,
  0x08, 0x81, 0x7f, 0x81, 0x7f, 0xd2, 0xca, 0x7f, 0x7f, 0x35, 0x7b, 0x2a, 0x7f,
  0xe1, 0x26, 0xb6, 0x3e, 0x0e, 0xf1, 0x15, 0x3f, 0x7f, 0x81, 0x52, 0x7c, 0x42,
  0x3e, 0xab, 0x6a, 0x7f, 0x52, 0xf3, 0xff, 0xff, 0x04, 0x00, 0x00, 0x00, 0xb4,
  0x00, 0x00, 0x00, 0xd3, 0xb3, 0xfd, 0x2b, 0x0e, 0xd1, 0x7f, 0xfd, 0x0d, 0xb3,
  0x25, 0xe2, 0xaf, 0x24, 0x70, 0xf9, 0x1c, 0x56, 0xf0, 0x06, 0x1e, 0xcc, 0x7f,
  0xdd, 0xe1, 0x37, 0x30, 0xf9, 0xe3, 0x3c, 0xff, 0xfb, 0x1f, 0xca, 0x7b, 0x20,
  0xe2, 0x0c, 0x86, 0xb6, 0x35, 0xb1, 0x28, 0x7f, 0x46, 0x7f, 0xcb, 0xff, 0x3a,
  0x10, 0x9e, 0x35, 0x1a, 0xf4, 0x37, 0x44, 0xba, 0x54, 0x0c, 0x54, 0x21, 0x7f,
  0x49, 0xed, 0xf5, 0x36, 0x12, 0x9a, 0xe5, 0x21, 0x3e, 0x58, 0x03, 0x07, 0xf1,
  0x0b, 0xe2, 0x34, 0x4c, 0xea, 0x3e, 0xda, 0x18, 0xe5, 0x63, 0xc0, 0xba, 0x09,
  0xb7, 0x7f, 0x97, 0xd8, 0x81, 0x11, 0x26, 0xcb, 0xaa, 0x39, 0x58, 0x00, 0x4b,
  0xfa, 0x36, 0xe0, 0x2f, 0x43, 0x33, 0xd1, 0x7f, 0xb1, 0x55, 0x39, 0x0e, 0xc3,
  0x5e, 0xed, 0x30, 0x64, 0x06, 0x31, 0x6e, 0x0c, 0xb0, 0x63, 0xcb, 0xff, 0x1c,
  0x81, 0xa1, 0x4f, 0xf5, 0x2a, 0x4e, 0xa9, 0xf0, 0xe2, 0xb2, 0x03, 0x20, 0x23,
  0x31, 0x3a, 0xcb, 0x81, 0x2b, 0x82, 0xf2, 0x1d, 0xe6, 0x2b, 0x55, 0x34, 0xe2,
  0xee, 0x3d, 0x5d, 0x81, 0x43, 0x51, 0x03, 0xfb, 0x27, 0xa1, 0x0e, 0xeb, 0xce,
  0xe9, 0x31, 0x81, 0x0c, 0x09, 0x9b, 0x1a, 0xf8, 0x25, 0x7a, 0x48, 0xca, 0xf5,
  0x08, 0x12, 0xf4, 0xff, 0xff, 0x04, 0x00, 0x00, 0x00, 0x2d, 0x00, 0x00, 0x00,
  0xd2, 0x11, 0xea, 0x36, 0x81, 0xe9, 0x23, 0x1d, 0x31, 0xb6, 0xfe, 0xe3, 0x22,
  0x05, 0x99, 0x81, 0x30, 0x7f, 0x7f, 0xe0, 0x7f, 0x7f, 0xbf, 0x5a, 0x81, 0x81,
  0x81, 0x81, 0x39, 0x49, 0x66, 0x7f, 0x1f, 0x4a, 0x1a, 0xde, 0xf3, 0x7f, 0x81,
  0xe6, 0xee, 0xfd, 0x15, 0x81, 0x7f, 0x00, 0x00, 0x00, 0x4e, 0xf4, 0xff, 0xff,
  0x04, 0x00, 0x00, 0x00, 0x2d, 0x00, 0x00, 0x00, 0x31, 0x4c, 0x81, 0x81, 0x09,
  0xd8, 0xf9, 0x7f, 0x0c, 0x00, 0xf4, 0x62, 0x01, 0x34, 0xf5, 0x7f, 0xb1, 0xe2,
  0x07, 0x7f, 0x7f, 0x7f, 0x29, 0x7f, 0x2f, 0x81, 0xb7, 0x5e, 0x81, 0x81, 0xa5,
  0x81, 0xcf, 0x86, 0x22, 0xdd, 0xe5, 0x0b, 0xe7, 0x7f, 0x65, 0x7f, 0x7f, 0x12,
  0xc7, 0x00, 0x00, 0x00, 0x8a, 0xf4, 0xff, 0xff, 0x04, 0x00, 0x00, 0x00, 0x90,
  0x00, 0x00, 0x00, 0xc4, 0x1f, 0xe1, 0x1b, 0xed, 0xd5, 0x4d, 0x81, 0x7d, 0xd5,
  0xd9, 0x22, 0xef, 0xee, 0x39, 0x2a, 0x55, 0x7f, 0x4d, 0x22, 0x4e, 0xd0, 0xfb,
  0x24, 0x81, 0xaa, 0x3c, 0x01, 0xde, 0xc4, 0x38, 0x45, 0x2d, 0xff, 0x6b, 0xcf,
  0x81, 0xfa, 0xf3, 0x25, 0xf7, 0x51, 0x91, 0x95, 0xc9, 0x71, 0x3a, 0x14, 0xcf,
  0xad, 0x7c, 0x21, 0x1e, 0x5e, 0x9e, 0xe6, 0x7f, 0xf2, 0x21, 0xf2, 0x81, 0x15,
  0xef, 0xeb, 0xf0, 0x48, 0x11, 0xf2, 0xfe, 0xf0, 0xf0, 0xde, 0xfe, 0x7f, 0xc4,
  0x24, 0x98, 0x09, 0x03, 0xf7, 0x16, 0x21, 0xdd, 0x9c, 0xd7, 0x09, 0x05, 0x71,
  0x3c, 0x81, 0x1b, 0x86, 0x02, 0x9e, 0xa1, 0xd1, 0xcb, 0xff, 0xa4, 0x09, 0x07,
  0x00, 0xfb, 0x91, 0xf8, 0x81, 0xfb, 0xf6, 0x38, 0x1c, 0x13, 0x82, 0x7f, 0x0e,
  0x08, 0x38, 0xae, 0x2c, 0xf7, 0xcb, 0x07, 0xcf, 0x25, 0xc8, 0x81, 0xb5, 0x31,
  0x0f, 0x4c, 0x69, 0xb8, 0xe7, 0xf5, 0xf7, 0xdf, 0xe7, 0xd1, 0x2a, 0xdf, 0x1e,
  0x35, 0xff, 0xa5, 0x7f, 0x26, 0xf5, 0xff, 0xff, 0x04, 0x00, 0x00, 0x00, 0x3c,
  0x00, 0x00, 0x00, 0xed, 0x21, 0xad, 0x2f, 0xc0, 0x36, 0x32, 0xfa, 0xbb, 0x66,
  0xea, 0x5f, 0xdd, 0x37, 0xa1, 0x81, 0x39, 0xc8, 0x25, 0xe4, 0x7f, 0x39, 0x20,
  0x2a, 0x7f, 0x7c, 0x81, 0xbc, 0xa6, 0x6e, 0x2a, 0x81, 0x0b, 0x63, 0x7f, 0x7f,
  0xbf, 0x7f, 0xda, 0x8b, 0x00, 0xf0, 0xef, 0x04, 0x0a, 0x30, 0x25, 0x00, 0xdb,
  0x13, 0x99, 0x91, 0x81, 0x7f, 0x7f, 0xff, 0x43, 0x7f, 0xf0, 0xae, 0x6e, 0xf5,
  0xff, 0xff, 0x04, 0x00, 0x00, 0x00, 0x3c, 0x00, 0x00, 0x00, 0x06, 0xec, 0x3d,
  0x2b, 0xab, 0x9e, 0x3b, 0x31, 0xe5, 0x43, 0x1a, 0x1e, 0xf1, 0x81, 0x7f, 0x50,
  0x13, 0x81, 0xf3, 0x5e, 0xed, 0x25, 0x7f, 0x7f, 0x7f, 0xe9, 0x71, 0x7f, 0x81,
  0x9c, 0x70, 0x7f, 0x7f, 0x7f, 0x2e, 0x08, 0x2d, 0xfa, 0x7b, 0xe4, 0xf4, 0xfd,
  0x7f, 0xb2, 0x4d, 0x49, 0xf5, 0x16, 0xfe, 0xc5, 0x2e, 0x02, 0xda, 0xe1, 0x53,
  0xb0, 0x16, 0x4f, 0x17, 0x04, 0xb6, 0xf5, 0xff, 0xff, 0x04, 0x00, 0x00, 0x00,
  0xb4, 0x00, 0x00, 0x00, 0x45, 0xdf, 0xf5, 0x14, 0xd9, 0x0f, 0x2b, 0x7f, 0x89,
  0xe4, 0x16, 0xd1, 0xcc, 0x2e, 0x1b, 0xe6, 0xb8, 0x4f, 0xd3, 0x3c, 0x6b, 0x87,
  0xcc, 0xea, 0xbf, 0xf2, 0x3e, 0xd2, 0x81, 0xf6, 0x20, 0x08, 0xbf, 0x1b, 0xf5,
  0x81, 0xd0, 0x30, 0x9b, 0xff, 0xbb, 0x01, 0xf0, 0x03, 0xcf, 0x6f, 0x7f, 0xf8,
  0x40, 0x06, 0xf1, 0x11, 0xc9, 0xe4, 0x06, 0x1a, 0x50, 0xc6, 0x15, 0x3b, 0x16,
  0xbc, 0x0d, 0x21, 0xeb, 0xe0, 0x3d, 0xfb, 0x9e, 0x7f, 0x1d, 0xd3, 0x70, 0xc0,
  0xbe, 0x63, 0x42, 0x77, 0xc1, 0xb2, 0x47, 0x7f, 0xbe, 0x65, 0x25, 0x09, 0xf8,
  0xf4, 0x13, 0xab, 0x01, 0xdb, 0xe6, 0xa6, 0x0e, 0xd2, 0xc3, 0x7f, 0xc3, 0xfa,
  0x18, 0x27, 0xaf, 0x19, 0x3d, 0xdd, 0x10, 0xc1, 0xc6, 0xe3, 0x0e, 0x3b, 0xdb,
  0xc5, 0x11, 0x9e, 0x05, 0x34, 0x81, 0x3f, 0x2c, 0x12, 0x7f, 0x64, 0x0c, 0x03,
  0xf2, 0x08, 0xfc, 0x98, 0x4a, 0x08, 0xbd, 0xc0, 0xaa, 0xe7, 0xf8, 0x0b, 0xc7,
  0xb0, 0xa7, 0xb7, 0x7f, 0x14, 0x34, 0x97, 0x1f, 0x04, 0xdf, 0xbf, 0x3d, 0x70,
  0x91, 0x42, 0x44, 0x06, 0xee, 0x29, 0x5d, 0xef, 0x01, 0xfa, 0x0f, 0x18, 0x81,
  0x47, 0x37, 0x09, 0x0f, 0xa1, 0x9d, 0x1b, 0xde, 0xf6, 0x3e, 0x23, 0x81, 0xbe,
  0x05, 0x05, 0x76, 0xf6, 0xff, 0xff, 0x04, 0x00, 0x00, 0x00, 0x60, 0x00, 0x00,
  0x00, 0x00, 0x00, 0x00, 0x00, 0x00, 0x00, 0x00, 0x00, 0x00, 0x00, 0x00, 0x00,
  0x00, 0x00, 0x00, 0x00, 0x00, 0x00, 0x00, 0x00, 0x00, 0x00, 0x00, 0x00, 0x00,
  0x00, 0x00, 0x00, 0x00, 0x00, 0x00, 0x00, 0x00, 0x00, 0x00, 0x00, 0x00, 0x00,
  0x00, 0x00, 0x00, 0x00, 0x00, 0x00, 0x00, 0x00, 0x00, 0x00, 0x00, 0x00, 0x00,
  0x00, 0x00, 0x00, 0x00, 0x00, 0x00, 0x00, 0x00, 0x00, 0x00, 0x00, 0x00, 0x00,
  0x00, 0x00, 0x00, 0x00, 0x00, 0x00, 0x00, 0x00, 0x00, 0x00, 0x00, 0x00, 0x00,
  0x00, 0x00, 0x00, 0x00, 0x00, 0x00, 0x00, 0x00, 0x00, 0x00, 0x00, 0x00, 0x00,
  0x00, 0x00, 0x00, 0x00, 0x00, 0x00, 0xe2, 0xf6, 0xff, 0xff, 0x04, 0x00, 0x00,
  0x00, 0x2d, 0x00, 0x00, 0x00, 0x7f, 0x81, 0xac, 0x7f, 0x81, 0x81, 0x7f, 0xf2,
  0x7f, 0x47, 0xba, 0x98, 0x7f, 0x56, 0x9d, 0xe9, 0x3c, 0x81, 0x6d, 0xa2, 0x29,
  0x17, 0xf1, 0xa0, 0x7f, 0x81, 0x7f, 0x61, 0x7f, 0x95, 0x34, 0xc3, 0xcd, 0xef,
  0xde, 0x48, 0x36, 0x81, 0x2a, 0x01, 0xf4, 0xef, 0xdf, 0x38, 0x81, 0x00, 0x00,
  0x00, 0x1e, 0xf7, 0xff, 0xff, 0x04, 0x00, 0x00, 0x00, 0x2d, 0x00, 0x00, 0x00,
  0xd8, 0x0f, 0x83, 0x1d, 0x7f, 0x0b, 0xea, 0x7f, 0xdd, 0xd0, 0x9f, 0xf1, 0x7f,
  0x81, 0x81, 0xb5, 0x7f, 0x0d, 0x00, 0x09, 0x81, 0x81, 0x23, 0x81, 0x3e, 0x7f,
  0x81, 0x1f, 0x89, 0x72, 0x81, 0xec, 0x7f, 0x81, 0x27, 0xf5, 0x43, 0x10, 0xa8,
  0x7f, 0x18, 0xdc, 0x7c, 0xf7, 0x10, 0x00, 0x00, 0x00, 0x5a, 0xf7, 0xff, 0xff,
  0x04, 0x00, 0x00, 0x00, 0x2c, 0x01, 0x00, 0x00, 0x30, 0x81, 0x5e, 0xda, 0xf2,
  0xd8, 0x1b, 0x3f, 0x88, 0xff, 0x1c, 0x0b, 0xca, 0xff, 0x2a, 0x17, 0x0b, 0xc1,
  0x37, 0xbf, 0x3e, 0x57, 0xfd, 0xf2, 0x03, 0x29, 0xf6, 0x02, 0x55, 0x28, 0xbc,
  0xfa, 0x1b, 0x0f, 0x7f, 0x13, 0x46, 0x4c, 0x08, 0x14, 0xc5, 0x09, 0xf7, 0xe6,
  0xed, 0xa6, 0xac, 0x62, 0x3e, 0x02, 0x00, 0x05, 0x7a, 0x06, 0xc8, 0x4b, 0xe0,
  0x81, 0xad, 0x89, 0x2b, 0x0d, 0x29, 0xe9, 0x0b, 0xf8, 0x37, 0x43, 0x0a, 0xea,
  0x81, 0x02, 0xb0, 0x04, 0xb4, 0xff, 0xd0, 0x3e, 0x1b, 0xf3, 0xe8, 0xf5, 0x4a,
  0xd9, 0x03, 0xfc, 0xe7, 0x0a, 0x0f, 0x86, 0x81, 0x03, 0x13, 0x0a, 0x08, 0x1f,
  0xd7, 0xf7, 0xf6, 0xfb, 0xfa, 0x0d, 0x5f, 0x7f, 0xfd, 0x21, 0x10, 0x0f, 0xb0,
  0x3f, 0xfb, 0x0d, 0xf2, 0x0e, 0xb9, 0xee, 0xea, 0x53, 0x16, 0x2d, 0xec, 0xd3,
  0x77, 0x30, 0xfd, 0xd8, 0x18, 0x51, 0xfd, 0x4e, 0xf4, 0xfc, 0xdf, 0x06, 0x81,
  0xb6, 0xa1, 0x88, 0xd5, 0xd3, 0x2b, 0xd8, 0xee, 0xf9, 0x0d, 0xda, 0x37, 0x0f,
  0xe3, 0x7f, 0xb6, 0x02, 0x16, 0x0a, 0xd5, 0x39, 0x06, 0xcd, 0x1b, 0xab, 0xda,
  0x01, 0xbe, 0x24, 0x05, 0xf4, 0xf9, 0x08, 0xd3, 0x3e, 0xef, 0x0f, 0x44, 0xea,
  0x81, 0xec, 0x3a, 0x0b, 0xab, 0x14, 0xc5, 0xfb, 0xb2, 0xea, 0x07, 0x08, 0x06,
  0xa3, 0xe7, 0x7f, 0x1c, 0x03, 0x1b, 0xf2, 0x9e, 0xb3, 0x16, 0xc1, 0xef, 0x3d,
  0x07, 0x7f, 0x23, 0x3f, 0x0b, 0x5f, 0xc9, 0xe0, 0x16, 0xf0, 0x48, 0x10, 0x41,
  0xe4, 0xcf, 0xf7, 0x37, 0x76, 0xfc, 0x59, 0x87, 0xd2, 0x48, 0x13, 0x00, 0xe5,
  0xd4, 0x35, 0x9a, 0x81, 0xb6, 0x09, 0xdf, 0xbf, 0xad, 0x89, 0xbc, 0xd8, 0x12,
  0xf8, 0x28, 0xfa, 0x0e, 0x81, 0x0d, 0xfd, 0x98, 0xd8, 0x26, 0xd3, 0x5a, 0xf9,
  0x73, 0xf9, 0x04, 0x71, 0xe3, 0x82, 0x89, 0xf7, 0xec, 0x0e, 0x81, 0x15, 0xf6,
  0x01, 0xee, 0xd7, 0xd4, 0x15, 0x55, 0xfe, 0x18, 0xf8, 0xfd, 0xdb, 0x04, 0x25,
  0x01, 0x0e, 0xc8, 0x47, 0x4a, 0xc1, 0xf9, 0x39, 0xde, 0x2d, 0xf3, 0x43, 0xd6,
  0x05, 0x56, 0xf1, 0x81, 0xfe, 0xb9, 0xaa, 0xe3, 0x73, 0x92, 0xf8, 0xff, 0xff,
  0x04, 0x00, 0x00, 0x00, 0x3c, 0x00, 0x00, 0x00, 0xd9, 0xfd, 0xa0, 0x77, 0x81,
  0xb1, 0x81, 0xae, 0x7f, 0x5f, 0xcf, 0x7f, 0x01, 0xd7, 0x13, 0x59, 0xce, 0xc4,
  0x2f, 0x81, 0xaa, 0x7f, 0x7f, 0x7f, 0x66, 0x7f, 0x6a, 0x7f, 0x61, 0x81, 0x7f,
  0xce, 0x81, 0x7f, 0x34, 0x20, 0xae, 0x9e, 0x7f, 0x71, 0x7f, 0x32, 0xf1, 0xf8,
  0xb6, 0xcf, 0x2c, 0xd8, 0xe0, 0x1f, 0xb3, 0x36, 0xda, 0xb2, 0x81, 0x81, 0x7f,
  0x81, 0x4c, 0x0e, 0xda, 0xf8, 0xff, 0xff, 0x04, 0x00, 0x00, 0x00, 0x3c, 0x00,
  0x00, 0x00, 0x81, 0x56, 0xd2, 0x61, 0x81, 0x30, 0x81, 0x47, 0x81, 0x7d, 0xd6,
  0xcb, 0x81, 0xdb, 0x81, 0xa9, 0xca, 0xe7, 0x53, 0xee, 0xfb, 0x81, 0x7f, 0x22,
  0xdc, 0x7f, 0x33, 0x81, 0x4c, 0x07, 0x8e, 0x7f, 0x13, 0x7f, 0xd6, 0x7f, 0x81,
  0x7f, 0x4a, 0x81, 0xd8, 0x28, 0xbd, 0x81, 0x6b, 0x3b, 0x59, 0x2e, 0xf3, 0x81,
  0x7f, 0x30, 0x71, 0x9b, 0x89, 0xdd, 0xf5, 0x96, 0x81, 0xb4, 0x22, 0xf9, 0xff,
  0xff, 0x04, 0x00, 0x00, 0x00, 0xe1, 0x00, 0x00, 0x00, 0xde, 0xf9, 0x99, 0xd3,
  0x08, 0xe2, 0x21, 0xeb, 0x96, 0xf6, 0xeb, 0x81, 0x0e, 0xef, 0xe9, 0x3c, 0xf0,
  0x92, 0xe3, 0x4f, 0x11, 0xae, 0xd9, 0x2b, 0x06, 0xbf, 0x7f, 0x09, 0x61, 0x1d,
  0x71, 0x9b, 0x7f, 0x7f, 0xf3, 0x3b, 0xdb, 0x70, 0x04, 0x08, 0xd7, 0x42, 0x2d,
  0xd7, 0xe1, 0xf7, 0xc5, 0x7f, 0xbb, 0xd6, 0x88, 0xf2, 0x1c, 0xd7, 0xcd, 0x39,
  0xfe, 0x3a, 0xfc, 0xf3, 0x50, 0x4a, 0x49, 0x27, 0x2c, 0x57, 0x01, 0x0b, 0xc1,
  0x34, 0x7f, 0xc0, 0x16, 0x0c, 0xbe, 0x0b, 0x2d, 0xd8, 0xcf, 0xc6, 0x1c, 0x7f,
  0x41, 0x9f, 0xae, 0x46, 0xd5, 0x16, 0xac, 0x29, 0xee, 0x84, 0x7c, 0x29, 0x84,
  0x0c, 0x7f, 0x46, 0x0c, 0xfb, 0xe9, 0xdc, 0x20, 0x17, 0x16, 0x1e, 0xdc, 0x24,
  0x0e, 0xdd, 0x01, 0x2c, 0x0f, 0xff, 0xdd, 0xe0, 0xe3, 0x81, 0xe2, 0xd7, 0x54,
  0x0f, 0x7f, 0x2b, 0xb7, 0x21, 0x25, 0x56, 0x1f, 0xdd, 0x37, 0x3c, 0x02, 0x9c,
  0x01, 0x04, 0x1b, 0x81, 0x26, 0xbb, 0x1d, 0xd1, 0x1b, 0xaf, 0x2c, 0x4e, 0xd2,
  0xcf, 0x26, 0x7b, 0xce, 0x0c, 0x29, 0x16, 0xdd, 0x0a, 0x81, 0xf4, 0x0c, 0xfd,
  0x43, 0x30, 0x10, 0xde, 0xe3, 0x1a, 0xc9, 0x66, 0x09, 0x52, 0x24, 0x18, 0xe8,
  0x7f, 0x76, 0x05, 0xfa, 0xc5, 0x3e, 0x13, 0x6d, 0xe5, 0x7f, 0x77, 0x0a, 0x3d,
  0x02, 0x0e, 0xdc, 0xf5, 0xc7, 0x38, 0x0f, 0xfb, 0xfb, 0xba, 0xcd, 0xa0, 0x1c,
  0x07, 0x02, 0x81, 0xf4, 0x02, 0x1e, 0x16, 0x28, 0xe8, 0x29, 0x0c, 0x38, 0x33,
  0x02, 0x13, 0xf9, 0x41, 0x08, 0x3a, 0xec, 0xbc, 0x7f, 0x20, 0x21, 0xe0, 0x52,
  0x00, 0x00, 0x00, 0x12, 0xfa, 0xff, 0xff, 0x04, 0x00, 0x00, 0x00, 0x4b, 0x00,
  0x00, 0x00, 0x15, 0x04, 0x48, 0x06, 0x05, 0x08, 0x0c, 0xe7, 0x20, 0x3d, 0xf8,
  0xe5, 0x7f, 0xf3, 0xfb, 0x81, 0x36, 0x81, 0xfa, 0xe0, 0x17, 0xe2, 0x32, 0x81,
  0x7f, 0xf4, 0x7f, 0xa3, 0x13, 0x04, 0x00, 0x81, 0xf3, 0x7f, 0xf2, 0x7f, 0x7f,
  0x31, 0x9a, 0x3b, 0x81, 0x26, 0xf2, 0x7f, 0x81, 0x01, 0xa0, 0x0a, 0x1c, 0x81,
  0x06, 0x23, 0x7f, 0xc8, 0xfa, 0xea, 0x15, 0xfe, 0x7f, 0xe6, 0x03, 0xcc, 0x0f,
  0x07, 0xf7, 0x10, 0x14, 0x59, 0xda, 0x03, 0x0b, 0x0b, 0x04, 0x48, 0xc9, 0x00,
  0x6a, 0xfa, 0xff, 0xff, 0x04, 0x00, 0x00, 0x00, 0x4b, 0x00, 0x00, 0x00, 0xfe,
  0xf6, 0x17, 0xf5, 0x17, 0x00, 0x04, 0xf6, 0x7f, 0xe8, 0x0e, 0x05, 0x01, 0x02,
  0x00, 0xfd, 0x2b, 0x81, 0x8d, 0x85, 0x59, 0x81, 0xc1, 0xbd, 0x06, 0x7f, 0x3f,
  0xe5, 0xd9, 0xfb, 0x81, 0x7f, 0x07, 0x81, 0x81, 0x7f, 0x03, 0x9e, 0xee, 0x81,
  0x4a, 0x81, 0xef, 0x81, 0x81, 0x0e, 0x32, 0x18, 0x01, 0x8b, 0x33, 0x27, 0x81,
  0xf7, 0xd8, 0x09, 0xf3, 0x81, 0xc6, 0xc5, 0x1d, 0x08, 0x0d, 0x01, 0xf8, 0xfd,
  0x15, 0xd5, 0xff, 0xf9, 0xee, 0xfe, 0x07, 0xe6, 0xd1, 0x00, 0xc2, 0xfa, 0xff,
  0xff, 0x04, 0x00, 0x00, 0x00, 0x2c, 0x01, 0x00, 0x00, 0xcf, 0xce, 0xcd, 0x3d,
  0x7f, 0xbe, 0x0b, 0xf5, 0x11, 0xff, 0xfb, 0xff, 0x03, 0xff, 0x0a, 0x0c, 0xe5,
  0xfd, 0xfb, 0x03, 0xea, 0xf4, 0x81, 0x0b, 0xf3, 0xf9, 0xd5, 0xdd, 0x1d, 0xff,
  0x00, 0xfd, 0x00, 0x00, 0xeb, 0xe3, 0xea, 0xfc, 0x06, 0x02, 0xfe, 0x06, 0x0c,
  0x03, 0x07, 0x05, 0x0a, 0x09, 0x07, 0x00, 0x01, 0xfe, 0xff, 0x00, 0x4c, 0xfe,
  0xf9, 0x81, 0x01, 0x00, 0xfe, 0xeb, 0xd9, 0xbf, 0xba, 0x90, 0x7f, 0xf2, 0x18,
  0x07, 0x09, 0x9b, 0xff, 0x16, 0x24, 0x05, 0x8d, 0x01, 0xfe, 0x00, 0xfc, 0x02,
  0xe5, 0x4c, 0xee, 0x04, 0x22, 0xfe, 0x1f, 0x04, 0x08, 0xe8, 0xf6, 0xf5, 0xb5,
  0xc7, 0x7f, 0xef, 0x26, 0xf8, 0x48, 0xdd, 0x06, 0x2e, 0x31, 0x3f, 0x81, 0x0e,
  0xff, 0x0a, 0xff, 0x57, 0xfa, 0x10, 0xff, 0xfa, 0x56, 0xe8, 0x02, 0xf9, 0xfe,
  0x1f, 0xfb, 0xd2, 0x0e, 0x13, 0xfc, 0x03, 0xf8, 0x02, 0xfe, 0x00, 0xfe, 0xf9,
  0x7f, 0xfe, 0x07, 0xc6, 0x03, 0x00, 0x5d, 0x46, 0x10, 0x22, 0x02, 0xbb, 0xeb,
  0x20, 0x1a, 0xff, 0xfe, 0x44, 0x00, 0x01, 0xed, 0xe4, 0x7f, 0xf8, 0x1f, 0x04,
  0x01, 0x23, 0x1e, 0xcf, 0xe0, 0x49, 0x35, 0x0a, 0xe9, 0xfe, 0x04, 0x81, 0x04,
  0x0a, 0xdb, 0xf5, 0x05, 0x26, 0x05, 0xfc, 0x0c, 0xd1, 0x1d, 0xdf, 0x12, 0x20,
  0xff, 0xa2, 0xac, 0x05, 0xfd, 0x7f, 0xfd, 0x0d, 0x03, 0xf4, 0xbd, 0x08, 0xc5,
  0xfa, 0x63, 0x1c, 0xf7, 0x03, 0x03, 0x6b, 0xe8, 0x9f, 0xdc, 0xe6, 0x06, 0xaf,
  0x14, 0xe8, 0xca, 0xeb, 0xef, 0x81, 0xee, 0x0a, 0x28, 0x27, 0x81, 0x34, 0xba,
  0x34, 0xdb, 0xec, 0x0a, 0xfd, 0x0c, 0x1a, 0xfc, 0xf9, 0x03, 0x0c, 0x15, 0x9e,
  0xf4, 0xf5, 0x4c, 0x15, 0x2f, 0x81, 0xf4, 0x1b, 0x1e, 0x12, 0xb7, 0x07, 0x00,
  0x42, 0x06, 0x04, 0x19, 0x13, 0x73, 0x04, 0xfd, 0xfd, 0x18, 0x46, 0xf8, 0x21,
  0xfc, 0xbb, 0x0f, 0x61, 0x7f, 0xff, 0x02, 0x9f, 0x01, 0x04, 0xf2, 0xeb, 0x3d,
  0xfa, 0x4c, 0x00, 0x00, 0x31, 0xe7, 0x7f, 0x04, 0xcd, 0x12, 0x2f, 0x3f, 0x04,
  0x04, 0xa3, 0x02, 0x14, 0x2c, 0xfd, 0x42, 0xea, 0x23, 0xff, 0xfa, 0xfb, 0xff,
  0xff, 0x04, 0x00, 0x00, 0x00, 0x78, 0x00, 0x00, 0x00, 0x00, 0x00, 0x00, 0x00,
  0x00, 0x00, 0x00, 0x00, 0x00, 0x00, 0x00, 0x00, 0x00, 0x00, 0x00, 0x00, 0x00,
  0x00, 0x00, 0x00, 0x00, 0x00, 0x00, 0x00, 0x00, 0x00, 0x00, 0x00, 0x00, 0x00,
  0x00, 0x00, 0x00, 0x00, 0x00, 0x00, 0x00, 0x00, 0x00, 0x00, 0x00, 0x00, 0x00,
  0x00, 0x00, 0x00, 0x00, 0x00, 0x00, 0x00, 0x00, 0x00, 0x00, 0x00, 0x00, 0x00,
  0x00, 0x00, 0x00, 0x00, 0x00, 0x00, 0x00, 0x00, 0x00, 0x00, 0x00, 0x00, 0x00,
  0x00, 0x00, 0x00, 0x00, 0x00, 0x00, 0x00, 0x00, 0x00, 0x00, 0x00, 0x00, 0x00,
  0x00, 0x00, 0x00, 0x00, 0x00, 0x00, 0x00, 0x00, 0x00, 0x00, 0x00, 0x00, 0x00,
  0x00, 0x00, 0x00, 0x00, 0x00, 0x00, 0x00, 0x00, 0x00, 0x00, 0x00, 0x00, 0x00,
  0x00, 0x00, 0x00, 0x00, 0x00, 0x00, 0x00, 0x00, 0x00, 0x00, 0x00, 0x00, 0x7e,
  0xfc, 0xff, 0xff, 0x04, 0x00, 0x00, 0x00, 0x3c, 0x00, 0x00, 0x00, 0x30, 0x98,
  0x50, 0x12, 0x13, 0x39, 0x1f, 0x81, 0x8b, 0x95, 0x21, 0x67, 0x02, 0xcb, 0x73,
  0xd5, 0x81, 0x7f, 0xbf, 0xe5, 0x81, 0xe7, 0x7f, 0x72, 0x6a, 0x81, 0x7f, 0x32,
  0xf5, 0xd1, 0x81, 0x06, 0x81, 0x7f, 0x7f, 0x7f, 0xcc, 0xee, 0xc1, 0xd0, 0x52,
  0x7f, 0xb7, 0x81, 0x7f, 0x43, 0x32, 0x54, 0x7f, 0x81, 0x5a, 0x81, 0x4d, 0xb3,
  0xdd, 0xac, 0x0c, 0x1e, 0x7f, 0x81, 0xc6, 0xfc, 0xff, 0xff, 0x04, 0x00, 0x00,
  0x00, 0x3c, 0x00, 0x00, 0x00, 0xb4, 0x7f, 0xdd, 0x7f, 0x81, 0xba, 0xe5, 0xe6,
  0xb9, 0xa0, 0x7f, 0x02, 0x7f, 0x1f, 0x7f, 0x0c, 0x0a, 0xfd, 0x0e, 0x7f, 0x7f,
  0xa9, 0x7f, 0xc9, 0x10, 0xea, 0x7f, 0x81, 0x81, 0x81, 0x83, 0x81, 0xa6, 0x81,
  0xe2, 0x81, 0x81, 0xf3, 0x81, 0xc6, 0xd3, 0xf9, 0x1e, 0x17, 0x6b, 0x7f, 0x9e,
  0x97, 0xbf, 0xab, 0x03, 0x6d, 0x3b, 0x5f, 0xdb, 0x1f, 0x76, 0x81, 0x10, 0x67,
  0x0e, 0xfd, 0xff, 0xff, 0x04, 0x00, 0x00, 0x00, 0x14, 0x00, 0x00, 0x00, 0x81,
  0x7f, 0x7f, 0x81, 0x7f, 0x81, 0x7f, 0x81, 0x81, 0x7f, 0x7f, 0x81, 0x7f, 0x81,
  0x7f, 0x81, 0x81, 0x7f, 0x81, 0x7f, 0x2e, 0xfd, 0xff, 0xff, 0x04, 0x00, 0x00,
  0x00, 0xa0, 0x00, 0x00, 0x00, 0x00, 0x00, 0x00, 0x00, 0x00, 0x00, 0x00, 0x00,
  0x00, 0x00, 0x00, 0x00, 0x00, 0x00, 0x00, 0x00, 0x00, 0x00, 0x00, 0x00, 0x00,
  0x00, 0x00, 0x00, 0x00, 0x00, 0x00, 0x00, 0x00, 0x00, 0x00, 0x00, 0x00, 0x00,
  0x00, 0x00, 0x00, 0x00, 0x00, 0x00, 0x00, 0x00, 0x00, 0x00, 0x00, 0x00, 0x00,
  0x00, 0x00, 0x00, 0x00, 0x00, 0x00, 0x00, 0x00, 0x00, 0x00, 0x00, 0x00, 0x00,
  0x00, 0x00, 0x00, 0x00, 0x00, 0x00, 0x00, 0x00, 0x00, 0x00, 0x00, 0x00, 0x00,
  0x00, 0x00, 0x00, 0x00, 0x00, 0x00, 0x00, 0x00, 0x00, 0x00, 0x00, 0x00, 0x00,
  0x00, 0x00, 0x00, 0x00, 0x00, 0x00, 0x00, 0x00, 0x00, 0x00, 0x00, 0x00, 0x00,
  0x00, 0x00, 0x00, 0x00, 0x00, 0x00, 0x00, 0x00, 0x00, 0x00, 0x00, 0x00, 0x00,
  0x00, 0x00, 0x00, 0x00, 0x00, 0x00, 0x00, 0x00, 0x00, 0x00, 0x00, 0x00, 0x00,
  0x00, 0x00, 0x00, 0x00, 0x00, 0x00, 0x00, 0x00, 0x00, 0x00, 0x00, 0x00, 0x00,
  0x00, 0x00, 0x00, 0x00, 0x00, 0x00, 0x00, 0x00, 0x00, 0x00, 0x00, 0x00, 0x00,
  0x00, 0x00, 0x00, 0x00, 0x00, 0x00, 0x00, 0x00, 0x00, 0xda, 0xfd, 0xff, 0xff,
  0x04, 0x00, 0x00, 0x00, 0x05, 0x00, 0x00, 0x00, 0x7f, 0xff, 0x01, 0x00, 0x00,
  0x00, 0x00, 0x00, 0xee, 0xfd, 0xff, 0xff, 0x04, 0x00, 0x00, 0x00, 0x05, 0x00,
  0x00, 0x00, 0x00, 0x01, 0xff, 0x7f, 0xff, 0x00, 0x00, 0x00, 0x02, 0xfe, 0xff,
  0xff, 0x04, 0x00, 0x00, 0x00, 0x08, 0x00, 0x00, 0x00, 0x00, 0x00, 0x00, 0x00,
  0x00, 0x00, 0x00, 0x00, 0x16, 0xfe, 0xff, 0xff, 0x04, 0x00, 0x00, 0x00, 0x20,
  0x00, 0x00, 0x00, 0x00, 0x00, 0x00, 0x00, 0x00, 0x00, 0x00, 0x00, 0x02, 0x00,
  0x00, 0x00, 0x02, 0x00, 0x00, 0x00, 0x02, 0x00, 0x00, 0x00, 0x02, 0x00, 0x00,
  0x00, 0x00, 0x00, 0x00, 0x00, 0x00, 0x00, 0x00, 0x00, 0x42, 0xfe, 0xff, 0xff,
  0x04, 0x00, 0x00, 0x00, 0x78, 0x00, 0x00, 0x00, 0x57, 0x71, 0xff, 0xff, 0xff,
  0xff, 0xff, 0xff, 0xe1, 0xfc, 0xff, 0xff, 0xff, 0xff, 0xff, 0xff, 0x38, 0xc8,
  0xfe, 0xff, 0xff, 0xff, 0xff, 0xff, 0xea, 0x16, 0xff, 0xff, 0xff, 0xff, 0xff,
  0xff, 0xdb, 0x69, 0x00, 0x00, 0x00, 0x00, 0x00, 0x00, 0x48, 0x76, 0xff, 0xff,
  0xff, 0xff, 0xff, 0xff, 0xdb, 0x4c, 0xff, 0xff, 0xff, 0xff, 0xff, 0xff, 0x9d,
  0x70, 0x00, 0x00, 0x00, 0x00, 0x00, 0x00, 0x9b, 0x8f, 0x00, 0x00, 0x00, 0x00,
  0x00, 0x00, 0xb2, 0xed, 0xff, 0xff, 0xff, 0xff, 0xff, 0xff, 0xcf, 0x89, 0xfe,
  0xff, 0xff, 0xff, 0xff, 0xff, 0x50, 0x93, 0xff, 0xff, 0xff, 0xff, 0xff, 0xff,
  0x6d, 0x06, 0x01, 0x00, 0x00, 0x00, 0x00, 0x00, 0x5a, 0x04, 0x00, 0x00, 0x00,
  0x00, 0x00, 0x00, 0x3d, 0x6d, 0xff, 0xff, 0xff, 0xff, 0xff, 0xff, 0xc6, 0xfe,
  0xff, 0xff, 0x04, 0x00, 0x00, 0x00, 0x60, 0x00, 0x00, 0x00, 0xcf, 0x79, 0x03,
  0x00, 0x00, 0x00, 0x00, 0x00, 0x6c, 0xe3, 0xff, 0xff, 0xff, 0xff, 0xff, 0xff,
  0xe8, 0x58, 0x00, 0x00, 0x00, 0x00, 0x00, 0x00, 0x1b, 0x06, 0x00, 0x00, 0x00,
  0x00, 0x00, 0x00, 0xba, 0x30, 0x00, 0x00, 0x00, 0x00, 0x00, 0x00, 0x1b, 0xdc,
  0xff, 0xff, 0xff, 0xff, 0xff, 0xff, 0xd3, 0xbd, 0xff, 0xff, 0xff, 0xff, 0xff,
  0xff, 0x74, 0xb9, 0xff, 0xff, 0xff, 0xff, 0xff, 0xff, 0x9e, 0xe8, 0xff, 0xff,
  0xff, 0xff, 0xff, 0xff, 0x5a, 0xcc, 0xff, 0xff, 0xff, 0xff, 0xff, 0xff, 0xb0,
  0xf6, 0xff, 0xff, 0xff, 0xff, 0xff, 0xff, 0xd7, 0x62, 0x00, 0x00, 0x00, 0x00,
  0x00, 0x00, 0x32, 0xff, 0xff, 0xff, 0x04, 0x00, 0x00, 0x00, 0x48, 0x00, 0x00,
  0x00, 0x6a, 0x1d, 0x00, 0x00, 0x00, 0x00, 0x00, 0x00, 0x12, 0xe3, 0xff, 0xff,
  0xff, 0xff, 0xff, 0xff, 0xdd, 0x27, 0xff, 0xff, 0xff, 0xff, 0xff, 0xff, 0x45,
  0x8e, 0xff, 0xff, 0xff, 0xff, 0xff, 0xff, 0xf0, 0xa2, 0x00, 0x00, 0x00, 0x00,
  0x00, 0x00, 0x15, 0xcb, 0xff, 0xff, 0xff, 0xff, 0xff, 0xff, 0xc6, 0xb7, 0xff,
  0xff, 0xff, 0xff, 0xff, 0xff, 0xa0, 0xe6, 0xfe, 0xff, 0xff, 0xff, 0xff, 0xff,
  0xbc, 0xad, 0xff, 0xff, 0xff, 0xff, 0xff, 0xff, 0x86, 0xff, 0xff, 0xff, 0x04,
  0x00, 0x00, 0x00, 0x38, 0x00, 0x00, 0x00, 0x49, 0xf3, 0xfe, 0xff, 0xff, 0xff,
  0xff, 0xff, 0xa6, 0xa9, 0xff, 0xff, 0xff, 0xff, 0xff, 0xff, 0x0e, 0x48, 0xff,
  0xff, 0xff, 0xff, 0xff, 0xff, 0xe4, 0xdf, 0xea, 0xff, 0xff, 0xff, 0xff, 0xff,
  0xa8, 0x42, 0xff, 0xff, 0xff, 0xff, 0xff, 0xff, 0x44, 0x01, 0xff, 0xff, 0xff,
  0xff, 0xff, 0xff, 0xc8, 0x3e, 0x00, 0x00, 0x00, 0x00, 0x00, 0x00, 0xca, 0xff,
  0xff, 0xff, 0x04, 0x00, 0x00, 0x00, 0x28, 0x00, 0x00, 0x00, 0x70, 0x50, 0xfa,
  0xff, 0xff, 0xff, 0xff, 0xff, 0xcd, 0xef, 0xfd, 0xff, 0xff, 0xff, 0xff, 0xff,
  0x28, 0x15, 0x00, 0x00, 0x00, 0x00, 0x00, 0x00, 0x7c, 0x4a, 0x00, 0x00, 0x00,
  0x00, 0x00, 0x00, 0x81, 0x0f, 0x00, 0x00, 0x00, 0x00, 0x00, 0x00, 0x00, 0x00,
  0x06, 0x00, 0x08, 0x00, 0x04, 0x00, 0x06, 0x00, 0x00, 0x00, 0x04, 0x00, 0x00,
  0x00, 0x28, 0x00, 0x00, 0x00, 0x4e, 0x38, 0xf6, 0xff, 0xff, 0xff, 0xff, 0xff,
  0xc5, 0xbf, 0xf2, 0xff, 0xff, 0xff, 0xff, 0xff, 0x56, 0xae, 0xf7, 0xff, 0xff,
  0xff, 0xff, 0xff, 0x5a, 0xdf, 0xfc, 0xff, 0xff, 0xff, 0xff, 0xff, 0x60, 0x27,
  0xfe, 0xff, 0xff, 0xff, 0xff, 0xff, 0x48, 0x7d, 0xff, 0xff, 0x4c, 0x7d, 0xff,
  0xff, 0x0f, 0x00, 0x00, 0x00, 0x4d, 0x4c, 0x49, 0x52, 0x20, 0x43, 0x6f, 0x6e,
  0x76, 0x65, 0x72, 0x74, 0x65, 0x64, 0x2e, 0x00, 0x01, 0x00, 0x00, 0x00, 0x14,
  0x00, 0x00, 0x00, 0x00, 0x00, 0x0e, 0x00, 0x18, 0x00, 0x14, 0x00, 0x10, 0x00,
  0x0c, 0x00, 0x08, 0x00, 0x04, 0x00, 0x0e, 0x00, 0x00, 0x00, 0x14, 0x00, 0x00,
  0x00, 0x1c, 0x00, 0x00, 0x00, 0x50, 0x11, 0x00, 0x00, 0x54, 0x11, 0x00, 0x00,
  0x58, 0x11, 0x00, 0x00, 0x04, 0x00, 0x00, 0x00, 0x6d, 0x61, 0x69, 0x6e, 0x00,
  0x00, 0x00, 0x00, 0x42, 0x00, 0x00, 0x00, 0x14, 0x11, 0x00, 0x00, 0xd8, 0x10,
  0x00, 0x00, 0x78, 0x10, 0x00, 0x00, 0x24, 0x10, 0x00, 0x00, 0xd8, 0x0f, 0x00,
  0x00, 0x94, 0x0f, 0x00, 0x00, 0x50, 0x0f, 0x00, 0x00, 0x00, 0x0f, 0x00, 0x00,
  0xbc, 0x0e, 0x00, 0x00, 0x78, 0x0e, 0x00, 0x00, 0x38, 0x0e, 0x00, 0x00, 0xf4,
  0x0d, 0x00, 0x00, 0xb0, 0x0d, 0x00, 0x00, 0x70, 0x0d, 0x00, 0x00, 0x30, 0x0d,
  0x00, 0x00, 0xec, 0x0c, 0x00, 0x00, 0xa8, 0x0c, 0x00, 0x00, 0x64, 0x0c, 0x00,
  0x00, 0x20, 0x0c, 0x00, 0x00, 0xdc, 0x0b, 0x00, 0x00, 0x9c, 0x0b, 0x00, 0x00,
  0x58, 0x0b, 0x00, 0x00, 0x14, 0x0b, 0x00, 0x00, 0xd4, 0x0a, 0x00, 0x00, 0x9c,
  0x0a, 0x00, 0x00, 0x58, 0x0a, 0x00, 0x00, 0x14, 0x0a, 0x00, 0x00, 0xd0, 0x09,
  0x00, 0x00, 0x8c, 0x09, 0x00, 0x00, 0x48, 0x09, 0x00, 0x00, 0x08, 0x09, 0x00,
  0x00, 0xc4, 0x08, 0x00, 0x00, 0x80, 0x08, 0x00, 0x00, 0x40, 0x08, 0x00, 0x00,
  0x08, 0x08, 0x00, 0x00, 0xc4, 0x07, 0x00, 0x00, 0x80, 0x07, 0x00, 0x00, 0x3c,
  0x07, 0x00, 0x00, 0xf8, 0x06, 0x00, 0x00, 0xb4, 0x06, 0x00, 0x00, 0x74, 0x06,
  0x00, 0x00, 0x30, 0x06, 0x00, 0x00, 0xec, 0x05, 0x00, 0x00, 0xac, 0x05, 0x00,
  0x00, 0x74, 0x05, 0x00, 0x00, 0x30, 0x05, 0x00, 0x00, 0xec, 0x04, 0x00, 0x00,
  0xa8, 0x04, 0x00, 0x00, 0x64, 0x04, 0x00, 0x00, 0x20, 0x04, 0x00, 0x00, 0xe0,
  0x03, 0x00, 0x00, 0x9c, 0x03, 0x00, 0x00, 0x58, 0x03, 0x00, 0x00, 0x18, 0x03,
  0x00, 0x00, 0xe0, 0x02, 0x00, 0x00, 0x9c, 0x02, 0x00, 0x00, 0x58, 0x02, 0x00,
  0x00, 0x14, 0x02, 0x00, 0x00, 0xd0, 0x01, 0x00, 0x00, 0x8c, 0x01, 0x00, 0x00,
  0x4c, 0x01, 0x00, 0x00, 0x14, 0x01, 0x00, 0x00, 0xc0, 0x00, 0x00, 0x00, 0x78,
  0x00, 0x00, 0x00, 0x28, 0x00, 0x00, 0x00, 0x04, 0x00, 0x00, 0x00, 0xfe, 0xef,
  0xff, 0xff, 0x0c, 0x00, 0x00, 0x00, 0x10, 0x00, 0x00, 0x00, 0x05, 0x00, 0x00,
  0x00, 0x01, 0x00, 0x00, 0x00, 0x91, 0x00, 0x00, 0x00, 0x01, 0x00, 0x00, 0x00,
  0x8f, 0x00, 0x00, 0x00, 0xb6, 0xf0, 0xff, 0xff, 0x20, 0x00, 0x00, 0x00, 0x00,
  0x00, 0x00, 0x01, 0x28, 0x00, 0x00, 0x00, 0x2c, 0x00, 0x00, 0x00, 0x02, 0x00,
  0x00, 0x00, 0x00, 0x00, 0x0a, 0x00, 0x10, 0x00, 0x0f, 0x00, 0x08, 0x00, 0x04,
  0x00, 0x0a, 0x00, 0x00, 0x00, 0x01, 0x00, 0x00, 0x00, 0x01, 0x00, 0x00, 0x00,
  0x00, 0x00, 0x00, 0x01, 0x01, 0x00, 0x00, 0x00, 0x8f, 0x00, 0x00, 0x00, 0x03,
  0x00, 0x00, 0x00, 0x8e, 0x00, 0x00, 0x00, 0x47, 0x00, 0x00, 0x00, 0x4f, 0x00,
  0x00, 0x00, 0x02, 0xf1, 0xff, 0xff, 0x14, 0x00, 0x00, 0x00, 0x00, 0x00, 0x00,
  0x02, 0x20, 0x00, 0x00, 0x00, 0x24, 0x00, 0x00, 0x00, 0x01, 0x00, 0x00, 0x00,
  0xbc, 0xff, 0xff, 0xff, 0x01, 0x00, 0x00, 0x00, 0x01, 0x00, 0x00, 0x00, 0x01,
  0x00, 0x00, 0x00, 0x00, 0x00, 0x00, 0x01, 0x01, 0x00, 0x00, 0x00, 0x8e, 0x00,
  0x00, 0x00, 0x03, 0x00, 0x00, 0x00, 0x8d, 0x00, 0x00, 0x00, 0x46, 0x00, 0x00,
  0x00, 0x37, 0x00, 0x00, 0x00, 0x46, 0xf1, 0xff, 0xff, 0x20, 0x00, 0x00, 0x00,
  0x00, 0x00, 0x00, 0x02, 0x2c, 0x00, 0x00, 0x00, 0x30, 0x00, 0x00, 0x00, 0x01,
  0x00, 0x00, 0x00, 0x0c, 0x00, 0x14, 0x00, 0x13, 0x00, 0x0c, 0x00, 0x08, 0x00,
  0x04, 0x00, 0x0c, 0x00, 0x00, 0x00, 0x01, 0x00, 0x00, 0x00, 0x01, 0x00, 0x00,
  0x00, 0x01, 0x00, 0x00, 0x00, 0x00, 0x00, 0x00, 0x01, 0x01, 0x00, 0x00, 0x00,
  0x8d, 0x00, 0x00, 0x00, 0x03, 0x00, 0x00, 0x00, 0x8c, 0x00, 0x00, 0x00, 0x45,
  0x00, 0x00, 0x00, 0x37, 0x00, 0x00, 0x00, 0x96, 0xf1, 0xff, 0xff, 0x14, 0x00,
  0x00, 0x00, 0x00, 0x00, 0x00, 0x0b, 0x14, 0x00, 0x00, 0x00, 0x18, 0x00, 0x00,
  0x00, 0x03, 0x00, 0x00, 0x00, 0xa0, 0xf4, 0xff, 0xff, 0x00, 0x00, 0x00, 0x00,
  0x01, 0x00, 0x00, 0x00, 0x8c, 0x00, 0x00, 0x00, 0x02, 0x00, 0x00, 0x00, 0x85,
  0x00, 0x00, 0x00, 0x8b, 0x00, 0x00, 0x00, 0xca, 0xf1, 0xff, 0xff, 0x14, 0x00,
  0x00, 0x00, 0x00, 0x00, 0x00, 0x01, 0x18, 0x00, 0x00, 0x00, 0x1c, 0x00, 0x00,
  0x00, 0x02, 0x00, 0x00, 0x00, 0x52, 0xf2, 0xff, 0xff, 0x01, 0x00, 0x00, 0x00,
  0x01, 0x00, 0x00, 0x00, 0x01, 0x00, 0x00, 0x00, 0x8b, 0x00, 0x00, 0x00, 0x03,
  0x00, 0x00, 0x00, 0x8a, 0x00, 0x00, 0x00, 0x44, 0x00, 0x00, 0x00, 0x4e, 0x00,
  0x00, 0x00, 0x06, 0xf2, 0xff, 0xff, 0x14, 0x00, 0x00, 0x00, 0x00, 0x00, 0x00,
  0x02, 0x1c, 0x00, 0x00, 0x00, 0x20, 0x00, 0x00, 0x00, 0x01, 0x00, 0x00, 0x00,
  0xf8, 0xf1, 0xff, 0xff, 0x01, 0x00, 0x00, 0x00, 0x01, 0x00, 0x00, 0x00, 0x01,
  0x00, 0x00, 0x00, 0x01, 0x00, 0x00, 0x00, 0x8a, 0x00, 0x00, 0x00, 0x03, 0x00,
  0x00, 0x00, 0x89, 0x00, 0x00, 0x00, 0x43, 0x00, 0x00, 0x00, 0x37, 0x00, 0x00,
  0x00, 0x46, 0xf2, 0xff, 0xff, 0x14, 0x00, 0x00, 0x00, 0x00, 0x00, 0x00, 0x02,
  0x1c, 0x00, 0x00, 0x00, 0x20, 0x00, 0x00, 0x00, 0x01, 0x00, 0x00, 0x00, 0x38,
  0xf2, 0xff, 0xff, 0x01, 0x00, 0x00, 0x00, 0x01, 0x00, 0x00, 0x00, 0x01, 0x00,
  0x00, 0x00, 0x01, 0x00, 0x00, 0x00, 0x89, 0x00, 0x00, 0x00, 0x03, 0x00, 0x00,
  0x00, 0x88, 0x00, 0x00, 0x00, 0x42, 0x00, 0x00, 0x00, 0x37, 0x00, 0x00, 0x00,
  0x86, 0xf2, 0xff, 0xff, 0x14, 0x00, 0x00, 0x00, 0x00, 0x00, 0x00, 0x01, 0x1c,
  0x00, 0x00, 0x00, 0x20, 0x00, 0x00, 0x00, 0x02, 0x00, 0x00, 0x00, 0xdc, 0xf3,
  0xff, 0xff, 0x00, 0x00, 0x00, 0x01, 0x01, 0x00, 0x00, 0x00, 0x01, 0x00, 0x00,
  0x00, 0x01, 0x00, 0x00, 0x00, 0x88, 0x00, 0x00, 0x00, 0x03, 0x00, 0x00, 0x00,
  0x87, 0x00, 0x00, 0x00, 0x41, 0x00, 0x00, 0x00, 0x01, 0x00, 0x00, 0x00, 0xc6,
  0xf2, 0xff, 0xff, 0x14, 0x00, 0x00, 0x00, 0x00, 0x00, 0x00, 0x02, 0x1c, 0x00,
  0x00, 0x00, 0x20, 0x00, 0x00, 0x00, 0x01, 0x00, 0x00, 0x00, 0xb8, 0xf2, 0xff,
  0xff, 0x01, 0x00, 0x00, 0x00, 0x01, 0x00, 0x00, 0x00, 0x01, 0x00, 0x00, 0x00,
  0x01, 0x00, 0x00, 0x00, 0x87, 0x00, 0x00, 0x00, 0x03, 0x00, 0x00, 0x00, 0x86,
  0x00, 0x00, 0x00, 0x40, 0x00, 0x00, 0x00, 0x37, 0x00, 0x00, 0x00, 0x06, 0xf3,
  0xff, 0xff, 0x14, 0x00, 0x00, 0x00, 0x00, 0x00, 0x00, 0x02, 0x1c, 0x00, 0x00,
  0x00, 0x20, 0x00, 0x00, 0x00, 0x01, 0x00, 0x00, 0x00, 0xf8, 0xf2, 0xff, 0xff,
  0x01, 0x00, 0x00, 0x00, 0x01, 0x00, 0x00, 0x00, 0x01, 0x00, 0x00, 0x00, 0x01,
  0x00, 0x00, 0x00, 0x86, 0x00, 0x00, 0x00, 0x03, 0x00, 0x00, 0x00, 0x85, 0x00,
  0x00, 0x00, 0x3f, 0x00, 0x00, 0x00, 0x37, 0x00, 0x00, 0x00, 0x46, 0xf3, 0xff,
  0xff, 0x14, 0x00, 0x00, 0x00, 0x00, 0x00, 0x00, 0x0b, 0x14, 0x00, 0x00, 0x00,
  0x18, 0x00, 0x00, 0x00, 0x03, 0x00, 0x00, 0x00, 0x50, 0xf6, 0xff, 0xff, 0x00,
  0x00, 0x00, 0x00, 0x01, 0x00, 0x00, 0x00, 0x85, 0x00, 0x00, 0x00, 0x02, 0x00,
  0x00, 0x00, 0x84, 0x00, 0x00, 0x00, 0x81, 0x00, 0x00, 0x00, 0x7a, 0xf3, 0xff,
  0xff, 0x14, 0x00, 0x00, 0x00, 0x00, 0x00, 0x00, 0x01, 0x18, 0x00, 0x00, 0x00,
  0x1c, 0x00, 0x00, 0x00, 0x02, 0x00, 0x00, 0x00, 0x02, 0xf4, 0xff, 0xff, 0x01,
  0x00, 0x00, 0x00, 0x01, 0x00, 0x00, 0x00, 0x01, 0x00, 0x00, 0x00, 0x84, 0x00,
  0x00, 0x00, 0x03, 0x00, 0x00, 0x00, 0x83, 0x00, 0x00, 0x00, 0x3e, 0x00, 0x00,
  0x00, 0x4d, 0x00, 0x00, 0x00, 0xb6, 0xf3, 0xff, 0xff, 0x14, 0x00, 0x00, 0x00,
  0x00, 0x00, 0x00, 0x02, 0x1c, 0x00, 0x00, 0x00, 0x20, 0x00, 0x00, 0x00, 0x01,
  0x00, 0x00, 0x00, 0xa8, 0xf3, 0xff, 0xff, 0x01, 0x00, 0x00, 0x00, 0x01, 0x00,
  0x00, 0x00, 0x01, 0x00, 0x00, 0x00, 0x01, 0x00, 0x00, 0x00, 0x83, 0x00, 0x00,
  0x00, 0x03, 0x00, 0x00, 0x00, 0x82, 0x00, 0x00, 0x00, 0x3d, 0x00, 0x00, 0x00,
  0x2d, 0x00, 0x00, 0x00, 0xf6, 0xf3, 0xff, 0xff, 0x14, 0x00, 0x00, 0x00, 0x00,
  0x00, 0x00, 0x02, 0x1c, 0x00, 0x00, 0x00, 0x20, 0x00, 0x00, 0x00, 0x01, 0x00,
  0x00, 0x00, 0xe8, 0xf3, 0xff, 0xff, 0x01, 0x00, 0x00, 0x00, 0x01, 0x00, 0x00,
  0x00, 0x01, 0x00, 0x00, 0x00, 0x01, 0x00, 0x00, 0x00, 0x82, 0x00, 0x00, 0x00,
  0x03, 0x00, 0x00, 0x00, 0x7b, 0x00, 0x00, 0x00, 0x3c, 0x00, 0x00, 0x00, 0x2d,
  0x00, 0x00, 0x00, 0x36, 0xf4, 0xff, 0xff, 0x14, 0x00, 0x00, 0x00, 0x00, 0x00,
  0x00, 0x01, 0x18, 0x00, 0x00, 0x00, 0x1c, 0x00, 0x00, 0x00, 0x02, 0x00, 0x00,
  0x00, 0xbe, 0xf4, 0xff, 0xff, 0x01, 0x00, 0x00, 0x00, 0x01, 0x00, 0x00, 0x00,
  0x01, 0x00, 0x00, 0x00, 0x81, 0x00, 0x00, 0x00, 0x03, 0x00, 0x00, 0x00, 0x80,
  0x00, 0x00, 0x00, 0x3b, 0x00, 0x00, 0x00, 0x4d, 0x00, 0x00, 0x00, 0x72, 0xf4,
  0xff, 0xff, 0x14, 0x00, 0x00, 0x00, 0x00, 0x00, 0x00, 0x02, 0x1c, 0x00, 0x00,
  0x00, 0x20, 0x00, 0x00, 0x00, 0x01, 0x00, 0x00, 0x00, 0x64, 0xf4, 0xff, 0xff,
  0x01, 0x00, 0x00, 0x00, 0x01, 0x00, 0x00, 0x00, 0x01, 0x00, 0x00, 0x00, 0x01,
  0x00, 0x00, 0x00, 0x80, 0x00, 0x00, 0x00, 0x03, 0x00, 0x00, 0x00, 0x7f, 0x00,
  0x00, 0x00, 0x3a, 0x00, 0x00, 0x00, 0x37, 0x00, 0x00, 0x00, 0xb2, 0xf4, 0xff,
  0xff, 0x14, 0x00, 0x00, 0x00, 0x00, 0x00, 0x00, 0x02, 0x1c, 0x00, 0x00, 0x00,
  0x20, 0x00, 0x00, 0x00, 0x01, 0x00, 0x00, 0x00, 0xa4, 0xf4, 0xff, 0xff, 0x01,
  0x00, 0x00, 0x00, 0x01, 0x00, 0x00, 0x00, 0x01, 0x00, 0x00, 0x00, 0x01, 0x00,
  0x00, 0x00, 0x7f, 0x00, 0x00, 0x00, 0x03, 0x00, 0x00, 0x00, 0x7e, 0x00, 0x00,
  0x00, 0x39, 0x00, 0x00, 0x00, 0x37, 0x00, 0x00, 0x00, 0xf2, 0xf4, 0xff, 0xff,
  0x14, 0x00, 0x00, 0x00, 0x00, 0x00, 0x00, 0x01, 0x1c, 0x00, 0x00, 0x00, 0x20,
  0x00, 0x00, 0x00, 0x02, 0x00, 0x00, 0x00, 0x48, 0xf6, 0xff, 0xff, 0x00, 0x00,
  0x00, 0x01, 0x01, 0x00, 0x00, 0x00, 0x01, 0x00, 0x00, 0x00, 0x01, 0x00, 0x00,
  0x00, 0x7e, 0x00, 0x00, 0x00, 0x03, 0x00, 0x00, 0x00, 0x7d, 0x00, 0x00, 0x00,
  0x38, 0x00, 0x00, 0x00, 0x02, 0x00, 0x00, 0x00, 0x32, 0xf5, 0xff, 0xff, 0x14,
  0x00, 0x00, 0x00, 0x00, 0x00, 0x00, 0x02, 0x1c, 0x00, 0x00, 0x00, 0x20, 0x00,
  0x00, 0x00, 0x01, 0x00, 0x00, 0x00, 0x24, 0xf5, 0xff, 0xff, 0x01, 0x00, 0x00,
  0x00, 0x01, 0x00, 0x00, 0x00, 0x01, 0x00, 0x00, 0x00, 0x01, 0x00, 0x00, 0x00,
  0x7d, 0x00, 0x00, 0x00, 0x03, 0x00, 0x00, 0x00, 0x7c, 0x00, 0x00, 0x00, 0x36,
  0x00, 0x00, 0x00, 0x2d, 0x00, 0x00, 0x00, 0x72, 0xf5, 0xff, 0xff, 0x14, 0x00,
  0x00, 0x00, 0x00, 0x00, 0x00, 0x02, 0x1c, 0x00, 0x00, 0x00, 0x20, 0x00, 0x00,
  0x00, 0x01, 0x00, 0x00, 0x00, 0x64, 0xf5, 0xff, 0xff, 0x01, 0x00, 0x00, 0x00,
  0x01, 0x00, 0x00, 0x00, 0x01, 0x00, 0x00, 0x00, 0x01, 0x00, 0x00, 0x00, 0x7c,
  0x00, 0x00, 0x00, 0x03, 0x00, 0x00, 0x00, 0x7b, 0x00, 0x00, 0x00, 0x35, 0x00,
  0x00, 0x00, 0x2d, 0x00, 0x00, 0x00, 0xb2, 0xf5, 0xff, 0xff, 0x14, 0x00, 0x00,
  0x00, 0x00, 0x00, 0x00, 0x0b, 0x14, 0x00, 0x00, 0x00, 0x18, 0x00, 0x00, 0x00,
  0x03, 0x00, 0x00, 0x00, 0xbc, 0xf8, 0xff, 0xff, 0x00, 0x00, 0x00, 0x00, 0x01,
  0x00, 0x00, 0x00, 0x7b, 0x00, 0x00, 0x00, 0x02, 0x00, 0x00, 0x00, 0x7a, 0x00,
  0x00, 0x00, 0x77, 0x00, 0x00, 0x00, 0xe6, 0xf5, 0xff, 0xff, 0x14, 0x00, 0x00,
  0x00, 0x00, 0x00, 0x00, 0x01, 0x18, 0x00, 0x00, 0x00, 0x1c, 0x00, 0x00, 0x00,
  0x02, 0x00, 0x00, 0x00, 0x6e, 0xf6, 0xff, 0xff, 0x01, 0x00, 0x00, 0x00, 0x01,
  0x00, 0x00, 0x00, 0x01, 0x00, 0x00, 0x00, 0x7a, 0x00, 0x00, 0x00, 0x03, 0x00,
  0x00, 0x00, 0x79, 0x00, 0x00, 0x00, 0x34, 0x00, 0x00, 0x00, 0x4c, 0x00, 0x00,
  0x00, 0x22, 0xf6, 0xff, 0xff, 0x14, 0x00, 0x00, 0x00, 0x00, 0x00, 0x00, 0x02,
  0x1c, 0x00, 0x00, 0x00, 0x20, 0x00, 0x00, 0x00, 0x01, 0x00, 0x00, 0x00, 0x14,
  0xf6, 0xff, 0xff, 0x01, 0x00, 0x00, 0x00, 0x01, 0x00, 0x00, 0x00, 0x01, 0x00,
  0x00, 0x00, 0x01, 0x00, 0x00, 0x00, 0x79, 0x00, 0x00, 0x00, 0x03, 0x00, 0x00,
  0x00, 0x78, 0x00, 0x00, 0x00, 0x33, 0x00, 0x00, 0x00, 0x23, 0x00, 0x00, 0x00,
  0x62, 0xf6, 0xff, 0xff, 0x14, 0x00, 0x00, 0x00, 0x00, 0x00, 0x00, 0x02, 0x1c,
  0x00, 0x00, 0x00, 0x20, 0x00, 0x00, 0x00, 0x01, 0x00, 0x00, 0x00, 0x54, 0xf6,
  0xff, 0xff, 0x01, 0x00, 0x00, 0x00, 0x01, 0x00, 0x00, 0x00, 0x01, 0x00, 0x00,
  0x00, 0x01, 0x00, 0x00, 0x00, 0x78, 0x00, 0x00, 0x00, 0x03, 0x00, 0x00, 0x00,
  0x71, 0x00, 0x00, 0x00, 0x32, 0x00, 0x00, 0x00, 0x23, 0x00, 0x00, 0x00, 0xa2,
  0xf6, 0xff, 0xff, 0x14, 0x00, 0x00, 0x00, 0x00, 0x00, 0x00, 0x01, 0x18, 0x00,
  0x00, 0x00, 0x1c, 0x00, 0x00, 0x00, 0x02, 0x00, 0x00, 0x00, 0x2a, 0xf7, 0xff,
  0xff, 0x01, 0x00, 0x00, 0x00, 0x01, 0x00, 0x00, 0x00, 0x01, 0x00, 0x00, 0x00,
  0x77, 0x00, 0x00, 0x00, 0x03, 0x00, 0x00, 0x00, 0x76, 0x00, 0x00, 0x00, 0x31,
  0x00, 0x00, 0x00, 0x4c, 0x00, 0x00, 0x00, 0xde, 0xf6, 0xff, 0xff, 0x14, 0x00,
  0x00, 0x00, 0x00, 0x00, 0x00, 0x02, 0x1c, 0x00, 0x00, 0x00, 0x20, 0x00, 0x00,
  0x00, 0x01, 0x00, 0x00, 0x00, 0xd0, 0xf6, 0xff, 0xff, 0x01, 0x00, 0x00, 0x00,
  0x01, 0x00, 0x00, 0x00, 0x01, 0x00, 0x00, 0x00, 0x01, 0x00, 0x00, 0x00, 0x76,
  0x00, 0x00, 0x00, 0x03, 0x00, 0x00, 0x00, 0x75, 0x00, 0x00, 0x00, 0x30, 0x00,
  0x00, 0x00, 0x2d, 0x00, 0x00, 0x00, 0x1e, 0xf7, 0xff, 0xff, 0x14, 0x00, 0x00,
  0x00, 0x00, 0x00, 0x00, 0x02, 0x1c, 0x00, 0x00, 0x00, 0x20, 0x00, 0x00, 0x00,
  0x01, 0x00, 0x00, 0x00, 0x10, 0xf7, 0xff, 0xff, 0x01, 0x00, 0x00, 0x00, 0x01,
  0x00, 0x00, 0x00, 0x01, 0x00, 0x00, 0x00, 0x01, 0x00, 0x00, 0x00, 0x75, 0x00,
  0x00, 0x00, 0x03, 0x00, 0x00, 0x00, 0x74, 0x00, 0x00, 0x00, 0x2f, 0x00, 0x00,
  0x00, 0x2d, 0x00, 0x00, 0x00, 0x5e, 0xf7, 0xff, 0xff, 0x14, 0x00, 0x00, 0x00,
  0x00, 0x00, 0x00, 0x01, 0x1c, 0x00, 0x00, 0x00, 0x20, 0x00, 0x00, 0x00, 0x02,
  0x00, 0x00, 0x00, 0xb4, 0xf8, 0xff, 0xff, 0x00, 0x00, 0x00, 0x01, 0x01, 0x00,
  0x00, 0x00, 0x01, 0x00, 0x00, 0x00, 0x01, 0x00, 0x00, 0x00, 0x74, 0x00, 0x00,
  0x00, 0x03, 0x00, 0x00, 0x00, 0x73, 0x00, 0x00, 0x00, 0x2e, 0x00, 0x00, 0x00,
  0x03, 0x00, 0x00, 0x00, 0x9e, 0xf7, 0xff, 0xff, 0x14, 0x00, 0x00, 0x00, 0x00,
  0x00, 0x00, 0x02, 0x1c, 0x00, 0x00, 0x00, 0x20, 0x00, 0x00, 0x00, 0x01, 0x00,
  0x00, 0x00, 0x90, 0xf7, 0xff, 0xff, 0x01, 0x00, 0x00, 0x00, 0x01, 0x00, 0x00,
  0x00, 0x01, 0x00, 0x00, 0x00, 0x01, 0x00, 0x00, 0x00, 0x73, 0x00, 0x00, 0x00,
  0x03, 0x00, 0x00, 0x00, 0x72, 0x00, 0x00, 0x00, 0x2c, 0x00, 0x00, 0x00, 0x23,
  0x00, 0x00, 0x00, 0xde, 0xf7, 0xff, 0xff, 0x14, 0x00, 0x00, 0x00, 0x00, 0x00,
  0x00, 0x02, 0x1c, 0x00, 0x00, 0x00, 0x20, 0x00, 0x00, 0x00, 0x01, 0x00, 0x00,
  0x00, 0xd0, 0xf7, 0xff, 0xff, 0x01, 0x00, 0x00, 0x00, 0x01, 0x00, 0x00, 0x00,
  0x01, 0x00, 0x00, 0x00, 0x01, 0x00, 0x00, 0x00, 0x72, 0x00, 0x00, 0x00, 0x03,
  0x00, 0x00, 0x00, 0x71, 0x00, 0x00, 0x00, 0x2b, 0x00, 0x00, 0x00, 0x23, 0x00,
  0x00, 0x00, 0x1e, 0xf8, 0xff, 0xff, 0x14, 0x00, 0x00, 0x00, 0x00, 0x00, 0x00,
  0x0b, 0x14, 0x00, 0x00, 0x00, 0x18, 0x00, 0x00, 0x00, 0x03, 0x00, 0x00, 0x00,
  0x28, 0xfb, 0xff, 0xff, 0x00, 0x00, 0x00, 0x00, 0x01, 0x00, 0x00, 0x00, 0x71,
  0x00, 0x00, 0x00, 0x02, 0x00, 0x00, 0x00, 0x70, 0x00, 0x00, 0x00, 0x6d, 0x00,
  0x00, 0x00, 0x52, 0xf8, 0xff, 0xff, 0x14, 0x00, 0x00, 0x00, 0x00, 0x00, 0x00,
  0x01, 0x18, 0x00, 0x00, 0x00, 0x1c, 0x00, 0x00, 0x00, 0x02, 0x00, 0x00, 0x00,
  0xda, 0xf8, 0xff, 0xff, 0x01, 0x00, 0x00, 0x00, 0x01, 0x00, 0x00, 0x00, 0x01,
  0x00, 0x00, 0x00, 0x70, 0x00, 0x00, 0x00, 0x03, 0x00, 0x00, 0x00, 0x6f, 0x00,
  0x00, 0x00, 0x2a, 0x00, 0x00, 0x00, 0x4b, 0x00, 0x00, 0x00, 0x8e, 0xf8, 0xff,
  0xff, 0x14, 0x00, 0x00, 0x00, 0x00, 0x00, 0x00, 0x02, 0x1c, 0x00, 0x00, 0x00,
  0x20, 0x00, 0x00, 0x00, 0x01, 0x00, 0x00, 0x00, 0x80, 0xf8, 0xff, 0xff, 0x01,
  0x00, 0x00, 0x00, 0x01, 0x00, 0x00, 0x00, 0x01, 0x00, 0x00, 0x00, 0x01, 0x00,
  0x00, 0x00, 0x6f, 0x00, 0x00, 0x00, 0x03, 0x00, 0x00, 0x00, 0x6e, 0x00, 0x00,
  0x00, 0x29, 0x00, 0x00, 0x00, 0x19, 0x00, 0x00, 0x00, 0xce, 0xf8, 0xff, 0xff,
  0x14, 0x00, 0x00, 0x00, 0x00, 0x00, 0x00, 0x02, 0x1c, 0x00, 0x00, 0x00, 0x20,
  0x00, 0x00, 0x00, 0x01, 0x00, 0x00, 0x00, 0xc0, 0xf8, 0xff, 0xff, 0x01, 0x00,
  0x00, 0x00, 0x01, 0x00, 0x00, 0x00, 0x01, 0x00, 0x00, 0x00, 0x01, 0x00, 0x00,
  0x00, 0x6e, 0x00, 0x00, 0x00, 0x03, 0x00, 0x00, 0x00, 0x67, 0x00, 0x00, 0x00,
  0x28, 0x00, 0x00, 0x00, 0x19, 0x00, 0x00, 0x00, 0x0e, 0xf9, 0xff, 0xff, 0x14,
  0x00, 0x00, 0x00, 0x00, 0x00, 0x00, 0x01, 0x18, 0x00, 0x00, 0x00, 0x1c, 0x00,
  0x00, 0x00, 0x02, 0x00, 0x00, 0x00, 0x96, 0xf9, 0xff, 0xff, 0x01, 0x00, 0x00,
  0x00, 0x01, 0x00, 0x00, 0x00, 0x01, 0x00, 0x00, 0x00, 0x6d, 0x00, 0x00, 0x00,
  0x03, 0x00, 0x00, 0x00, 0x6c, 0x00, 0x00, 0x00, 0x27, 0x00, 0x00, 0x00, 0x4b,
  0x00, 0x00, 0x00, 0x4a, 0xf9, 0xff, 0xff, 0x14, 0x00, 0x00, 0x00, 0x00, 0x00,
  0x00, 0x02, 0x1c, 0x00, 0x00, 0x00, 0x20, 0x00, 0x00, 0x00, 0x01, 0x00, 0x00,
  0x00, 0x3c, 0xf9, 0xff, 0xff, 0x01, 0x00, 0x00, 0x00, 0x01, 0x00, 0x00, 0x00,
  0x01, 0x00, 0x00, 0x00, 0x01, 0x00, 0x00, 0x00, 0x6c, 0x00, 0x00, 0x00, 0x03,
  0x00, 0x00, 0x00, 0x6b, 0x00, 0x00, 0x00, 0x26, 0x00, 0x00, 0x00, 0x23, 0x00,
  0x00, 0x00, 0x8a, 0xf9, 0xff, 0xff, 0x14, 0x00, 0x00, 0x00, 0x00, 0x00, 0x00,
  0x02, 0x1c, 0x00, 0x00, 0x00, 0x20, 0x00, 0x00, 0x00, 0x01, 0x00, 0x00, 0x00,
  0x7c, 0xf9, 0xff, 0xff, 0x01, 0x00, 0x00, 0x00, 0x01, 0x00, 0x00, 0x00, 0x01,
  0x00, 0x00, 0x00, 0x01, 0x00, 0x00, 0x00, 0x6b, 0x00, 0x00, 0x00, 0x03, 0x00,
  0x00, 0x00, 0x6a, 0x00, 0x00, 0x00, 0x25, 0x00, 0x00, 0x00, 0x23, 0x00, 0x00,
  0x00, 0xca, 0xf9, 0xff, 0xff, 0x14, 0x00, 0x00, 0x00, 0x00, 0x00, 0x00, 0x01,
  0x1c, 0x00, 0x00, 0x00, 0x20, 0x00, 0x00, 0x00, 0x02, 0x00, 0x00, 0x00, 0x20,
  0xfb, 0xff, 0xff, 0x00, 0x00, 0x00, 0x01, 0x01, 0x00, 0x00, 0x00, 0x01, 0x00,
  0x00, 0x00, 0x01, 0x00, 0x00, 0x00, 0x6a, 0x00, 0x00, 0x00, 0x03, 0x00, 0x00,
  0x00, 0x69, 0x00, 0x00, 0x00, 0x24, 0x00, 0x00, 0x00, 0x04, 0x00, 0x00, 0x00,
  0x0a, 0xfa, 0xff, 0xff, 0x14, 0x00, 0x00, 0x00, 0x00, 0x00, 0x00, 0x02, 0x1c,
  0x00, 0x00, 0x00, 0x20, 0x00, 0x00, 0x00, 0x01, 0x00, 0x00, 0x00, 0xfc, 0xf9,
  0xff, 0xff, 0x01, 0x00, 0x00, 0x00, 0x01, 0x00, 0x00, 0x00, 0x01, 0x00, 0x00,
  0x00, 0x01, 0x00, 0x00, 0x00, 0x69, 0x00, 0x00, 0x00, 0x03, 0x00, 0x00, 0x00,
  0x68, 0x00, 0x00, 0x00, 0x22, 0x00, 0x00, 0x00, 0x19, 0x00, 0x00, 0x00, 0x4a,
  0xfa, 0xff, 0xff, 0x14, 0x00, 0x00, 0x00, 0x00, 0x00, 0x00, 0x02, 0x1c, 0x00,
  0x00, 0x00, 0x20, 0x00, 0x00, 0x00, 0x01, 0x00, 0x00, 0x00, 0x3c, 0xfa, 0xff,
  0xff, 0x01, 0x00, 0x00, 0x00, 0x01, 0x00, 0x00, 0x00, 0x01, 0x00, 0x00, 0x00,
  0x01, 0x00, 0x00, 0x00, 0x68, 0x00, 0x00, 0x00, 0x03, 0x00, 0x00, 0x00, 0x67,
  0x00, 0x00, 0x00, 0x21, 0x00, 0x00, 0x00, 0x19, 0x00, 0x00, 0x00, 0x8a, 0xfa,
  0xff, 0xff, 0x14, 0x00, 0x00, 0x00, 0x00, 0x00, 0x00, 0x0b, 0x14, 0x00, 0x00,
  0x00, 0x18, 0x00, 0x00, 0x00, 0x03, 0x00, 0x00, 0x00, 0x94, 0xfd, 0xff, 0xff,
  0x00, 0x00, 0x00, 0x00, 0x01, 0x00, 0x00, 0x00, 0x67, 0x00, 0x00, 0x00, 0x02,
  0x00, 0x00, 0x00, 0x66, 0x00, 0x00, 0x00, 0x63, 0x00, 0x00, 0x00, 0xbe, 0xfa,
  0xff, 0xff, 0x14, 0x00, 0x00, 0x00, 0x00, 0x00, 0x00, 0x01, 0x18, 0x00, 0x00,
  0x00, 0x1c, 0x00, 0x00, 0x00, 0x02, 0x00, 0x00, 0x00, 0x46, 0xfb, 0xff, 0xff,
  0x01, 0x00, 0x00, 0x00, 0x01, 0x00, 0x00, 0x00, 0x01, 0x00, 0x00, 0x00, 0x66,
  0x00, 0x00, 0x00, 0x03, 0x00, 0x00, 0x00, 0x65, 0x00, 0x00, 0x00, 0x20, 0x00,
  0x00, 0x00, 0x4a, 0x00, 0x00, 0x00, 0xfa, 0xfa, 0xff, 0xff, 0x14, 0x00, 0x00,
  0x00, 0x00, 0x00, 0x00, 0x02, 0x1c, 0x00, 0x00, 0x00, 0x20, 0x00, 0x00, 0x00,
  0x01, 0x00, 0x00, 0x00, 0xec, 0xfa, 0xff, 0xff, 0x01, 0x00, 0x00, 0x00, 0x01,
  0x00, 0x00, 0x00, 0x01, 0x00, 0x00, 0x00, 0x01, 0x00, 0x00, 0x00, 0x65, 0x00,
  0x00, 0x00, 0x03, 0x00, 0x00, 0x00, 0x64, 0x00, 0x00, 0x00, 0x1f, 0x00, 0x00,
  0x00, 0x0f, 0x00, 0x00, 0x00, 0x3a, 0xfb, 0xff, 0xff, 0x14, 0x00, 0x00, 0x00,
  0x00, 0x00, 0x00, 0x02, 0x1c, 0x00, 0x00, 0x00, 0x20, 0x00, 0x00, 0x00, 0x01,
  0x00, 0x00, 0x00, 0x2c, 0xfb, 0xff, 0xff, 0x01, 0x00, 0x00, 0x00, 0x01, 0x00,
  0x00, 0x00, 0x01, 0x00, 0x00, 0x00, 0x01, 0x00, 0x00, 0x00, 0x64, 0x00, 0x00,
  0x00, 0x03, 0x00, 0x00, 0x00, 0x5d, 0x00, 0x00, 0x00, 0x1e, 0x00, 0x00, 0x00,
  0x0f, 0x00, 0x00, 0x00, 0x7a, 0xfb, 0xff, 0xff, 0x14, 0x00, 0x00, 0x00, 0x00,
  0x00, 0x00, 0x01, 0x18, 0x00, 0x00, 0x00, 0x1c, 0x00, 0x00, 0x00, 0x02, 0x00,
  0x00, 0x00, 0x02, 0xfc, 0xff, 0xff, 0x01, 0x00, 0x00, 0x00, 0x01, 0x00, 0x00,
  0x00, 0x01, 0x00, 0x00, 0x00, 0x63, 0x00, 0x00, 0x00, 0x03, 0x00, 0x00, 0x00,
  0x62, 0x00, 0x00, 0x00, 0x1d, 0x00, 0x00, 0x00, 0x4a, 0x00, 0x00, 0x00, 0xb6,
  0xfb, 0xff, 0xff, 0x14, 0x00, 0x00, 0x00, 0x00, 0x00, 0x00, 0x02, 0x1c, 0x00,
  0x00, 0x00, 0x20, 0x00, 0x00, 0x00, 0x01, 0x00, 0x00, 0x00, 0xa8, 0xfb, 0xff,
  0xff, 0x01, 0x00, 0x00, 0x00, 0x01, 0x00, 0x00, 0x00, 0x01, 0x00, 0x00, 0x00,
  0x01, 0x00, 0x00, 0x00, 0x62, 0x00, 0x00, 0x00, 0x03, 0x00, 0x00, 0x00, 0x61,
  0x00, 0x00, 0x00, 0x1c, 0x00, 0x00, 0x00, 0x19, 0x00, 0x00, 0x00, 0xf6, 0xfb,
  0xff, 0xff, 0x14, 0x00, 0x00, 0x00, 0x00, 0x00, 0x00, 0x02, 0x1c, 0x00, 0x00,
  0x00, 0x20, 0x00, 0x00, 0x00, 0x01, 0x00, 0x00, 0x00, 0xe8, 0xfb, 0xff, 0xff,
  0x01, 0x00, 0x00, 0x00, 0x01, 0x00, 0x00, 0x00, 0x01, 0x00, 0x00, 0x00, 0x01,
  0x00, 0x00, 0x00, 0x61, 0x00, 0x00, 0x00, 0x03, 0x00, 0x00, 0x00, 0x60, 0x00,
  0x00, 0x00, 0x1b, 0x00, 0x00, 0x00, 0x19, 0x00, 0x00, 0x00, 0x36, 0xfc, 0xff,
  0xff, 0x14, 0x00, 0x00, 0x00, 0x00, 0x00, 0x00, 0x01, 0x1c, 0x00, 0x00, 0x00,
  0x20, 0x00, 0x00, 0x00, 0x02, 0x00, 0x00, 0x00, 0x8c, 0xfd, 0xff, 0xff, 0x00,
  0x00, 0x00, 0x01, 0x01, 0x00, 0x00, 0x00, 0x01, 0x00, 0x00, 0x00, 0x01, 0x00,
  0x00, 0x00, 0x60, 0x00, 0x00, 0x00, 0x03, 0x00, 0x00, 0x00, 0x5f, 0x00, 0x00,
  0x00, 0x1a, 0x00, 0x00, 0x00, 0x05, 0x00, 0x00, 0x00, 0x76, 0xfc, 0xff, 0xff,
  0x14, 0x00, 0x00, 0x00, 0x00, 0x00, 0x00, 0x02, 0x1c, 0x00, 0x00, 0x00, 0x20,
  0x00, 0x00, 0x00, 0x01, 0x00, 0x00, 0x00, 0x68, 0xfc, 0xff, 0xff, 0x01, 0x00,
  0x00, 0x00, 0x01, 0x00, 0x00, 0x00, 0x01, 0x00, 0x00, 0x00, 0x01, 0x00, 0x00,
  0x00, 0x5f, 0x00, 0x00, 0x00, 0x03, 0x00, 0x00, 0x00, 0x5e, 0x00, 0x00, 0x00,
  0x18, 0x00, 0x00, 0x00, 0x0f, 0x00, 0x00, 0x00, 0xb6, 0xfc, 0xff, 0xff, 0x14,
  0x00, 0x00, 0x00, 0x00, 0x00, 0x00, 0x02, 0x1c, 0x00, 0x00, 0x00, 0x20, 0x00,
  0x00, 0x00, 0x01, 0x00, 0x00, 0x00, 0xa8, 0xfc, 0xff, 0xff, 0x01, 0x00, 0x00,
  0x00, 0x01, 0x00, 0x00, 0x00, 0x01, 0x00, 0x00, 0x00, 0x01, 0x00, 0x00, 0x00,
  0x5e, 0x00, 0x00, 0x00, 0x03, 0x00, 0x00, 0x00, 0x5d, 0x00, 0x00, 0x00, 0x17,
  0x00, 0x00, 0x00, 0x0f, 0x00, 0x00, 0x00, 0xf6, 0xfc, 0xff, 0xff, 0x1c, 0x00,
  0x00, 0x00, 0x00, 0x00, 0x00, 0x0b, 0x1c, 0x00, 0x00, 0x00, 0x20, 0x00, 0x00,
  0x00, 0x03, 0x00, 0x00, 0x00, 0x08, 0x00, 0x08, 0x00, 0x00, 0x00, 0x07, 0x00,
  0x08, 0x00, 0x00, 0x00, 0x00, 0x00, 0x00, 0x00, 0x01, 0x00, 0x00, 0x00, 0x5d,
  0x00, 0x00, 0x00, 0x02, 0x00, 0x00, 0x00, 0x5c, 0x00, 0x00, 0x00, 0x59, 0x00,
  0x00, 0x00, 0x32, 0xfd, 0xff, 0xff, 0x14, 0x00, 0x00, 0x00, 0x00, 0x00, 0x00,
  0x01, 0x18, 0x00, 0x00, 0x00, 0x1c, 0x00, 0x00, 0x00, 0x02, 0x00, 0x00, 0x00,
  0xba, 0xfd, 0xff, 0xff, 0x01, 0x00, 0x00, 0x00, 0x01, 0x00, 0x00, 0x00, 0x01,
  0x00, 0x00, 0x00, 0x5c, 0x00, 0x00, 0x00, 0x03, 0x00, 0x00, 0x00, 0x5b, 0x00,
  0x00, 0x00, 0x16, 0x00, 0x00, 0x00, 0x49, 0x00, 0x00, 0x00, 0x6e, 0xfd, 0xff,
  0xff, 0x14, 0x00, 0x00, 0x00, 0x00, 0x00, 0x00, 0x02, 0x1c, 0x00, 0x00, 0x00,
  0x20, 0x00, 0x00, 0x00, 0x01, 0x00, 0x00, 0x00, 0x60, 0xfd, 0xff, 0xff, 0x01,
  0x00, 0x00, 0x00, 0x01, 0x00, 0x00, 0x00, 0x01, 0x00, 0x00, 0x00, 0x01, 0x00,
  0x00, 0x00, 0x5b, 0x00, 0x00, 0x00, 0x03, 0x00, 0x00, 0x00, 0x5a, 0x00, 0x00,
  0x00, 0x15, 0x00, 0x00, 0x00, 0x0b, 0x00, 0x00, 0x00, 0xae, 0xfd, 0xff, 0xff,
  0x14, 0x00, 0x00, 0x00, 0x00, 0x00, 0x00, 0x02, 0x1c, 0x00, 0x00, 0x00, 0x20,
  0x00, 0x00, 0x00, 0x01, 0x00, 0x00, 0x00, 0xa0, 0xfd, 0xff, 0xff, 0x01, 0x00,
  0x00, 0x00, 0x01, 0x00, 0x00, 0x00, 0x01, 0x00, 0x00, 0x00, 0x01, 0x00, 0x00,
  0x00, 0x5a, 0x00, 0x00, 0x00, 0x03, 0x00, 0x00, 0x00, 0x53, 0x00, 0x00, 0x00,
  0x14, 0x00, 0x00, 0x00, 0x0b, 0x00, 0x00, 0x00, 0xee, 0xfd, 0xff, 0xff, 0x14,
  0x00, 0x00, 0x00, 0x00, 0x00, 0x00, 0x01, 0x18, 0x00, 0x00, 0x00, 0x1c, 0x00,
  0x00, 0x00, 0x02, 0x00, 0x00, 0x00, 0x76, 0xfe, 0xff, 0xff, 0x01, 0x00, 0x00,
  0x00, 0x01, 0x00, 0x00, 0x00, 0x01, 0x00, 0x00, 0x00, 0x59, 0x00, 0x00, 0x00,
  0x03, 0x00, 0x00, 0x00, 0x58, 0x00, 0x00, 0x00, 0x13, 0x00, 0x00, 0x00, 0x49,
  0x00, 0x00, 0x00, 0x2a, 0xfe, 0xff, 0xff, 0x14, 0x00, 0x00, 0x00, 0x00, 0x00,
  0x00, 0x02, 0x1c, 0x00, 0x00, 0x00, 0x20, 0x00, 0x00, 0x00, 0x01, 0x00, 0x00,
  0x00, 0x1c, 0xfe, 0xff, 0xff, 0x01, 0x00, 0x00, 0x00, 0x01, 0x00, 0x00, 0x00,
  0x01, 0x00, 0x00, 0x00, 0x01, 0x00, 0x00, 0x00, 0x58, 0x00, 0x00, 0x00, 0x03,
  0x00, 0x00, 0x00, 0x57, 0x00, 0x00, 0x00, 0x12, 0x00, 0x00, 0x00, 0x0f, 0x00,
  0x00, 0x00, 0x6a, 0xfe, 0xff, 0xff, 0x14, 0x00, 0x00, 0x00, 0x00, 0x00, 0x00,
  0x02, 0x1c, 0x00, 0x00, 0x00, 0x20, 0x00, 0x00, 0x00, 0x01, 0x00, 0x00, 0x00,
  0x5c, 0xfe, 0xff, 0xff, 0x01, 0x00, 0x00, 0x00, 0x01, 0x00, 0x00, 0x00, 0x01,
  0x00, 0x00, 0x00, 0x01, 0x00, 0x00, 0x00, 0x57, 0x00, 0x00, 0x00, 0x03, 0x00,
  0x00, 0x00, 0x56, 0x00, 0x00, 0x00, 0x11, 0x00, 0x00, 0x00, 0x0f, 0x00, 0x00,
  0x00, 0xaa, 0xfe, 0xff, 0xff, 0x20, 0x00, 0x00, 0x00, 0x00, 0x00, 0x00, 0x01,
  0x28, 0x00, 0x00, 0x00, 0x2c, 0x00, 0x00, 0x00, 0x02, 0x00, 0x00, 0x00, 0x0c,
  0x00, 0x10, 0x00, 0x00, 0x00, 0x0c, 0x00, 0x08, 0x00, 0x07, 0x00, 0x0c, 0x00,
  0x00, 0x00, 0x00, 0x00, 0x00, 0x01, 0x01, 0x00, 0x00, 0x00, 0x01, 0x00, 0x00,
  0x00, 0x01, 0x00, 0x00, 0x00, 0x56, 0x00, 0x00, 0x00, 0x03, 0x00, 0x00, 0x00,
  0x55, 0x00, 0x00, 0x00, 0x10, 0x00, 0x00, 0x00, 0x06, 0x00, 0x00, 0x00, 0xf6,
  0xfe, 0xff, 0xff, 0x14, 0x00, 0x00, 0x00, 0x00, 0x00, 0x00, 0x02, 0x1c, 0x00,
  0x00, 0x00, 0x20, 0x00, 0x00, 0x00, 0x01, 0x00, 0x00, 0x00, 0xe8, 0xfe, 0xff,
  0xff, 0x01, 0x00, 0x00, 0x00, 0x01, 0x00, 0x00, 0x00, 0x01, 0x00, 0x00, 0x00,
  0x01, 0x00, 0x00, 0x00, 0x55, 0x00, 0x00, 0x00, 0x03, 0x00, 0x00, 0x00, 0x54,
  0x00, 0x00, 0x00, 0x0e, 0x00, 0x00, 0x00, 0x0b, 0x00, 0x00, 0x00, 0x36, 0xff,
  0xff, 0xff, 0x14, 0x00, 0x00, 0x00, 0x00, 0x00, 0x00, 0x02, 0x1c, 0x00, 0x00,
  0x00, 0x20, 0x00, 0x00, 0x00, 0x01, 0x00, 0x00, 0x00, 0x28, 0xff, 0xff, 0xff,
  0x01, 0x00, 0x00, 0x00, 0x01, 0x00, 0x00, 0x00, 0x01, 0x00, 0x00, 0x00, 0x01,
  0x00, 0x00, 0x00, 0x54, 0x00, 0x00, 0x00, 0x03, 0x00, 0x00, 0x00, 0x53, 0x00,
  0x00, 0x00, 0x0d, 0x00, 0x00, 0x00, 0x0b, 0x00, 0x00, 0x00, 0x76, 0xff, 0xff,
  0xff, 0x20, 0x00, 0x00, 0x00, 0x00, 0x00, 0x00, 0x01, 0x24, 0x00, 0x00, 0x00,
  0x28, 0x00, 0x00, 0x00, 0x02, 0x00, 0x00, 0x00, 0x00, 0x00, 0x0a, 0x00, 0x0c,
  0x00, 0x00, 0x00, 0x08, 0x00, 0x04, 0x00, 0x0a, 0x00, 0x00, 0x00, 0x01, 0x00,
  0x00, 0x00, 0x01, 0x00, 0x00, 0x00, 0x01, 0x00, 0x00, 0x00, 0x53, 0x00, 0x00,
  0x00, 0x03, 0x00, 0x00, 0x00, 0x52, 0x00, 0x00, 0x00, 0x0c, 0x00, 0x00, 0x00,
  0x48, 0x00, 0x00, 0x00, 0xbe, 0xff, 0xff, 0xff, 0x14, 0x00, 0x00, 0x00, 0x00,
  0x00, 0x00, 0x02, 0x1c, 0x00, 0x00, 0x00, 0x20, 0x00, 0x00, 0x00, 0x01, 0x00,
  0x00, 0x00, 0xb0, 0xff, 0xff, 0xff, 0x01, 0x00, 0x00, 0x00, 0x01, 0x00, 0x00,
  0x00, 0x01, 0x00, 0x00, 0x00, 0x01, 0x00, 0x00, 0x00, 0x52, 0x00, 0x00, 0x00,
  0x03, 0x00, 0x00, 0x00, 0x51, 0x00, 0x00, 0x00, 0x0a, 0x00, 0x00, 0x00, 0x08,
  0x00, 0x00, 0x00, 0x00, 0x00, 0x0e, 0x00, 0x18, 0x00, 0x14, 0x00, 0x10, 0x00,
  0x0c, 0x00, 0x0b, 0x00, 0x04, 0x00, 0x0e, 0x00, 0x00, 0x00, 0x20, 0x00, 0x00,
  0x00, 0x00, 0x00, 0x00, 0x02, 0x28, 0x00, 0x00, 0x00, 0x2c, 0x00, 0x00, 0x00,
  0x01, 0x00, 0x00, 0x00, 0x0c, 0x00, 0x10, 0x00, 0x00, 0x00, 0x0c, 0x00, 0x08,
  0x00, 0x04, 0x00, 0x0c, 0x00, 0x00, 0x00, 0x01, 0x00, 0x00, 0x00, 0x01, 0x00,
  0x00, 0x00, 0x01, 0x00, 0x00, 0x00, 0x01, 0x00, 0x00, 0x00, 0x51, 0x00, 0x00,
  0x00, 0x03, 0x00, 0x00, 0x00, 0x50, 0x00, 0x00, 0x00, 0x09, 0x00, 0x00, 0x00,
  0x08, 0x00, 0x00, 0x00, 0x00, 0x00, 0x0e, 0x00, 0x14, 0x00, 0x00, 0x00, 0x10,
  0x00, 0x0c, 0x00, 0x0b, 0x00, 0x04, 0x00, 0x0e, 0x00, 0x00, 0x00, 0x10, 0x00,
  0x00, 0x00, 0x00, 0x00, 0x00, 0x16, 0x0c, 0x00, 0x00, 0x00, 0x10, 0x00, 0x00,
  0x00, 0x94, 0x8e, 0xff, 0xff, 0x01, 0x00, 0x00, 0x00, 0x50, 0x00, 0x00, 0x00,
  0x02, 0x00, 0x00, 0x00, 0x00, 0x00, 0x00, 0x00, 0x07, 0x00, 0x00, 0x00, 0x00,
  0x00, 0x0a, 0x00, 0x10, 0x00, 0x0c, 0x00, 0x08, 0x00, 0x04, 0x00, 0x0a, 0x00,
  0x00, 0x00, 0x0c, 0x00, 0x00, 0x00, 0x10, 0x00, 0x00, 0x00, 0x04, 0x00, 0x00,
  0x00, 0x01, 0x00, 0x00, 0x00, 0x00, 0x00, 0x00, 0x00, 0x01, 0x00, 0x00, 0x00,
  0x90, 0x00, 0x00, 0x00, 0x01, 0x00, 0x00, 0x00, 0x91, 0x00, 0x00, 0x00, 0x01,
  0x00, 0x00, 0x00, 0x90, 0x00, 0x00, 0x00, 0x92, 0x00, 0x00, 0x00, 0x70, 0x75,
  0x00, 0x00, 0xcc, 0x74, 0x00, 0x00, 0x44, 0x74, 0x00, 0x00, 0xa8, 0x73, 0x00,
  0x00, 0xf4, 0x72, 0x00, 0x00, 0x18, 0x72, 0x00, 0x00, 0x1c, 0x71, 0x00, 0x00,
  0xe0, 0x70, 0x00, 0x00, 0x8c, 0x70, 0x00, 0x00, 0xf8, 0x6f, 0x00, 0x00, 0x78,
  0x6f, 0x00, 0x00, 0x40, 0x6e, 0x00, 0x00, 0x4c, 0x6c, 0x00, 0x00, 0x54, 0x6a,
  0x00, 0x00, 0x58, 0x68, 0x00, 0x00, 0x58, 0x67, 0x00, 0x00, 0xc4, 0x65, 0x00,
  0x00, 0x2c, 0x64, 0x00, 0x00, 0x98, 0x62, 0x00, 0x00, 0x08, 0x61, 0x00, 0x00,
  0x10, 0x5f, 0x00, 0x00, 0x14, 0x5d, 0x00, 0x00, 0x84, 0x5b, 0x00, 0x00, 0xec,
  0x59, 0x00, 0x00, 0x58, 0x58, 0x00, 0x00, 0x78, 0x57, 0x00, 0x00, 0x24, 0x56,
  0x00, 0x00, 0xc4, 0x54, 0x00, 0x00, 0x68, 0x53, 0x00, 0x00, 0x10, 0x52, 0x00,
  0x00, 0x78, 0x50, 0x00, 0x00, 0xdc, 0x4e, 0x00, 0x00, 0x84, 0x4d, 0x00, 0x00,
  0x24, 0x4c, 0x00, 0x00, 0xc8, 0x4a, 0x00, 0x00, 0x10, 0x4a, 0x00, 0x00, 0xf4,
  0x48, 0x00, 0x00, 0xd4, 0x47, 0x00, 0x00, 0xb0, 0x46, 0x00, 0x00, 0x98, 0x45,
  0x00, 0x00, 0x38, 0x44, 0x00, 0x00, 0xdc, 0x42, 0x00, 0x00, 0xc4, 0x41, 0x00,
  0x00, 0xa4, 0x40, 0x00, 0x00, 0x80, 0x3f, 0x00, 0x00, 0xe0, 0x3e, 0x00, 0x00,
  0xec, 0x3d, 0x00, 0x00, 0xf4, 0x3c, 0x00, 0x00, 0xf8, 0x3b, 0x00, 0x00, 0x08,
  0x3b, 0x00, 0x00, 0xe8, 0x39, 0x00, 0x00, 0xc4, 0x38, 0x00, 0x00, 0xd4, 0x37,
  0x00, 0x00, 0xdc, 0x36, 0x00, 0x00, 0xe0, 0x35, 0x00, 0x00, 0x58, 0x35, 0x00,
  0x00, 0x8c, 0x34, 0x00, 0x00, 0xbc, 0x33, 0x00, 0x00, 0xe8, 0x32, 0x00, 0x00,
  0x20, 0x32, 0x00, 0x00, 0x28, 0x31, 0x00, 0x00, 0x2c, 0x30, 0x00, 0x00, 0x64,
  0x2f, 0x00, 0x00, 0x94, 0x2e, 0x00, 0x00, 0xc0, 0x2d, 0x00, 0x00, 0xf8, 0x2c,
  0x00, 0x00, 0x28, 0x2c, 0x00, 0x00, 0x54, 0x2b, 0x00, 0x00, 0x8c, 0x2a, 0x00,
  0x00, 0xbc, 0x29, 0x00, 0x00, 0xe8, 0x28, 0x00, 0x00, 0x70, 0x28, 0x00, 0x00,
  0x1c, 0x27, 0x00, 0x00, 0x00, 0x26, 0x00, 0x00, 0x04, 0x25, 0x00, 0x00, 0x30,
  0x24, 0x00, 0x00, 0x6c, 0x23, 0x00, 0x00, 0xc0, 0x22, 0x00, 0x00, 0x14, 0x22,
  0x00, 0x00, 0xa8, 0x21, 0x00, 0x00, 0x34, 0x21, 0x00, 0x00, 0xb8, 0x20, 0x00,
  0x00, 0x3c, 0x20, 0x00, 0x00, 0xa8, 0x1f, 0x00, 0x00, 0x2c, 0x1f, 0x00, 0x00,
  0xb0, 0x1e, 0x00, 0x00, 0x14, 0x1e, 0x00, 0x00, 0x98, 0x1d, 0x00, 0x00, 0x1c,
  0x1d, 0x00, 0x00, 0x80, 0x1c, 0x00, 0x00, 0x04, 0x1c, 0x00, 0x00, 0x88, 0x1b,
  0x00, 0x00, 0xec, 0x1a, 0x00, 0x00, 0x78, 0x1a, 0x00, 0x00, 0xfc, 0x19, 0x00,
  0x00, 0x80, 0x19, 0x00, 0x00, 0xdc, 0x18, 0x00, 0x00, 0x60, 0x18, 0x00, 0x00,
  0xe4, 0x17, 0x00, 0x00, 0x48, 0x17, 0x00, 0x00, 0xcc, 0x16, 0x00, 0x00, 0x50,
  0x16, 0x00, 0x00, 0xb4, 0x15, 0x00, 0x00, 0x40, 0x15, 0x00, 0x00, 0xc4, 0x14,
  0x00, 0x00, 0x48, 0x14, 0x00, 0x00, 0xa4, 0x13, 0x00, 0x00, 0x28, 0x13, 0x00,
  0x00, 0xac, 0x12, 0x00, 0x00, 0x10, 0x12, 0x00, 0x00, 0x94, 0x11, 0x00, 0x00,
  0x18, 0x11, 0x00, 0x00, 0x7c, 0x10, 0x00, 0x00, 0x08, 0x10, 0x00, 0x00, 0x8c,
  0x0f, 0x00, 0x00, 0x10, 0x0f, 0x00, 0x00, 0x6c, 0x0e, 0x00, 0x00, 0xf0, 0x0d,
  0x00, 0x00, 0x74, 0x0d, 0x00, 0x00, 0xd8, 0x0c, 0x00, 0x00, 0x5c, 0x0c, 0x00,
  0x00, 0xe0, 0x0b, 0x00, 0x00, 0x44, 0x0b, 0x00, 0x00, 0xd0, 0x0a, 0x00, 0x00,
  0x54, 0x0a, 0x00, 0x00, 0xd8, 0x09, 0x00, 0x00, 0x34, 0x09, 0x00, 0x00, 0xb8,
  0x08, 0x00, 0x00, 0x3c, 0x08, 0x00, 0x00, 0xa0, 0x07, 0x00, 0x00, 0x24, 0x07,
  0x00, 0x00, 0xa8, 0x06, 0x00, 0x00, 0x0c, 0x06, 0x00, 0x00, 0x98, 0x05, 0x00,
  0x00, 0x1c, 0x05, 0x00, 0x00, 0xa0, 0x04, 0x00, 0x00, 0xfc, 0x03, 0x00, 0x00,
  0x80, 0x03, 0x00, 0x00, 0x04, 0x03, 0x00, 0x00, 0x68, 0x02, 0x00, 0x00, 0xf4,
  0x01, 0x00, 0x00, 0x78, 0x01, 0x00, 0x00, 0xfc, 0x00, 0x00, 0x00, 0x78, 0x00,
  0x00, 0x00, 0x44, 0x00, 0x00, 0x00, 0x04, 0x00, 0x00, 0x00, 0xd0, 0xff, 0xff,
  0xff, 0x08, 0x00, 0x00, 0x00, 0x14, 0x00, 0x00, 0x00, 0x0a, 0x00, 0x00, 0x00,
  0x42, 0x69, 0x61, 0x73, 0x41, 0x64, 0x64, 0x5f, 0x31, 0x38, 0x00, 0x00, 0x04,
  0x00, 0x00, 0x00, 0x01, 0x00, 0x00, 0x00, 0x38, 0x04, 0x00, 0x00, 0x80, 0x07,
  0x00, 0x00, 0x01, 0x00, 0x00, 0x00, 0x0c, 0x00, 0x0c, 0x00, 0x08, 0x00, 0x00,
  0x00, 0x00, 0x00, 0x04, 0x00, 0x0c, 0x00, 0x00, 0x00, 0x08, 0x00, 0x00, 0x00,
  0x14, 0x00, 0x00, 0x00, 0x0b, 0x00, 0x00, 0x00, 0x50, 0x6c, 0x61, 0x63, 0x65,
  0x68, 0x6f, 0x6c, 0x64, 0x65, 0x72, 0x00, 0x04, 0x00, 0x00, 0x00, 0x01, 0x00,
  0x00, 0x00, 0x38, 0x04, 0x00, 0x00, 0x80, 0x07, 0x00, 0x00, 0x01, 0x00, 0x00,
  0x00, 0x52, 0x8d, 0xff, 0xff, 0x14, 0x00, 0x00, 0x00, 0x4c, 0x00, 0x00, 0x00,
  0x90, 0x00, 0x00, 0x00, 0x00, 0x00, 0x00, 0x07, 0x58, 0x00, 0x00, 0x00, 0x44,
  0x8d, 0xff, 0xff, 0x10, 0x00, 0x00, 0x00, 0x1c, 0x00, 0x00, 0x00, 0x20, 0x00,
  0x00, 0x00, 0x24, 0x00, 0x00, 0x00, 0x01, 0x00, 0x00, 0x00, 0x00, 0x00, 0x00,
  0x00, 0x00, 0x00, 0x00, 0x00, 0x00, 0x00, 0x00, 0x00, 0x01, 0x00, 0x00, 0x00,
  0x09, 0x35, 0xba, 0x36, 0x01, 0x00, 0x00, 0x00, 0x95, 0x33, 0x3a, 0x3e, 0x01,
  0x00, 0x00, 0x00, 0xb7, 0x32, 0x2c, 0xbe, 0x10, 0x00, 0x00, 0x00, 0x42, 0x69,
  0x61, 0x73, 0x41, 0x64, 0x64, 0x5f, 0x31, 0x38, 0x5f, 0x69, 0x6e, 0x74, 0x31,
  0x36, 0x00, 0x00, 0x00, 0x00, 0x04, 0x00, 0x00, 0x00, 0x01, 0x00, 0x00, 0x00,
  0x38, 0x04, 0x00, 0x00, 0x80, 0x07, 0x00, 0x00, 0x01, 0x00, 0x00, 0x00, 0xd2,
  0x8d, 0xff, 0xff, 0x14, 0x00, 0x00, 0x00, 0x48, 0x00, 0x00, 0x00, 0x8f, 0x00,
  0x00, 0x00, 0x00, 0x00, 0x00, 0x07, 0x50, 0x00, 0x00, 0x00, 0xc4, 0x8d, 0xff,
  0xff, 0x10, 0x00, 0x00, 0x00, 0x18, 0x00, 0x00, 0x00, 0x1c, 0x00, 0x00, 0x00,
  0x20, 0x00, 0x00, 0x00, 0x01, 0x00, 0x00, 0x00, 0x00, 0x00, 0x00, 0x00, 0x00,
  0x00, 0x00, 0x00, 0x01, 0x00, 0x00, 0x00, 0x70, 0x60, 0xd9, 0x38, 0x01, 0x00,
  0x00, 0x00, 0x08, 0xa3, 0x22, 0x40, 0x01, 0x00, 0x00, 0x00, 0xbd, 0x5e, 0x59,
  0xc0, 0x0d, 0x00, 0x00, 0x00, 0x64, 0x65, 0x70, 0x74, 0x68, 0x77, 0x69, 0x73,
  0x65, 0x5f, 0x33, 0x37, 0x32, 0x00, 0x00, 0x00, 0x04, 0x00, 0x00, 0x00, 0x01,
  0x00, 0x00, 0x00, 0x38, 0x04, 0x00, 0x00, 0x80, 0x07, 0x00, 0x00, 0x05, 0x00,
  0x00, 0x00, 0x4a, 0x8e, 0xff, 0xff, 0x14, 0x00, 0x00, 0x00, 0x48, 0x00, 0x00,
  0x00, 0x8e, 0x00, 0x00, 0x00, 0x00, 0x00, 0x00, 0x07, 0x50, 0x00, 0x00, 0x00,
  0x3c, 0x8e, 0xff, 0xff, 0x10, 0x00, 0x00, 0x00, 0x18, 0x00, 0x00, 0x00, 0x1c,
  0x00, 0x00, 0x00, 0x20, 0x00, 0x00, 0x00, 0x01, 0x00, 0x00, 0x00, 0x00, 0x00,
  0x00, 0x00, 0x00, 0x00, 0x00, 0x00, 0x01, 0x00, 0x00, 0x00, 0x6b, 0x91, 0x68,
  0x3a, 0x01, 0x00, 0x00, 0x00, 0x9a, 0x8f, 0xe8, 0x41, 0x01, 0x00, 0x00, 0x00,
  0xf1, 0xd0, 0x9a, 0xc1, 0x0d, 0x00, 0x00, 0x00, 0x64, 0x65, 0x70, 0x74, 0x68,
  0x77, 0x69, 0x73, 0x65, 0x5f, 0x33, 0x36, 0x31, 0x00, 0x00, 0x00, 0x04, 0x00,
  0x00, 0x00, 0x01, 0x00, 0x00, 0x00, 0x38, 0x04, 0x00, 0x00, 0x84, 0x07, 0x00,
  0x00, 0x05, 0x00, 0x00, 0x00, 0xc2, 0x8e, 0xff, 0xff, 0x14, 0x00, 0x00, 0x00,
  0x48, 0x00, 0x00, 0x00, 0x8d, 0x00, 0x00, 0x00, 0x00, 0x00, 0x00, 0x07, 0x48,
  0x00, 0x00, 0x00, 0xb4, 0x8e, 0xff, 0xff, 0x10, 0x00, 0x00, 0x00, 0x18, 0x00,
  0x00, 0x00, 0x1c, 0x00, 0x00, 0x00, 0x20, 0x00, 0x00, 0x00, 0x01, 0x00, 0x00,
  0x00, 0x00, 0x00, 0x00, 0x00, 0x00, 0x00, 0x00, 0x00, 0x01, 0x00, 0x00, 0x00,
  0xd3, 0x46, 0x74, 0x3b, 0x01, 0x00, 0x00, 0x00, 0xb1, 0x26, 0xa5, 0x42, 0x01,
  0x00, 0x00, 0x00, 0xea, 0x44, 0xf4, 0xc2, 0x05, 0x00, 0x00, 0x00, 0x41, 0x64,
  0x64, 0x5f, 0x35, 0x00, 0x00, 0x00, 0x04, 0x00, 0x00, 0x00, 0x01, 0x00, 0x00,
  0x00, 0x3c, 0x04, 0x00, 0x00, 0x84, 0x07, 0x00, 0x00, 0x05, 0x00, 0x00, 0x00,
  0x32, 0x8f, 0xff, 0xff, 0x14, 0x00, 0x00, 0x00, 0x48, 0x00, 0x00, 0x00, 0x8c,
  0x00, 0x00, 0x00, 0x00, 0x00, 0x00, 0x07, 0x70, 0x00, 0x00, 0x00, 0x24, 0x8f,
  0xff, 0xff, 0x10, 0x00, 0x00, 0x00, 0x18, 0x00, 0x00, 0x00, 0x1c, 0x00, 0x00,
  0x00, 0x20, 0x00, 0x00, 0x00, 0x01, 0x00, 0x00, 0x00, 0x00, 0x00, 0x00, 0x00,
  0x00, 0x00, 0x00, 0x00, 0x01, 0x00, 0x00, 0x00, 0x01, 0xe9, 0x59, 0x3b, 0x01,
  0x00, 0x00, 0x00, 0x6c, 0xb5, 0xaf, 0x42, 0x01, 0x00, 0x00, 0x00, 0x4d, 0xe7,
  0xd9, 0xc2, 0x2d, 0x00, 0x00, 0x00, 0x42, 0x69, 0x61, 0x73, 0x41, 0x64, 0x64,
  0x5f, 0x31, 0x37, 0x3b, 0x64, 0x65, 0x70, 0x74, 0x68, 0x77, 0x69, 0x73, 0x65,
  0x5f, 0x33, 0x37, 0x3b, 0x43, 0x6f, 0x6e, 0x76, 0x32, 0x44, 0x5f, 0x31, 0x37,
  0x3b, 0x63, 0x6f, 0x6e, 0x76, 0x5f, 0x36, 0x5f, 0x31, 0x5f, 0x62, 0x31, 0x00,
  0x00, 0x00, 0x04, 0x00, 0x00, 0x00, 0x01, 0x00, 0x00, 0x00, 0x3c, 0x04, 0x00,
  0x00, 0x84, 0x07, 0x00, 0x00, 0x05, 0x00, 0x00, 0x00, 0xca, 0x8f, 0xff, 0xff,
  0x14, 0x00, 0x00, 0x00, 0x48, 0x00, 0x00, 0x00, 0x8b, 0x00, 0x00, 0x00, 0x00,
  0x00, 0x00, 0x07, 0x50, 0x00, 0x00, 0x00, 0xbc, 0x8f, 0xff, 0xff, 0x10, 0x00,
  0x00, 0x00, 0x18, 0x00, 0x00, 0x00, 0x1c, 0x00, 0x00, 0x00, 0x20, 0x00, 0x00,
  0x00, 0x01, 0x00, 0x00, 0x00, 0x00, 0x00, 0x00, 0x00, 0x00, 0x00, 0x00, 0x00,
  0x01, 0x00, 0x00, 0x00, 0xf8, 0xd1, 0xa4, 0x3a, 0x01, 0x00, 0x00, 0x00, 0xc4,
  0xee, 0x97, 0x41, 0x01, 0x00, 0x00, 0x00, 0xae, 0xd0, 0x24, 0xc2, 0x0d, 0x00,
  0x00, 0x00, 0x64, 0x65, 0x70, 0x74, 0x68, 0x77, 0x69, 0x73, 0x65, 0x5f, 0x33,
  0x35, 0x31, 0x00, 0x00, 0x00, 0x04, 0x00, 0x00, 0x00, 0x01, 0x00, 0x00, 0x00,
  0x3c, 0x04, 0x00, 0x00, 0x84, 0x07, 0x00, 0x00, 0x05, 0x00, 0x00, 0x00, 0x42,
  0x90, 0xff, 0xff, 0x14, 0x00, 0x00, 0x00, 0x48, 0x00, 0x00, 0x00, 0x8a, 0x00,
  0x00, 0x00, 0x00, 0x00, 0x00, 0x07, 0x50, 0x00, 0x00, 0x00, 0x34, 0x90, 0xff,
  0xff, 0x10, 0x00, 0x00, 0x00, 0x18, 0x00, 0x00, 0x00, 0x1c, 0x00, 0x00, 0x00,
  0x20, 0x00, 0x00, 0x00, 0x01, 0x00, 0x00, 0x00, 0x00, 0x00, 0x00, 0x00, 0x00,
  0x00, 0x00, 0x00, 0x01, 0x00, 0x00, 0x00, 0xc7, 0x93, 0x6c, 0x3a, 0x01, 0x00,
  0x00, 0x00, 0xee, 0x91, 0xec, 0x41, 0x01, 0x00, 0x00, 0x00, 0x45, 0x80, 0x66,
  0xc1, 0x0d, 0x00, 0x00, 0x00, 0x64, 0x65, 0x70, 0x74, 0x68, 0x77, 0x69, 0x73,
  0x65, 0x5f, 0x33, 0x34, 0x31, 0x00, 0x00, 0x00, 0x04, 0x00, 0x00, 0x00, 0x01,
  0x00, 0x00, 0x00, 0x3c, 0x04, 0x00, 0x00, 0x84, 0x07, 0x00, 0x00, 0x05, 0x00,
  0x00, 0x00, 0xba, 0x90, 0xff, 0xff, 0x14, 0x00, 0x00, 0x00, 0x4c, 0x00, 0x00,
  0x00, 0x89, 0x00, 0x00, 0x00, 0x00, 0x00, 0x00, 0x07, 0x78, 0x00, 0x00, 0x00,
  0xac, 0x90, 0xff, 0xff, 0x10, 0x00, 0x00, 0x00, 0x1c, 0x00, 0x00, 0x00, 0x20,
  0x00, 0x00, 0x00, 0x24, 0x00, 0x00, 0x00, 0x01, 0x00, 0x00, 0x00, 0x00, 0x00,
  0x00, 0x00, 0x00, 0x00, 0x00, 0x00, 0x00, 0x00, 0x00, 0x00, 0x01, 0x00, 0x00,
  0x00, 0x80, 0x0d, 0x30, 0x3a, 0x01, 0x00, 0x00, 0x00, 0x20, 0x0c, 0xb0, 0x41,
  0x01, 0x00, 0x00, 0x00, 0x00, 0x00, 0x00, 0x00, 0x33, 0x00, 0x00, 0x00, 0x52,
  0x65, 0x6c, 0x75, 0x5f, 0x35, 0x3b, 0x42, 0x69, 0x61, 0x73, 0x41, 0x64, 0x64,
  0x5f, 0x31, 0x36, 0x3b, 0x64, 0x65, 0x70, 0x74, 0x68, 0x77, 0x69, 0x73, 0x65,
  0x5f, 0x33, 0x37, 0x3b, 0x43, 0x6f, 0x6e, 0x76, 0x32, 0x44, 0x5f, 0x31, 0x36,
  0x3b, 0x63, 0x6f, 0x6e, 0x76, 0x5f, 0x36, 0x5f, 0x30, 0x5f, 0x62, 0x00, 0x04,
  0x00, 0x00, 0x00, 0x01, 0x00, 0x00, 0x00, 0x3c, 0x04, 0x00, 0x00, 0x84, 0x07,
  0x00, 0x00, 0x05, 0x00, 0x00, 0x00, 0x5a, 0x91, 0xff, 0xff, 0x14, 0x00, 0x00,
  0x00, 0x48, 0x00, 0x00, 0x00, 0x88, 0x00, 0x00, 0x00, 0x00, 0x00, 0x00, 0x07,
  0x50, 0x00, 0x00, 0x00, 0x4c, 0x91, 0xff, 0xff, 0x10, 0x00, 0x00, 0x00, 0x18,
  0x00, 0x00, 0x00, 0x1c, 0x00, 0x00, 0x00, 0x20, 0x00, 0x00, 0x00, 0x01, 0x00,
  0x00, 0x00, 0x00, 0x00, 0x00, 0x00, 0x00, 0x00, 0x00, 0x00, 0x01, 0x00, 0x00,
  0x00, 0xd2, 0xf8, 0xc5, 0x39, 0x01, 0x00, 0x00, 0x00, 0x46, 0xf7, 0x45, 0x41,
  0x01, 0x00, 0x00, 0x00, 0xa0, 0xa0, 0x23, 0xc1, 0x0d, 0x00, 0x00, 0x00, 0x64,
  0x65, 0x70, 0x74, 0x68, 0x77, 0x69, 0x73, 0x65, 0x5f, 0x33, 0x33, 0x31, 0x00,
  0x00, 0x00, 0x04, 0x00, 0x00, 0x00, 0x01, 0x00, 0x00, 0x00, 0x3c, 0x04, 0x00,
  0x00, 0x84, 0x07, 0x00, 0x00, 0x05, 0x00, 0x00, 0x00, 0xd2, 0x91, 0xff, 0xff,
  0x14, 0x00, 0x00, 0x00, 0x48, 0x00, 0x00, 0x00, 0x87, 0x00, 0x00, 0x00, 0x00,
  0x00, 0x00, 0x07, 0x50, 0x00, 0x00, 0x00, 0xc4, 0x91, 0xff, 0xff, 0x10, 0x00,
  0x00, 0x00, 0x18, 0x00, 0x00, 0x00, 0x1c, 0x00, 0x00, 0x00, 0x20, 0x00, 0x00,
  0x00, 0x01, 0x00, 0x00, 0x00, 0x00, 0x00, 0x00, 0x00, 0x00, 0x00, 0x00, 0x00,
  0x01, 0x00, 0x00, 0x00, 0x93, 0x54, 0x46, 0x3a, 0x01, 0x00, 0x00, 0x00, 0x4e,
  0xab, 0xc2, 0x41, 0x01, 0x00, 0x00, 0x00, 0x06, 0x53, 0xc6, 0xc1, 0x0d, 0x00,
  0x00, 0x00, 0x64, 0x65, 0x70, 0x74, 0x68, 0x77, 0x69, 0x73, 0x65, 0x5f, 0x33,
  0x32, 0x31, 0x00, 0x00, 0x00, 0x04, 0x00, 0x00, 0x00, 0x01, 0x00, 0x00, 0x00,
  0x3c, 0x04, 0x00, 0x00, 0x84, 0x07, 0x00, 0x00, 0x05, 0x00, 0x00, 0x00, 0x4a,
  0x92, 0xff, 0xff, 0x14, 0x00, 0x00, 0x00, 0x48, 0x00, 0x00, 0x00, 0x86, 0x00,
  0x00, 0x00, 0x00, 0x00, 0x00, 0x07, 0x48, 0x00, 0x00, 0x00, 0x3c, 0x92, 0xff,
  0xff, 0x10, 0x00, 0x00, 0x00, 0x18, 0x00, 0x00, 0x00, 0x1c, 0x00, 0x00, 0x00,
  0x20, 0x00, 0x00, 0x00, 0x01, 0x00, 0x00, 0x00, 0x00, 0x00, 0x00, 0x00, 0x00,
  0x00, 0x00, 0x00, 0x01, 0x00, 0x00, 0x00, 0x11, 0xfe, 0x80, 0x3a, 0x01, 0x00,
  0x00, 0x00, 0x0f, 0xfd, 0x00, 0x42, 0x01, 0x00, 0x00, 0x00, 0x2e, 0x8b, 0xc4,
  0xc1, 0x05, 0x00, 0x00, 0x00, 0x41, 0x64, 0x64, 0x5f, 0x34, 0x00, 0x00, 0x00,
  0x04, 0x00, 0x00, 0x00, 0x01, 0x00, 0x00, 0x00, 0x3c, 0x04, 0x00, 0x00, 0x84,
  0x07, 0x00, 0x00, 0x05, 0x00, 0x00, 0x00, 0xba, 0x92, 0xff, 0xff, 0x14, 0x00,
  0x00, 0x00, 0x48, 0x00, 0x00, 0x00, 0x85, 0x00, 0x00, 0x00, 0x00, 0x00, 0x00,
  0x07, 0x70, 0x00, 0x00, 0x00, 0xac, 0x92, 0xff, 0xff, 0x10, 0x00, 0x00, 0x00,
  0x18, 0x00, 0x00, 0x00, 0x1c, 0x00, 0x00, 0x00, 0x20, 0x00, 0x00, 0x00, 0x01,
  0x00, 0x00, 0x00, 0x00, 0x00, 0x00, 0x00, 0x00, 0x00, 0x00, 0x00, 0x01, 0x00,
  0x00, 0x00, 0x62, 0x35, 0x89, 0x3a, 0x01, 0x00, 0x00, 0x00, 0x50, 0x34, 0x09,
  0x42, 0x01, 0x00, 0x00, 0x00, 0xd1, 0x02, 0xa7, 0xc1, 0x2d, 0x00, 0x00, 0x00,
  0x42, 0x69, 0x61, 0x73, 0x41, 0x64, 0x64, 0x5f, 0x31, 0x35, 0x3b, 0x64, 0x65,
  0x70, 0x74, 0x68, 0x77, 0x69, 0x73, 0x65, 0x5f, 0x33, 0x37, 0x3b, 0x43, 0x6f,
  0x6e, 0x76, 0x32, 0x44, 0x5f, 0x31, 0x35, 0x3b, 0x63, 0x6f, 0x6e, 0x76, 0x5f,
  0x35, 0x5f, 0x31, 0x5f, 0x62, 0x31, 0x00, 0x00, 0x00, 0x04, 0x00, 0x00, 0x00,
  0x01, 0x00, 0x00, 0x00, 0x3c, 0x04, 0x00, 0x00, 0x84, 0x07, 0x00, 0x00, 0x05,
  0x00, 0x00, 0x00, 0x52, 0x93, 0xff, 0xff, 0x14, 0x00, 0x00, 0x00, 0x48, 0x00,
  0x00, 0x00, 0x84, 0x00, 0x00, 0x00, 0x00, 0x00, 0x00, 0x07, 0x50, 0x00, 0x00,
  0x00, 0x44, 0x93, 0xff, 0xff, 0x10, 0x00, 0x00, 0x00, 0x18, 0x00, 0x00, 0x00,
  0x1c, 0x00, 0x00, 0x00, 0x20, 0x00, 0x00, 0x00, 0x01, 0x00, 0x00, 0x00, 0x00,
  0x00, 0x00, 0x00, 0x00, 0x00, 0x00, 0x00, 0x01, 0x00, 0x00, 0x00, 0x58, 0xb4,
  0xbb, 0x3a, 0x01, 0x00, 0x00, 0x00, 0xe1, 0xb2, 0x3b, 0x42, 0x01, 0x00, 0x00,
  0x00, 0xc0, 0x7b, 0xca, 0xc1, 0x0d, 0x00, 0x00, 0x00, 0x64, 0x65, 0x70, 0x74,
  0x68, 0x77, 0x69, 0x73, 0x65, 0x5f, 0x33, 0x31, 0x32, 0x00, 0x00, 0x00, 0x04,
  0x00, 0x00, 0x00, 0x01, 0x00, 0x00, 0x00, 0x3c, 0x04, 0x00, 0x00, 0x84, 0x07,
  0x00, 0x00, 0x07, 0x00, 0x00, 0x00, 0xca, 0x93, 0xff, 0xff, 0x14, 0x00, 0x00,
  0x00, 0x48, 0x00, 0x00, 0x00, 0x83, 0x00, 0x00, 0x00, 0x00, 0x00, 0x00, 0x07,
  0x50, 0x00, 0x00, 0x00, 0xbc, 0x93, 0xff, 0xff, 0x10, 0x00, 0x00, 0x00, 0x18,
  0x00, 0x00, 0x00, 0x1c, 0x00, 0x00, 0x00, 0x20, 0x00, 0x00, 0x00, 0x01, 0x00,
  0x00, 0x00, 0x00, 0x00, 0x00, 0x00, 0x00, 0x00, 0x00, 0x00, 0x01, 0x00, 0x00,
  0x00, 0x96, 0x3f, 0x69, 0x3b, 0x01, 0x00, 0x00, 0x00, 0xc4, 0x3d, 0xe9, 0x42,
  0x01, 0x00, 0x00, 0x00, 0x23, 0x06, 0x95, 0xc2, 0x0d, 0x00, 0x00, 0x00, 0x64,
  0x65, 0x70, 0x74, 0x68, 0x77, 0x69, 0x73, 0x65, 0x5f, 0x33, 0x30, 0x31, 0x00,
  0x00, 0x00, 0x04, 0x00, 0x00, 0x00, 0x01, 0x00, 0x00, 0x00, 0x3c, 0x04, 0x00,
  0x00, 0x84, 0x07, 0x00, 0x00, 0x07, 0x00, 0x00, 0x00, 0x42, 0x94, 0xff, 0xff,
  0x14, 0x00, 0x00, 0x00, 0x48, 0x00, 0x00, 0x00, 0x82, 0x00, 0x00, 0x00, 0x00,
  0x00, 0x00, 0x07, 0x70, 0x00, 0x00, 0x00, 0x34, 0x94, 0xff, 0xff, 0x10, 0x00,
  0x00, 0x00, 0x18, 0x00, 0x00, 0x00, 0x1c, 0x00, 0x00, 0x00, 0x20, 0x00, 0x00,
  0x00, 0x01, 0x00, 0x00, 0x00, 0x00, 0x00, 0x00, 0x00, 0x00, 0x00, 0x00, 0x00,
  0x01, 0x00, 0x00, 0x00, 0x5c, 0x26, 0xb7, 0x39, 0x01, 0x00, 0x00, 0x00, 0x60,
  0x48, 0xf1, 0x40, 0x01, 0x00, 0x00, 0x00, 0xee, 0x24, 0x37, 0xc1, 0x2c, 0x00,
  0x00, 0x00, 0x42, 0x69, 0x61, 0x73, 0x41, 0x64, 0x64, 0x5f, 0x31, 0x34, 0x3b,
  0x64, 0x65, 0x70, 0x74, 0x68, 0x77, 0x69, 0x73, 0x65, 0x5f, 0x33, 0x37, 0x3b,
  0x43, 0x6f, 0x6e, 0x76, 0x32, 0x44, 0x5f, 0x31, 0x34, 0x3b, 0x63, 0x6f, 0x6e,
  0x76, 0x5f, 0x35, 0x5f, 0x31, 0x5f, 0x62, 0x00, 0x00, 0x00, 0x00, 0x04, 0x00,
  0x00, 0x00, 0x01, 0x00, 0x00, 0x00, 0x3c, 0x04, 0x00, 0x00, 0x84, 0x07, 0x00,
  0x00, 0x05, 0x00, 0x00, 0x00, 0xda, 0x94, 0xff, 0xff, 0x14, 0x00, 0x00, 0x00,
  0x48, 0x00, 0x00, 0x00, 0x81, 0x00, 0x00, 0x00, 0x00, 0x00, 0x00, 0x07, 0x50,
  0x00, 0x00, 0x00, 0xcc, 0x94, 0xff, 0xff, 0x10, 0x00, 0x00, 0x00, 0x18, 0x00,
  0x00, 0x00, 0x1c, 0x00, 0x00, 0x00, 0x20, 0x00, 0x00, 0x00, 0x01, 0x00, 0x00,
  0x00, 0x00, 0x00, 0x00, 0x00, 0x00, 0x00, 0x00, 0x00, 0x01, 0x00, 0x00, 0x00,
  0x10, 0x16, 0x43, 0x3a, 0x01, 0x00, 0x00, 0x00, 0x8a, 0x14, 0xc3, 0x41, 0x01,
  0x00, 0x00, 0x00, 0xc0, 0x7f, 0xb2, 0xc1, 0x0d, 0x00, 0x00, 0x00, 0x64, 0x65,
  0x70, 0x74, 0x68, 0x77, 0x69, 0x73, 0x65, 0x5f, 0x32, 0x39, 0x31, 0x00, 0x00,
  0x00, 0x04, 0x00, 0x00, 0x00, 0x01, 0x00, 0x00, 0x00, 0x3c, 0x04, 0x00, 0x00,
  0x84, 0x07, 0x00, 0x00, 0x05, 0x00, 0x00, 0x00, 0x52, 0x95, 0xff, 0xff, 0x14,
  0x00, 0x00, 0x00, 0x48, 0x00, 0x00, 0x00, 0x80, 0x00, 0x00, 0x00, 0x00, 0x00,
  0x00, 0x07, 0x50, 0x00, 0x00, 0x00, 0x44, 0x95, 0xff, 0xff, 0x10, 0x00, 0x00,
  0x00, 0x18, 0x00, 0x00, 0x00, 0x1c, 0x00, 0x00, 0x00, 0x20, 0x00, 0x00, 0x00,
  0x01, 0x00, 0x00, 0x00, 0x00, 0x00, 0x00, 0x00, 0x00, 0x00, 0x00, 0x00, 0x01,
  0x00, 0x00, 0x00, 0x70, 0x74, 0x59, 0x3a, 0x01, 0x00, 0x00, 0x00, 0xbd, 0x72,
  0xd9, 0x41, 0x01, 0x00, 0x00, 0x00, 0x63, 0xb9, 0x9e, 0xc1, 0x0d, 0x00, 0x00,
  0x00, 0x64, 0x65, 0x70, 0x74, 0x68, 0x77, 0x69, 0x73, 0x65, 0x5f, 0x32, 0x38,
  0x31, 0x00, 0x00, 0x00, 0x04, 0x00, 0x00, 0x00, 0x01, 0x00, 0x00, 0x00, 0x3c,
  0x04, 0x00, 0x00, 0x84, 0x07, 0x00, 0x00, 0x05, 0x00, 0x00, 0x00, 0xca, 0x95,
  0xff, 0xff, 0x14, 0x00, 0x00, 0x00, 0x4c, 0x00, 0x00, 0x00, 0x7f, 0x00, 0x00,
  0x00, 0x00, 0x00, 0x00, 0x07, 0x78, 0x00, 0x00, 0x00, 0xbc, 0x95, 0xff, 0xff,
  0x10, 0x00, 0x00, 0x00, 0x1c, 0x00, 0x00, 0x00, 0x20, 0x00, 0x00, 0x00, 0x24,
  0x00, 0x00, 0x00, 0x01, 0x00, 0x00, 0x00, 0x00, 0x00, 0x00, 0x00, 0x00, 0x00,
  0x00, 0x00, 0x00, 0x00, 0x00, 0x00, 0x01, 0x00, 0x00, 0x00, 0xf5, 0xf8, 0xbf,
  0x3a, 0x01, 0x00, 0x00, 0x00, 0x75, 0xf7, 0x3f, 0x42, 0x01, 0x00, 0x00, 0x00,
  0x00, 0x00, 0x00, 0x00, 0x33, 0x00, 0x00, 0x00, 0x52, 0x65, 0x6c, 0x75, 0x5f,
  0x34, 0x3b, 0x42, 0x69, 0x61, 0x73, 0x41, 0x64, 0x64, 0x5f, 0x31, 0x33, 0x3b,
  0x64, 0x65, 0x70, 0x74, 0x68, 0x77, 0x69, 0x73, 0x65, 0x5f, 0x33, 0x37, 0x3b,
  0x43, 0x6f, 0x6e, 0x76, 0x32, 0x44, 0x5f, 0x31, 0x33, 0x3b, 0x63, 0x6f, 0x6e,
  0x76, 0x5f, 0x35, 0x5f, 0x30, 0x5f, 0x62, 0x00, 0x04, 0x00, 0x00, 0x00, 0x01,
  0x00, 0x00, 0x00, 0x3c, 0x04, 0x00, 0x00, 0x84, 0x07, 0x00, 0x00, 0x05, 0x00,
  0x00, 0x00, 0x6a, 0x96, 0xff, 0xff, 0x14, 0x00, 0x00, 0x00, 0x48, 0x00, 0x00,
  0x00, 0x7e, 0x00, 0x00, 0x00, 0x00, 0x00, 0x00, 0x07, 0x50, 0x00, 0x00, 0x00,
  0x5c, 0x96, 0xff, 0xff, 0x10, 0x00, 0x00, 0x00, 0x18, 0x00, 0x00, 0x00, 0x1c,
  0x00, 0x00, 0x00, 0x20, 0x00, 0x00, 0x00, 0x01, 0x00, 0x00, 0x00, 0x00, 0x00,
  0x00, 0x00, 0x00, 0x00, 0x00, 0x00, 0x01, 0x00, 0x00, 0x00, 0xa0, 0x6f, 0xf2,
  0x3a, 0x01, 0x00, 0x00, 0x00, 0xbb, 0x6d, 0x72, 0x42, 0x01, 0x00, 0x00, 0x00,
  0x67, 0x3e, 0x02, 0xc2, 0x0d, 0x00, 0x00, 0x00, 0x64, 0x65, 0x70, 0x74, 0x68,
  0x77, 0x69, 0x73, 0x65, 0x5f, 0x32, 0x37, 0x31, 0x00, 0x00, 0x00, 0x04, 0x00,
  0x00, 0x00, 0x01, 0x00, 0x00, 0x00, 0x3c, 0x04, 0x00, 0x00, 0x84, 0x07, 0x00,
  0x00, 0x07, 0x00, 0x00, 0x00, 0xe2, 0x96, 0xff, 0xff, 0x14, 0x00, 0x00, 0x00,
  0x48, 0x00, 0x00, 0x00, 0x7d, 0x00, 0x00, 0x00, 0x00, 0x00, 0x00, 0x07, 0x50,
  0x00, 0x00, 0x00, 0xd4, 0x96, 0xff, 0xff, 0x10, 0x00, 0x00, 0x00, 0x18, 0x00,
  0x00, 0x00, 0x1c, 0x00, 0x00, 0x00, 0x20, 0x00, 0x00, 0x00, 0x01, 0x00, 0x00,
  0x00, 0x00, 0x00, 0x00, 0x00, 0x00, 0x00, 0x00, 0x00, 0x01, 0x00, 0x00, 0x00,
  0xd1, 0x58, 0x78, 0x3b, 0x01, 0x00, 0x00, 0x00, 0x0e, 0xb0, 0xb3, 0x42, 0x01,
  0x00, 0x00, 0x00, 0xe0, 0x56, 0xf8, 0xc2, 0x0d, 0x00, 0x00, 0x00, 0x64, 0x65,
  0x70, 0x74, 0x68, 0x77, 0x69, 0x73, 0x65, 0x5f, 0x32, 0x36, 0x31, 0x00, 0x00,
  0x00, 0x04, 0x00, 0x00, 0x00, 0x01, 0x00, 0x00, 0x00, 0x3c, 0x04, 0x00, 0x00,
  0x84, 0x07, 0x00, 0x00, 0x07, 0x00, 0x00, 0x00, 0x5a, 0x97, 0xff, 0xff, 0x14,
  0x00, 0x00, 0x00, 0x48, 0x00, 0x00, 0x00, 0x7c, 0x00, 0x00, 0x00, 0x00, 0x00,
  0x00, 0x07, 0x48, 0x00, 0x00, 0x00, 0x4c, 0x97, 0xff, 0xff, 0x10, 0x00, 0x00,
  0x00, 0x18, 0x00, 0x00, 0x00, 0x1c, 0x00, 0x00, 0x00, 0x20, 0x00, 0x00, 0x00,
  0x01, 0x00, 0x00, 0x00, 0x00, 0x00, 0x00, 0x00, 0x00, 0x00, 0x00, 0x00, 0x01,
  0x00, 0x00, 0x00, 0x05, 0x37, 0x03, 0x3c, 0x01, 0x00, 0x00, 0x00, 0x21, 0x1f,
  0x55, 0x43, 0x01, 0x00, 0x00, 0x00, 0xff, 0x35, 0x83, 0xc3, 0x05, 0x00, 0x00,
  0x00, 0x41, 0x64, 0x64, 0x5f, 0x33, 0x00, 0x00, 0x00, 0x04, 0x00, 0x00, 0x00,
  0x01, 0x00, 0x00, 0x00, 0x3c, 0x04, 0x00, 0x00, 0x84, 0x07, 0x00, 0x00, 0x07,
  0x00, 0x00, 0x00, 0xca, 0x97, 0xff, 0xff, 0x14, 0x00, 0x00, 0x00, 0x48, 0x00,
  0x00, 0x00, 0x7b, 0x00, 0x00, 0x00, 0x00, 0x00, 0x00, 0x07, 0x70, 0x00, 0x00,
  0x00, 0xbc, 0x97, 0xff, 0xff, 0x10, 0x00, 0x00, 0x00, 0x18, 0x00, 0x00, 0x00,
  0x1c, 0x00, 0x00, 0x00, 0x20, 0x00, 0x00, 0x00, 0x01, 0x00, 0x00, 0x00, 0x00,
  0x00, 0x00, 0x00, 0x00, 0x00, 0x00, 0x00, 0x01, 0x00, 0x00, 0x00, 0x49, 0x6d,
  0xd3, 0x3b, 0x01, 0x00, 0x00, 0x00, 0xf1, 0x47, 0x53, 0x43, 0x01, 0x00, 0x00,
  0x00, 0xa2, 0x6b, 0x53, 0xc3, 0x2d, 0x00, 0x00, 0x00, 0x42, 0x69, 0x61, 0x73,
  0x41, 0x64, 0x64, 0x5f, 0x31, 0x32, 0x3b, 0x64, 0x65, 0x70, 0x74, 0x68, 0x77,
  0x69, 0x73, 0x65, 0x5f, 0x33, 0x31, 0x3b, 0x43, 0x6f, 0x6e, 0x76, 0x32, 0x44,
  0x5f, 0x31, 0x32, 0x3b, 0x63, 0x6f, 0x6e, 0x76, 0x5f, 0x34, 0x5f, 0x31, 0x5f,
  0x62, 0x31, 0x00, 0x00, 0x00, 0x04, 0x00, 0x00, 0x00, 0x01, 0x00, 0x00, 0x00,
  0x3c, 0x04, 0x00, 0x00, 0x84, 0x07, 0x00, 0x00, 0x07, 0x00, 0x00, 0x00, 0x62,
  0x98, 0xff, 0xff, 0x14, 0x00, 0x00, 0x00, 0x48, 0x00, 0x00, 0x00, 0x7a, 0x00,
  0x00, 0x00, 0x00, 0x00, 0x00, 0x07, 0x50, 0x00, 0x00, 0x00, 0x54, 0x98, 0xff,
  0xff, 0x10, 0x00, 0x00, 0x00, 0x18, 0x00, 0x00, 0x00, 0x1c, 0x00, 0x00, 0x00,
  0x20, 0x00, 0x00, 0x00, 0x01, 0x00, 0x00, 0x00, 0x00, 0x00, 0x00, 0x00, 0x00,
  0x00, 0x00, 0x00, 0x01, 0x00, 0x00, 0x00, 0xa0, 0x27, 0x92, 0x3b, 0x01, 0x00,
  0x00, 0x00, 0x86, 0x7d, 0x10, 0x43, 0x01, 0x00, 0x00, 0x00, 0x7c, 0x26, 0x12,
  0xc3, 0x0d, 0x00, 0x00, 0x00, 0x64, 0x65, 0x70, 0x74, 0x68, 0x77, 0x69, 0x73,
  0x65, 0x5f, 0x32, 0x35, 0x32, 0x00, 0x00, 0x00, 0x04, 0x00, 0x00, 0x00, 0x01,
  0x00, 0x00, 0x00, 0x3c, 0x04, 0x00, 0x00, 0x84, 0x07, 0x00, 0x00, 0x09, 0x00,
  0x00, 0x00, 0xda, 0x98, 0xff, 0xff, 0x14, 0x00, 0x00, 0x00, 0x48, 0x00, 0x00,
  0x00, 0x79, 0x00, 0x00, 0x00, 0x00, 0x00, 0x00, 0x07, 0x50, 0x00, 0x00, 0x00,
  0xcc, 0x98, 0xff, 0xff, 0x10, 0x00, 0x00, 0x00, 0x18, 0x00, 0x00, 0x00, 0x1c,
  0x00, 0x00, 0x00, 0x20, 0x00, 0x00, 0x00, 0x01, 0x00, 0x00, 0x00, 0x00, 0x00,
  0x00, 0x00, 0x00, 0x00, 0x00, 0x00, 0x01, 0x00, 0x00, 0x00, 0x5f, 0xf4, 0xf3,
  0x3b, 0x01, 0x00, 0x00, 0x00, 0x77, 0xf2, 0x73, 0x43, 0x01, 0x00, 0x00, 0x00,
  0x1a, 0x29, 0x51, 0xc3, 0x0d, 0x00, 0x00, 0x00, 0x64, 0x65, 0x70, 0x74, 0x68,
  0x77, 0x69, 0x73, 0x65, 0x5f, 0x32, 0x34, 0x31, 0x00, 0x00, 0x00, 0x04, 0x00,
  0x00, 0x00, 0x01, 0x00, 0x00, 0x00, 0x3c, 0x04, 0x00, 0x00, 0x84, 0x07, 0x00,
  0x00, 0x09, 0x00, 0x00, 0x00, 0x52, 0x99, 0xff, 0xff, 0x14, 0x00, 0x00, 0x00,
  0x48, 0x00, 0x00, 0x00, 0x78, 0x00, 0x00, 0x00, 0x00, 0x00, 0x00, 0x07, 0x70,
  0x00, 0x00, 0x00, 0x44, 0x99, 0xff, 0xff, 0x10, 0x00, 0x00, 0x00, 0x18, 0x00,
  0x00, 0x00, 0x1c, 0x00, 0x00, 0x00, 0x20, 0x00, 0x00, 0x00, 0x01, 0x00, 0x00,
  0x00, 0x00, 0x00, 0x00, 0x00, 0x00, 0x00, 0x00, 0x00, 0x01, 0x00, 0x00, 0x00,
  0xa2, 0x62, 0x84, 0x3b, 0x01, 0x00, 0x00, 0x00, 0x99, 0x61, 0x04, 0x43, 0x01,
  0x00, 0x00, 0x00, 0x86, 0x42, 0xf9, 0xc2, 0x2c, 0x00, 0x00, 0x00, 0x42, 0x69,
  0x61, 0x73, 0x41, 0x64, 0x64, 0x5f, 0x31, 0x31, 0x3b, 0x64, 0x65, 0x70, 0x74,
  0x68, 0x77, 0x69, 0x73, 0x65, 0x5f, 0x33, 0x31, 0x3b, 0x43, 0x6f, 0x6e, 0x76,
  0x32, 0x44, 0x5f, 0x31, 0x31, 0x3b, 0x63, 0x6f, 0x6e, 0x76, 0x5f, 0x34, 0x5f,
  0x31, 0x5f, 0x62, 0x00, 0x00, 0x00, 0x00, 0x04, 0x00, 0x00, 0x00, 0x01, 0x00,
  0x00, 0x00, 0x3c, 0x04, 0x00, 0x00, 0x84, 0x07, 0x00, 0x00, 0x07, 0x00, 0x00,
  0x00, 0xea, 0x99, 0xff, 0xff, 0x14, 0x00, 0x00, 0x00, 0x48, 0x00, 0x00, 0x00,
  0x77, 0x00, 0x00, 0x00, 0x00, 0x00, 0x00, 0x07, 0x50, 0x00, 0x00, 0x00, 0xdc,
  0x99, 0xff, 0xff, 0x10, 0x00, 0x00, 0x00, 0x18, 0x00, 0x00, 0x00, 0x1c, 0x00,
  0x00, 0x00, 0x20, 0x00, 0x00, 0x00, 0x01, 0x00, 0x00, 0x00, 0x00, 0x00, 0x00,
  0x00, 0x00, 0x00, 0x00, 0x00, 0x01, 0x00, 0x00, 0x00, 0x24, 0xac, 0x49, 0x3b,
  0x01, 0x00, 0x00, 0x00, 0x91, 0xaa, 0xc9, 0x42, 0x01, 0x00, 0x00, 0x00, 0x3c,
  0xa0, 0xbc, 0xc2, 0x0d, 0x00, 0x00, 0x00, 0x64, 0x65, 0x70, 0x74, 0x68, 0x77,
  0x69, 0x73, 0x65, 0x5f, 0x32, 0x33, 0x31, 0x00, 0x00, 0x00, 0x04, 0x00, 0x00,
  0x00, 0x01, 0x00, 0x00, 0x00, 0x3c, 0x04, 0x00, 0x00, 0x84, 0x07, 0x00, 0x00,
  0x07, 0x00, 0x00, 0x00, 0x62, 0x9a, 0xff, 0xff, 0x14, 0x00, 0x00, 0x00, 0x48,
  0x00, 0x00, 0x00, 0x76, 0x00, 0x00, 0x00, 0x00, 0x00, 0x00, 0x07, 0x50, 0x00,
  0x00, 0x00, 0x54, 0x9a, 0xff, 0xff, 0x10, 0x00, 0x00, 0x00, 0x18, 0x00, 0x00,
  0x00, 0x1c, 0x00, 0x00, 0x00, 0x20, 0x00, 0x00, 0x00, 0x01, 0x00, 0x00, 0x00,
  0x00, 0x00, 0x00, 0x00, 0x00, 0x00, 0x00, 0x00, 0x01, 0x00, 0x00, 0x00, 0x83,
  0x4c, 0x7a, 0x3b, 0x01, 0x00, 0x00, 0x00, 0x8e, 0x4a, 0xfa, 0x42, 0x01, 0x00,
  0x00, 0x00, 0x42, 0xee, 0xea, 0xc2, 0x0d, 0x00, 0x00, 0x00, 0x64, 0x65, 0x70,
  0x74, 0x68, 0x77, 0x69, 0x73, 0x65, 0x5f, 0x32, 0x32, 0x31, 0x00, 0x00, 0x00,
  0x04, 0x00, 0x00, 0x00, 0x01, 0x00, 0x00, 0x00, 0x3c, 0x04, 0x00, 0x00, 0x84,
  0x07, 0x00, 0x00, 0x07, 0x00, 0x00, 0x00, 0xda, 0x9a, 0xff, 0xff, 0x14, 0x00,
  0x00, 0x00, 0x4c, 0x00, 0x00, 0x00, 0x75, 0x00, 0x00, 0x00, 0x00, 0x00, 0x00,
  0x07, 0x78, 0x00, 0x00, 0x00, 0xcc, 0x9a, 0xff, 0xff, 0x10, 0x00, 0x00, 0x00,
  0x1c, 0x00, 0x00, 0x00, 0x20, 0x00, 0x00, 0x00, 0x24, 0x00, 0x00, 0x00, 0x01,
  0x00, 0x00, 0x00, 0x00, 0x00, 0x00, 0x00, 0x00, 0x00, 0x00, 0x00, 0x00, 0x00,
  0x00, 0x00, 0x01, 0x00, 0x00, 0x00, 0x13, 0x3c, 0x6b, 0x3b, 0x01, 0x00, 0x00,
  0x00, 0x3d, 0x3a, 0xeb, 0x42, 0x01, 0x00, 0x00, 0x00, 0x00, 0x00, 0x00, 0x00,
  0x33, 0x00, 0x00, 0x00, 0x52, 0x65, 0x6c, 0x75, 0x5f, 0x33, 0x3b, 0x42, 0x69,
  0x61, 0x73, 0x41, 0x64, 0x64, 0x5f, 0x31, 0x30, 0x3b, 0x64, 0x65, 0x70, 0x74,
  0x68, 0x77, 0x69, 0x73, 0x65, 0x5f, 0x33, 0x31, 0x3b, 0x43, 0x6f, 0x6e, 0x76,
  0x32, 0x44, 0x5f, 0x31, 0x30, 0x3b, 0x63, 0x6f, 0x6e, 0x76, 0x5f, 0x34, 0x5f,
  0x30, 0x5f, 0x62, 0x00, 0x04, 0x00, 0x00, 0x00, 0x01, 0x00, 0x00, 0x00, 0x3c,
  0x04, 0x00, 0x00, 0x84, 0x07, 0x00, 0x00, 0x07, 0x00, 0x00, 0x00, 0x7a, 0x9b,
  0xff, 0xff, 0x14, 0x00, 0x00, 0x00, 0x48, 0x00, 0x00, 0x00, 0x74, 0x00, 0x00,
  0x00, 0x00, 0x00, 0x00, 0x07, 0x50, 0x00, 0x00, 0x00, 0x6c, 0x9b, 0xff, 0xff,
  0x10, 0x00, 0x00, 0x00, 0x18, 0x00, 0x00, 0x00, 0x1c, 0x00, 0x00, 0x00, 0x20,
  0x00, 0x00, 0x00, 0x01, 0x00, 0x00, 0x00, 0x00, 0x00, 0x00, 0x00, 0x00, 0x00,
  0x00, 0x00, 0x01, 0x00, 0x00, 0x00, 0x51, 0xfc, 0x2c, 0x3b, 0x01, 0x00, 0x00,
  0x00, 0xf7, 0xfa, 0xac, 0x42, 0x01, 0x00, 0x00, 0x00, 0xa8, 0x3c, 0x9e, 0xc2,
  0x0d, 0x00, 0x00, 0x00, 0x64, 0x65, 0x70, 0x74, 0x68, 0x77, 0x69, 0x73, 0x65,
  0x5f, 0x32, 0x31, 0x31, 0x00, 0x00, 0x00, 0x04, 0x00, 0x00, 0x00, 0x01, 0x00,
  0x00, 0x00, 0x3c, 0x04, 0x00, 0x00, 0x84, 0x07, 0x00, 0x00, 0x09, 0x00, 0x00,
  0x00, 0xf2, 0x9b, 0xff, 0xff, 0x14, 0x00, 0x00, 0x00, 0x48, 0x00, 0x00, 0x00,
  0x73, 0x00, 0x00, 0x00, 0x00, 0x00, 0x00, 0x07, 0x50, 0x00, 0x00, 0x00, 0xe4,
  0x9b, 0xff, 0xff, 0x10, 0x00, 0x00, 0x00, 0x18, 0x00, 0x00, 0x00, 0x1c, 0x00,
  0x00, 0x00, 0x20, 0x00, 0x00, 0x00, 0x01, 0x00, 0x00, 0x00, 0x00, 0x00, 0x00,
  0x00, 0x00, 0x00, 0x00, 0x00, 0x01, 0x00, 0x00, 0x00, 0xa9, 0x91, 0x09, 0x3c,
  0x01, 0x00, 0x00, 0x00, 0x96, 0x90, 0x89, 0x43, 0x01, 0x00, 0x00, 0x00, 0xc6,
  0xac, 0x48, 0xc3, 0x0d, 0x00, 0x00, 0x00, 0x64, 0x65, 0x70, 0x74, 0x68, 0x77,
  0x69, 0x73, 0x65, 0x5f, 0x32, 0x30, 0x31, 0x00, 0x00, 0x00, 0x04, 0x00, 0x00,
  0x00, 0x01, 0x00, 0x00, 0x00, 0x3c, 0x04, 0x00, 0x00, 0x84, 0x07, 0x00, 0x00,
  0x09, 0x00, 0x00, 0x00, 0x6a, 0x9c, 0xff, 0xff, 0x14, 0x00, 0x00, 0x00, 0x48,
  0x00, 0x00, 0x00, 0x72, 0x00, 0x00, 0x00, 0x00, 0x00, 0x00, 0x07, 0x48, 0x00,
  0x00, 0x00, 0x5c, 0x9c, 0xff, 0xff, 0x10, 0x00, 0x00, 0x00, 0x18, 0x00, 0x00,
  0x00, 0x1c, 0x00, 0x00, 0x00, 0x20, 0x00, 0x00, 0x00, 0x01, 0x00, 0x00, 0x00,
  0x00, 0x00, 0x00, 0x00, 0x00, 0x00, 0x00, 0x00, 0x01, 0x00, 0x00, 0x00, 0x55,
