const unsigned char sr7by4ra_1_tflite[] = {
  0x1c, 0x00, 0x00, 0x00, 0x54, 0x46, 0x4c, 0x33, 0x00, 0x00, 0x12, 0x00, 0x1c,
  0x00, 0x18, 0x00, 0x14, 0x00, 0x10, 0x00, 0x0c, 0x00, 0x08, 0x00, 0x00, 0x00,
  0x04, 0x00, 0x12, 0x00, 0x00, 0x00, 0x18, 0x00, 0x00, 0x00, 0x70, 0x00, 0x00,
  0x00, 0x6c, 0x12, 0x00, 0x00, 0x7c, 0x12, 0x00, 0x00, 0x38, 0x71, 0x00, 0x00,
  0x03, 0x00, 0x00, 0x00, 0x02, 0x00, 0x00, 0x00, 0x34, 0x00, 0x00, 0x00, 0x04,
  0x00, 0x00, 0x00, 0xdc, 0xff, 0xff, 0xff, 0x68, 0x00, 0x00, 0x00, 0x04, 0x00,
  0x00, 0x00, 0x13, 0x00, 0x00, 0x00, 0x43, 0x4f, 0x4e, 0x56, 0x45, 0x52, 0x53,
  0x49, 0x4f, 0x4e, 0x5f, 0x4d, 0x45, 0x54, 0x41, 0x44, 0x41, 0x54, 0x41, 0x00,
  0x08, 0x00, 0x0c, 0x00, 0x08, 0x00, 0x04, 0x00, 0x08, 0x00, 0x00, 0x00, 0x67,
  0x00, 0x00, 0x00, 0x04, 0x00, 0x00, 0x00, 0x13, 0x00, 0x00, 0x00, 0x6d, 0x69,
  0x6e, 0x5f, 0x72, 0x75, 0x6e, 0x74, 0x69, 0x6d, 0x65, 0x5f, 0x76, 0x65, 0x72,
  0x73, 0x69, 0x6f, 0x6e, 0x00, 0x69, 0x00, 0x00, 0x00, 0xf8, 0x11, 0x00, 0x00,
  0xf0, 0x11, 0x00, 0x00, 0x80, 0x11, 0x00, 0x00, 0x18, 0x11, 0x00, 0x00, 0xc8,
  0x10, 0x00, 0x00, 0x78, 0x10, 0x00, 0x00, 0xe8, 0x0f, 0x00, 0x00, 0x78, 0x0f,
  0x00, 0x00, 0x18, 0x0f, 0x00, 0x00, 0xc8, 0x0e, 0x00, 0x00, 0x78, 0x0e, 0x00,
  0x00, 0x60, 0x0e, 0x00, 0x00, 0x48, 0x0e, 0x00, 0x00, 0x34, 0x0e, 0x00, 0x00,
  0x20, 0x0e, 0x00, 0x00, 0x90, 0x0d, 0x00, 0x00, 0x70, 0x0d, 0x00, 0x00, 0x30,
  0x0d, 0x00, 0x00, 0xf0, 0x0c, 0x00, 0x00, 0x80, 0x0c, 0x00, 0x00, 0xb0, 0x0b,
  0x00, 0x00, 0x7c, 0x0b, 0x00, 0x00, 0x48, 0x0b, 0x00, 0x00, 0xa8, 0x0a, 0x00,
  0x00, 0x68, 0x0a, 0x00, 0x00, 0x28, 0x0a, 0x00, 0x00, 0x58, 0x09, 0x00, 0x00,
  0x24, 0x09, 0x00, 0x00, 0xf0, 0x08, 0x00, 0x00, 0x90, 0x08, 0x00, 0x00, 0x08,
  0x08, 0x00, 0x00, 0xd8, 0x07, 0x00, 0x00, 0xa8, 0x07, 0x00, 0x00, 0x34, 0x07,
  0x00, 0x00, 0x00, 0x07, 0x00, 0x00, 0xcc, 0x06, 0x00, 0x00, 0x44, 0x06, 0x00,
  0x00, 0x14, 0x06, 0x00, 0x00, 0xe4, 0x05, 0x00, 0x00, 0x94, 0x05, 0x00, 0x00,
  0x34, 0x05, 0x00, 0x00, 0x0c, 0x05, 0x00, 0x00, 0xe4, 0x04, 0x00, 0x00, 0x94,
  0x04, 0x00, 0x00, 0x64, 0x04, 0x00, 0x00, 0x34, 0x04, 0x00, 0x00, 0xd4, 0x03,
  0x00, 0x00, 0xac, 0x03, 0x00, 0x00, 0x84, 0x03, 0x00, 0x00, 0x34, 0x03, 0x00,
  0x00, 0x0c, 0x03, 0x00, 0x00, 0xe4, 0x02, 0x00, 0x00, 0x94, 0x02, 0x00, 0x00,
  0x6c, 0x02, 0x00, 0x00, 0x44, 0x02, 0x00, 0x00, 0x2c, 0x02, 0x00, 0x00, 0x14,
  0x02, 0x00, 0x00, 0xe4, 0x01, 0x00, 0x00, 0xdc, 0x01, 0x00, 0x00, 0xd4, 0x01,
  0x00, 0x00, 0xcc, 0x01, 0x00, 0x00, 0xc4, 0x01, 0x00, 0x00, 0xbc, 0x01, 0x00,
  0x00, 0xb4, 0x01, 0x00, 0x00, 0xac, 0x01, 0x00, 0x00, 0xa4, 0x01, 0x00, 0x00,
  0x9c, 0x01, 0x00, 0x00, 0x94, 0x01, 0x00, 0x00, 0x8c, 0x01, 0x00, 0x00, 0x84,
  0x01, 0x00, 0x00, 0x7c, 0x01, 0x00, 0x00, 0x74, 0x01, 0x00, 0x00, 0x6c, 0x01,
  0x00, 0x00, 0x64, 0x01, 0x00, 0x00, 0x5c, 0x01, 0x00, 0x00, 0x54, 0x01, 0x00,
  0x00, 0x4c, 0x01, 0x00, 0x00, 0x44, 0x01, 0x00, 0x00, 0x3c, 0x01, 0x00, 0x00,
  0x34, 0x01, 0x00, 0x00, 0x2c, 0x01, 0x00, 0x00, 0x24, 0x01, 0x00, 0x00, 0x1c,
  0x01, 0x00, 0x00, 0x14, 0x01, 0x00, 0x00, 0x0c, 0x01, 0x00, 0x00, 0x04, 0x01,
  0x00, 0x00, 0xfc, 0x00, 0x00, 0x00, 0xf4, 0x00, 0x00, 0x00, 0xec, 0x00, 0x00,
  0x00, 0xe4, 0x00, 0x00, 0x00, 0xdc, 0x00, 0x00, 0x00, 0xd4, 0x00, 0x00, 0x00,
  0xcc, 0x00, 0x00, 0x00, 0xc4, 0x00, 0x00, 0x00, 0xbc, 0x00, 0x00, 0x00, 0xb4,
  0x00, 0x00, 0x00, 0xac, 0x00, 0x00, 0x00, 0xa4, 0x00, 0x00, 0x00, 0x9c, 0x00,
  0x00, 0x00, 0x94, 0x00, 0x00, 0x00, 0x8c, 0x00, 0x00, 0x00, 0x84, 0x00, 0x00,
  0x00, 0x7c, 0x00, 0x00, 0x00, 0x5c, 0x00, 0x00, 0x00, 0x04, 0x00, 0x00, 0x00,
  0x22, 0xf0, 0xff, 0xff, 0x04, 0x00, 0x00, 0x00, 0x48, 0x00, 0x00, 0x00, 0x04,
  0x00, 0x00, 0x00, 0xdc, 0xff, 0xff, 0xff, 0x10, 0x00, 0x00, 0x00, 0x24, 0x00,
  0x00, 0x00, 0x00, 0x00, 0x06, 0x00, 0x08, 0x00, 0x04, 0x00, 0x06, 0x00, 0x00,
  0x00, 0x04, 0x00, 0x00, 0x00, 0x01, 0x00, 0x00, 0x00, 0xec, 0x03, 0x00, 0x00,
  0x08, 0x00, 0x0c, 0x00, 0x08, 0x00, 0x04, 0x00, 0x08, 0x00, 0x00, 0x00, 0x01,
  0x00, 0x00, 0x00, 0x04, 0x00, 0x00, 0x00, 0x06, 0x00, 0x00, 0x00, 0x32, 0x2e,
  0x31, 0x30, 0x2e, 0x30, 0x00, 0x00, 0x76, 0xf0, 0xff, 0xff, 0x04, 0x00, 0x00,
  0x00, 0x10, 0x00, 0x00, 0x00, 0x31, 0x2e, 0x37, 0x2e, 0x30, 0x00, 0x00, 0x00,
  0x00, 0x00, 0x00, 0x00, 0x00, 0x00, 0x00, 0x00, 0x8c, 0xca, 0xff, 0xff, 0x90,
  0xca, 0xff, 0xff, 0x94, 0xca, 0xff, 0xff, 0x98, 0xca, 0xff, 0xff, 0x9c, 0xca,
  0xff, 0xff, 0xa0, 0xca, 0xff, 0xff, 0xa4, 0xca, 0xff, 0xff, 0xa8, 0xca, 0xff,
  0xff, 0xac, 0xca, 0xff, 0xff, 0xb0, 0xca, 0xff, 0xff, 0xb4, 0xca, 0xff, 0xff,
  0xb8, 0xca, 0xff, 0xff, 0xbc, 0xca, 0xff, 0xff, 0xc0, 0xca, 0xff, 0xff, 0xc4,
  0xca, 0xff, 0xff, 0xc8, 0xca, 0xff, 0xff, 0xcc, 0xca, 0xff, 0xff, 0xd0, 0xca,
  0xff, 0xff, 0xd4, 0xca, 0xff, 0xff, 0xd8, 0xca, 0xff, 0xff, 0xdc, 0xca, 0xff,
  0xff, 0xe0, 0xca, 0xff, 0xff, 0xe4, 0xca, 0xff, 0xff, 0xe8, 0xca, 0xff, 0xff,
  0xec, 0xca, 0xff, 0xff, 0xf0, 0xca, 0xff, 0xff, 0xf4, 0xca, 0xff, 0xff, 0xf8,
  0xca, 0xff, 0xff, 0xfc, 0xca, 0xff, 0xff, 0x00, 0xcb, 0xff, 0xff, 0x04, 0xcb,
  0xff, 0xff, 0x08, 0xcb, 0xff, 0xff, 0x0c, 0xcb, 0xff, 0xff, 0x10, 0xcb, 0xff,
  0xff, 0x14, 0xcb, 0xff, 0xff, 0x18, 0xcb, 0xff, 0xff, 0x1c, 0xcb, 0xff, 0xff,
  0x20, 0xcb, 0xff, 0xff, 0x24, 0xcb, 0xff, 0xff, 0x28, 0xcb, 0xff, 0xff, 0x2c,
  0xcb, 0xff, 0xff, 0x30, 0xcb, 0xff, 0xff, 0x34, 0xcb, 0xff, 0xff, 0x38, 0xcb,
  0xff, 0xff, 0x3c, 0xcb, 0xff, 0xff, 0x46, 0xf1, 0xff, 0xff, 0x04, 0x00, 0x00,
  0x00, 0x20, 0x00, 0x00, 0x00, 0x00, 0x00, 0x00, 0x00, 0x00, 0x00, 0x00, 0x00,
  0x01, 0x00, 0x00, 0x00, 0x01, 0x00, 0x00, 0x00, 0x01, 0x00, 0x00, 0x00, 0x01,
  0x00, 0x00, 0x00, 0x00, 0x00, 0x00, 0x00, 0x00, 0x00, 0x00, 0x00, 0x72, 0xf1,
  0xff, 0xff, 0x04, 0x00, 0x00, 0x00, 0x08, 0x00, 0x00, 0x00, 0x3a, 0x04, 0x00,
  0x00, 0x82, 0x07, 0x00, 0x00, 0x86, 0xf1, 0xff, 0xff, 0x04, 0x00, 0x00, 0x00,
  0x08, 0x00, 0x00, 0x00, 0x84, 0x68, 0xb2, 0x81, 0xb9, 0x44, 0xa8, 0x3f, 0x9a,
  0xf1, 0xff, 0xff, 0x04, 0x00, 0x00, 0x00, 0x18, 0x00, 0x00, 0x00, 0x81, 0xfd,
  0xbd, 0x09, 0x11, 0x7f, 0x0d, 0x9d, 0x92, 0x7f, 0x4f, 0x25, 0xf2, 0x71, 0x7f,
  0x7f, 0xec, 0x0d, 0x7f, 0x7f, 0x7f, 0x46, 0x9b, 0xda, 0xbe, 0xf1, 0xff, 0xff,
  0x04, 0x00, 0x00, 0x00, 0x18, 0x00, 0x00, 0x00, 0x50, 0x0f, 0x2f, 0x27, 0x1e,
  0x44, 0xd5, 0xd7, 0x81, 0x4f, 0x81, 0x81, 0x7f, 0x81, 0x81, 0x81, 0x2a, 0x81,
  0x11, 0x4c, 0xe4, 0x0b, 0xf2, 0x0d, 0xe2, 0xf1, 0xff, 0xff, 0x04, 0x00, 0x00,
  0x00, 0x40, 0x00, 0x00, 0x00, 0xeb, 0xd9, 0x7f, 0x38, 0xd5, 0x78, 0x9b, 0x89,
  0xf0, 0x5a, 0x7f, 0xc6, 0xd8, 0xbf, 0x4b, 0x8b, 0x7f, 0x5a, 0xd6, 0x9c, 0xba,
  0x3d, 0xec, 0x2d, 0xf4, 0x81, 0xd5, 0x88, 0x35, 0xee, 0xc4, 0x2f, 0xcf, 0xae,
  0x08, 0x81, 0x56, 0xe1, 0xed, 0xff, 0xed, 0xf1, 0x81, 0x0a, 0xd9, 0x24, 0x06,
  0x75, 0x69, 0x81, 0xad, 0x20, 0x8a, 0x37, 0xab, 0x71, 0xf5, 0x20, 0x75, 0xdf,
  0x81, 0x47, 0x06, 0xa2, 0x2e, 0xf2, 0xff, 0xff, 0x04, 0x00, 0x00, 0x00, 0x18,
  0x00, 0x00, 0x00, 0xfb, 0x6f, 0x43, 0xf1, 0xed, 0xf1, 0xf3, 0xd8, 0x81, 0x81,
  0x81, 0x7f, 0x7f, 0x7f, 0xba, 0x7f, 0x0b, 0x48, 0x41, 0xe3, 0xe9, 0xef, 0x81,
  0xa3, 0x52, 0xf2, 0xff, 0xff, 0x04, 0x00, 0x00, 0x00, 0x18, 0x00, 0x00, 0x00,
  0xe1, 0xdd, 0x05, 0x0c, 0xa3, 0xb8, 0xd5, 0x0d, 0x7f, 0x7f, 0x81, 0x6f, 0xcc,
  0x81, 0x7f, 0x81, 0x07, 0xf3, 0x05, 0x7f, 0x7f, 0xf3, 0xdc, 0x0c, 0x76, 0xf2,
  0xff, 0xff, 0x04, 0x00, 0x00, 0x00, 0x40, 0x00, 0x00, 0x00, 0x2f, 0x8c, 0x7f,
  0x41, 0x2c, 0x1b, 0x17, 0xfc, 0x21, 0x09, 0x1b, 0x1e, 0x32, 0x0d, 0x81, 0xe0,
  0xf6, 0x06, 0x7f, 0x08, 0xf4, 0x28, 0xc8, 0xf8, 0x1e, 0xb4, 0x0b, 0x81, 0xfa,
  0x12, 0xc5, 0x28, 0x2a, 0x63, 0x2f, 0x39, 0x7f, 0x28, 0xe0, 0x7e, 0x28, 0x5a,
  0x26, 0x2d, 0x7f, 0x2a, 0xdb, 0x7a, 0x7f, 0x29, 0x01, 0x5a, 0xf4, 0x41, 0xe9,
  0xfc, 0xdf, 0x05, 0x3f, 0x04, 0xeb, 0x81, 0x07, 0xfe, 0xc2, 0xf2, 0xff, 0xff,
  0x04, 0x00, 0x00, 0x00, 0x18, 0x00, 0x00, 0x00, 0xd9, 0x0c, 0x37, 0x0f, 0x1b,
  0x18, 0x81, 0x25, 0x81, 0x81, 0xd0, 0x81, 0x7f, 0x81, 0xd4, 0x57, 0xfe, 0xeb,
  0x81, 0xf3, 0x64, 0x08, 0x1f, 0x7f, 0xe6, 0xf2, 0xff, 0xff, 0x04, 0x00, 0x00,
  0x00, 0x18, 0x00, 0x00, 0x00, 0x48, 0x6f, 0xd7, 0xcc, 0xcb, 0x3a, 0xd2, 0x81,
  0x7f, 0xb7, 0x81, 0x9e, 0x81, 0x7f, 0x81, 0xca, 0x21, 0x81, 0xf8, 0x7f, 0x22,
  0x10, 0x07, 0xc6, 0x0a, 0xf3, 0xff, 0xff, 0x04, 0x00, 0x00, 0x00, 0x50, 0x00,
  0x00, 0x00, 0xb3, 0xfe, 0xf8, 0xc1, 0x35, 0x05, 0xf1, 0xe0, 0x81, 0xdb, 0x32,
  0x1e, 0x0e, 0x2c, 0xf6, 0xfe, 0x44, 0x03, 0xb3, 0x7f, 0x42, 0x47, 0x0c, 0x81,
  0xa7, 0x18, 0x01, 0xc9, 0xf5, 0x2f, 0x8a, 0x61, 0xbc, 0x21, 0xf5, 0xee, 0x7f,
  0xce, 0x39, 0xf6, 0xa4, 0xa2, 0xc0, 0x1a, 0xb8, 0xdd, 0xf5, 0x7f, 0xa8, 0xf8,
  0x62, 0xf6, 0x31, 0x15, 0x22, 0x7f, 0x17, 0xe3, 0xf3, 0x41, 0x18, 0xd8, 0x37,
  0x73, 0x3d, 0x2f, 0x4d, 0x44, 0x81, 0xe1, 0x7f, 0xf8, 0x60, 0x87, 0x26, 0x18,
  0xa2, 0x99, 0xea, 0x27, 0x66, 0xf3, 0xff, 0xff, 0x04, 0x00, 0x00, 0x00, 0x1e,
  0x00, 0x00, 0x00, 0x81, 0xa6, 0x95, 0xfc, 0x11, 0xb6, 0x81, 0x05, 0xdc, 0xc6,
  0x97, 0x81, 0x97, 0x04, 0x7f, 0x7f, 0x8f, 0x81, 0x7f, 0x81, 0xf8, 0x18, 0x81,
  0x81, 0xff, 0x14, 0xca, 0x3b, 0xe1, 0x08, 0x00, 0x00, 0x92, 0xf3, 0xff, 0xff,
  0x04, 0x00, 0x00, 0x00, 0x1e, 0x00, 0x00, 0x00, 0x39, 0x81, 0x7f, 0x81, 0x81,
  0x7f, 0x29, 0x81, 0xf4, 0xfb, 0x7f, 0x38, 0x53, 0xcd, 0xd6, 0x11, 0x22, 0xe8,
  0x81, 0xd7, 0x58, 0xfe, 0x10, 0xf6, 0xeb, 0x18, 0x81, 0xec, 0x37, 0x81, 0x00,
  0x00, 0xbe, 0xf3, 0xff, 0xff, 0x04, 0x00, 0x00, 0x00, 0x40, 0x00, 0x00, 0x00,
  0xa7, 0x19, 0x7f, 0xea, 0x07, 0xd1, 0xca, 0xc8, 0xf9, 0xa5, 0x81, 0xff, 0x2d,
  0x5c, 0xb4, 0x43, 0x07, 0xf0, 0xfb, 0x81, 0xef, 0x04, 0x0b, 0x09, 0xfc, 0xa0,
  0x93, 0x0d, 0x55, 0x7f, 0x9b, 0x4a, 0x81, 0x33, 0x1f, 0xec, 0x40, 0x61, 0x07,
  0x3d, 0x7f, 0xf0, 0xd3, 0xdb, 0x14, 0x15, 0x22, 0xf7, 0xa0, 0x1b, 0x18, 0x7f,
  0x1f, 0x16, 0xdf, 0xf9, 0x30, 0x0a, 0xfa, 0xee, 0x7f, 0xc8, 0xfe, 0x12, 0x0a,
  0xf4, 0xff, 0xff, 0x04, 0x00, 0x00, 0x00, 0x18, 0x00, 0x00, 0x00, 0xc3, 0xf5,
  0xf4, 0xd6, 0xf1, 0x04, 0x06, 0xf4, 0x7f, 0x7f, 0x7f, 0x7f, 0x7f, 0x7f, 0x7f,
  0x7f, 0xd1, 0xe4, 0xfe, 0xf4, 0xf5, 0x04, 0x05, 0xf5, 0x2e, 0xf4, 0xff, 0xff,
  0x04, 0x00, 0x00, 0x00, 0x18, 0x00, 0x00, 0x00, 0xf1, 0x7f, 0xb0, 0x02, 0x02,
  0x7f, 0x7f, 0x4a, 0x7f, 0x59, 0x81, 0x81, 0x42, 0x18, 0x36, 0x81, 0xf4, 0x06,
  0xf3, 0xfb, 0x81, 0x14, 0x06, 0x3a, 0x52, 0xf4, 0xff, 0xff, 0x04, 0x00, 0x00,
  0x00, 0x50, 0x00, 0x00, 0x00, 0xff, 0x81, 0x48, 0xed, 0x01, 0xf7, 0x23, 0xe8,
  0xc8, 0x24, 0x79, 0x2c, 0xf9, 0x7f, 0xeb, 0x4f, 0xd7, 0xf8, 0x0e, 0x3e, 0x6c,
  0xc7, 0xa2, 0x7e, 0xf0, 0x7f, 0x05, 0xba, 0x41, 0x4e, 0x0c, 0x81, 0x36, 0x15,
  0x7f, 0x2e, 0xfe, 0xfb, 0x50, 0xfd, 0xa9, 0xf9, 0xd9, 0xd2, 0x03, 0x0e, 0x1c,
  0x7f, 0xac, 0x98, 0x2e, 0x5b, 0x8b, 0x44, 0xd7, 0x7f, 0x0d, 0x01, 0x39, 0xd9,
  0xb1, 0x31, 0xe3, 0xa2, 0x2f, 0xfb, 0x7f, 0xce, 0xf0, 0xd5, 0xd2, 0xbb, 0xa2,
  0xd4, 0x2d, 0x0c, 0x7f, 0x89, 0x6f, 0x43, 0xae, 0xf4, 0xff, 0xff, 0x04, 0x00,
  0x00, 0x00, 0x40, 0x00, 0x00, 0x00, 0x00, 0x00, 0x00, 0x00, 0x00, 0x00, 0x00,
  0x00, 0x00, 0x00, 0x00, 0x00, 0x00, 0x00, 0x00, 0x00, 0x00, 0x00, 0x00, 0x00,
  0x00, 0x00, 0x00, 0x00, 0x00, 0x00, 0x00, 0x00, 0x00, 0x00, 0x00, 0x00, 0x00,
  0x00, 0x00, 0x00, 0x00, 0x00, 0x00, 0x00, 0x00, 0x00, 0x00, 0x00, 0x00, 0x00,
  0x00, 0x00, 0x00, 0x00, 0x00, 0x00, 0x00, 0x00, 0x00, 0x00, 0x00, 0x00, 0x00,
  0x00, 0x00, 0x00, 0x00, 0x00, 0xfa, 0xf4, 0xff, 0xff, 0x04, 0x00, 0x00, 0x00,
  0x1e, 0x00, 0x00, 0x00, 0x96, 0x81, 0x64, 0x9d, 0x30, 0xa9, 0x7f, 0x38, 0x95,
  0xad, 0x81, 0xaf, 0x7f, 0x81, 0x7f, 0x81, 0x6a, 0x7f, 0x81, 0x81, 0xcb, 0xb7,
  0x0d, 0xe5, 0xf3, 0xab, 0x18, 0x38, 0xe1, 0xde, 0x00, 0x00, 0x26, 0xf5, 0xff,
  0xff, 0x04, 0x00, 0x00, 0x00, 0x1e, 0x00, 0x00, 0x00, 0xf2, 0x97, 0x81, 0x08,
  0x81, 0x81, 0xf0, 0xca, 0xf8, 0x4b, 0x7f, 0x81, 0x0c, 0x7f, 0xde, 0xc9, 0x81,
  0x7f, 0x7f, 0x7f, 0x5a, 0xcc, 0xf8, 0x18, 0xee, 0xf8, 0x28, 0xbb, 0x28, 0xc5,
  0x00, 0x00, 0x52, 0xf5, 0xff, 0xff, 0x04, 0x00, 0x00, 0x00, 0x78, 0x00, 0x00,
  0x00, 0xfa, 0xfc, 0xc2, 0xca, 0x21, 0x81, 0xf5, 0xdc, 0x1d, 0x4d, 0xba, 0x81,
  0xed, 0xcc, 0x34, 0x81, 0x29, 0x83, 0x1a, 0xcf, 0x65, 0x33, 0x48, 0xb8, 0x1f,
  0xe4, 0x7f, 0x94, 0x71, 0xc2, 0xe3, 0x98, 0xf7, 0xf6, 0x08, 0xf6, 0x98, 0xd8,
  0xac, 0x37, 0x7c, 0x7f, 0x4f, 0xff, 0xaf, 0x62, 0xfc, 0x1c, 0xc9, 0x13, 0xda,
  0x68, 0x14, 0x7f, 0x03, 0x6b, 0xf4, 0x08, 0x24, 0x50, 0xa0, 0xf9, 0x5e, 0x15,
  0x2d, 0x4b, 0x54, 0xa8, 0x5f, 0x81, 0xd5, 0xf7, 0xfe, 0xaa, 0x00, 0xd8, 0x7f,
  0xe7, 0x36, 0x20, 0xda, 0x2a, 0x3d, 0xd4, 0xc3, 0xf0, 0x2f, 0xee, 0xc0, 0xd5,
  0x7f, 0xfd, 0x7f, 0xfc, 0xeb, 0xb9, 0xdf, 0x02, 0x7f, 0x17, 0xe3, 0x39, 0xda,
  0x25, 0xbc, 0xe7, 0x0b, 0x4b, 0x7f, 0x4a, 0x0a, 0x29, 0xbd, 0xf3, 0x16, 0x13,
  0xe6, 0xbd, 0xec, 0x41, 0xd6, 0xf5, 0xff, 0xff, 0x04, 0x00, 0x00, 0x00, 0x24,
  0x00, 0x00, 0x00, 0x39, 0xd9, 0x02, 0x9a, 0x44, 0x7f, 0x9e, 0x7f, 0x2b, 0x4f,
  0x7f, 0x7f, 0x81, 0x81, 0x7f, 0x7f, 0x81, 0x8a, 0xf2, 0xb3, 0x7f, 0x81, 0xcc,
  0x8e, 0xff, 0xe6, 0x14, 0xb3, 0x5c, 0x0b, 0x7f, 0x49, 0x54, 0x12, 0x4b, 0xec,
  0x06, 0xf6, 0xff, 0xff, 0x04, 0x00, 0x00, 0x00, 0x24, 0x00, 0x00, 0x00, 0xf2,
  0xdf, 0xf6, 0x2c, 0xfe, 0x09, 0x16, 0x03, 0x2c, 0x20, 0x05, 0x0e, 0xbb, 0x7f,
  0xb2, 0x2a, 0xe8, 0x14, 0x22, 0x11, 0x6c, 0xdf, 0x7f, 0x7f, 0x81, 0xe7, 0x7f,
  0x7f, 0x7f, 0x7f, 0x7f, 0x7f, 0x7f, 0x7f, 0x6b, 0x2f, 0x36, 0xf6, 0xff, 0xff,
  0x04, 0x00, 0x00, 0x00, 0x64, 0x00, 0x00, 0x00, 0xbd, 0x9a, 0x31, 0xe9, 0x11,
  0x92, 0xc7, 0x11, 0x17, 0x81, 0xf6, 0x20, 0x9b, 0x36, 0x34, 0xba, 0xee, 0x7f,
  0xbe, 0xb4, 0xdb, 0x2f, 0x3d, 0x57, 0xa0, 0x7f, 0x53, 0x4c, 0xe4, 0x2b, 0x2b,
  0x1f, 0x4f, 0x81, 0xe7, 0x03, 0xdc, 0xc3, 0x1c, 0x2d, 0x15, 0xec, 0x1c, 0xe3,
  0x0a, 0xea, 0x04, 0xad, 0x40, 0x81, 0x7f, 0x38, 0x03, 0x44, 0xde, 0x2a, 0x33,
  0x46, 0x1d, 0xda, 0x31, 0xa3, 0x55, 0xbe, 0xae, 0x81, 0xc3, 0xee, 0x32, 0x00,
  0x81, 0x11, 0x0a, 0x06, 0x01, 0xee, 0xf1, 0x28, 0xb0, 0xfe, 0x11, 0xc8, 0x3a,
  0x79, 0xb1, 0x7a, 0x7f, 0xd5, 0x3f, 0x2f, 0xb1, 0xb9, 0x46, 0xe7, 0xbf, 0x7f,
  0x65, 0xcb, 0xf5, 0x03, 0xa6, 0xf6, 0xff, 0xff, 0x04, 0x00, 0x00, 0x00, 0x1e,
  0x00, 0x00, 0x00, 0xcc, 0x37, 0xc8, 0x36, 0x0a, 0xfd, 0x07, 0x81, 0x81, 0x40,
  0x7f, 0x7f, 0x81, 0x7f, 0x81, 0x81, 0x7f, 0xba, 0xcc, 0x81, 0x51, 0x34, 0xed,
  0x28, 0x10, 0x14, 0x11, 0x8d, 0xef, 0x00, 0x00, 0x00, 0xd2, 0xf6, 0xff, 0xff,
  0x04, 0x00, 0x00, 0x00, 0x1e, 0x00, 0x00, 0x00, 0x16, 0x19, 0x81, 0xf3, 0x9d,
  0x59, 0x26, 0x7f, 0xe5, 0x17, 0x7f, 0xf3, 0xdc, 0x7f, 0x7f, 0x81, 0x81, 0x38,
  0x5a, 0x7f, 0x04, 0x7f, 0x33, 0xc8, 0xdc, 0x71, 0x42, 0xf5, 0x81, 0xda, 0x00,
  0x00, 0xfe, 0xf6, 0xff, 0xff, 0x04, 0x00, 0x00, 0x00, 0x78, 0x00, 0x00, 0x00,
  0xf2, 0x0c, 0xf5, 0xde, 0x05, 0x12, 0xa4, 0xf8, 0x04, 0x7f, 0x0d, 0xd9, 0xb9,
  0x26, 0x14, 0x7f, 0x4b, 0xd7, 0xfe, 0x98, 0xc5, 0xcc, 0xdb, 0x51, 0x01, 0x0c,
  0x61, 0x81, 0x29, 0xb1, 0x03, 0x4f, 0x8c, 0xa9, 0x10, 0xb5, 0xce, 0x81, 0xdf,
  0x34, 0xe1, 0x33, 0xd9, 0x2e, 0xff, 0xff, 0xcc, 0xca, 0x81, 0x53, 0xc3, 0xd1,
  0x67, 0xd7, 0x0f, 0x81, 0xec, 0x06, 0xfd, 0x09, 0x06, 0x02, 0x3f, 0x48, 0x34,
  0x81, 0x18, 0xf7, 0xd6, 0xfc, 0xda, 0x3d, 0x36, 0xd8, 0xbd, 0xdc, 0xca, 0xa7,
  0x37, 0x81, 0xa4, 0xec, 0x8a, 0x20, 0xd7, 0x23, 0x05, 0xe3, 0x53, 0x81, 0x35,
  0xa9, 0x89, 0xce, 0x02, 0x04, 0x9e, 0x31, 0xdc, 0xd4, 0x56, 0x2f, 0xee, 0x25,
  0x25, 0x0a, 0x7f, 0xd1, 0xca, 0x04, 0x0c, 0xeb, 0x3f, 0xe0, 0x3b, 0x05, 0x14,
  0xbb, 0x0e, 0x81, 0x82, 0xf7, 0xff, 0xff, 0x04, 0x00, 0x00, 0x00, 0x50, 0x00,
  0x00, 0x00, 0x00, 0x00, 0x00, 0x00, 0x00, 0x00, 0x00, 0x00, 0x00, 0x00, 0x00,
  0x00, 0x00, 0x00, 0x00, 0x00, 0x00, 0x00, 0x00, 0x00, 0x00, 0x00, 0x00, 0x00,
  0x00, 0x00, 0x00, 0x00, 0x00, 0x00, 0x00, 0x00, 0x00, 0x00, 0x00, 0x00, 0x00,
  0x00, 0x00, 0x00, 0x00, 0x00, 0x00, 0x00, 0x00, 0x00, 0x00, 0x00, 0x00, 0x00,
  0x00, 0x00, 0x00, 0x00, 0x00, 0x00, 0x00, 0x00, 0x00, 0x00, 0x00, 0x00, 0x00,
  0x00, 0x00, 0x00, 0x00, 0x00, 0x00, 0x00, 0x00, 0x00, 0x00, 0x00, 0x00, 0x00,
  0x00, 0x00, 0x00, 0x00, 0xde, 0xf7, 0xff, 0xff, 0x04, 0x00, 0x00, 0x00, 0x24,
  0x00, 0x00, 0x00, 0x02, 0x4a, 0x14, 0x1a, 0xf8, 0xf6, 0xdc, 0xb8, 0x08, 0x7f,
  0xe7, 0x27, 0x7f, 0x7f, 0x7f, 0x7f, 0x7f, 0x81, 0x81, 0x81, 0x7f, 0xb5, 0x81,
  0x7f, 0x11, 0x41, 0x1d, 0x14, 0x22, 0xf0, 0xe9, 0xc8, 0xfd, 0x0a, 0xe5, 0x18,
  0x0e, 0xf8, 0xff, 0xff, 0x04, 0x00, 0x00, 0x00, 0x24, 0x00, 0x00, 0x00, 0xe1,
  0xc1, 0x7f, 0x09, 0x07, 0xde, 0x0b, 0x81, 0xec, 0xfc, 0x0f, 0x0f, 0x9c, 0x81,
  0x11, 0xd6, 0x81, 0x7d, 0xdd, 0x51, 0x84, 0x0a, 0x7f, 0x1e, 0x7f, 0x2c, 0xcb,
  0x7f, 0x4f, 0x81, 0x7f, 0xf6, 0x81, 0x7f, 0xfc, 0x81, 0x3e, 0xf8, 0xff, 0xff,
  0x04, 0x00, 0x00, 0x00, 0xc0, 0x00, 0x00, 0x00, 0x25, 0xc8, 0xbe, 0x71, 0x06,
  0x61, 0x70, 0x01, 0x43, 0xae, 0x1c, 0xaa, 0x86, 0x00, 0x49, 0x81, 0xcc, 0x42,
  0x7f, 0xa8, 0x29, 0x9d, 0xab, 0x1b, 0x60, 0x46, 0xd1, 0xef, 0xe0, 0x1e, 0x40,
  0x52, 0x54, 0xb5, 0xf4, 0x02, 0xbf, 0xf7, 0x1e, 0x05, 0x06, 0xe9, 0xe8, 0x2e,
  0xd7, 0xec, 0x7f, 0xd2, 0x81, 0x76, 0xcc, 0xef, 0x12, 0x3b, 0x15, 0xac, 0x36,
  0x2e, 0x1a, 0x9e, 0xf0, 0x13, 0x8b, 0xec, 0xcc, 0xa6, 0xe1, 0x7f, 0xfb, 0x06,
  0x36, 0xeb, 0xf4, 0x47, 0x26, 0xab, 0xce, 0x43, 0xc8, 0xec, 0x9c, 0x33, 0x91,
  0xd4, 0x0a, 0x15, 0x7f, 0xfc, 0x2e, 0x72, 0x2b, 0x29, 0x1a, 0x09, 0xa5, 0x2b,
  0x14, 0x12, 0x07, 0x01, 0xee, 0x0f, 0xdf, 0x7f, 0x5c, 0xef, 0x15, 0x19, 0x3d,
  0xaf, 0x01, 0x07, 0xef, 0x9b, 0xeb, 0x20, 0x39, 0x74, 0x4d, 0xac, 0xc6, 0x1d,
  0x19, 0x81, 0xa4, 0x9c, 0xf0, 0xee, 0xcc, 0x05, 0x81, 0xc7, 0x2e, 0xed, 0x3c,
  0x04, 0x2d, 0xb9, 0xd7, 0xf0, 0xfd, 0xdf, 0xe0, 0xc0, 0x3b, 0xed, 0x6c, 0xd8,
  0x47, 0x54, 0x84, 0x21, 0xc4, 0xa6, 0xcb, 0x7f, 0x41, 0xe2, 0x29, 0x39, 0x07,
  0x45, 0xe5, 0x1e, 0xbe, 0x52, 0x19, 0x09, 0x87, 0xc1, 0x4b, 0x36, 0xe3, 0x14,
  0x6f, 0x81, 0x4f, 0x19, 0xe2, 0x05, 0x09, 0x7f, 0xfe, 0x0c, 0xad, 0xce, 0x0c,
  0x0e, 0x29, 0xe3, 0x20, 0xeb, 0x0a, 0xf9, 0xff, 0xff, 0x04, 0x00, 0x00, 0x00,
  0x30, 0x00, 0x00, 0x00, 0xcb, 0xab, 0x46, 0x83, 0x7f, 0x32, 0x81, 0x3a, 0x7f,
  0x81, 0xc9, 0x03, 0x24, 0x81, 0xde, 0x1f, 0x7f, 0x7f, 0x7f, 0x81, 0xfc, 0x47,
  0x8f, 0xc9, 0xa5, 0x7a, 0x7f, 0x7f, 0x81, 0x31, 0x7f, 0x7f, 0x07, 0xef, 0xc9,
  0x99, 0x49, 0x81, 0x9d, 0x81, 0xfb, 0x9e, 0xa7, 0xde, 0xa7, 0xce, 0xde, 0x8e,
  0x46, 0xf9, 0xff, 0xff, 0x04, 0x00, 0x00, 0x00, 0x30, 0x00, 0x00, 0x00, 0xd3,
  0x7f, 0xfa, 0x7f, 0x98, 0x12, 0xd3, 0xc7, 0x81, 0x2a, 0xbf, 0x7f, 0xf8, 0x95,
  0xd8, 0x7f, 0x7f, 0x24, 0x0e, 0xb2, 0x7f, 0x81, 0xe5, 0x81, 0xd5, 0x1c, 0x7f,
  0x4e, 0xd0, 0x81, 0xa1, 0x8a, 0xe6, 0x38, 0x7f, 0x03, 0xce, 0xf3, 0x7f, 0x15,
  0x1c, 0x81, 0xb8, 0xde, 0x81, 0xc1, 0x7f, 0x3a, 0x82, 0xf9, 0xff, 0xff, 0x04,
  0x00, 0x00, 0x00, 0x90, 0x00, 0x00, 0x00, 0xc8, 0xad, 0x00, 0xd2, 0x2e, 0x98,
  0x7f, 0xd1, 0x52, 0xff, 0x4e, 0x50, 0x7f, 0x1d, 0x00, 0x3b, 0xbd, 0xfa, 0xdc,
  0x22, 0xd4, 0xc0, 0xfa, 0xe3, 0xba, 0xea, 0x00, 0x10, 0xdf, 0x90, 0xbb, 0x81,
  0xcf, 0xe4, 0xfb, 0xed, 0x7f, 0xf3, 0x00, 0xe8, 0xce, 0x0c, 0x49, 0x2f, 0x33,
  0x19, 0xc2, 0x07, 0xe2, 0xe5, 0x00, 0xcd, 0xfa, 0x05, 0x32, 0x0c, 0x7f, 0x29,
  0x2a, 0x7f, 0x7f, 0xdd, 0x00, 0x91, 0x06, 0x1b, 0x60, 0xed, 0xb6, 0x28, 0xa3,
  0x5c, 0xfb, 0x02, 0x00, 0x07, 0x05, 0x02, 0xf9, 0x04, 0x07, 0x7f, 0x0a, 0xe3,
  0xce, 0x8a, 0x00, 0xa7, 0xad, 0x38, 0x59, 0x38, 0x4b, 0x7f, 0x36, 0x77, 0x7f,
  0xe2, 0x00, 0xc8, 0x02, 0xea, 0x54, 0x11, 0xf8, 0x44, 0x3d, 0xfa, 0xcc, 0x7e,
  0x00, 0x6f, 0xbc, 0x14, 0x81, 0xf4, 0xd3, 0xa1, 0xd4, 0x1e, 0xdb, 0xf3, 0x00,
  0x00, 0x7f, 0xd6, 0x10, 0xd8, 0xfc, 0xfb, 0x0b, 0x01, 0x06, 0x27, 0x00, 0x08,
  0xb8, 0x81, 0x73, 0xc5, 0x54, 0x8d, 0x10, 0x38, 0x1e, 0xfa, 0xff, 0xff, 0x04,
  0x00, 0x00, 0x00, 0x24, 0x00, 0x00, 0x00, 0xea, 0xc9, 0x87, 0x10, 0x18, 0xef,
  0x8e, 0x06, 0x7f, 0xae, 0x3f, 0x81, 0x7f, 0x81, 0x82, 0x81, 0x7f, 0x81, 0x81,
  0x81, 0x76, 0x7f, 0x7f, 0xcc, 0xe2, 0xde, 0x81, 0x18, 0x0e, 0x0c, 0xe8, 0x06,
  0xb1, 0xdf, 0xd4, 0xf0, 0x4e, 0xfa, 0xff, 0xff, 0x04, 0x00, 0x00, 0x00, 0x24,
  0x00, 0x00, 0x00, 0x0e, 0xf9, 0x86, 0xfa, 0xe7, 0xdb, 0xef, 0xdf, 0x17, 0x81,
  0x3b, 0xd1, 0x87, 0xc5, 0x7b, 0x12, 0x09, 0x51, 0x81, 0x7f, 0x81, 0xfc, 0x81,
  0x81, 0x7f, 0x81, 0x81, 0x81, 0x7f, 0x81, 0xc9, 0xac, 0xde, 0x09, 0xf0, 0x05,
  0x7e, 0xfa, 0xff, 0xff, 0x04, 0x00, 0x00, 0x00, 0xc0, 0x00, 0x00, 0x00, 0xfa,
  0xf5, 0xfc, 0xff, 0x00, 0xf3, 0x07, 0x7f, 0x09, 0x01, 0x13, 0x00, 0x0c, 0x0e,
  0xfa, 0xf9, 0xe1, 0xf1, 0xf9, 0x81, 0x1f, 0x02, 0xe8, 0xf0, 0x14, 0xbe, 0xd3,
  0x2c, 0xda, 0xf3, 0x36, 0x4a, 0x00, 0x00, 0x00, 0x00, 0x00, 0x00, 0x00, 0x00,
  0x00, 0x00, 0x00, 0x00, 0x00, 0x00, 0x00, 0x00, 0x17, 0xda, 0x25, 0x1a, 0xec,
  0x42, 0xae, 0x00, 0x5b, 0xa5, 0x00, 0x07, 0x51, 0xb5, 0x81, 0xcc, 0x04, 0xeb,
  0x08, 0x4a, 0x09, 0xf8, 0xf4, 0x04, 0x19, 0x35, 0x0c, 0x33, 0xe9, 0x1d, 0xec,
  0x7f, 0x05, 0xe8, 0x21, 0xf3, 0xf2, 0x22, 0x17, 0x08, 0x0c, 0xe5, 0x0c, 0xf1,
  0xff, 0xd1, 0x10, 0x81, 0x0c, 0xfe, 0x11, 0x35, 0x04, 0xff, 0x01, 0xff, 0xf1,
  0xfa, 0xff, 0x81, 0x00, 0x01, 0xfe, 0x02, 0xd3, 0xf8, 0x26, 0x81, 0x40, 0x57,
  0x9f, 0xc1, 0xaf, 0x01, 0xd5, 0x12, 0xe9, 0xdd, 0x61, 0x44, 0xfb, 0x79, 0x0a,
  0x40, 0xf3, 0x7e, 0x7f, 0xbc, 0x8f, 0x9f, 0x96, 0x04, 0xdd, 0x19, 0x5b, 0x2e,
  0xca, 0xf4, 0xa5, 0x35, 0x36, 0xef, 0x16, 0xfb, 0xf4, 0xe3, 0xd9, 0xf0, 0x7f,
  0xfa, 0x41, 0xff, 0xe4, 0x8d, 0xbd, 0x81, 0x03, 0x15, 0xf1, 0x0a, 0x89, 0x36,
  0x1c, 0xe5, 0x61, 0x05, 0xe5, 0xda, 0xb4, 0x42, 0x7f, 0xa4, 0x21, 0x0a, 0x11,
  0xf6, 0x48, 0x66, 0xf1, 0xb6, 0x01, 0xf8, 0x00, 0xef, 0x4a, 0xfb, 0xff, 0xff,
  0x04, 0x00, 0x00, 0x00, 0x60, 0x00, 0x00, 0x00, 0x00, 0x00, 0x00, 0x00, 0x00,
  0x00, 0x00, 0x00, 0x00, 0x00, 0x00, 0x00, 0x00, 0x00, 0x00, 0x00, 0x00, 0x00,
  0x00, 0x00, 0x00, 0x00, 0x00, 0x00, 0x00, 0x00, 0x00, 0x00, 0x00, 0x00, 0x00,
  0x00, 0x00, 0x00, 0x00, 0x00, 0x00, 0x00, 0x00, 0x00, 0x00, 0x00, 0x00, 0x00,
  0x00, 0x00, 0x00, 0x00, 0x00, 0x00, 0x00, 0x00, 0x00, 0x00, 0x00, 0x00, 0x00,
  0x00, 0x00, 0x00, 0x00, 0x00, 0x00, 0x00, 0x00, 0x00, 0x00, 0x00, 0x00, 0x00,
  0x00, 0x00, 0x00, 0x00, 0x00, 0x00, 0x00, 0x00, 0x00, 0x00, 0x00, 0x00, 0x00,
  0x00, 0x00, 0x00, 0x00, 0x00, 0x00, 0x00, 0x00, 0x00, 0x00, 0x00, 0x00, 0x00,
  0xb6, 0xfb, 0xff, 0xff, 0x04, 0x00, 0x00, 0x00, 0x30, 0x00, 0x00, 0x00, 0xe1,
  0x7f, 0x09, 0xcb, 0xa5, 0xf4, 0x81, 0xd4, 0x81, 0x81, 0x5a, 0xdc, 0xf5, 0xda,
  0x01, 0xee, 0x9e, 0xb9, 0x95, 0x7f, 0x7f, 0x00, 0xcc, 0x81, 0x78, 0xfc, 0x81,
  0x9d, 0x7f, 0x81, 0x81, 0x7f, 0x7f, 0xf9, 0x7f, 0xb7, 0xcd, 0x7f, 0xff, 0xc8,
  0xc3, 0x1d, 0x09, 0x7f, 0x1b, 0xfe, 0xd5, 0x26, 0xf2, 0xfb, 0xff, 0xff, 0x04,
  0x00, 0x00, 0x00, 0x30, 0x00, 0x00, 0x00, 0x81, 0x05, 0x0d, 0x7f, 0xd0, 0x58,
  0x92, 0x81, 0x81, 0x7f, 0x7f, 0x75, 0x30, 0xd8, 0xc3, 0x81, 0xcb, 0x7f, 0x81,
  0xf8, 0x7f, 0x7f, 0x81, 0xf5, 0xe1, 0xb8, 0x11, 0x81, 0x71, 0xc6, 0x81, 0x68,
  0x9a, 0xb7, 0x07, 0xaf, 0x60, 0xac, 0x03, 0xfe, 0xf5, 0xfb, 0x2f, 0xf9, 0x81,
  0x81, 0xc7, 0x0b, 0x2e, 0xfc, 0xff, 0xff, 0x04, 0x00, 0x00, 0x00, 0x10, 0x00,
  0x00, 0x00, 0x7f, 0x7f, 0x81, 0x7f, 0x81, 0x81, 0x7f, 0x7f, 0x7f, 0x7f, 0x81,
  0x7f, 0x7f, 0x7f, 0x81, 0x7f, 0x4a, 0xfc, 0xff, 0xff, 0x04, 0x00, 0x00, 0x00,
  0x80, 0x00, 0x00, 0x00, 0x00, 0x00, 0x00, 0x00, 0x00, 0x00, 0x00, 0x00, 0x00,
  0x00, 0x00, 0x00, 0x00, 0x00, 0x00, 0x00, 0x00, 0x00, 0x00, 0x00, 0x00, 0x00,
  0x00, 0x00, 0x00, 0x00, 0x00, 0x00, 0x00, 0x00, 0x00, 0x00, 0x00, 0x00, 0x00,
  0x00, 0x00, 0x00, 0x00, 0x00, 0x00, 0x00, 0x00, 0x00, 0x00, 0x00, 0x00, 0x00,
  0x00, 0x00, 0x00, 0x00, 0x00, 0x00, 0x00, 0x00, 0x00, 0x00, 0x00, 0x00, 0x00,
  0x00, 0x00, 0x00, 0x00, 0x00, 0x00, 0x00, 0x00, 0x00, 0x00, 0x00, 0x00, 0x00,
  0x00, 0x00, 0x00, 0x00, 0x00, 0x00, 0x00, 0x00, 0x00, 0x00, 0x00, 0x00, 0x00,
  0x00, 0x00, 0x00, 0x00, 0x00, 0x00, 0x00, 0x00, 0x00, 0x00, 0x00, 0x00, 0x00,
  0x00, 0x00, 0x00, 0x00, 0x00, 0x00, 0x00, 0x00, 0x00, 0x00, 0x00, 0x00, 0x00,
  0x00, 0x00, 0x00, 0x00, 0x00, 0x00, 0x00, 0x00, 0x00, 0x00, 0x00, 0x00, 0x00,
  0x00, 0x00, 0xd6, 0xfc, 0xff, 0xff, 0x04, 0x00, 0x00, 0x00, 0x03, 0x00, 0x00,
  0x00, 0xd0, 0x81, 0x2f, 0x00, 0xe6, 0xfc, 0xff, 0xff, 0x04, 0x00, 0x00, 0x00,
  0x03, 0x00, 0x00, 0x00, 0x7f, 0xf2, 0xff, 0x00, 0xf6, 0xfc, 0xff, 0xff, 0x04,
  0x00, 0x00, 0x00, 0x08, 0x00, 0x00, 0x00, 0x00, 0x00, 0x00, 0x00, 0x00, 0x00,
  0x00, 0x00, 0x0a, 0xfd, 0xff, 0xff, 0x04, 0x00, 0x00, 0x00, 0x08, 0x00, 0x00,
  0x00, 0x58, 0x01, 0x00, 0x00, 0x00, 0x00, 0x00, 0x00, 0x1e, 0xfd, 0xff, 0xff,
  0x04, 0x00, 0x00, 0x00, 0x40, 0x00, 0x00, 0x00, 0xbf, 0xc7, 0xff, 0xff, 0xff,
  0xff, 0xff, 0xff, 0xc8, 0x6f, 0x00, 0x00, 0x00, 0x00, 0x00, 0x00, 0xe8, 0x06,
  0x00, 0x00, 0x00, 0x00, 0x00, 0x00, 0xa6, 0xe1, 0xff, 0xff, 0xff, 0xff, 0xff,
  0xff, 0xfe, 0xf2, 0xff, 0xff, 0xff, 0xff, 0xff, 0xff, 0xe9, 0xf4, 0xff, 0xff,
  0xff, 0xff, 0xff, 0xff, 0xe4, 0x62, 0x00, 0x00, 0x00, 0x00, 0x00, 0x00, 0x7f,
  0xb6, 0xff, 0xff, 0xff, 0xff, 0xff, 0xff, 0x6a, 0xfd, 0xff, 0xff, 0x04, 0x00,
  0x00, 0x00, 0x40, 0x00, 0x00, 0x00, 0xf2, 0x09, 0xff, 0xff, 0xff, 0xff, 0xff,
  0xff, 0x2c, 0x61, 0x00, 0x00, 0x00, 0x00, 0x00, 0x00, 0x39, 0x5b, 0x00, 0x00,
  0x00, 0x00, 0x00, 0x00, 0xc4, 0x38, 0x00, 0x00, 0x00, 0x00, 0x00, 0x00, 0x54,
  0xdf, 0xff, 0xff, 0xff, 0xff, 0xff, 0xff, 0x69, 0xba, 0xff, 0xff, 0xff, 0xff,
  0xff, 0xff, 0x18, 0xc0, 0xff, 0xff, 0xff, 0xff, 0xff, 0xff, 0xd9, 0x8d, 0x00,
  0x00, 0x00, 0x00, 0x00, 0x00, 0xb6, 0xfd, 0xff, 0xff, 0x04, 0x00, 0x00, 0x00,
  0x50, 0x00, 0x00, 0x00, 0x46, 0x88, 0x00, 0x00, 0x00, 0x00, 0x00, 0x00, 0xe7,
  0xcc, 0xff, 0xff, 0xff, 0xff, 0xff, 0xff, 0x7e, 0xda, 0xff, 0xff, 0xff, 0xff,
  0xff, 0xff, 0x18, 0xa3, 0xff, 0xff, 0xff, 0xff, 0xff, 0xff, 0x3c, 0x1e, 0x00,
  0x00, 0x00, 0x00, 0x00, 0x00, 0xa1, 0x8e, 0xff, 0xff, 0xff, 0xff, 0xff, 0xff,
  0x26, 0xa8, 0x00, 0x00, 0x00, 0x00, 0x00, 0x00, 0x40, 0xde, 0xff, 0xff, 0xff,
  0xff, 0xff, 0xff, 0x61, 0xe0, 0xff, 0xff, 0xff, 0xff, 0xff, 0xff, 0xc1, 0x9a,
  0xff, 0xff, 0xff, 0xff, 0xff, 0xff, 0x12, 0xfe, 0xff, 0xff, 0x04, 0x00, 0x00,
  0x00, 0x60, 0x00, 0x00, 0x00, 0xeb, 0xe2, 0xff, 0xff, 0xff, 0xff, 0xff, 0xff,
  0xa1, 0xf1, 0xff, 0xff, 0xff, 0xff, 0xff, 0xff, 0xde, 0x03, 0xff, 0xff, 0xff,
  0xff, 0xff, 0xff, 0x61, 0x1b, 0x00, 0x00, 0x00, 0x00, 0x00, 0x00, 0x89, 0x46,
  0xff, 0xff, 0xff, 0xff, 0xff, 0xff, 0xb7, 0xbd, 0xff, 0xff, 0xff, 0xff, 0xff,
  0xff, 0x51, 0x12, 0x00, 0x00, 0x00, 0x00, 0x00, 0x00, 0x5c, 0x12, 0x01, 0x00,
  0x00, 0x00, 0x00, 0x00, 0x3d, 0x97, 0x00, 0x00, 0x00, 0x00, 0x00, 0x00, 0xdf,
  0x95, 0xfe, 0xff, 0xff, 0xff, 0xff, 0xff, 0x44, 0xe5, 0xff, 0xff, 0xff, 0xff,
  0xff, 0xff, 0x41, 0x03, 0x00, 0x00, 0x00, 0x00, 0x00, 0x00, 0x7e, 0xfe, 0xff,
  0xff, 0x04, 0x00, 0x00, 0x00, 0x80, 0x00, 0x00, 0x00, 0x04, 0x68, 0x02, 0x00,
  0x00, 0x00, 0x00, 0x00, 0x8b, 0xd0, 0xff, 0xff, 0xff, 0xff, 0xff, 0xff, 0xe9,
  0x86, 0xd4, 0xff, 0xff, 0xff, 0xff, 0xff, 0x07, 0xe9, 0x08, 0x00, 0x00, 0x00,
  0x00, 0x00, 0x5c, 0xd7, 0x0e, 0x00, 0x00, 0x00, 0x00, 0x00, 0xc9, 0xa6, 0x09,
  0x00, 0x00, 0x00, 0x00, 0x00, 0x02, 0x61, 0xdc, 0xff, 0xff, 0xff, 0xff, 0xff,
  0x25, 0xfb, 0xff, 0xff, 0xff, 0xff, 0xff, 0xff, 0x87, 0xf6, 0x19, 0x00, 0x00,
  0x00, 0x00, 0x00, 0x94, 0x3e, 0x1b, 0x00, 0x00, 0x00, 0x00, 0x00, 0xf7, 0x97,
  0x00, 0x00, 0x00, 0x00, 0x00, 0x00, 0xb4, 0x63, 0x00, 0x00, 0x00, 0x00, 0x00,
  0x00, 0x68, 0x9f, 0x15, 0x00, 0x00, 0x00, 0x00, 0x00, 0x7b, 0xfb, 0xf3, 0xff,
  0xff, 0xff, 0xff, 0xff, 0xbe, 0x6c, 0xf0, 0xff, 0xff, 0xff, 0xff, 0xff, 0x9f,
  0xb5, 0xfd, 0xff, 0xff, 0xff, 0xff, 0xff, 0x0a, 0xff, 0xff, 0xff, 0x04, 0x00,
  0x00, 0x00, 0x40, 0x00, 0x00, 0x00, 0x58, 0x62, 0x01, 0x00, 0x00, 0x00, 0x00,
  0x00, 0xd8, 0x74, 0x00, 0x00, 0x00, 0x00, 0x00, 0x00, 0x37, 0xd4, 0xfe, 0xff,
  0xff, 0xff, 0xff, 0xff, 0x89, 0x39, 0xff, 0xff, 0xff, 0xff, 0xff, 0xff, 0x52,
  0x06, 0xff, 0xff, 0xff, 0xff, 0xff, 0xff, 0xc9, 0x14, 0xff, 0xff, 0xff, 0xff,
  0xff, 0xff, 0x5c, 0x33, 0x00, 0x00, 0x00, 0x00, 0x00, 0x00, 0x03, 0x90, 0xff,
  0xff, 0xff, 0xff, 0xff, 0xff, 0x56, 0xff, 0xff, 0xff, 0x04, 0x00, 0x00, 0x00,
  0x40, 0x00, 0x00, 0x00, 0x44, 0xde, 0x01, 0x00, 0x00, 0x00, 0x00, 0x00, 0x56,
  0x4c, 0xff, 0xff, 0xff, 0xff, 0xff, 0xff, 0xab, 0x2c, 0xff, 0xff, 0xff, 0xff,
  0xff, 0xff, 0x41, 0xc0, 0xff, 0xff, 0xff, 0xff, 0xff, 0xff, 0x45, 0x6b, 0xff,
  0xff, 0xff, 0xff, 0xff, 0xff, 0xa6, 0x36, 0x00, 0x00, 0x00, 0x00, 0x00, 0x00,
  0x74, 0x17, 0x00, 0x00, 0x00, 0x00, 0x00, 0x00, 0x98, 0x39, 0xff, 0xff, 0xff,
  0xff, 0xff, 0xff, 0xa2, 0xff, 0xff, 0xff, 0x04, 0x00, 0x00, 0x00, 0x50, 0x00,
  0x00, 0x00, 0xbb, 0x10, 0xfe, 0xff, 0xff, 0xff, 0xff, 0xff, 0xac, 0x33, 0x00,
  0x00, 0x00, 0x00, 0x00, 0x00, 0x78, 0xae, 0xfe, 0xff, 0xff, 0xff, 0xff, 0xff,
  0x36, 0x2b, 0xfd, 0xff, 0xff, 0xff, 0xff, 0xff, 0xcf, 0x3c, 0xfe, 0xff, 0xff,
  0xff, 0xff, 0xff, 0xc4, 0x98, 0xff, 0xff, 0xff, 0xff, 0xff, 0xff, 0xfc, 0x86,
  0x00, 0x00, 0x00, 0x00, 0x00, 0x00, 0x0f, 0xaf, 0x00, 0x00, 0x00, 0x00, 0x00,
  0x00, 0x22, 0xd2, 0xff, 0xff, 0xff, 0xff, 0xff, 0xff, 0x9a, 0xf4, 0xfd, 0xff,
  0xff, 0xff, 0xff, 0xff, 0x00, 0x00, 0x06, 0x00, 0x08, 0x00, 0x04, 0x00, 0x06,
  0x00, 0x00, 0x00, 0x04, 0x00, 0x00, 0x00, 0x60, 0x00, 0x00, 0x00, 0x0d, 0xee,
  0xff, 0xff, 0xff, 0xff, 0xff, 0xff, 0x66, 0x90, 0x00, 0x00, 0x00, 0x00, 0x00,
  0x00, 0x00, 0x00, 0x00, 0xc0, 0xff, 0xff, 0xff, 0xff, 0xdf, 0xe5, 0x03, 0x00,
  0x00, 0x00, 0x00, 0x00, 0x3f, 0x3d, 0xff, 0xff, 0xff, 0xff, 0xff, 0xff, 0x81,
  0x07, 0xff, 0xff, 0xff, 0xff, 0xff, 0xff, 0x19, 0xf2, 0xff, 0xff, 0xff, 0xff,
  0xff, 0xff, 0x6b, 0xa7, 0x00, 0x00, 0x00, 0x00, 0x00, 0x00, 0x5b, 0xc1, 0x01,
  0x00, 0x00, 0x00, 0x00, 0x00, 0x5a, 0x04, 0xff, 0xff, 0xff, 0xff, 0xff, 0xff,
  0xf5, 0xeb, 0x01, 0x00, 0x00, 0x00, 0x00, 0x00, 0xd0, 0x2c, 0x00, 0x00, 0x00,
  0x00, 0x00, 0x00, 0x6c, 0xda, 0xff, 0xff, 0x70, 0xda, 0xff, 0xff, 0x0f, 0x00,
  0x00, 0x00, 0x4d, 0x4c, 0x49, 0x52, 0x20, 0x43, 0x6f, 0x6e, 0x76, 0x65, 0x72,
  0x74, 0x65, 0x64, 0x2e, 0x00, 0x01, 0x00, 0x00, 0x00, 0x14, 0x00, 0x00, 0x00,
  0x00, 0x00, 0x0e, 0x00, 0x18, 0x00, 0x14, 0x00, 0x10, 0x00, 0x0c, 0x00, 0x08,
  0x00, 0x04, 0x00, 0x0e, 0x00, 0x00, 0x00, 0x14, 0x00, 0x00, 0x00, 0x1c, 0x00,
  0x00, 0x00, 0x5c, 0x0c, 0x00, 0x00, 0x60, 0x0c, 0x00, 0x00, 0x64, 0x0c, 0x00,
  0x00, 0x04, 0x00, 0x00, 0x00, 0x6d, 0x61, 0x69, 0x6e, 0x00, 0x00, 0x00, 0x00,
  0x2f, 0x00, 0x00, 0x00, 0x20, 0x0c, 0x00, 0x00, 0xe4, 0x0b, 0x00, 0x00, 0x84,
  0x0b, 0x00, 0x00, 0x30, 0x0b, 0x00, 0x00, 0xe4, 0x0a, 0x00, 0x00, 0xa0, 0x0a,
  0x00, 0x00, 0x5c, 0x0a, 0x00, 0x00, 0x0c, 0x0a, 0x00, 0x00, 0xc8, 0x09, 0x00,
  0x00, 0x84, 0x09, 0x00, 0x00, 0x44, 0x09, 0x00, 0x00, 0x00, 0x09, 0x00, 0x00,
  0xbc, 0x08, 0x00, 0x00, 0x7c, 0x08, 0x00, 0x00, 0x3c, 0x08, 0x00, 0x00, 0xf8,
  0x07, 0x00, 0x00, 0xb4, 0x07, 0x00, 0x00, 0x70, 0x07, 0x00, 0x00, 0x2c, 0x07,
  0x00, 0x00, 0xe8, 0x06, 0x00, 0x00, 0xa8, 0x06, 0x00, 0x00, 0x64, 0x06, 0x00,
  0x00, 0x20, 0x06, 0x00, 0x00, 0xe0, 0x05, 0x00, 0x00, 0xa8, 0x05, 0x00, 0x00,
  0x64, 0x05, 0x00, 0x00, 0x20, 0x05, 0x00, 0x00, 0xdc, 0x04, 0x00, 0x00, 0x98,
  0x04, 0x00, 0x00, 0x54, 0x04, 0x00, 0x00, 0x14, 0x04, 0x00, 0x00, 0xd0, 0x03,
  0x00, 0x00, 0x8c, 0x03, 0x00, 0x00, 0x4c, 0x03, 0x00, 0x00, 0x14, 0x03, 0x00,
  0x00, 0xd0, 0x02, 0x00, 0x00, 0x8c, 0x02, 0x00, 0x00, 0x48, 0x02, 0x00, 0x00,
  0x04, 0x02, 0x00, 0x00, 0xc0, 0x01, 0x00, 0x00, 0x80, 0x01, 0x00, 0x00, 0x48,
  0x01, 0x00, 0x00, 0x14, 0x01, 0x00, 0x00, 0xc0, 0x00, 0x00, 0x00, 0x78, 0x00,
  0x00, 0x00, 0x28, 0x00, 0x00, 0x00, 0x04, 0x00, 0x00, 0x00, 0xa6, 0xf4, 0xff,
  0xff, 0x0c, 0x00, 0x00, 0x00, 0x10, 0x00, 0x00, 0x00, 0x06, 0x00, 0x00, 0x00,
  0x01, 0x00, 0x00, 0x00, 0x67, 0x00, 0x00, 0x00, 0x01, 0x00, 0x00, 0x00, 0x65,
  0x00, 0x00, 0x00, 0x5e, 0xf5, 0xff, 0xff, 0x20, 0x00, 0x00, 0x00, 0x00, 0x00,
  0x00, 0x01, 0x28, 0x00, 0x00, 0x00, 0x2c, 0x00, 0x00, 0x00, 0x02, 0x00, 0x00,
  0x00, 0x00, 0x00, 0x0a, 0x00, 0x10, 0x00, 0x0f, 0x00, 0x08, 0x00, 0x04, 0x00,
  0x0a, 0x00, 0x00, 0x00, 0x01, 0x00, 0x00, 0x00, 0x01, 0x00, 0x00, 0x00, 0x00,
  0x00, 0x00, 0x01, 0x01, 0x00, 0x00, 0x00, 0x65, 0x00, 0x00, 0x00, 0x03, 0x00,
  0x00, 0x00, 0x64, 0x00, 0x00, 0x00, 0x36, 0x00, 0x00, 0x00, 0x0a, 0x00, 0x00,
  0x00, 0xaa, 0xf5, 0xff, 0xff, 0x14, 0x00, 0x00, 0x00, 0x00, 0x00, 0x00, 0x02,
  0x20, 0x00, 0x00, 0x00, 0x24, 0x00, 0x00, 0x00, 0x01, 0x00, 0x00, 0x00, 0xbc,
  0xff, 0xff, 0xff, 0x01, 0x00, 0x00, 0x00, 0x01, 0x00, 0x00, 0x00, 0x01, 0x00,
  0x00, 0x00, 0x00, 0x00, 0x00, 0x01, 0x01, 0x00, 0x00, 0x00, 0x64, 0x00, 0x00,
  0x00, 0x03, 0x00, 0x00, 0x00, 0x63, 0x00, 0x00, 0x00, 0x35, 0x00, 0x00, 0x00,
  0x26, 0x00, 0x00, 0x00, 0xee, 0xf5, 0xff, 0xff, 0x20, 0x00, 0x00, 0x00, 0x00,
  0x00, 0x00, 0x02, 0x2c, 0x00, 0x00, 0x00, 0x30, 0x00, 0x00, 0x00, 0x01, 0x00,
  0x00, 0x00, 0x0c, 0x00, 0x14, 0x00, 0x13, 0x00, 0x0c, 0x00, 0x08, 0x00, 0x04,
  0x00, 0x0c, 0x00, 0x00, 0x00, 0x01, 0x00, 0x00, 0x00, 0x01, 0x00, 0x00, 0x00,
  0x01, 0x00, 0x00, 0x00, 0x00, 0x00, 0x00, 0x01, 0x01, 0x00, 0x00, 0x00, 0x63,
  0x00, 0x00, 0x00, 0x03, 0x00, 0x00, 0x00, 0x62, 0x00, 0x00, 0x00, 0x34, 0x00,
  0x00, 0x00, 0x26, 0x00, 0x00, 0x00, 0x3e, 0xf6, 0xff, 0xff, 0x14, 0x00, 0x00,
  0x00, 0x00, 0x00, 0x00, 0x0f, 0x10, 0x00, 0x00, 0x00, 0x14, 0x00, 0x00, 0x00,
  0x04, 0x00, 0x00, 0x00, 0x9c, 0xdc, 0xff, 0xff, 0x01, 0x00, 0x00, 0x00, 0x62,
  0x00, 0x00, 0x00, 0x02, 0x00, 0x00, 0x00, 0x61, 0x00, 0x00, 0x00, 0x37, 0x00,
  0x00, 0x00, 0x6e, 0xf6, 0xff, 0xff, 0x14, 0x00, 0x00, 0x00, 0x00, 0x00, 0x00,
  0x0b, 0x14, 0x00, 0x00, 0x00, 0x18, 0x00, 0x00, 0x00, 0x03, 0x00, 0x00, 0x00,
  0x78, 0xf9, 0xff, 0xff, 0x00, 0x00, 0x00, 0x00, 0x01, 0x00, 0x00, 0x00, 0x61,
  0x00, 0x00, 0x00, 0x02, 0x00, 0x00, 0x00, 0x5a, 0x00, 0x00, 0x00, 0x60, 0x00,
  0x00, 0x00, 0xa2, 0xf6, 0xff, 0xff, 0x14, 0x00, 0x00, 0x00, 0x00, 0x00, 0x00,
  0x01, 0x18, 0x00, 0x00, 0x00, 0x1c, 0x00, 0x00, 0x00, 0x02, 0x00, 0x00, 0x00,
  0x2a, 0xf7, 0xff, 0xff, 0x01, 0x00, 0x00, 0x00, 0x01, 0x00, 0x00, 0x00, 0x01,
  0x00, 0x00, 0x00, 0x60, 0x00, 0x00, 0x00, 0x03, 0x00, 0x00, 0x00, 0x5f, 0x00,
  0x00, 0x00, 0x33, 0x00, 0x00, 0x00, 0x09, 0x00, 0x00, 0x00, 0xde, 0xf6, 0xff,
  0xff, 0x14, 0x00, 0x00, 0x00, 0x00, 0x00, 0x00, 0x02, 0x1c, 0x00, 0x00, 0x00,
  0x20, 0x00, 0x00, 0x00, 0x01, 0x00, 0x00, 0x00, 0xd0, 0xf6, 0xff, 0xff, 0x01,
  0x00, 0x00, 0x00, 0x01, 0x00, 0x00, 0x00, 0x01, 0x00, 0x00, 0x00, 0x01, 0x00,
  0x00, 0x00, 0x5f, 0x00, 0x00, 0x00, 0x03, 0x00, 0x00, 0x00, 0x5e, 0x00, 0x00,
  0x00, 0x32, 0x00, 0x00, 0x00, 0x26, 0x00, 0x00, 0x00, 0x1e, 0xf7, 0xff, 0xff,
  0x14, 0x00, 0x00, 0x00, 0x00, 0x00, 0x00, 0x02, 0x1c, 0x00, 0x00, 0x00, 0x20,
  0x00, 0x00, 0x00, 0x01, 0x00, 0x00, 0x00, 0x10, 0xf7, 0xff, 0xff, 0x01, 0x00,
  0x00, 0x00, 0x01, 0x00, 0x00, 0x00, 0x01, 0x00, 0x00, 0x00, 0x01, 0x00, 0x00,
  0x00, 0x5e, 0x00, 0x00, 0x00, 0x03, 0x00, 0x00, 0x00, 0x5d, 0x00, 0x00, 0x00,
  0x31, 0x00, 0x00, 0x00, 0x26, 0x00, 0x00, 0x00, 0x5e, 0xf7, 0xff, 0xff, 0x14,
  0x00, 0x00, 0x00, 0x00, 0x00, 0x00, 0x01, 0x1c, 0x00, 0x00, 0x00, 0x20, 0x00,
  0x00, 0x00, 0x02, 0x00, 0x00, 0x00, 0xb4, 0xf8, 0xff, 0xff, 0x00, 0x00, 0x00,
  0x01, 0x01, 0x00, 0x00, 0x00, 0x01, 0x00, 0x00, 0x00, 0x01, 0x00, 0x00, 0x00,
  0x5d, 0x00, 0x00, 0x00, 0x03, 0x00, 0x00, 0x00, 0x5c, 0x00, 0x00, 0x00, 0x30,
  0x00, 0x00, 0x00, 0x04, 0x00, 0x00, 0x00, 0x9e, 0xf7, 0xff, 0xff, 0x14, 0x00,
  0x00, 0x00, 0x00, 0x00, 0x00, 0x02, 0x1c, 0x00, 0x00, 0x00, 0x20, 0x00, 0x00,
  0x00, 0x01, 0x00, 0x00, 0x00, 0x90, 0xf7, 0xff, 0xff, 0x01, 0x00, 0x00, 0x00,
  0x01, 0x00, 0x00, 0x00, 0x01, 0x00, 0x00, 0x00, 0x01, 0x00, 0x00, 0x00, 0x5c,
  0x00, 0x00, 0x00, 0x03, 0x00, 0x00, 0x00, 0x5b, 0x00, 0x00, 0x00, 0x2f, 0x00,
  0x00, 0x00, 0x26, 0x00, 0x00, 0x00, 0xde, 0xf7, 0xff, 0xff, 0x14, 0x00, 0x00,
  0x00, 0x00, 0x00, 0x00, 0x02, 0x1c, 0x00, 0x00, 0x00, 0x20, 0x00, 0x00, 0x00,
  0x01, 0x00, 0x00, 0x00, 0xd0, 0xf7, 0xff, 0xff, 0x01, 0x00, 0x00, 0x00, 0x01,
  0x00, 0x00, 0x00, 0x01, 0x00, 0x00, 0x00, 0x01, 0x00, 0x00, 0x00, 0x5b, 0x00,
  0x00, 0x00, 0x03, 0x00, 0x00, 0x00, 0x5a, 0x00, 0x00, 0x00, 0x2e, 0x00, 0x00,
  0x00, 0x26, 0x00, 0x00, 0x00, 0x1e, 0xf8, 0xff, 0xff, 0x14, 0x00, 0x00, 0x00,
  0x00, 0x00, 0x00, 0x0b, 0x14, 0x00, 0x00, 0x00, 0x18, 0x00, 0x00, 0x00, 0x03,
  0x00, 0x00, 0x00, 0x28, 0xfb, 0xff, 0xff, 0x00, 0x00, 0x00, 0x00, 0x01, 0x00,
  0x00, 0x00, 0x5a, 0x00, 0x00, 0x00, 0x02, 0x00, 0x00, 0x00, 0x59, 0x00, 0x00,
  0x00, 0x56, 0x00, 0x00, 0x00, 0x52, 0xf8, 0xff, 0xff, 0x14, 0x00, 0x00, 0x00,
  0x00, 0x00, 0x00, 0x01, 0x18, 0x00, 0x00, 0x00, 0x1c, 0x00, 0x00, 0x00, 0x02,
  0x00, 0x00, 0x00, 0xda, 0xf8, 0xff, 0xff, 0x01, 0x00, 0x00, 0x00, 0x01, 0x00,
  0x00, 0x00, 0x01, 0x00, 0x00, 0x00, 0x59, 0x00, 0x00, 0x00, 0x03, 0x00, 0x00,
  0x00, 0x58, 0x00, 0x00, 0x00, 0x2d, 0x00, 0x00, 0x00, 0x08, 0x00, 0x00, 0x00,
  0x8e, 0xf8, 0xff, 0xff, 0x14, 0x00, 0x00, 0x00, 0x00, 0x00, 0x00, 0x02, 0x1c,
  0x00, 0x00, 0x00, 0x20, 0x00, 0x00, 0x00, 0x01, 0x00, 0x00, 0x00, 0x80, 0xf8,
  0xff, 0xff, 0x01, 0x00, 0x00, 0x00, 0x01, 0x00, 0x00, 0x00, 0x01, 0x00, 0x00,
  0x00, 0x01, 0x00, 0x00, 0x00, 0x58, 0x00, 0x00, 0x00, 0x03, 0x00, 0x00, 0x00,
  0x57, 0x00, 0x00, 0x00, 0x2c, 0x00, 0x00, 0x00, 0x1c, 0x00, 0x00, 0x00, 0xce,
  0xf8, 0xff, 0xff, 0x14, 0x00, 0x00, 0x00, 0x00, 0x00, 0x00, 0x02, 0x1c, 0x00,
  0x00, 0x00, 0x20, 0x00, 0x00, 0x00, 0x01, 0x00, 0x00, 0x00, 0xc0, 0xf8, 0xff,
  0xff, 0x01, 0x00, 0x00, 0x00, 0x01, 0x00, 0x00, 0x00, 0x01, 0x00, 0x00, 0x00,
  0x01, 0x00, 0x00, 0x00, 0x57, 0x00, 0x00, 0x00, 0x03, 0x00, 0x00, 0x00, 0x50,
  0x00, 0x00, 0x00, 0x2b, 0x00, 0x00, 0x00, 0x1c, 0x00, 0x00, 0x00, 0x0e, 0xf9,
  0xff, 0xff, 0x14, 0x00, 0x00, 0x00, 0x00, 0x00, 0x00, 0x01, 0x18, 0x00, 0x00,
  0x00, 0x1c, 0x00, 0x00, 0x00, 0x02, 0x00, 0x00, 0x00, 0x96, 0xf9, 0xff, 0xff,
  0x01, 0x00, 0x00, 0x00, 0x01, 0x00, 0x00, 0x00, 0x01, 0x00, 0x00, 0x00, 0x56,
  0x00, 0x00, 0x00, 0x03, 0x00, 0x00, 0x00, 0x55, 0x00, 0x00, 0x00, 0x2a, 0x00,
  0x00, 0x00, 0x08, 0x00, 0x00, 0x00, 0x4a, 0xf9, 0xff, 0xff, 0x14, 0x00, 0x00,
  0x00, 0x00, 0x00, 0x00, 0x02, 0x1c, 0x00, 0x00, 0x00, 0x20, 0x00, 0x00, 0x00,
  0x01, 0x00, 0x00, 0x00, 0x3c, 0xf9, 0xff, 0xff, 0x01, 0x00, 0x00, 0x00, 0x01,
  0x00, 0x00, 0x00, 0x01, 0x00, 0x00, 0x00, 0x01, 0x00, 0x00, 0x00, 0x55, 0x00,
  0x00, 0x00, 0x03, 0x00, 0x00, 0x00, 0x54, 0x00, 0x00, 0x00, 0x29, 0x00, 0x00,
  0x00, 0x26, 0x00, 0x00, 0x00, 0x8a, 0xf9, 0xff, 0xff, 0x14, 0x00, 0x00, 0x00,
  0x00, 0x00, 0x00, 0x02, 0x1c, 0x00, 0x00, 0x00, 0x20, 0x00, 0x00, 0x00, 0x01,
  0x00, 0x00, 0x00, 0x7c, 0xf9, 0xff, 0xff, 0x01, 0x00, 0x00, 0x00, 0x01, 0x00,
  0x00, 0x00, 0x01, 0x00, 0x00, 0x00, 0x01, 0x00, 0x00, 0x00, 0x54, 0x00, 0x00,
  0x00, 0x03, 0x00, 0x00, 0x00, 0x53, 0x00, 0x00, 0x00, 0x28, 0x00, 0x00, 0x00,
  0x26, 0x00, 0x00, 0x00, 0xca, 0xf9, 0xff, 0xff, 0x14, 0x00, 0x00, 0x00, 0x00,
  0x00, 0x00, 0x01, 0x1c, 0x00, 0x00, 0x00, 0x20, 0x00, 0x00, 0x00, 0x02, 0x00,
  0x00, 0x00, 0x20, 0xfb, 0xff, 0xff, 0x00, 0x00, 0x00, 0x01, 0x01, 0x00, 0x00,
  0x00, 0x01, 0x00, 0x00, 0x00, 0x01, 0x00, 0x00, 0x00, 0x53, 0x00, 0x00, 0x00,
  0x03, 0x00, 0x00, 0x00, 0x52, 0x00, 0x00, 0x00, 0x27, 0x00, 0x00, 0x00, 0x03,
  0x00, 0x00, 0x00, 0x0a, 0xfa, 0xff, 0xff, 0x14, 0x00, 0x00, 0x00, 0x00, 0x00,
  0x00, 0x02, 0x1c, 0x00, 0x00, 0x00, 0x20, 0x00, 0x00, 0x00, 0x01, 0x00, 0x00,
  0x00, 0xfc, 0xf9, 0xff, 0xff, 0x01, 0x00, 0x00, 0x00, 0x01, 0x00, 0x00, 0x00,
  0x01, 0x00, 0x00, 0x00, 0x01, 0x00, 0x00, 0x00, 0x52, 0x00, 0x00, 0x00, 0x03,
  0x00, 0x00, 0x00, 0x51, 0x00, 0x00, 0x00, 0x25, 0x00, 0x00, 0x00, 0x1c, 0x00,
  0x00, 0x00, 0x4a, 0xfa, 0xff, 0xff, 0x14, 0x00, 0x00, 0x00, 0x00, 0x00, 0x00,
  0x02, 0x1c, 0x00, 0x00, 0x00, 0x20, 0x00, 0x00, 0x00, 0x01, 0x00, 0x00, 0x00,
  0x3c, 0xfa, 0xff, 0xff, 0x01, 0x00, 0x00, 0x00, 0x01, 0x00, 0x00, 0x00, 0x01,
  0x00, 0x00, 0x00, 0x01, 0x00, 0x00, 0x00, 0x51, 0x00, 0x00, 0x00, 0x03, 0x00,
  0x00, 0x00, 0x50, 0x00, 0x00, 0x00, 0x24, 0x00, 0x00, 0x00, 0x1c, 0x00, 0x00,
  0x00, 0x8a, 0xfa, 0xff, 0xff, 0x14, 0x00, 0x00, 0x00, 0x00, 0x00, 0x00, 0x0b,
  0x14, 0x00, 0x00, 0x00, 0x18, 0x00, 0x00, 0x00, 0x03, 0x00, 0x00, 0x00, 0x94,
  0xfd, 0xff, 0xff, 0x00, 0x00, 0x00, 0x00, 0x01, 0x00, 0x00, 0x00, 0x50, 0x00,
  0x00, 0x00, 0x02, 0x00, 0x00, 0x00, 0x4f, 0x00, 0x00, 0x00, 0x4c, 0x00, 0x00,
  0x00, 0xbe, 0xfa, 0xff, 0xff, 0x14, 0x00, 0x00, 0x00, 0x00, 0x00, 0x00, 0x01,
  0x18, 0x00, 0x00, 0x00, 0x1c, 0x00, 0x00, 0x00, 0x02, 0x00, 0x00, 0x00, 0x46,
  0xfb, 0xff, 0xff, 0x01, 0x00, 0x00, 0x00, 0x01, 0x00, 0x00, 0x00, 0x01, 0x00,
  0x00, 0x00, 0x4f, 0x00, 0x00, 0x00, 0x03, 0x00, 0x00, 0x00, 0x4e, 0x00, 0x00,
  0x00, 0x23, 0x00, 0x00, 0x00, 0x07, 0x00, 0x00, 0x00, 0xfa, 0xfa, 0xff, 0xff,
  0x14, 0x00, 0x00, 0x00, 0x00, 0x00, 0x00, 0x02, 0x1c, 0x00, 0x00, 0x00, 0x20,
  0x00, 0x00, 0x00, 0x01, 0x00, 0x00, 0x00, 0xec, 0xfa, 0xff, 0xff, 0x01, 0x00,
  0x00, 0x00, 0x01, 0x00, 0x00, 0x00, 0x01, 0x00, 0x00, 0x00, 0x01, 0x00, 0x00,
  0x00, 0x4e, 0x00, 0x00, 0x00, 0x03, 0x00, 0x00, 0x00, 0x4d, 0x00, 0x00, 0x00,
  0x22, 0x00, 0x00, 0x00, 0x12, 0x00, 0x00, 0x00, 0x3a, 0xfb, 0xff, 0xff, 0x14,
  0x00, 0x00, 0x00, 0x00, 0x00, 0x00, 0x02, 0x1c, 0x00, 0x00, 0x00, 0x20, 0x00,
  0x00, 0x00, 0x01, 0x00, 0x00, 0x00, 0x2c, 0xfb, 0xff, 0xff, 0x01, 0x00, 0x00,
  0x00, 0x01, 0x00, 0x00, 0x00, 0x01, 0x00, 0x00, 0x00, 0x01, 0x00, 0x00, 0x00,
  0x4d, 0x00, 0x00, 0x00, 0x03, 0x00, 0x00, 0x00, 0x46, 0x00, 0x00, 0x00, 0x21,
  0x00, 0x00, 0x00, 0x12, 0x00, 0x00, 0x00, 0x7a, 0xfb, 0xff, 0xff, 0x14, 0x00,
  0x00, 0x00, 0x00, 0x00, 0x00, 0x01, 0x18, 0x00, 0x00, 0x00, 0x1c, 0x00, 0x00,
  0x00, 0x02, 0x00, 0x00, 0x00, 0x02, 0xfc, 0xff, 0xff, 0x01, 0x00, 0x00, 0x00,
  0x01, 0x00, 0x00, 0x00, 0x01, 0x00, 0x00, 0x00, 0x4c, 0x00, 0x00, 0x00, 0x03,
  0x00, 0x00, 0x00, 0x4b, 0x00, 0x00, 0x00, 0x20, 0x00, 0x00, 0x00, 0x07, 0x00,
  0x00, 0x00, 0xb6, 0xfb, 0xff, 0xff, 0x14, 0x00, 0x00, 0x00, 0x00, 0x00, 0x00,
  0x02, 0x1c, 0x00, 0x00, 0x00, 0x20, 0x00, 0x00, 0x00, 0x01, 0x00, 0x00, 0x00,
  0xa8, 0xfb, 0xff, 0xff, 0x01, 0x00, 0x00, 0x00, 0x01, 0x00, 0x00, 0x00, 0x01,
  0x00, 0x00, 0x00, 0x01, 0x00, 0x00, 0x00, 0x4b, 0x00, 0x00, 0x00, 0x03, 0x00,
  0x00, 0x00, 0x4a, 0x00, 0x00, 0x00, 0x1f, 0x00, 0x00, 0x00, 0x1c, 0x00, 0x00,
  0x00, 0xf6, 0xfb, 0xff, 0xff, 0x14, 0x00, 0x00, 0x00, 0x00, 0x00, 0x00, 0x02,
  0x1c, 0x00, 0x00, 0x00, 0x20, 0x00, 0x00, 0x00, 0x01, 0x00, 0x00, 0x00, 0xe8,
  0xfb, 0xff, 0xff, 0x01, 0x00, 0x00, 0x00, 0x01, 0x00, 0x00, 0x00, 0x01, 0x00,
  0x00, 0x00, 0x01, 0x00, 0x00, 0x00, 0x4a, 0x00, 0x00, 0x00, 0x03, 0x00, 0x00,
  0x00, 0x49, 0x00, 0x00, 0x00, 0x1e, 0x00, 0x00, 0x00, 0x1c, 0x00, 0x00, 0x00,
  0x36, 0xfc, 0xff, 0xff, 0x14, 0x00, 0x00, 0x00, 0x00, 0x00, 0x00, 0x01, 0x1c,
  0x00, 0x00, 0x00, 0x20, 0x00, 0x00, 0x00, 0x02, 0x00, 0x00, 0x00, 0x8c, 0xfd,
  0xff, 0xff, 0x00, 0x00, 0x00, 0x01, 0x01, 0x00, 0x00, 0x00, 0x01, 0x00, 0x00,
  0x00, 0x01, 0x00, 0x00, 0x00, 0x49, 0x00, 0x00, 0x00, 0x03, 0x00, 0x00, 0x00,
  0x48, 0x00, 0x00, 0x00, 0x1d, 0x00, 0x00, 0x00, 0x02, 0x00, 0x00, 0x00, 0x76,
  0xfc, 0xff, 0xff, 0x14, 0x00, 0x00, 0x00, 0x00, 0x00, 0x00, 0x02, 0x1c, 0x00,
  0x00, 0x00, 0x20, 0x00, 0x00, 0x00, 0x01, 0x00, 0x00, 0x00, 0x68, 0xfc, 0xff,
  0xff, 0x01, 0x00, 0x00, 0x00, 0x01, 0x00, 0x00, 0x00, 0x01, 0x00, 0x00, 0x00,
  0x01, 0x00, 0x00, 0x00, 0x48, 0x00, 0x00, 0x00, 0x03, 0x00, 0x00, 0x00, 0x47,
  0x00, 0x00, 0x00, 0x1b, 0x00, 0x00, 0x00, 0x12, 0x00, 0x00, 0x00, 0xb6, 0xfc,
  0xff, 0xff, 0x14, 0x00, 0x00, 0x00, 0x00, 0x00, 0x00, 0x02, 0x1c, 0x00, 0x00,
  0x00, 0x20, 0x00, 0x00, 0x00, 0x01, 0x00, 0x00, 0x00, 0xa8, 0xfc, 0xff, 0xff,
  0x01, 0x00, 0x00, 0x00, 0x01, 0x00, 0x00, 0x00, 0x01, 0x00, 0x00, 0x00, 0x01,
  0x00, 0x00, 0x00, 0x47, 0x00, 0x00, 0x00, 0x03, 0x00, 0x00, 0x00, 0x46, 0x00,
  0x00, 0x00, 0x1a, 0x00, 0x00, 0x00, 0x12, 0x00, 0x00, 0x00, 0xf6, 0xfc, 0xff,
  0xff, 0x1c, 0x00, 0x00, 0x00, 0x00, 0x00, 0x00, 0x0b, 0x1c, 0x00, 0x00, 0x00,
  0x20, 0x00, 0x00, 0x00, 0x03, 0x00, 0x00, 0x00, 0x08, 0x00, 0x08, 0x00, 0x00,
  0x00, 0x07, 0x00, 0x08, 0x00, 0x00, 0x00, 0x00, 0x00, 0x00, 0x00, 0x01, 0x00,
  0x00, 0x00, 0x46, 0x00, 0x00, 0x00, 0x02, 0x00, 0x00, 0x00, 0x45, 0x00, 0x00,
  0x00, 0x42, 0x00, 0x00, 0x00, 0x32, 0xfd, 0xff, 0xff, 0x14, 0x00, 0x00, 0x00,
  0x00, 0x00, 0x00, 0x01, 0x18, 0x00, 0x00, 0x00, 0x1c, 0x00, 0x00, 0x00, 0x02,
  0x00, 0x00, 0x00, 0xba, 0xfd, 0xff, 0xff, 0x01, 0x00, 0x00, 0x00, 0x01, 0x00,
  0x00, 0x00, 0x01, 0x00, 0x00, 0x00, 0x45, 0x00, 0x00, 0x00, 0x03, 0x00, 0x00,
  0x00, 0x44, 0x00, 0x00, 0x00, 0x19, 0x00, 0x00, 0x00, 0x06, 0x00, 0x00, 0x00,
  0x6e, 0xfd, 0xff, 0xff, 0x14, 0x00, 0x00, 0x00, 0x00, 0x00, 0x00, 0x02, 0x1c,
  0x00, 0x00, 0x00, 0x20, 0x00, 0x00, 0x00, 0x01, 0x00, 0x00, 0x00, 0x60, 0xfd,
  0xff, 0xff, 0x01, 0x00, 0x00, 0x00, 0x01, 0x00, 0x00, 0x00, 0x01, 0x00, 0x00,
  0x00, 0x01, 0x00, 0x00, 0x00, 0x44, 0x00, 0x00, 0x00, 0x03, 0x00, 0x00, 0x00,
  0x43, 0x00, 0x00, 0x00, 0x18, 0x00, 0x00, 0x00, 0x0e, 0x00, 0x00, 0x00, 0xae,
  0xfd, 0xff, 0xff, 0x14, 0x00, 0x00, 0x00, 0x00, 0x00, 0x00, 0x02, 0x1c, 0x00,
  0x00, 0x00, 0x20, 0x00, 0x00, 0x00, 0x01, 0x00, 0x00, 0x00, 0xa0, 0xfd, 0xff,
  0xff, 0x01, 0x00, 0x00, 0x00, 0x01, 0x00, 0x00, 0x00, 0x01, 0x00, 0x00, 0x00,
  0x01, 0x00, 0x00, 0x00, 0x43, 0x00, 0x00, 0x00, 0x03, 0x00, 0x00, 0x00, 0x3c,
  0x00, 0x00, 0x00, 0x17, 0x00, 0x00, 0x00, 0x0e, 0x00, 0x00, 0x00, 0xee, 0xfd,
  0xff, 0xff, 0x14, 0x00, 0x00, 0x00, 0x00, 0x00, 0x00, 0x01, 0x18, 0x00, 0x00,
  0x00, 0x1c, 0x00, 0x00, 0x00, 0x02, 0x00, 0x00, 0x00, 0x76, 0xfe, 0xff, 0xff,
  0x01, 0x00, 0x00, 0x00, 0x01, 0x00, 0x00, 0x00, 0x01, 0x00, 0x00, 0x00, 0x42,
  0x00, 0x00, 0x00, 0x03, 0x00, 0x00, 0x00, 0x41, 0x00, 0x00, 0x00, 0x16, 0x00,
  0x00, 0x00, 0x06, 0x00, 0x00, 0x00, 0x2a, 0xfe, 0xff, 0xff, 0x14, 0x00, 0x00,
  0x00, 0x00, 0x00, 0x00, 0x02, 0x1c, 0x00, 0x00, 0x00, 0x20, 0x00, 0x00, 0x00,
  0x01, 0x00, 0x00, 0x00, 0x1c, 0xfe, 0xff, 0xff, 0x01, 0x00, 0x00, 0x00, 0x01,
  0x00, 0x00, 0x00, 0x01, 0x00, 0x00, 0x00, 0x01, 0x00, 0x00, 0x00, 0x41, 0x00,
  0x00, 0x00, 0x03, 0x00, 0x00, 0x00, 0x40, 0x00, 0x00, 0x00, 0x15, 0x00, 0x00,
  0x00, 0x12, 0x00, 0x00, 0x00, 0x6a, 0xfe, 0xff, 0xff, 0x14, 0x00, 0x00, 0x00,
  0x00, 0x00, 0x00, 0x02, 0x1c, 0x00, 0x00, 0x00, 0x20, 0x00, 0x00, 0x00, 0x01,
  0x00, 0x00, 0x00, 0x5c, 0xfe, 0xff, 0xff, 0x01, 0x00, 0x00, 0x00, 0x01, 0x00,
  0x00, 0x00, 0x01, 0x00, 0x00, 0x00, 0x01, 0x00, 0x00, 0x00, 0x40, 0x00, 0x00,
  0x00, 0x03, 0x00, 0x00, 0x00, 0x3f, 0x00, 0x00, 0x00, 0x14, 0x00, 0x00, 0x00,
  0x12, 0x00, 0x00, 0x00, 0xaa, 0xfe, 0xff, 0xff, 0x20, 0x00, 0x00, 0x00, 0x00,
  0x00, 0x00, 0x01, 0x28, 0x00, 0x00, 0x00, 0x2c, 0x00, 0x00, 0x00, 0x02, 0x00,
  0x00, 0x00, 0x0c, 0x00, 0x10, 0x00, 0x00, 0x00, 0x0c, 0x00, 0x08, 0x00, 0x07,
  0x00, 0x0c, 0x00, 0x00, 0x00, 0x00, 0x00, 0x00, 0x01, 0x01, 0x00, 0x00, 0x00,
  0x01, 0x00, 0x00, 0x00, 0x01, 0x00, 0x00, 0x00, 0x3f, 0x00, 0x00, 0x00, 0x03,
  0x00, 0x00, 0x00, 0x3e, 0x00, 0x00, 0x00, 0x13, 0x00, 0x00, 0x00, 0x01, 0x00,
  0x00, 0x00, 0xf6, 0xfe, 0xff, 0xff, 0x14, 0x00, 0x00, 0x00, 0x00, 0x00, 0x00,
  0x02, 0x1c, 0x00, 0x00, 0x00, 0x20, 0x00, 0x00, 0x00, 0x01, 0x00, 0x00, 0x00,
  0xe8, 0xfe, 0xff, 0xff, 0x01, 0x00, 0x00, 0x00, 0x01, 0x00, 0x00, 0x00, 0x01,
  0x00, 0x00, 0x00, 0x01, 0x00, 0x00, 0x00, 0x3e, 0x00, 0x00, 0x00, 0x03, 0x00,
  0x00, 0x00, 0x3d, 0x00, 0x00, 0x00, 0x11, 0x00, 0x00, 0x00, 0x0e, 0x00, 0x00,
  0x00, 0x36, 0xff, 0xff, 0xff, 0x14, 0x00, 0x00, 0x00, 0x00, 0x00, 0x00, 0x02,
  0x1c, 0x00, 0x00, 0x00, 0x20, 0x00, 0x00, 0x00, 0x01, 0x00, 0x00, 0x00, 0x28,
  0xff, 0xff, 0xff, 0x01, 0x00, 0x00, 0x00, 0x01, 0x00, 0x00, 0x00, 0x01, 0x00,
  0x00, 0x00, 0x01, 0x00, 0x00, 0x00, 0x3d, 0x00, 0x00, 0x00, 0x03, 0x00, 0x00,
  0x00, 0x3c, 0x00, 0x00, 0x00, 0x10, 0x00, 0x00, 0x00, 0x0e, 0x00, 0x00, 0x00,
  0x76, 0xff, 0xff, 0xff, 0x20, 0x00, 0x00, 0x00, 0x00, 0x00, 0x00, 0x01, 0x24,
  0x00, 0x00, 0x00, 0x28, 0x00, 0x00, 0x00, 0x02, 0x00, 0x00, 0x00, 0x00, 0x00,
  0x0a, 0x00, 0x0c, 0x00, 0x00, 0x00, 0x08, 0x00, 0x04, 0x00, 0x0a, 0x00, 0x00,
  0x00, 0x01, 0x00, 0x00, 0x00, 0x01, 0x00, 0x00, 0x00, 0x01, 0x00, 0x00, 0x00,
  0x3c, 0x00, 0x00, 0x00, 0x03, 0x00, 0x00, 0x00, 0x3b, 0x00, 0x00, 0x00, 0x0f,
  0x00, 0x00, 0x00, 0x05, 0x00, 0x00, 0x00, 0xbe, 0xff, 0xff, 0xff, 0x14, 0x00,
  0x00, 0x00, 0x00, 0x00, 0x00, 0x02, 0x1c, 0x00, 0x00, 0x00, 0x20, 0x00, 0x00,
  0x00, 0x01, 0x00, 0x00, 0x00, 0xb0, 0xff, 0xff, 0xff, 0x01, 0x00, 0x00, 0x00,
  0x01, 0x00, 0x00, 0x00, 0x02, 0x00, 0x00, 0x00, 0x01, 0x00, 0x00, 0x00, 0x3b,
  0x00, 0x00, 0x00, 0x03, 0x00, 0x00, 0x00, 0x3a, 0x00, 0x00, 0x00, 0x0d, 0x00,
  0x00, 0x00, 0x0b, 0x00, 0x00, 0x00, 0x00, 0x00, 0x0e, 0x00, 0x18, 0x00, 0x14,
  0x00, 0x10, 0x00, 0x0c, 0x00, 0x0b, 0x00, 0x04, 0x00, 0x0e, 0x00, 0x00, 0x00,
  0x20, 0x00, 0x00, 0x00, 0x00, 0x00, 0x00, 0x02, 0x28, 0x00, 0x00, 0x00, 0x2c,
  0x00, 0x00, 0x00, 0x01, 0x00, 0x00, 0x00, 0x0c, 0x00, 0x10, 0x00, 0x00, 0x00,
  0x0c, 0x00, 0x08, 0x00, 0x04, 0x00, 0x0c, 0x00, 0x00, 0x00, 0x01, 0x00, 0x00,
  0x00, 0x02, 0x00, 0x00, 0x00, 0x01, 0x00, 0x00, 0x00, 0x01, 0x00, 0x00, 0x00,
  0x3a, 0x00, 0x00, 0x00, 0x03, 0x00, 0x00, 0x00, 0x39, 0x00, 0x00, 0x00, 0x0c,
  0x00, 0x00, 0x00, 0x0b, 0x00, 0x00, 0x00, 0x00, 0x00, 0x0e, 0x00, 0x14, 0x00,
  0x00, 0x00, 0x10, 0x00, 0x0c, 0x00, 0x0b, 0x00, 0x04, 0x00, 0x0e, 0x00, 0x00,
  0x00, 0x10, 0x00, 0x00, 0x00, 0x00, 0x00, 0x00, 0x16, 0x0c, 0x00, 0x00, 0x00,
  0x10, 0x00, 0x00, 0x00, 0xc4, 0xe6, 0xff, 0xff, 0x01, 0x00, 0x00, 0x00, 0x39,
  0x00, 0x00, 0x00, 0x02, 0x00, 0x00, 0x00, 0x00, 0x00, 0x00, 0x00, 0x38, 0x00,
  0x00, 0x00, 0x00, 0x00, 0x0a, 0x00, 0x10, 0x00, 0x0c, 0x00, 0x08, 0x00, 0x04,
  0x00, 0x0a, 0x00, 0x00, 0x00, 0x0c, 0x00, 0x00, 0x00, 0x10, 0x00, 0x00, 0x00,
  0x05, 0x00, 0x00, 0x00, 0x01, 0x00, 0x00, 0x00, 0x00, 0x00, 0x00, 0x00, 0x01,
  0x00, 0x00, 0x00, 0x66, 0x00, 0x00, 0x00, 0x01, 0x00, 0x00, 0x00, 0x67, 0x00,
  0x00, 0x00, 0x01, 0x00, 0x00, 0x00, 0x66, 0x00, 0x00, 0x00, 0x68, 0x00, 0x00,
  0x00, 0xa0, 0x51, 0x00, 0x00, 0xac, 0x50, 0x00, 0x00, 0xec, 0x4f, 0x00, 0x00,
  0x40, 0x4f, 0x00, 0x00, 0x94, 0x4e, 0x00, 0x00, 0x88, 0x4d, 0x00, 0x00, 0xac,
  0x4c, 0x00, 0x00, 0xe8, 0x4b, 0x00, 0x00, 0x3c, 0x4b, 0x00, 0x00, 0x90, 0x4a,
  0x00, 0x00, 0x3c, 0x4a, 0x00, 0x00, 0xe8, 0x49, 0x00, 0x00, 0x54, 0x49, 0x00,
  0x00, 0xd4, 0x48, 0x00, 0x00, 0xcc, 0x47, 0x00, 0x00, 0x28, 0x46, 0x00, 0x00,
  0x80, 0x44, 0x00, 0x00, 0xd4, 0x42, 0x00, 0x00, 0xf4, 0x41, 0x00, 0x00, 0xa0,
  0x40, 0x00, 0x00, 0x48, 0x3f, 0x00, 0x00, 0xec, 0x3d, 0x00, 0x00, 0x94, 0x3c,
  0x00, 0x00, 0xec, 0x3a, 0x00, 0x00, 0x40, 0x39, 0x00, 0x00, 0xe8, 0x37, 0x00,
  0x00, 0x90, 0x36, 0x00, 0x00, 0x34, 0x35, 0x00, 0x00, 0x6c, 0x34, 0x00, 0x00,
  0x40, 0x33, 0x00, 0x00, 0x08, 0x32, 0x00, 0x00, 0xd4, 0x30, 0x00, 0x00, 0xa4,
  0x2f, 0x00, 0x00, 0x44, 0x2e, 0x00, 0x00, 0xe8, 0x2c, 0x00, 0x00, 0xb8, 0x2b,
  0x00, 0x00, 0x80, 0x2a, 0x00, 0x00, 0x4c, 0x29, 0x00, 0x00, 0x9c, 0x28, 0x00,
  0x00, 0x98, 0x27, 0x00, 0x00, 0x88, 0x26, 0x00, 0x00, 0x7c, 0x25, 0x00, 0x00,
  0x74, 0x24, 0x00, 0x00, 0x3c, 0x23, 0x00, 0x00, 0x08, 0x22, 0x00, 0x00, 0x00,
  0x21, 0x00, 0x00, 0xf0, 0x1f, 0x00, 0x00, 0xe4, 0x1e, 0x00, 0x00, 0xdc, 0x1d,
  0x00, 0x00, 0xcc, 0x1c, 0x00, 0x00, 0xc0, 0x1b, 0x00, 0x00, 0xb8, 0x1a, 0x00,
  0x00, 0xa8, 0x19, 0x00, 0x00, 0x9c, 0x18, 0x00, 0x00, 0x24, 0x18, 0x00, 0x00,
  0xf0, 0x17, 0x00, 0x00, 0xb8, 0x17, 0x00, 0x00, 0x48, 0x17, 0x00, 0x00, 0xcc,
  0x16, 0x00, 0x00, 0x50, 0x16, 0x00, 0x00, 0xbc, 0x15, 0x00, 0x00, 0x40, 0x15,
  0x00, 0x00, 0xc4, 0x14, 0x00, 0x00, 0x28, 0x14, 0x00, 0x00, 0xac, 0x13, 0x00,
  0x00, 0x30, 0x13, 0x00, 0x00, 0x94, 0x12, 0x00, 0x00, 0x18, 0x12, 0x00, 0x00,
  0x9c, 0x11, 0x00, 0x00, 0x00, 0x11, 0x00, 0x00, 0x8c, 0x10, 0x00, 0x00, 0x10,
  0x10, 0x00, 0x00, 0x94, 0x0f, 0x00, 0x00, 0xf0, 0x0e, 0x00, 0x00, 0x74, 0x0e,
  0x00, 0x00, 0xf8, 0x0d, 0x00, 0x00, 0x5c, 0x0d, 0x00, 0x00, 0xe0, 0x0c, 0x00,
  0x00, 0x64, 0x0c, 0x00, 0x00, 0xc8, 0x0b, 0x00, 0x00, 0x54, 0x0b, 0x00, 0x00,
  0xd8, 0x0a, 0x00, 0x00, 0x5c, 0x0a, 0x00, 0x00, 0xb8, 0x09, 0x00, 0x00, 0x3c,
  0x09, 0x00, 0x00, 0xc0, 0x08, 0x00, 0x00, 0x24, 0x08, 0x00, 0x00, 0xa8, 0x07,
  0x00, 0x00, 0x2c, 0x07, 0x00, 0x00, 0x90, 0x06, 0x00, 0x00, 0x1c, 0x06, 0x00,
  0x00, 0xa0, 0x05, 0x00, 0x00, 0x24, 0x05, 0x00, 0x00, 0x80, 0x04, 0x00, 0x00,
  0x04, 0x04, 0x00, 0x00, 0x88, 0x03, 0x00, 0x00, 0xec, 0x02, 0x00, 0x00, 0x78,
  0x02, 0x00, 0x00, 0xf4, 0x01, 0x00, 0x00, 0x78, 0x01, 0x00, 0x00, 0xfc, 0x00,
  0x00, 0x00, 0x78, 0x00, 0x00, 0x00, 0x44, 0x00, 0x00, 0x00, 0x04, 0x00, 0x00,
  0x00, 0xd0, 0xff, 0xff, 0xff, 0x08, 0x00, 0x00, 0x00, 0x14, 0x00, 0x00, 0x00,
  0x0a, 0x00, 0x00, 0x00, 0x42, 0x69, 0x61, 0x73, 0x41, 0x64, 0x64, 0x5f, 0x31,
  0x32, 0x00, 0x00, 0x04, 0x00, 0x00, 0x00, 0x01, 0x00, 0x00, 0x00, 0x38, 0x04,
  0x00, 0x00, 0x80, 0x07, 0x00, 0x00, 0x01, 0x00, 0x00, 0x00, 0x0c, 0x00, 0x0c,
  0x00, 0x08, 0x00, 0x00, 0x00, 0x00, 0x00, 0x04, 0x00, 0x0c, 0x00, 0x00, 0x00,
  0x08, 0x00, 0x00, 0x00, 0x14, 0x00, 0x00, 0x00, 0x0b, 0x00, 0x00, 0x00, 0x50,
  0x6c, 0x61, 0x63, 0x65, 0x68, 0x6f, 0x6c, 0x64, 0x65, 0x72, 0x00, 0x04, 0x00,
  0x00, 0x00, 0x01, 0x00, 0x00, 0x00, 0x38, 0x04, 0x00, 0x00, 0x80, 0x07, 0x00,
  0x00, 0x01, 0x00, 0x00, 0x00, 0x7a, 0xb0, 0xff, 0xff, 0x14, 0x00, 0x00, 0x00,
  0x4c, 0x00, 0x00, 0x00, 0x66, 0x00, 0x00, 0x00, 0x00, 0x00, 0x00, 0x07, 0x58,
  0x00, 0x00, 0x00, 0x6c, 0xb0, 0xff, 0xff, 0x10, 0x00, 0x00, 0x00, 0x1c, 0x00,
  0x00, 0x00, 0x20, 0x00, 0x00, 0x00, 0x24, 0x00, 0x00, 0x00, 0x01, 0x00, 0x00,
  0x00, 0x00, 0x00, 0x00, 0x00, 0x00, 0x00, 0x00, 0x00, 0x00, 0x00, 0x00, 0x00,
  0x01, 0x00, 0x00, 0x00, 0x0f, 0xa5, 0x2f, 0x36, 0x01, 0x00, 0x00, 0x00, 0x88,
  0x21, 0x95, 0x3d, 0x01, 0x00, 0x00, 0x00, 0xb0, 0xa3, 0xaf, 0xbd, 0x10, 0x00,
  0x00, 0x00, 0x42, 0x69, 0x61, 0x73, 0x41, 0x64, 0x64, 0x5f, 0x31, 0x32, 0x5f,
  0x69, 0x6e, 0x74, 0x31, 0x36, 0x00, 0x00, 0x00, 0x00, 0x04, 0x00, 0x00, 0x00,
  0x01, 0x00, 0x00, 0x00, 0x38, 0x04, 0x00, 0x00, 0x80, 0x07, 0x00, 0x00, 0x01,
  0x00, 0x00, 0x00, 0xfa, 0xb0, 0xff, 0xff, 0x14, 0x00, 0x00, 0x00, 0x48, 0x00,
  0x00, 0x00, 0x65, 0x00, 0x00, 0x00, 0x00, 0x00, 0x00, 0x07, 0x50, 0x00, 0x00,
  0x00, 0xec, 0xb0, 0xff, 0xff, 0x10, 0x00, 0x00, 0x00, 0x18, 0x00, 0x00, 0x00,
  0x1c, 0x00, 0x00, 0x00, 0x20, 0x00, 0x00, 0x00, 0x01, 0x00, 0x00, 0x00, 0x00,
  0x00, 0x00, 0x00, 0x00, 0x00, 0x00, 0x00, 0x01, 0x00, 0x00, 0x00, 0xa2, 0xdf,
  0x08, 0x39, 0x01, 0x00, 0x00, 0x00, 0x90, 0xde, 0x88, 0x40, 0x01, 0x00, 0x00,
  0x00, 0x90, 0x73, 0x68, 0xc0, 0x0d, 0x00, 0x00, 0x00, 0x64, 0x65, 0x70, 0x74,
  0x68, 0x77, 0x69, 0x73, 0x65, 0x5f, 0x32, 0x35, 0x32, 0x00, 0x00, 0x00, 0x04,
  0x00, 0x00, 0x00, 0x01, 0x00, 0x00, 0x00, 0x38, 0x04, 0x00, 0x00, 0x80, 0x07,
  0x00, 0x00, 0x08, 0x00, 0x00, 0x00, 0x72, 0xb1, 0xff, 0xff, 0x14, 0x00, 0x00,
  0x00, 0x48, 0x00, 0x00, 0x00, 0x64, 0x00, 0x00, 0x00, 0x00, 0x00, 0x00, 0x07,
  0x50, 0x00, 0x00, 0x00, 0x64, 0xb1, 0xff, 0xff, 0x10, 0x00, 0x00, 0x00, 0x18,
  0x00, 0x00, 0x00, 0x1c, 0x00, 0x00, 0x00, 0x20, 0x00, 0x00, 0x00, 0x01, 0x00,
  0x00, 0x00, 0x00, 0x00, 0x00, 0x00, 0x00, 0x00, 0x00, 0x00, 0x01, 0x00, 0x00,
  0x00, 0x71, 0xc1, 0x7d, 0x3a, 0x01, 0x00, 0x00, 0x00, 0x75, 0xbf, 0xfd, 0x41,
  0x01, 0x00, 0x00, 0x00, 0x40, 0x4c, 0x97, 0xc1, 0x0d, 0x00, 0x00, 0x00, 0x64,
  0x65, 0x70, 0x74, 0x68, 0x77, 0x69, 0x73, 0x65, 0x5f, 0x32, 0x34, 0x31, 0x00,
  0x00, 0x00, 0x04, 0x00, 0x00, 0x00, 0x01, 0x00, 0x00, 0x00, 0x38, 0x04, 0x00,
  0x00, 0x82, 0x07, 0x00, 0x00, 0x08, 0x00, 0x00, 0x00, 0xea, 0xb1, 0xff, 0xff,
  0x14, 0x00, 0x00, 0x00, 0x48, 0x00, 0x00, 0x00, 0x63, 0x00, 0x00, 0x00, 0x00,
  0x00, 0x00, 0x07, 0x58, 0x00, 0x00, 0x00, 0xdc, 0xb1, 0xff, 0xff, 0x10, 0x00,
  0x00, 0x00, 0x18, 0x00, 0x00, 0x00, 0x1c, 0x00, 0x00, 0x00, 0x20, 0x00, 0x00,
  0x00, 0x01, 0x00, 0x00, 0x00, 0x00, 0x00, 0x00, 0x00, 0x00, 0x00, 0x00, 0x00,
  0x01, 0x00, 0x00, 0x00, 0xcf, 0x63, 0x02, 0x3c, 0x01, 0x00, 0x00, 0x00, 0x1a,
  0xd9, 0x0a, 0x43, 0x01, 0x00, 0x00, 0x00, 0xca, 0x62, 0x82, 0xc3, 0x15, 0x00,
  0x00, 0x00, 0x72, 0x65, 0x73, 0x69, 0x7a, 0x65, 0x2f, 0x52, 0x65, 0x73, 0x69,
  0x7a, 0x65, 0x42, 0x69, 0x6c, 0x69, 0x6e, 0x65, 0x61, 0x72, 0x00, 0x00, 0x00,
  0x04, 0x00, 0x00, 0x00, 0x01, 0x00, 0x00, 0x00, 0x3a, 0x04, 0x00, 0x00, 0x82,
  0x07, 0x00, 0x00, 0x08, 0x00, 0x00, 0x00, 0x6a, 0xb2, 0xff, 0xff, 0x14, 0x00,
  0x00, 0x00, 0x48, 0x00, 0x00, 0x00, 0x62, 0x00, 0x00, 0x00, 0x00, 0x00, 0x00,
  0x07, 0x48, 0x00, 0x00, 0x00, 0x5c, 0xb2, 0xff, 0xff, 0x10, 0x00, 0x00, 0x00,
  0x18, 0x00, 0x00, 0x00, 0x1c, 0x00, 0x00, 0x00, 0x20, 0x00, 0x00, 0x00, 0x01,
  0x00, 0x00, 0x00, 0x00, 0x00, 0x00, 0x00, 0x00, 0x00, 0x00, 0x00, 0x01, 0x00,
  0x00, 0x00, 0xcf, 0x63, 0x02, 0x3c, 0x01, 0x00, 0x00, 0x00, 0x1a, 0xd9, 0x0a,
  0x43, 0x01, 0x00, 0x00, 0x00, 0xca, 0x62, 0x82, 0xc3, 0x05, 0x00, 0x00, 0x00,
  0x41, 0x64, 0x64, 0x5f, 0x34, 0x00, 0x00, 0x00, 0x04, 0x00, 0x00, 0x00, 0x01,
  0x00, 0x00, 0x00, 0x1d, 0x02, 0x00, 0x00, 0xc1, 0x03, 0x00, 0x00, 0x08, 0x00,
  0x00, 0x00, 0xda, 0xb2, 0xff, 0xff, 0x14, 0x00, 0x00, 0x00, 0x48, 0x00, 0x00,
  0x00, 0x61, 0x00, 0x00, 0x00, 0x00, 0x00, 0x00, 0x07, 0x70, 0x00, 0x00, 0x00,
  0xcc, 0xb2, 0xff, 0xff, 0x10, 0x00, 0x00, 0x00, 0x18, 0x00, 0x00, 0x00, 0x1c,
  0x00, 0x00, 0x00, 0x20, 0x00, 0x00, 0x00, 0x01, 0x00, 0x00, 0x00, 0x00, 0x00,
  0x00, 0x00, 0x00, 0x00, 0x00, 0x00, 0x01, 0x00, 0x00, 0x00, 0x69, 0x0e, 0x04,
  0x3c, 0x01, 0x00, 0x00, 0x00, 0xe6, 0xac, 0x01, 0x43, 0x01, 0x00, 0x00, 0x00,
  0x61, 0x0d, 0x84, 0xc3, 0x2c, 0x00, 0x00, 0x00, 0x42, 0x69, 0x61, 0x73, 0x41,
  0x64, 0x64, 0x5f, 0x31, 0x31, 0x3b, 0x64, 0x65, 0x70, 0x74, 0x68, 0x77, 0x69,
  0x73, 0x65, 0x5f, 0x32, 0x35, 0x3b, 0x43, 0x6f, 0x6e, 0x76, 0x32, 0x44, 0x5f,
  0x31, 0x31, 0x3b, 0x63, 0x6f, 0x6e, 0x76, 0x5f, 0x34, 0x5f, 0x31, 0x5f, 0x62,
  0x00, 0x00, 0x00, 0x00, 0x04, 0x00, 0x00, 0x00, 0x01, 0x00, 0x00, 0x00, 0x1d,
  0x02, 0x00, 0x00, 0xc1, 0x03, 0x00, 0x00, 0x08, 0x00, 0x00, 0x00, 0x72, 0xb3,
  0xff, 0xff, 0x14, 0x00, 0x00, 0x00, 0x48, 0x00, 0x00, 0x00, 0x60, 0x00, 0x00,
  0x00, 0x00, 0x00, 0x00, 0x07, 0x50, 0x00, 0x00, 0x00, 0x64, 0xb3, 0xff, 0xff,
  0x10, 0x00, 0x00, 0x00, 0x18, 0x00, 0x00, 0x00, 0x1c, 0x00, 0x00, 0x00, 0x20,
  0x00, 0x00, 0x00, 0x01, 0x00, 0x00, 0x00, 0x00, 0x00, 0x00, 0x00, 0x00, 0x00,
  0x00, 0x00, 0x01, 0x00, 0x00, 0x00, 0x26, 0x24, 0x8d, 0x3b, 0x01, 0x00, 0x00,
  0x00, 0x01, 0x3b, 0x96, 0x42, 0x01, 0x00, 0x00, 0x00, 0x0c, 0x23, 0x0d, 0xc3,
  0x0d, 0x00, 0x00, 0x00, 0x64, 0x65, 0x70, 0x74, 0x68, 0x77, 0x69, 0x73, 0x65,
  0x5f, 0x32, 0x33, 0x31, 0x00, 0x00, 0x00, 0x04, 0x00, 0x00, 0x00, 0x01, 0x00,
  0x00, 0x00, 0x1d, 0x02, 0x00, 0x00, 0xc1, 0x03, 0x00, 0x00, 0x08, 0x00, 0x00,
  0x00, 0xea, 0xb3, 0xff, 0xff, 0x14, 0x00, 0x00, 0x00, 0x48, 0x00, 0x00, 0x00,
  0x5f, 0x00, 0x00, 0x00, 0x00, 0x00, 0x00, 0x07, 0x50, 0x00, 0x00, 0x00, 0xdc,
  0xb3, 0xff, 0xff, 0x10, 0x00, 0x00, 0x00, 0x18, 0x00, 0x00, 0x00, 0x1c, 0x00,
  0x00, 0x00, 0x20, 0x00, 0x00, 0x00, 0x01, 0x00, 0x00, 0x00, 0x00, 0x00, 0x00,
  0x00, 0x00, 0x00, 0x00, 0x00, 0x01, 0x00, 0x00, 0x00, 0x77, 0xb9, 0x8c, 0x3b,
  0x01, 0x00, 0x00, 0x00, 0x0a, 0xf5, 0x9e, 0x42, 0x01, 0x00, 0x00, 0x00, 0x5e,
  0xb8, 0x0c, 0xc3, 0x0d, 0x00, 0x00, 0x00, 0x64, 0x65, 0x70, 0x74, 0x68, 0x77,
  0x69, 0x73, 0x65, 0x5f, 0x32, 0x32, 0x31, 0x00, 0x00, 0x00, 0x04, 0x00, 0x00,
  0x00, 0x01, 0x00, 0x00, 0x00, 0x1d, 0x02, 0x00, 0x00, 0xc1, 0x03, 0x00, 0x00,
  0x08, 0x00, 0x00, 0x00, 0x62, 0xb4, 0xff, 0xff, 0x14, 0x00, 0x00, 0x00, 0x4c,
  0x00, 0x00, 0x00, 0x5e, 0x00, 0x00, 0x00, 0x00, 0x00, 0x00, 0x07, 0x78, 0x00,
  0x00, 0x00, 0x54, 0xb4, 0xff, 0xff, 0x10, 0x00, 0x00, 0x00, 0x1c, 0x00, 0x00,
  0x00, 0x20, 0x00, 0x00, 0x00, 0x24, 0x00, 0x00, 0x00, 0x01, 0x00, 0x00, 0x00,
  0x00, 0x00, 0x00, 0x00, 0x00, 0x00, 0x00, 0x00, 0x00, 0x00, 0x00, 0x00, 0x01,
  0x00, 0x00, 0x00, 0xd5, 0x80, 0xa2, 0x3b, 0x01, 0x00, 0x00, 0x00, 0x90, 0x7f,
  0x22, 0x43, 0x01, 0x00, 0x00, 0x00, 0x00, 0x00, 0x00, 0x00, 0x33, 0x00, 0x00,
  0x00, 0x52, 0x65, 0x6c, 0x75, 0x5f, 0x33, 0x3b, 0x42, 0x69, 0x61, 0x73, 0x41,
  0x64, 0x64, 0x5f, 0x31, 0x30, 0x3b, 0x64, 0x65, 0x70, 0x74, 0x68, 0x77, 0x69,
  0x73, 0x65, 0x5f, 0x32, 0x35, 0x3b, 0x43, 0x6f, 0x6e, 0x76, 0x32, 0x44, 0x5f,
  0x31, 0x30, 0x3b, 0x63, 0x6f, 0x6e, 0x76, 0x5f, 0x34, 0x5f, 0x30, 0x5f, 0x62,
  0x00, 0x04, 0x00, 0x00, 0x00, 0x01, 0x00, 0x00, 0x00, 0x1d, 0x02, 0x00, 0x00,
  0xc1, 0x03, 0x00, 0x00, 0x08, 0x00, 0x00, 0x00, 0x02, 0xb5, 0xff, 0xff, 0x14,
  0x00, 0x00, 0x00, 0x48, 0x00, 0x00, 0x00, 0x5d, 0x00, 0x00, 0x00, 0x00, 0x00,
  0x00, 0x07, 0x50, 0x00, 0x00, 0x00, 0xf4, 0xb4, 0xff, 0xff, 0x10, 0x00, 0x00,
  0x00, 0x18, 0x00, 0x00, 0x00, 0x1c, 0x00, 0x00, 0x00, 0x20, 0x00, 0x00, 0x00,
  0x01, 0x00, 0x00, 0x00, 0x00, 0x00, 0x00, 0x00, 0x00, 0x00, 0x00, 0x00, 0x01,
  0x00, 0x00, 0x00, 0xb4, 0xfa, 0x24, 0x3b, 0x01, 0x00, 0x00, 0x00, 0x6a, 0xf9,
  0xa4, 0x42, 0x01, 0x00, 0x00, 0x00, 0x18, 0xb8, 0x3d, 0xc2, 0x0d, 0x00, 0x00,
  0x00, 0x64, 0x65, 0x70, 0x74, 0x68, 0x77, 0x69, 0x73, 0x65, 0x5f, 0x32, 0x31,
  0x31, 0x00, 0x00, 0x00, 0x04, 0x00, 0x00, 0x00, 0x01, 0x00, 0x00, 0x00, 0x1d,
  0x02, 0x00, 0x00, 0xc1, 0x03, 0x00, 0x00, 0x08, 0x00, 0x00, 0x00, 0x7a, 0xb5,
  0xff, 0xff, 0x14, 0x00, 0x00, 0x00, 0x48, 0x00, 0x00, 0x00, 0x5c, 0x00, 0x00,
  0x00, 0x00, 0x00, 0x00, 0x07, 0x50, 0x00, 0x00, 0x00, 0x6c, 0xb5, 0xff, 0xff,
  0x10, 0x00, 0x00, 0x00, 0x18, 0x00, 0x00, 0x00, 0x1c, 0x00, 0x00, 0x00, 0x20,
  0x00, 0x00, 0x00, 0x01, 0x00, 0x00, 0x00, 0x00, 0x00, 0x00, 0x00, 0x00, 0x00,
  0x00, 0x00, 0x01, 0x00, 0x00, 0x00, 0x11, 0x22, 0x39, 0x3b, 0x01, 0x00, 0x00,
  0x00, 0xc1, 0x22, 0x61, 0x42, 0x01, 0x00, 0x00, 0x00, 0x9f, 0x20, 0xb9, 0xc2,
  0x0d, 0x00, 0x00, 0x00, 0x64, 0x65, 0x70, 0x74, 0x68, 0x77, 0x69, 0x73, 0x65,
  0x5f, 0x32, 0x30, 0x31, 0x00, 0x00, 0x00, 0x04, 0x00, 0x00, 0x00, 0x01, 0x00,
  0x00, 0x00, 0x1d, 0x02, 0x00, 0x00, 0xc1, 0x03, 0x00, 0x00, 0x08, 0x00, 0x00,
  0x00, 0xf2, 0xb5, 0xff, 0xff, 0x14, 0x00, 0x00, 0x00, 0x48, 0x00, 0x00, 0x00,
  0x5b, 0x00, 0x00, 0x00, 0x00, 0x00, 0x00, 0x07, 0x48, 0x00, 0x00, 0x00, 0xe4,
  0xb5, 0xff, 0xff, 0x10, 0x00, 0x00, 0x00, 0x18, 0x00, 0x00, 0x00, 0x1c, 0x00,
  0x00, 0x00, 0x20, 0x00, 0x00, 0x00, 0x01, 0x00, 0x00, 0x00, 0x00, 0x00, 0x00,
  0x00, 0x00, 0x00, 0x00, 0x00, 0x01, 0x00, 0x00, 0x00, 0x97, 0x61, 0x11, 0x3b,
  0x01, 0x00, 0x00, 0x00, 0xf4, 0x13, 0x34, 0x42, 0x01, 0x00, 0x00, 0x00, 0x74,
  0x60, 0x91, 0xc2, 0x05, 0x00, 0x00, 0x00, 0x41, 0x64, 0x64, 0x5f, 0x33, 0x00,
  0x00, 0x00, 0x04, 0x00, 0x00, 0x00, 0x01, 0x00, 0x00, 0x00, 0x1d, 0x02, 0x00,
  0x00, 0xc1, 0x03, 0x00, 0x00, 0x08, 0x00, 0x00, 0x00, 0x62, 0xb6, 0xff, 0xff,
  0x14, 0x00, 0x00, 0x00, 0x4c, 0x00, 0x00, 0x00, 0x5a, 0x00, 0x00, 0x00, 0x00,
  0x00, 0x00, 0x07, 0x70, 0x00, 0x00, 0x00, 0x54, 0xb6, 0xff, 0xff, 0x10, 0x00,
  0x00, 0x00, 0x1c, 0x00, 0x00, 0x00, 0x20, 0x00, 0x00, 0x00, 0x24, 0x00, 0x00,
  0x00, 0x01, 0x00, 0x00, 0x00, 0x00, 0x00, 0x00, 0x00, 0x00, 0x00, 0x00, 0x00,
  0x00, 0x00, 0x00, 0x00, 0x01, 0x00, 0x00, 0x00, 0x6e, 0xef, 0xa7, 0x3a, 0x01,
  0x00, 0x00, 0x00, 0x1e, 0xee, 0x27, 0x42, 0x01, 0x00, 0x00, 0x00, 0xd3, 0x39,
  0x22, 0xc2, 0x2a, 0x00, 0x00, 0x00, 0x42, 0x69, 0x61, 0x73, 0x41, 0x64, 0x64,
  0x5f, 0x39, 0x3b, 0x64, 0x65, 0x70, 0x74, 0x68, 0x77, 0x69, 0x73, 0x65, 0x5f,
  0x32, 0x35, 0x3b, 0x43, 0x6f, 0x6e, 0x76, 0x32, 0x44, 0x5f, 0x39, 0x3b, 0x63,
  0x6f, 0x6e, 0x76, 0x5f, 0x33, 0x5f, 0x31, 0x5f, 0x62, 0x00, 0x00, 0x04, 0x00,
  0x00, 0x00, 0x01, 0x00, 0x00, 0x00, 0x1d, 0x02, 0x00, 0x00, 0xc1, 0x03, 0x00,
  0x00, 0x08, 0x00, 0x00, 0x00, 0xfa, 0xb6, 0xff, 0xff, 0x14, 0x00, 0x00, 0x00,
  0x48, 0x00, 0x00, 0x00, 0x59, 0x00, 0x00, 0x00, 0x00, 0x00, 0x00, 0x07, 0x50,
  0x00, 0x00, 0x00, 0xec, 0xb6, 0xff, 0xff, 0x10, 0x00, 0x00, 0x00, 0x18, 0x00,
  0x00, 0x00, 0x1c, 0x00, 0x00, 0x00, 0x20, 0x00, 0x00, 0x00, 0x01, 0x00, 0x00,
  0x00, 0x00, 0x00, 0x00, 0x00, 0x00, 0x00, 0x00, 0x00, 0x01, 0x00, 0x00, 0x00,
  0xe6, 0x2e, 0x6a, 0x3a, 0x01, 0x00, 0x00, 0x00, 0x7f, 0xd1, 0xcf, 0x41, 0x01,
  0x00, 0x00, 0x00, 0x12, 0x2d, 0xea, 0xc1, 0x0d, 0x00, 0x00, 0x00, 0x64, 0x65,
  0x70, 0x74, 0x68, 0x77, 0x69, 0x73, 0x65, 0x5f, 0x31, 0x39, 0x32, 0x00, 0x00,
  0x00, 0x04, 0x00, 0x00, 0x00, 0x01, 0x00, 0x00, 0x00, 0x1d, 0x02, 0x00, 0x00,
  0xc1, 0x03, 0x00, 0x00, 0x0a, 0x00, 0x00, 0x00, 0x72, 0xb7, 0xff, 0xff, 0x14,
  0x00, 0x00, 0x00, 0x48, 0x00, 0x00, 0x00, 0x58, 0x00, 0x00, 0x00, 0x00, 0x00,
  0x00, 0x07, 0x50, 0x00, 0x00, 0x00, 0x64, 0xb7, 0xff, 0xff, 0x10, 0x00, 0x00,
  0x00, 0x18, 0x00, 0x00, 0x00, 0x1c, 0x00, 0x00, 0x00, 0x20, 0x00, 0x00, 0x00,
  0x01, 0x00, 0x00, 0x00, 0x00, 0x00, 0x00, 0x00, 0x00, 0x00, 0x00, 0x00, 0x01,
  0x00, 0x00, 0x00, 0x9b, 0x50, 0xcf, 0x3a, 0x01, 0x00, 0x00, 0x00, 0xfc, 0x4e,
  0x4f, 0x42, 0x01, 0x00, 0x00, 0x00, 0xd6, 0xb5, 0x3b, 0xc2, 0x0d, 0x00, 0x00,
  0x00, 0x64, 0x65, 0x70, 0x74, 0x68, 0x77, 0x69, 0x73, 0x65, 0x5f, 0x31, 0x38,
  0x31, 0x00, 0x00, 0x00, 0x04, 0x00, 0x00, 0x00, 0x01, 0x00, 0x00, 0x00, 0x1d,
  0x02, 0x00, 0x00, 0xc1, 0x03, 0x00, 0x00, 0x0a, 0x00, 0x00, 0x00, 0xea, 0xb7,
  0xff, 0xff, 0x14, 0x00, 0x00, 0x00, 0x4c, 0x00, 0x00, 0x00, 0x57, 0x00, 0x00,
  0x00, 0x00, 0x00, 0x00, 0x07, 0x70, 0x00, 0x00, 0x00, 0xdc, 0xb7, 0xff, 0xff,
  0x10, 0x00, 0x00, 0x00, 0x1c, 0x00, 0x00, 0x00, 0x20, 0x00, 0x00, 0x00, 0x24,
  0x00, 0x00, 0x00, 0x01, 0x00, 0x00, 0x00, 0x00, 0x00, 0x00, 0x00, 0x00, 0x00,
  0x00, 0x00, 0x00, 0x00, 0x00, 0x00, 0x01, 0x00, 0x00, 0x00, 0x7a, 0xbd, 0xec,
  0x3a, 0x01, 0x00, 0x00, 0x00, 0x3d, 0x00, 0x3a, 0x42, 0x01, 0x00, 0x00, 0x00,
  0xa1, 0xbb, 0x6c, 0xc2, 0x2a, 0x00, 0x00, 0x00, 0x42, 0x69, 0x61, 0x73, 0x41,
  0x64, 0x64, 0x5f, 0x38, 0x3b, 0x64, 0x65, 0x70, 0x74, 0x68, 0x77, 0x69, 0x73,
  0x65, 0x5f, 0x32, 0x35, 0x3b, 0x43, 0x6f, 0x6e, 0x76, 0x32, 0x44, 0x5f, 0x38,
  0x3b, 0x63, 0x6f, 0x6e, 0x76, 0x5f, 0x33, 0x5f, 0x31, 0x5f, 0x62, 0x00, 0x00,
  0x04, 0x00, 0x00, 0x00, 0x01, 0x00, 0x00, 0x00, 0x1d, 0x02, 0x00, 0x00, 0xc1,
  0x03, 0x00, 0x00, 0x08, 0x00, 0x00, 0x00, 0x82, 0xb8, 0xff, 0xff, 0x14, 0x00,
  0x00, 0x00, 0x48, 0x00, 0x00, 0x00, 0x56, 0x00, 0x00, 0x00, 0x00, 0x00, 0x00,
  0x07, 0x50, 0x00, 0x00, 0x00, 0x74, 0xb8, 0xff, 0xff, 0x10, 0x00, 0x00, 0x00,
  0x18, 0x00, 0x00, 0x00, 0x1c, 0x00, 0x00, 0x00, 0x20, 0x00, 0x00, 0x00, 0x01,
  0x00, 0x00, 0x00, 0x00, 0x00, 0x00, 0x00, 0x00, 0x00, 0x00, 0x00, 0x01, 0x00,
  0x00, 0x00, 0xf7, 0x5f, 0xbc, 0x3a, 0x01, 0x00, 0x00, 0x00, 0x7e, 0x5e, 0x3c,
  0x42, 0x01, 0x00, 0x00, 0x00, 0x9d, 0x98, 0xca, 0xc1, 0x0d, 0x00, 0x00, 0x00,
  0x64, 0x65, 0x70, 0x74, 0x68, 0x77, 0x69, 0x73, 0x65, 0x5f, 0x31, 0x37, 0x31,
  0x00, 0x00, 0x00, 0x04, 0x00, 0x00, 0x00, 0x01, 0x00, 0x00, 0x00, 0x1d, 0x02,
  0x00, 0x00, 0xc1, 0x03, 0x00, 0x00, 0x08, 0x00, 0x00, 0x00, 0xfa, 0xb8, 0xff,
  0xff, 0x14, 0x00, 0x00, 0x00, 0x48, 0x00, 0x00, 0x00, 0x55, 0x00, 0x00, 0x00,
  0x00, 0x00, 0x00, 0x07, 0x50, 0x00, 0x00, 0x00, 0xec, 0xb8, 0xff, 0xff, 0x10,
  0x00, 0x00, 0x00, 0x18, 0x00, 0x00, 0x00, 0x1c, 0x00, 0x00, 0x00, 0x20, 0x00,
  0x00, 0x00, 0x01, 0x00, 0x00, 0x00, 0x00, 0x00, 0x00, 0x00, 0x00, 0x00, 0x00,
  0x00, 0x01, 0x00, 0x00, 0x00, 0xd9, 0x63, 0x27, 0x3b, 0x01, 0x00, 0x00, 0x00,
  0x8a, 0x62, 0xa7, 0x42, 0x01, 0x00, 0x00, 0x00, 0xc6, 0x4e, 0x3f, 0xc2, 0x0d,
  0x00, 0x00, 0x00, 0x64, 0x65, 0x70, 0x74, 0x68, 0x77, 0x69, 0x73, 0x65, 0x5f,
  0x31, 0x36, 0x31, 0x00, 0x00, 0x00, 0x04, 0x00, 0x00, 0x00, 0x01, 0x00, 0x00,
  0x00, 0x1d, 0x02, 0x00, 0x00, 0xc1, 0x03, 0x00, 0x00, 0x08, 0x00, 0x00, 0x00,
  0x72, 0xb9, 0xff, 0xff, 0x14, 0x00, 0x00, 0x00, 0x4c, 0x00, 0x00, 0x00, 0x54,
  0x00, 0x00, 0x00, 0x00, 0x00, 0x00, 0x07, 0x78, 0x00, 0x00, 0x00, 0x64, 0xb9,
  0xff, 0xff, 0x10, 0x00, 0x00, 0x00, 0x1c, 0x00, 0x00, 0x00, 0x20, 0x00, 0x00,
  0x00, 0x24, 0x00, 0x00, 0x00, 0x01, 0x00, 0x00, 0x00, 0x00, 0x00, 0x00, 0x00,
  0x00, 0x00, 0x00, 0x00, 0x00, 0x00, 0x00, 0x00, 0x01, 0x00, 0x00, 0x00, 0xd8,
  0x77, 0x7e, 0x3b, 0x01, 0x00, 0x00, 0x00, 0xdb, 0x75, 0xfe, 0x42, 0x01, 0x00,
  0x00, 0x00, 0x00, 0x00, 0x00, 0x00, 0x31, 0x00, 0x00, 0x00, 0x52, 0x65, 0x6c,
  0x75, 0x5f, 0x32, 0x3b, 0x42, 0x69, 0x61, 0x73, 0x41, 0x64, 0x64, 0x5f, 0x37,
  0x3b, 0x64, 0x65, 0x70, 0x74, 0x68, 0x77, 0x69, 0x73, 0x65, 0x5f, 0x32, 0x35,
  0x3b, 0x43, 0x6f, 0x6e, 0x76, 0x32, 0x44, 0x5f, 0x37, 0x3b, 0x63, 0x6f, 0x6e,
  0x76, 0x5f, 0x33, 0x5f, 0x30, 0x5f, 0x62, 0x00, 0x00, 0x00, 0x04, 0x00, 0x00,
  0x00, 0x01, 0x00, 0x00, 0x00, 0x1d, 0x02, 0x00, 0x00, 0xc1, 0x03, 0x00, 0x00,
  0x08, 0x00, 0x00, 0x00, 0x12, 0xba, 0xff, 0xff, 0x14, 0x00, 0x00, 0x00, 0x48,
  0x00, 0x00, 0x00, 0x53, 0x00, 0x00, 0x00, 0x00, 0x00, 0x00, 0x07, 0x50, 0x00,
  0x00, 0x00, 0x04, 0xba, 0xff, 0xff, 0x10, 0x00, 0x00, 0x00, 0x18, 0x00, 0x00,
  0x00, 0x1c, 0x00, 0x00, 0x00, 0x20, 0x00, 0x00, 0x00, 0x01, 0x00, 0x00, 0x00,
  0x00, 0x00, 0x00, 0x00, 0x00, 0x00, 0x00, 0x00, 0x01, 0x00, 0x00, 0x00, 0x7a,
  0x42, 0x43, 0x3b, 0x01, 0x00, 0x00, 0x00, 0x68, 0xb4, 0xa5, 0x42, 0x01, 0x00,
  0x00, 0x00, 0xf3, 0x40, 0xc3, 0xc2, 0x0d, 0x00, 0x00, 0x00, 0x64, 0x65, 0x70,
  0x74, 0x68, 0x77, 0x69, 0x73, 0x65, 0x5f, 0x31, 0x35, 0x31, 0x00, 0x00, 0x00,
  0x04, 0x00, 0x00, 0x00, 0x01, 0x00, 0x00, 0x00, 0x1d, 0x02, 0x00, 0x00, 0xc1,
  0x03, 0x00, 0x00, 0x0a, 0x00, 0x00, 0x00, 0x8a, 0xba, 0xff, 0xff, 0x14, 0x00,
  0x00, 0x00, 0x48, 0x00, 0x00, 0x00, 0x52, 0x00, 0x00, 0x00, 0x00, 0x00, 0x00,
  0x07, 0x50, 0x00, 0x00, 0x00, 0x7c, 0xba, 0xff, 0xff, 0x10, 0x00, 0x00, 0x00,
  0x18, 0x00, 0x00, 0x00, 0x1c, 0x00, 0x00, 0x00, 0x20, 0x00, 0x00, 0x00, 0x01,
  0x00, 0x00, 0x00, 0x00, 0x00, 0x00, 0x00, 0x00, 0x00, 0x00, 0x00, 0x01, 0x00,
  0x00, 0x00, 0x31, 0xcf, 0x18, 0x3b, 0x01, 0x00, 0x00, 0x00, 0xff, 0xcd, 0x98,
  0x42, 0x01, 0x00, 0x00, 0x00, 0x06, 0xb4, 0x94, 0xc2, 0x0d, 0x00, 0x00, 0x00,
  0x64, 0x65, 0x70, 0x74, 0x68, 0x77, 0x69, 0x73, 0x65, 0x5f, 0x31, 0x34, 0x31,
  0x00, 0x00, 0x00, 0x04, 0x00, 0x00, 0x00, 0x01, 0x00, 0x00, 0x00, 0x1d, 0x02,
  0x00, 0x00, 0xc1, 0x03, 0x00, 0x00, 0x0a, 0x00, 0x00, 0x00, 0x02, 0xbb, 0xff,
  0xff, 0x14, 0x00, 0x00, 0x00, 0x48, 0x00, 0x00, 0x00, 0x51, 0x00, 0x00, 0x00,
  0x00, 0x00, 0x00, 0x07, 0x48, 0x00, 0x00, 0x00, 0xf4, 0xba, 0xff, 0xff, 0x10,
  0x00, 0x00, 0x00, 0x18, 0x00, 0x00, 0x00, 0x1c, 0x00, 0x00, 0x00, 0x20, 0x00,
  0x00, 0x00, 0x01, 0x00, 0x00, 0x00, 0x00, 0x00, 0x00, 0x00, 0x00, 0x00, 0x00,
  0x00, 0x01, 0x00, 0x00, 0x00, 0x1b, 0x93, 0x42, 0x3b, 0x01, 0x00, 0x00, 0x00,
  0x0d, 0xc3, 0xa0, 0x42, 0x01, 0x00, 0x00, 0x00, 0x96, 0x91, 0xc2, 0xc2, 0x05,
  0x00, 0x00, 0x00, 0x41, 0x64, 0x64, 0x5f, 0x32, 0x00, 0x00, 0x00, 0x04, 0x00,
  0x00, 0x00, 0x01, 0x00, 0x00, 0x00, 0x1d, 0x02, 0x00, 0x00, 0xc1, 0x03, 0x00,
  0x00, 0x0a, 0x00, 0x00, 0x00, 0x72, 0xbb, 0xff, 0xff, 0x14, 0x00, 0x00, 0x00,
  0x4c, 0x00, 0x00, 0x00, 0x50, 0x00, 0x00, 0x00, 0x00, 0x00, 0x00, 0x07, 0x70,
  0x00, 0x00, 0x00, 0x64, 0xbb, 0xff, 0xff, 0x10, 0x00, 0x00, 0x00, 0x1c, 0x00,
  0x00, 0x00, 0x20, 0x00, 0x00, 0x00, 0x24, 0x00, 0x00, 0x00, 0x01, 0x00, 0x00,
  0x00, 0x00, 0x00, 0x00, 0x00, 0x00, 0x00, 0x00, 0x00, 0x00, 0x00, 0x00, 0x00,
  0x01, 0x00, 0x00, 0x00, 0xbd, 0xcd, 0x42, 0x3b, 0x01, 0x00, 0x00, 0x00, 0x37,
  0xcc, 0xc2, 0x42, 0x01, 0x00, 0x00, 0x00, 0xa2, 0xf8, 0xb4, 0xc2, 0x2a, 0x00,
  0x00, 0x00, 0x42, 0x69, 0x61, 0x73, 0x41, 0x64, 0x64, 0x5f, 0x36, 0x3b, 0x64,
  0x65, 0x70, 0x74, 0x68, 0x77, 0x69, 0x73, 0x65, 0x5f, 0x31, 0x39, 0x3b, 0x43,
  0x6f, 0x6e, 0x76, 0x32, 0x44, 0x5f, 0x36, 0x3b, 0x63, 0x6f, 0x6e, 0x76, 0x5f,
  0x32, 0x5f, 0x31, 0x5f, 0x62, 0x00, 0x00, 0x04, 0x00, 0x00, 0x00, 0x01, 0x00,
  0x00, 0x00, 0x1d, 0x02, 0x00, 0x00, 0xc1, 0x03, 0x00, 0x00, 0x0a, 0x00, 0x00,
  0x00, 0x0a, 0xbc, 0xff, 0xff, 0x14, 0x00, 0x00, 0x00, 0x48, 0x00, 0x00, 0x00,
  0x4f, 0x00, 0x00, 0x00, 0x00, 0x00, 0x00, 0x07, 0x50, 0x00, 0x00, 0x00, 0xfc,
  0xbb, 0xff, 0xff, 0x10, 0x00, 0x00, 0x00, 0x18, 0x00, 0x00, 0x00, 0x1c, 0x00,
  0x00, 0x00, 0x20, 0x00, 0x00, 0x00, 0x01, 0x00, 0x00, 0x00, 0x00, 0x00, 0x00,
  0x00, 0x00, 0x00, 0x00, 0x00, 0x01, 0x00, 0x00, 0x00, 0xd5, 0x0f, 0xc2, 0x3a,
  0x01, 0x00, 0x00, 0x00, 0x9c, 0x2a, 0x38, 0x42, 0x01, 0x00, 0x00, 0x00, 0x51,
  0x0e, 0x42, 0xc2, 0x0d, 0x00, 0x00, 0x00, 0x64, 0x65, 0x70, 0x74, 0x68, 0x77,
  0x69, 0x73, 0x65, 0x5f, 0x31, 0x33, 0x32, 0x00, 0x00, 0x00, 0x04, 0x00, 0x00,
  0x00, 0x01, 0x00, 0x00, 0x00, 0x1d, 0x02, 0x00, 0x00, 0xc1, 0x03, 0x00, 0x00,
  0x0c, 0x00, 0x00, 0x00, 0x82, 0xbc, 0xff, 0xff, 0x14, 0x00, 0x00, 0x00, 0x48,
  0x00, 0x00, 0x00, 0x4e, 0x00, 0x00, 0x00, 0x00, 0x00, 0x00, 0x07, 0x50, 0x00,
  0x00, 0x00, 0x74, 0xbc, 0xff, 0xff, 0x10, 0x00, 0x00, 0x00, 0x18, 0x00, 0x00,
  0x00, 0x1c, 0x00, 0x00, 0x00, 0x20, 0x00, 0x00, 0x00, 0x01, 0x00, 0x00, 0x00,
  0x00, 0x00, 0x00, 0x00, 0x00, 0x00, 0x00, 0x00, 0x01, 0x00, 0x00, 0x00, 0xcf,
  0x4e, 0xfe, 0x3a, 0x01, 0x00, 0x00, 0x00, 0xa5, 0x21, 0x78, 0x42, 0x01, 0x00,
  0x00, 0x00, 0xd2, 0x4c, 0x7e, 0xc2, 0x0d, 0x00, 0x00, 0x00, 0x64, 0x65, 0x70,
  0x74, 0x68, 0x77, 0x69, 0x73, 0x65, 0x5f, 0x31, 0x32, 0x31, 0x00, 0x00, 0x00,
  0x04, 0x00, 0x00, 0x00, 0x01, 0x00, 0x00, 0x00, 0x1d, 0x02, 0x00, 0x00, 0xc1,
  0x03, 0x00, 0x00, 0x0c, 0x00, 0x00, 0x00, 0xfa, 0xbc, 0xff, 0xff, 0x14, 0x00,
  0x00, 0x00, 0x4c, 0x00, 0x00, 0x00, 0x4d, 0x00, 0x00, 0x00, 0x00, 0x00, 0x00,
  0x07, 0x70, 0x00, 0x00, 0x00, 0xec, 0xbc, 0xff, 0xff, 0x10, 0x00, 0x00, 0x00,
  0x1c, 0x00, 0x00, 0x00, 0x20, 0x00, 0x00, 0x00, 0x24, 0x00, 0x00, 0x00, 0x01,
  0x00, 0x00, 0x00, 0x00, 0x00, 0x00, 0x00, 0x00, 0x00, 0x00, 0x00, 0x00, 0x00,
  0x00, 0x00, 0x01, 0x00, 0x00, 0x00, 0x27, 0x81, 0x4c, 0x3b, 0x01, 0x00, 0x00,
  0x00, 0xb7, 0x0a, 0x8a, 0x42, 0x01, 0x00, 0x00, 0x00, 0x8e, 0x7f, 0xcc, 0xc2,
  0x2a, 0x00, 0x00, 0x00, 0x42, 0x69, 0x61, 0x73, 0x41, 0x64, 0x64, 0x5f, 0x35,
  0x3b, 0x64, 0x65, 0x70, 0x74, 0x68, 0x77, 0x69, 0x73, 0x65, 0x5f, 0x31, 0x39,
  0x3b, 0x43, 0x6f, 0x6e, 0x76, 0x32, 0x44, 0x5f, 0x35, 0x3b, 0x63, 0x6f, 0x6e,
  0x76, 0x5f, 0x32, 0x5f, 0x31, 0x5f, 0x62, 0x00, 0x00, 0x04, 0x00, 0x00, 0x00,
  0x01, 0x00, 0x00, 0x00, 0x1d, 0x02, 0x00, 0x00, 0xc1, 0x03, 0x00, 0x00, 0x0a,
  0x00, 0x00, 0x00, 0x92, 0xbd, 0xff, 0xff, 0x14, 0x00, 0x00, 0x00, 0x48, 0x00,
  0x00, 0x00, 0x4c, 0x00, 0x00, 0x00, 0x00, 0x00, 0x00, 0x07, 0x50, 0x00, 0x00,
  0x00, 0x84, 0xbd, 0xff, 0xff, 0x10, 0x00, 0x00, 0x00, 0x18, 0x00, 0x00, 0x00,
  0x1c, 0x00, 0x00, 0x00, 0x20, 0x00, 0x00, 0x00, 0x01, 0x00, 0x00, 0x00, 0x00,
  0x00, 0x00, 0x00, 0x00, 0x00, 0x00, 0x00, 0x01, 0x00, 0x00, 0x00, 0x4a, 0x20,
  0xd3, 0x3a, 0x01, 0x00, 0x00, 0x00, 0xae, 0xbf, 0x4e, 0x42, 0x01, 0x00, 0x00,
  0x00, 0xa4, 0x1e, 0x53, 0xc2, 0x0d, 0x00, 0x00, 0x00, 0x64, 0x65, 0x70, 0x74,
  0x68, 0x77, 0x69, 0x73, 0x65, 0x5f, 0x31, 0x31, 0x31, 0x00, 0x00, 0x00, 0x04,
  0x00, 0x00, 0x00, 0x01, 0x00, 0x00, 0x00, 0x1d, 0x02, 0x00, 0x00, 0xc1, 0x03,
  0x00, 0x00, 0x0a, 0x00, 0x00, 0x00, 0x0a, 0xbe, 0xff, 0xff, 0x14, 0x00, 0x00,
  0x00, 0x48, 0x00, 0x00, 0x00, 0x4b, 0x00, 0x00, 0x00, 0x00, 0x00, 0x00, 0x07,
  0x50, 0x00, 0x00, 0x00, 0xfc, 0xbd, 0xff, 0xff, 0x10, 0x00, 0x00, 0x00, 0x18,
  0x00, 0x00, 0x00, 0x1c, 0x00, 0x00, 0x00, 0x20, 0x00, 0x00, 0x00, 0x01, 0x00,
  0x00, 0x00, 0x00, 0x00, 0x00, 0x00, 0x00, 0x00, 0x00, 0x00, 0x01, 0x00, 0x00,
  0x00, 0x56, 0xa2, 0xfd, 0x3a, 0x01, 0x00, 0x00, 0x00, 0x5b, 0xa0, 0x7d, 0x42,
  0x01, 0x00, 0x00, 0x00, 0xd9, 0xf9, 0x40, 0xc2, 0x0d, 0x00, 0x00, 0x00, 0x64,
  0x65, 0x70, 0x74, 0x68, 0x77, 0x69, 0x73, 0x65, 0x5f, 0x31, 0x30, 0x31, 0x00,
  0x00, 0x00, 0x04, 0x00, 0x00, 0x00, 0x01, 0x00, 0x00, 0x00, 0x1d, 0x02, 0x00,
  0x00, 0xc1, 0x03, 0x00, 0x00, 0x0a, 0x00, 0x00, 0x00, 0x82, 0xbe, 0xff, 0xff,
  0x14, 0x00, 0x00, 0x00, 0x4c, 0x00, 0x00, 0x00, 0x4a, 0x00, 0x00, 0x00, 0x00,
  0x00, 0x00, 0x07, 0x78, 0x00, 0x00, 0x00, 0x74, 0xbe, 0xff, 0xff, 0x10, 0x00,
  0x00, 0x00, 0x1c, 0x00, 0x00, 0x00, 0x20, 0x00, 0x00, 0x00, 0x24, 0x00, 0x00,
  0x00, 0x01, 0x00, 0x00, 0x00, 0x00, 0x00, 0x00, 0x00, 0x00, 0x00, 0x00, 0x00,
  0x00, 0x00, 0x00, 0x00, 0x01, 0x00, 0x00, 0x00, 0xa5, 0x82, 0x15, 0x3b, 0x01,
  0x00, 0x00, 0x00, 0x7a, 0x81, 0x95, 0x42, 0x01, 0x00, 0x00, 0x00, 0x00, 0x00,
  0x00, 0x00, 0x31, 0x00, 0x00, 0x00, 0x52, 0x65, 0x6c, 0x75, 0x5f, 0x31, 0x3b,
  0x42, 0x69, 0x61, 0x73, 0x41, 0x64, 0x64, 0x5f, 0x34, 0x3b, 0x64, 0x65, 0x70,
  0x74, 0x68, 0x77, 0x69, 0x73, 0x65, 0x5f, 0x31, 0x39, 0x3b, 0x43, 0x6f, 0x6e,
  0x76, 0x32, 0x44, 0x5f, 0x34, 0x3b, 0x63, 0x6f, 0x6e, 0x76, 0x5f, 0x32, 0x5f,
  0x30, 0x5f, 0x62, 0x00, 0x00, 0x00, 0x04, 0x00, 0x00, 0x00, 0x01, 0x00, 0x00,
  0x00, 0x1d, 0x02, 0x00, 0x00, 0xc1, 0x03, 0x00, 0x00, 0x0a, 0x00, 0x00, 0x00,
  0x22, 0xbf, 0xff, 0xff, 0x14, 0x00, 0x00, 0x00, 0x48, 0x00, 0x00, 0x00, 0x49,
  0x00, 0x00, 0x00, 0x00, 0x00, 0x00, 0x07, 0x50, 0x00, 0x00, 0x00, 0x14, 0xbf,
  0xff, 0xff, 0x10, 0x00, 0x00, 0x00, 0x18, 0x00, 0x00, 0x00, 0x1c, 0x00, 0x00,
  0x00, 0x20, 0x00, 0x00, 0x00, 0x01, 0x00, 0x00, 0x00, 0x00, 0x00, 0x00, 0x00,
  0x00, 0x00, 0x00, 0x00, 0x01, 0x00, 0x00, 0x00, 0x15, 0x9e, 0xd6, 0x3a, 0x01,
  0x00, 0x00, 0x00, 0x8c, 0x0f, 0x05, 0x42, 0x01, 0x00, 0x00, 0x00, 0x68, 0x9c,
  0x56, 0xc2, 0x0c, 0x00, 0x00, 0x00, 0x64, 0x65, 0x70, 0x74, 0x68, 0x77, 0x69,
  0x73, 0x65, 0x5f, 0x39, 0x31, 0x00, 0x00, 0x00, 0x00, 0x04, 0x00, 0x00, 0x00,
  0x01, 0x00, 0x00, 0x00, 0x1d, 0x02, 0x00, 0x00, 0xc1, 0x03, 0x00, 0x00, 0x0c,
  0x00, 0x00, 0x00, 0x9a, 0xbf, 0xff, 0xff, 0x14, 0x00, 0x00, 0x00, 0x48, 0x00,
  0x00, 0x00, 0x48, 0x00, 0x00, 0x00, 0x00, 0x00, 0x00, 0x07, 0x50, 0x00, 0x00,
  0x00, 0x8c, 0xbf, 0xff, 0xff, 0x10, 0x00, 0x00, 0x00, 0x18, 0x00, 0x00, 0x00,
  0x1c, 0x00, 0x00, 0x00, 0x20, 0x00, 0x00, 0x00, 0x01, 0x00, 0x00, 0x00, 0x00,
  0x00, 0x00, 0x00, 0x00, 0x00, 0x00, 0x00, 0x01, 0x00, 0x00, 0x00, 0x1a, 0x66,
  0xde, 0x3a, 0x01, 0x00, 0x00, 0x00, 0x5d, 0x64, 0x5e, 0x42, 0x01, 0x00, 0x00,
  0x00, 0x86, 0x6e, 0x3b, 0xc2, 0x0c, 0x00, 0x00, 0x00, 0x64, 0x65, 0x70, 0x74,
  0x68, 0x77, 0x69, 0x73, 0x65, 0x5f, 0x38, 0x31, 0x00, 0x00, 0x00, 0x00, 0x04,
  0x00, 0x00, 0x00, 0x01, 0x00, 0x00, 0x00, 0x1d, 0x02, 0x00, 0x00, 0xc1, 0x03,
  0x00, 0x00, 0x0c, 0x00, 0x00, 0x00, 0x12, 0xc0, 0xff, 0xff, 0x14, 0x00, 0x00,
  0x00, 0x48, 0x00, 0x00, 0x00, 0x47, 0x00, 0x00, 0x00, 0x00, 0x00, 0x00, 0x07,
  0x48, 0x00, 0x00, 0x00, 0x04, 0xc0, 0xff, 0xff, 0x10, 0x00, 0x00, 0x00, 0x18,
  0x00, 0x00, 0x00, 0x1c, 0x00, 0x00, 0x00, 0x20, 0x00, 0x00, 0x00, 0x01, 0x00,
  0x00, 0x00, 0x00, 0x00, 0x00, 0x00, 0x00, 0x00, 0x00, 0x00, 0x01, 0x00, 0x00,
  0x00, 0x42, 0xf8, 0x5b, 0x3b, 0x01, 0x00, 0x00, 0x00, 0x25, 0x3d, 0x94, 0x42,
  0x01, 0x00, 0x00, 0x00, 0x8a, 0xf6, 0xdb, 0xc2, 0x05, 0x00, 0x00, 0x00, 0x41,
  0x64, 0x64, 0x5f, 0x31, 0x00, 0x00, 0x00, 0x04, 0x00, 0x00, 0x00, 0x01, 0x00,
  0x00, 0x00, 0x1d, 0x02, 0x00, 0x00, 0xc1, 0x03, 0x00, 0x00, 0x0c, 0x00, 0x00,
  0x00, 0x82, 0xc0, 0xff, 0xff, 0x14, 0x00, 0x00, 0x00, 0x4c, 0x00, 0x00, 0x00,
  0x46, 0x00, 0x00, 0x00, 0x00, 0x00, 0x00, 0x07, 0x70, 0x00, 0x00, 0x00, 0x74,
  0xc0, 0xff, 0xff, 0x10, 0x00, 0x00, 0x00, 0x1c, 0x00, 0x00, 0x00, 0x20, 0x00,
  0x00, 0x00, 0x24, 0x00, 0x00, 0x00, 0x01, 0x00, 0x00, 0x00, 0x00, 0x00, 0x00,
  0x00, 0x00, 0x00, 0x00, 0x00, 0x00, 0x00, 0x00, 0x00, 0x01, 0x00, 0x00, 0x00,
  0x8d, 0x80, 0x13, 0x3b, 0x01, 0x00, 0x00, 0x00, 0x43, 0xf8, 0x70, 0x42, 0x01,
  0x00, 0x00, 0x00, 0x66, 0x7f, 0x93, 0xc2, 0x2a, 0x00, 0x00, 0x00, 0x42, 0x69,
  0x61, 0x73, 0x41, 0x64, 0x64, 0x5f, 0x33, 0x3b, 0x64, 0x65, 0x70, 0x74, 0x68,
  0x77, 0x69, 0x73, 0x65, 0x5f, 0x31, 0x33, 0x3b, 0x43, 0x6f, 0x6e, 0x76, 0x32,
  0x44, 0x5f, 0x33, 0x3b, 0x63, 0x6f, 0x6e, 0x76, 0x5f, 0x31, 0x5f, 0x31, 0x5f,
  0x62, 0x00, 0x00, 0x04, 0x00, 0x00, 0x00, 0x01, 0x00, 0x00, 0x00, 0x1d, 0x02,
  0x00, 0x00, 0xc1, 0x03, 0x00, 0x00, 0x0c, 0x00, 0x00, 0x00, 0x1a, 0xc1, 0xff,
  0xff, 0x14, 0x00, 0x00, 0x00, 0x48, 0x00, 0x00, 0x00, 0x45, 0x00, 0x00, 0x00,
  0x00, 0x00, 0x00, 0x07, 0x50, 0x00, 0x00, 0x00, 0x0c, 0xc1, 0xff, 0xff, 0x10,
  0x00, 0x00, 0x00, 0x18, 0x00, 0x00, 0x00, 0x1c, 0x00, 0x00, 0x00, 0x20, 0x00,
  0x00, 0x00, 0x01, 0x00, 0x00, 0x00, 0x00, 0x00, 0x00, 0x00, 0x00, 0x00, 0x00,
  0x00, 0x01, 0x00, 0x00, 0x00, 0x15, 0x5a, 0xf9, 0x39, 0x01, 0x00, 0x00, 0x00,
  0x16, 0xff, 0x44, 0x41, 0x01, 0x00, 0x00, 0x00, 0x22, 0x58, 0x79, 0xc1, 0x0c,
  0x00, 0x00, 0x00, 0x64, 0x65, 0x70, 0x74, 0x68, 0x77, 0x69, 0x73, 0x65, 0x5f,
  0x37, 0x32, 0x00, 0x00, 0x00, 0x00, 0x04, 0x00, 0x00, 0x00, 0x01, 0x00, 0x00,
  0x00, 0x1d, 0x02, 0x00, 0x00, 0xc1, 0x03, 0x00, 0x00, 0x10, 0x00, 0x00, 0x00,
  0x92, 0xc1, 0xff, 0xff, 0x14, 0x00, 0x00, 0x00, 0x48, 0x00, 0x00, 0x00, 0x44,
  0x00, 0x00, 0x00, 0x00, 0x00, 0x00, 0x07, 0x50, 0x00, 0x00, 0x00, 0x84, 0xc1,
  0xff, 0xff, 0x10, 0x00, 0x00, 0x00, 0x18, 0x00, 0x00, 0x00, 0x1c, 0x00, 0x00,
  0x00, 0x20, 0x00, 0x00, 0x00, 0x01, 0x00, 0x00, 0x00, 0x00, 0x00, 0x00, 0x00,
  0x00, 0x00, 0x00, 0x00, 0x01, 0x00, 0x00, 0x00, 0x71, 0xb4, 0x14, 0x3a, 0x01,
  0x00, 0x00, 0x00, 0x3e, 0x56, 0x30, 0x41, 0x01, 0x00, 0x00, 0x00, 0x48, 0xb3,
  0x94, 0xc1, 0x0c, 0x00, 0x00, 0x00, 0x64, 0x65, 0x70, 0x74, 0x68, 0x77, 0x69,
  0x73, 0x65, 0x5f, 0x36, 0x31, 0x00, 0x00, 0x00, 0x00, 0x04, 0x00, 0x00, 0x00,
  0x01, 0x00, 0x00, 0x00, 0x1d, 0x02, 0x00, 0x00, 0xc1, 0x03, 0x00, 0x00, 0x10,
  0x00, 0x00, 0x00, 0x0a, 0xc2, 0xff, 0xff, 0x14, 0x00, 0x00, 0x00, 0x4c, 0x00,
  0x00, 0x00, 0x43, 0x00, 0x00, 0x00, 0x00, 0x00, 0x00, 0x07, 0x70, 0x00, 0x00,
  0x00, 0xfc, 0xc1, 0xff, 0xff, 0x10, 0x00, 0x00, 0x00, 0x1c, 0x00, 0x00, 0x00,
  0x20, 0x00, 0x00, 0x00, 0x24, 0x00, 0x00, 0x00, 0x01, 0x00, 0x00, 0x00, 0x00,
  0x00, 0x00, 0x00, 0x00, 0x00, 0x00, 0x00, 0x00, 0x00, 0x00, 0x00, 0x01, 0x00,
  0x00, 0x00, 0xef, 0x2f, 0x33, 0x3b, 0x01, 0x00, 0x00, 0x00, 0x46, 0x5c, 0x89,
  0x42, 0x01, 0x00, 0x00, 0x00, 0x89, 0x2e, 0xb3, 0xc2, 0x2a, 0x00, 0x00, 0x00,
  0x42, 0x69, 0x61, 0x73, 0x41, 0x64, 0x64, 0x5f, 0x32, 0x3b, 0x64, 0x65, 0x70,
  0x74, 0x68, 0x77, 0x69, 0x73, 0x65, 0x5f, 0x31, 0x33, 0x3b, 0x43, 0x6f, 0x6e,
  0x76, 0x32, 0x44, 0x5f, 0x32, 0x3b, 0x63, 0x6f, 0x6e, 0x76, 0x5f, 0x31, 0x5f,
  0x31, 0x5f, 0x62, 0x00, 0x00, 0x04, 0x00, 0x00, 0x00, 0x01, 0x00, 0x00, 0x00,
  0x1d, 0x02, 0x00, 0x00, 0xc1, 0x03, 0x00, 0x00, 0x0c, 0x00, 0x00, 0x00, 0xa2,
  0xc2, 0xff, 0xff, 0x14, 0x00, 0x00, 0x00, 0x48, 0x00, 0x00, 0x00, 0x42, 0x00,
  0x00, 0x00, 0x00, 0x00, 0x00, 0x07, 0x50, 0x00, 0x00, 0x00, 0x94, 0xc2, 0xff,
  0xff, 0x10, 0x00, 0x00, 0x00, 0x18, 0x00, 0x00, 0x00, 0x1c, 0x00, 0x00, 0x00,
  0x20, 0x00, 0x00, 0x00, 0x01, 0x00, 0x00, 0x00, 0x00, 0x00, 0x00, 0x00, 0x00,
  0x00, 0x00, 0x00, 0x01, 0x00, 0x00, 0x00, 0x2e, 0x2e, 0x9b, 0x3a, 0x01, 0x00,
  0x00, 0x00, 0xb8, 0xf8, 0x19, 0x42, 0x01, 0x00, 0x00, 0x00, 0xf8, 0x2c, 0x1b,
  0xc2, 0x0c, 0x00, 0x00, 0x00, 0x64, 0x65, 0x70, 0x74, 0x68, 0x77, 0x69, 0x73,
  0x65, 0x5f, 0x35, 0x31, 0x00, 0x00, 0x00, 0x00, 0x04, 0x00, 0x00, 0x00, 0x01,
  0x00, 0x00, 0x00, 0x1d, 0x02, 0x00, 0x00, 0xc1, 0x03, 0x00, 0x00, 0x0c, 0x00,
  0x00, 0x00, 0x1a, 0xc3, 0xff, 0xff, 0x14, 0x00, 0x00, 0x00, 0x48, 0x00, 0x00,
  0x00, 0x41, 0x00, 0x00, 0x00, 0x00, 0x00, 0x00, 0x07, 0x50, 0x00, 0x00, 0x00,
  0x0c, 0xc3, 0xff, 0xff, 0x10, 0x00, 0x00, 0x00, 0x18, 0x00, 0x00, 0x00, 0x1c,
  0x00, 0x00, 0x00, 0x20, 0x00, 0x00, 0x00, 0x01, 0x00, 0x00, 0x00, 0x00, 0x00,
  0x00, 0x00, 0x00, 0x00, 0x00, 0x00, 0x01, 0x00, 0x00, 0x00, 0x44, 0x42, 0xc5,
  0x3a, 0x01, 0x00, 0x00, 0x00, 0xb9, 0x40, 0x45, 0x42, 0x01, 0x00, 0x00, 0x00,
  0xfa, 0xb7, 0x1c, 0xc2, 0x0c, 0x00, 0x00, 0x00, 0x64, 0x65, 0x70, 0x74, 0x68,
  0x77, 0x69, 0x73, 0x65, 0x5f, 0x34, 0x31, 0x00, 0x00, 0x00, 0x00, 0x04, 0x00,
  0x00, 0x00, 0x01, 0x00, 0x00, 0x00, 0x1d, 0x02, 0x00, 0x00, 0xc1, 0x03, 0x00,
  0x00, 0x0c, 0x00, 0x00, 0x00, 0x92, 0xc3, 0xff, 0xff, 0x14, 0x00, 0x00, 0x00,
  0x48, 0x00, 0x00, 0x00, 0x40, 0x00, 0x00, 0x00, 0x00, 0x00, 0x00, 0x07, 0x70,
  0x00, 0x00, 0x00, 0x84, 0xc3, 0xff, 0xff, 0x10, 0x00, 0x00, 0x00, 0x18, 0x00,
  0x00, 0x00, 0x1c, 0x00, 0x00, 0x00, 0x20, 0x00, 0x00, 0x00, 0x01, 0x00, 0x00,
  0x00, 0x00, 0x00, 0x00, 0x00, 0x00, 0x00, 0x00, 0x00, 0x01, 0x00, 0x00, 0x00,
  0x2c, 0x3a, 0xcb, 0x3a, 0x01, 0x00, 0x00, 0x00, 0x96, 0x38, 0x4b, 0x42, 0x01,
  0x00, 0x00, 0x00, 0x00, 0x00, 0x00, 0x00, 0x2f, 0x00, 0x00, 0x00, 0x52, 0x65,
  0x6c, 0x75, 0x3b, 0x42, 0x69, 0x61, 0x73, 0x41, 0x64, 0x64, 0x5f, 0x31, 0x3b,
  0x64, 0x65, 0x70, 0x74, 0x68, 0x77, 0x69, 0x73, 0x65, 0x5f, 0x31, 0x33, 0x3b,
  0x43, 0x6f, 0x6e, 0x76, 0x32, 0x44, 0x5f, 0x31, 0x3b, 0x63, 0x6f, 0x6e, 0x76,
  0x5f, 0x31, 0x5f, 0x30, 0x5f, 0x62, 0x00, 0x04, 0x00, 0x00, 0x00, 0x01, 0x00,
  0x00, 0x00, 0x1d, 0x02, 0x00, 0x00, 0xc1, 0x03, 0x00, 0x00, 0x0c, 0x00, 0x00,
  0x00, 0x2a, 0xc4, 0xff, 0xff, 0x14, 0x00, 0x00, 0x00, 0x48, 0x00, 0x00, 0x00,
  0x3f, 0x00, 0x00, 0x00, 0x00, 0x00, 0x00, 0x07, 0x50, 0x00, 0x00, 0x00, 0x1c,
  0xc4, 0xff, 0xff, 0x10, 0x00, 0x00, 0x00, 0x18, 0x00, 0x00, 0x00, 0x1c, 0x00,
  0x00, 0x00, 0x20, 0x00, 0x00, 0x00, 0x01, 0x00, 0x00, 0x00, 0x00, 0x00, 0x00,
  0x00, 0x00, 0x00, 0x00, 0x00, 0x01, 0x00, 0x00, 0x00, 0xfa, 0x6a, 0x19, 0x3a,
  0x01, 0x00, 0x00, 0x00, 0x6e, 0x42, 0x81, 0x41, 0x01, 0x00, 0x00, 0x00, 0xc7,
  0x69, 0x99, 0xc1, 0x0c, 0x00, 0x00, 0x00, 0x64, 0x65, 0x70, 0x74, 0x68, 0x77,
  0x69, 0x73, 0x65, 0x5f, 0x33, 0x31, 0x00, 0x00, 0x00, 0x00, 0x04, 0x00, 0x00,
  0x00, 0x01, 0x00, 0x00, 0x00, 0x1d, 0x02, 0x00, 0x00, 0xc1, 0x03, 0x00, 0x00,
  0x10, 0x00, 0x00, 0x00, 0xa2, 0xc4, 0xff, 0xff, 0x14, 0x00, 0x00, 0x00, 0x48,
  0x00, 0x00, 0x00, 0x3e, 0x00, 0x00, 0x00, 0x00, 0x00, 0x00, 0x07, 0x50, 0x00,
  0x00, 0x00, 0x94, 0xc4, 0xff, 0xff, 0x10, 0x00, 0x00, 0x00, 0x18, 0x00, 0x00,
  0x00, 0x1c, 0x00, 0x00, 0x00, 0x20, 0x00, 0x00, 0x00, 0x01, 0x00, 0x00, 0x00,
  0x00, 0x00, 0x00, 0x00, 0x00, 0x00, 0x00, 0x00, 0x01, 0x00, 0x00, 0x00, 0x09,
  0xeb, 0x5e, 0x3a, 0x01, 0x00, 0x00, 0x00, 0x4b, 0xe9, 0xde, 0x41, 0x01, 0x00,
  0x00, 0x00, 0x94, 0x99, 0x5a, 0xc1, 0x0c, 0x00, 0x00, 0x00, 0x64, 0x65, 0x70,
  0x74, 0x68, 0x77, 0x69, 0x73, 0x65, 0x5f, 0x32, 0x36, 0x00, 0x00, 0x00, 0x00,
  0x04, 0x00, 0x00, 0x00, 0x01, 0x00, 0x00, 0x00, 0x1d, 0x02, 0x00, 0x00, 0xc1,
  0x03, 0x00, 0x00, 0x10, 0x00, 0x00, 0x00, 0x1a, 0xc5, 0xff, 0xff, 0x14, 0x00,
  0x00, 0x00, 0x4c, 0x00, 0x00, 0x00, 0x3d, 0x00, 0x00, 0x00, 0x00, 0x00, 0x00,
  0x07, 0x68, 0x00, 0x00, 0x00, 0x0c, 0xc5, 0xff, 0xff, 0x10, 0x00, 0x00, 0x00,
  0x1c, 0x00, 0x00, 0x00, 0x20, 0x00, 0x00, 0x00, 0x24, 0x00, 0x00, 0x00, 0x01,
  0x00, 0x00, 0x00, 0x00, 0x00, 0x00, 0x00, 0x00, 0x00, 0x00, 0x00, 0x00, 0x00,
  0x00, 0x00, 0x01, 0x00, 0x00, 0x00, 0x3d, 0x83, 0x0b, 0x3a, 0x01, 0x00, 0x00,
  0x00, 0x05, 0x64, 0x6b, 0x41, 0x01, 0x00, 0x00, 0x00, 0x26, 0x82, 0x8b, 0xc1,
  0x23, 0x00, 0x00, 0x00, 0x42, 0x69, 0x61, 0x73, 0x41, 0x64, 0x64, 0x3b, 0x64,
  0x65, 0x70, 0x74, 0x68, 0x77, 0x69, 0x73, 0x65, 0x5f, 0x37, 0x3b, 0x43, 0x6f,
  0x6e, 0x76, 0x32, 0x44, 0x3b, 0x63, 0x6f, 0x6e, 0x76, 0x5f, 0x30, 0x5f, 0x62,
  0x00, 0x04, 0x00, 0x00, 0x00, 0x01, 0x00, 0x00, 0x00, 0x1d, 0x02, 0x00, 0x00,
  0xc1, 0x03, 0x00, 0x00, 0x10, 0x00, 0x00, 0x00, 0xaa, 0xc5, 0xff, 0xff, 0x14,
  0x00, 0x00, 0x00, 0x48, 0x00, 0x00, 0x00, 0x3c, 0x00, 0x00, 0x00, 0x00, 0x00,
  0x00, 0x07, 0x50, 0x00, 0x00, 0x00, 0x9c, 0xc5, 0xff, 0xff, 0x10, 0x00, 0x00,
  0x00, 0x18, 0x00, 0x00, 0x00, 0x1c, 0x00, 0x00, 0x00, 0x20, 0x00, 0x00, 0x00,
  0x01, 0x00, 0x00, 0x00, 0x00, 0x00, 0x00, 0x00, 0x00, 0x00, 0x00, 0x00, 0x01,
  0x00, 0x00, 0x00, 0x1f, 0x55, 0xab, 0x39, 0x01, 0x00, 0x00, 0x00, 0x08, 0x9c,
  0xa3, 0x3f, 0x01, 0x00, 0x00, 0x00, 0xc8, 0x53, 0x2b, 0xc1, 0x0d, 0x00, 0x00,
  0x00, 0x64, 0x65, 0x70, 0x74, 0x68, 0x77, 0x69, 0x73, 0x65, 0x5f, 0x31, 0x31,
  0x30, 0x00, 0x00, 0x00, 0x04, 0x00, 0x00, 0x00, 0x01, 0x00, 0x00, 0x00, 0x1d,
  0x02, 0x00, 0x00, 0xc1, 0x03, 0x00, 0x00, 0x01, 0x00, 0x00, 0x00, 0x22, 0xc6,
  0xff, 0xff, 0x14, 0x00, 0x00, 0x00, 0x4c, 0x00, 0x00, 0x00, 0x3b, 0x00, 0x00,
  0x00, 0x00, 0x00, 0x00, 0x07, 0x50, 0x00, 0x00, 0x00, 0x14, 0xc6, 0xff, 0xff,
  0x10, 0x00, 0x00, 0x00, 0x1c, 0x00, 0x00, 0x00, 0x20, 0x00, 0x00, 0x00, 0x24,
  0x00, 0x00, 0x00, 0x01, 0x00, 0x00, 0x00, 0x00, 0x00, 0x00, 0x00, 0x00, 0x00,
  0x00, 0x00, 0x00, 0x00, 0x00, 0x00, 0x01, 0x00, 0x00, 0x00, 0x1e, 0xc4, 0xf9,
  0x38, 0x01, 0x00, 0x00, 0x00, 0x2a, 0xc2, 0x79, 0x40, 0x01, 0x00, 0x00, 0x00,
  0x58, 0x00, 0xec, 0xbe, 0x0a, 0x00, 0x00, 0x00, 0x64, 0x65, 0x70, 0x74, 0x68,
  0x77, 0x69, 0x73, 0x65, 0x31, 0x00, 0x00, 0x04, 0x00, 0x00, 0x00, 0x01, 0x00,
  0x00, 0x00, 0x1d, 0x02, 0x00, 0x00, 0x82, 0x07, 0x00, 0x00, 0x01, 0x00, 0x00,
  0x00, 0x9a, 0xc6, 0xff, 0xff, 0x14, 0x00, 0x00, 0x00, 0x48, 0x00, 0x00, 0x00,
  0x3a, 0x00, 0x00, 0x00, 0x00, 0x00, 0x00, 0x07, 0x44, 0x00, 0x00, 0x00, 0x8c,
  0xc6, 0xff, 0xff, 0x10, 0x00, 0x00, 0x00, 0x18, 0x00, 0x00, 0x00, 0x1c, 0x00,
  0x00, 0x00, 0x20, 0x00, 0x00, 0x00, 0x01, 0x00, 0x00, 0x00, 0x00, 0x00, 0x00,
  0x00, 0x00, 0x00, 0x00, 0x00, 0x01, 0x00, 0x00, 0x00, 0x00, 0x01, 0x00, 0x38,
  0x01, 0x00, 0x00, 0x00, 0x00, 0x00, 0x80, 0x3f, 0x01, 0x00, 0x00, 0x00, 0x00,
  0x00, 0x00, 0x00, 0x03, 0x00, 0x00, 0x00, 0x50, 0x61, 0x64, 0x00, 0x04, 0x00,
  0x00, 0x00, 0x01, 0x00, 0x00, 0x00, 0x3a, 0x04, 0x00, 0x00, 0x82, 0x07, 0x00,
  0x00, 0x01, 0x00, 0x00, 0x00, 0x06, 0xc7, 0xff, 0xff, 0x14, 0x00, 0x00, 0x00,
  0x14, 0x00, 0x00, 0x00, 0x39, 0x00, 0x00, 0x00, 0x00, 0x00, 0x00, 0x02, 0x14,
  0x00, 0x00, 0x00, 0xcc, 0xff, 0xff, 0xff, 0x07, 0x00, 0x00, 0x00, 0x43, 0x6f,
  0x6e, 0x73, 0x74, 0x5f, 0x31, 0x00, 0x02, 0x00, 0x00, 0x00, 0x04, 0x00, 0x00,
  0x00, 0x02, 0x00, 0x00, 0x00, 0x3a, 0xc7, 0xff, 0xff, 0x18, 0x00, 0x00, 0x00,
  0x18, 0x00, 0x00, 0x00, 0x38, 0x00, 0x00, 0x00, 0x00, 0x00, 0x00, 0x02, 0x14,
  0x00, 0x00, 0x00, 0x04, 0x00, 0x04, 0x00, 0x04, 0x00, 0x00, 0x00, 0x03, 0x00,
  0x00, 0x00, 0x61, 0x64, 0x64, 0x00, 0x01, 0x00, 0x00, 0x00, 0x02, 0x00, 0x00,
  0x00, 0x6a, 0xc7, 0xff, 0xff, 0x14, 0x00, 0x00, 0x00, 0x48, 0x00, 0x00, 0x00,
  0x37, 0x00, 0x00, 0x00, 0x00, 0x00, 0x00, 0x09, 0x4c, 0x00, 0x00, 0x00, 0x5c,
  0xc7, 0xff, 0xff, 0x10, 0x00, 0x00, 0x00, 0x18, 0x00, 0x00, 0x00, 0x1c, 0x00,
  0x00, 0x00, 0x20, 0x00, 0x00, 0x00, 0x01, 0x00, 0x00, 0x00, 0x00, 0x00, 0x00,
  0x00, 0x00, 0x00, 0x00, 0x00, 0x01, 0x00, 0x00, 0x00, 0xcb, 0x3c, 0xf5, 0x39,
  0x01, 0x00, 0x00, 0x00, 0x93, 0x5a, 0x47, 0x3d, 0x01, 0x00, 0x00, 0x00, 0x51,
  0x52, 0x73, 0xbd, 0x0a, 0x00, 0x00, 0x00, 0x43, 0x6f, 0x6e, 0x76, 0x32, 0x44,
  0x5f, 0x31, 0x32, 0x31, 0x00, 0x00, 0x04, 0x00, 0x00, 0x00, 0x01, 0x00, 0x00,
  0x00, 0x01, 0x00, 0x00, 0x00, 0x01, 0x00, 0x00, 0x00, 0x08, 0x00, 0x00, 0x00,
  0xde, 0xc7, 0xff, 0xff, 0x14, 0x00, 0x00, 0x00, 0xd8, 0x00, 0x00, 0x00, 0x36,
  0x00, 0x00, 0x00, 0x00, 0x00, 0x00, 0x09, 0xe0, 0x00, 0x00, 0x00, 0xea, 0xcf,
  0xff, 0xff, 0x03, 0x00, 0x00, 0x00, 0x10, 0x00, 0x00, 0x00, 0x50, 0x00, 0x00,
  0x00, 0x70, 0x00, 0x00, 0x00, 0x90, 0x00, 0x00, 0x00, 0x08, 0x00, 0x00, 0x00,
  0x00, 0x00, 0x00, 0x00, 0x00, 0x00, 0x00, 0x00, 0x00, 0x00, 0x00, 0x00, 0x00,
  0x00, 0x00, 0x00, 0x00, 0x00, 0x00, 0x00, 0x00, 0x00, 0x00, 0x00, 0x00, 0x00,
  0x00, 0x00, 0x00, 0x00, 0x00, 0x00, 0x00, 0x00, 0x00, 0x00, 0x00, 0x00, 0x00,
  0x00, 0x00, 0x00, 0x00, 0x00, 0x00, 0x00, 0x00, 0x00, 0x00, 0x00, 0x00, 0x00,
  0x00, 0x00, 0x00, 0x00, 0x00, 0x00, 0x00, 0x00, 0x00, 0x00, 0x00, 0x00, 0x08,
  0x00, 0x00, 0x00, 0xf2, 0xa1, 0x5a, 0x3a, 0xcf, 0xf7, 0xb8, 0x3a, 0xec, 0x39,
  0xb9, 0x3a, 0x85, 0x2d, 0x97, 0x3a, 0xae, 0x8f, 0xc4, 0x3a, 0x17, 0x93, 0x23,
  0x3a, 0x95, 0xdd, 0x15, 0x3b, 0x3e, 0xf3, 0xa4, 0x3a, 0x08, 0x00, 0x00, 0x00,
  0x28, 0x16, 0x89, 0xbc, 0xdf, 0x85, 0x37, 0x3e, 0x78, 0xc7, 0x37, 0x3e, 0x2a,
  0xff, 0x15, 0x3e, 0x8f, 0x06, 0x43, 0x3e, 0xf1, 0x4b, 0xa2, 0x3d, 0xda, 0xb1,
  0x94, 0x3e, 0x58, 0xa9, 0x23, 0x3e, 0x08, 0x00, 0x00, 0x00, 0xae, 0xec, 0xd8,
  0xbd, 0xf0, 0x5a, 0x83, 0xbb, 0xcb, 0x2f, 0xc2, 0xbd, 0xad, 0x1b, 0x27, 0x3c,
  0xbd, 0x53, 0xa6, 0xbc, 0x56, 0x5b, 0x32, 0x3d, 0x8e, 0x1f, 0x6d, 0xbe, 0xfc,
  0x3f, 0xff, 0xbd, 0x0d, 0x00, 0x00, 0x00, 0x64, 0x65, 0x70, 0x74, 0x68, 0x77,
  0x69, 0x73, 0x65, 0x5f, 0x32, 0x35, 0x31, 0x00, 0x00, 0x00, 0x04, 0x00, 0x00,
  0x00, 0x01, 0x00, 0x00, 0x00, 0x01, 0x00, 0x00, 0x00, 0x03, 0x00, 0x00, 0x00,
  0x08, 0x00, 0x00, 0x00, 0xe6, 0xc8, 0xff, 0xff, 0x14, 0x00, 0x00, 0x00, 0xdc,
  0x00, 0x00, 0x00, 0x35, 0x00, 0x00, 0x00, 0x00, 0x00, 0x00, 0x09, 0xe4, 0x00,
  0x00, 0x00, 0xf2, 0xd0, 0xff, 0xff, 0x03, 0x00, 0x00, 0x00, 0x10, 0x00, 0x00,
  0x00, 0x54, 0x00, 0x00, 0x00, 0x74, 0x00, 0x00, 0x00, 0x94, 0x00, 0x00, 0x00,
  0x08, 0x00, 0x00, 0x00, 0x00, 0x00, 0x00, 0x00, 0x00, 0x00, 0x00, 0x00, 0x00,
  0x00, 0x00, 0x00, 0x00, 0x00, 0x00, 0x00, 0x00, 0x00, 0x00, 0x00, 0x00, 0x00,
  0x00, 0x00, 0x00, 0x00, 0x00, 0x00, 0x00, 0x00, 0x00, 0x00, 0x00, 0x00, 0x00,
  0x00, 0x00, 0x00, 0x00, 0x00, 0x00, 0x00, 0x00, 0x00, 0x00, 0x00, 0x00, 0x00,
  0x00, 0x00, 0x00, 0x00, 0x00, 0x00, 0x00, 0x00, 0x00, 0x00, 0x00, 0x00, 0x00,
  0x00, 0x00, 0x00, 0x00, 0x00, 0x00, 0x00, 0x08, 0x00, 0x00, 0x00, 0xe0, 0xac,
  0x2a, 0x3b, 0x81, 0x5f, 0xf6, 0x3a, 0x36, 0xfa, 0xf5, 0x3a, 0x45, 0x8c, 0x35,
  0x3b, 0x23, 0x8c, 0x98, 0x3a, 0xd2, 0x0c, 0x33, 0x3b, 0xd5, 0x70, 0x8d, 0x3a,
  0xb7, 0xd8, 0x50, 0x3a, 0x08, 0x00, 0x00, 0x00, 0x9c, 0x27, 0x54, 0x3e, 0x36,
  0xb7, 0x17, 0x3e, 0x67, 0x02, 0xb4, 0x3d, 0x40, 0x8c, 0x57, 0x3e, 0x0b, 0x5b,
  0x17, 0x3e, 0xfb, 0x22, 0x3e, 0x3e, 0xc2, 0x2a, 0x7b, 0xbc, 0x64, 0xb8, 0x29,
  0x3c, 0x08, 0x00, 0x00, 0x00, 0x86, 0x57, 0xa9, 0xbe, 0xc2, 0x72, 0x74, 0xbe,
  0x42, 0x0e, 0x74, 0xbe, 0x2c, 0x21, 0xb4, 0xbe, 0x8d, 0xd9, 0x07, 0xbd, 0xb8,
  0xa6, 0xb1, 0xbe, 0xf3, 0x55, 0x0c, 0xbe, 0x06, 0x37, 0xcf, 0xbd, 0x0c, 0x00,
  0x00, 0x00, 0x64, 0x65, 0x70, 0x74, 0x68, 0x77, 0x69, 0x73, 0x65, 0x5f, 0x32,
  0x34, 0x00, 0x00, 0x00, 0x00, 0x04, 0x00, 0x00, 0x00, 0x01, 0x00, 0x00, 0x00,
  0x03, 0x00, 0x00, 0x00, 0x01, 0x00, 0x00, 0x00, 0x08, 0x00, 0x00, 0x00, 0xf2,
  0xc9, 0xff, 0xff, 0x14, 0x00, 0x00, 0x00, 0xd8, 0x00, 0x00, 0x00, 0x34, 0x00,
  0x00, 0x00, 0x00, 0x00, 0x00, 0x09, 0xdc, 0x00, 0x00, 0x00, 0xe4, 0xc9, 0xff,
  0xff, 0x10, 0x00, 0x00, 0x00, 0x54, 0x00, 0x00, 0x00, 0x74, 0x00, 0x00, 0x00,
  0x94, 0x00, 0x00, 0x00, 0x08, 0x00, 0x00, 0x00, 0x00, 0x00, 0x00, 0x00, 0x00,
  0x00, 0x00, 0x00, 0x00, 0x00, 0x00, 0x00, 0x00, 0x00, 0x00, 0x00, 0x00, 0x00,
  0x00, 0x00, 0x00, 0x00, 0x00, 0x00, 0x00, 0x00, 0x00, 0x00, 0x00, 0x00, 0x00,
  0x00, 0x00, 0x00, 0x00, 0x00, 0x00, 0x00, 0x00, 0x00, 0x00, 0x00, 0x00, 0x00,
  0x00, 0x00, 0x00, 0x00, 0x00, 0x00, 0x00, 0x00, 0x00, 0x00, 0x00, 0x00, 0x00,
  0x00, 0x00, 0x00, 0x00, 0x00, 0x00, 0x00, 0x00, 0x00, 0x00, 0x00, 0x08, 0x00,
  0x00, 0x00, 0x5c, 0x0a, 0x33, 0x3c, 0xb7, 0x69, 0xc9, 0x3b, 0x7e, 0x5f, 0xe0,
  0x3b, 0x80, 0x08, 0x09, 0x3c, 0xbd, 0x20, 0x72, 0x3c, 0xdf, 0xa2, 0xe6, 0x3c,
  0x60, 0xb1, 0xd1, 0x3b, 0x8b, 0xb3, 0xa0, 0x3c, 0x08, 0x00, 0x00, 0x00, 0x47,
  0xa4, 0xb1, 0x3f, 0xe4, 0xd6, 0x47, 0x3f, 0xbf, 0x9e, 0x5e, 0x3f, 0x41, 0x46,
  0xe1, 0x3e, 0x73, 0x13, 0xa2, 0x3f, 0xaa, 0x42, 0x53, 0x40, 0xb1, 0x8a, 0x38,
  0x3f, 0x5c, 0x74, 0x13, 0x40, 0x08, 0x00, 0x00, 0x00, 0xdd, 0x0f, 0xa7, 0xbf,
  0x61, 0x12, 0x38, 0xbf, 0x9d, 0x8e, 0x2e, 0xbf, 0x6f, 0xf6, 0x87, 0xbf, 0x7c,
  0x3c, 0xf0, 0xbf, 0x99, 0xd5, 0x64, 0xc0, 0xfd, 0x0d, 0x50, 0xbf, 0x24, 0x72,
  0x1f, 0xc0, 0x09, 0x00, 0x00, 0x00, 0x43, 0x6f, 0x6e, 0x76, 0x32, 0x44, 0x5f,
  0x31, 0x31, 0x00, 0x00, 0x00, 0x04, 0x00, 0x00, 0x00, 0x08, 0x00, 0x00, 0x00,
  0x01, 0x00, 0x00, 0x00, 0x01, 0x00, 0x00, 0x00, 0x08, 0x00, 0x00, 0x00, 0xf6,
  0xca, 0xff, 0xff, 0x14, 0x00, 0x00, 0x00, 0xd8, 0x00, 0x00, 0x00, 0x33, 0x00,
  0x00, 0x00, 0x00, 0x00, 0x00, 0x09, 0xe0, 0x00, 0x00, 0x00, 0x02, 0xd3, 0xff,
  0xff, 0x03, 0x00, 0x00, 0x00, 0x10, 0x00, 0x00, 0x00, 0x50, 0x00, 0x00, 0x00,
  0x70, 0x00, 0x00, 0x00, 0x90, 0x00, 0x00, 0x00, 0x08, 0x00, 0x00, 0x00, 0x00,
  0x00, 0x00, 0x00, 0x00, 0x00, 0x00, 0x00, 0x00, 0x00, 0x00, 0x00, 0x00, 0x00,
  0x00, 0x00, 0x00, 0x00, 0x00, 0x00, 0x00, 0x00, 0x00, 0x00, 0x00, 0x00, 0x00,
  0x00, 0x00, 0x00, 0x00, 0x00, 0x00, 0x00, 0x00, 0x00, 0x00, 0x00, 0x00, 0x00,
  0x00, 0x00, 0x00, 0x00, 0x00, 0x00, 0x00, 0x00, 0x00, 0x00, 0x00, 0x00, 0x00,
  0x00, 0x00, 0x00, 0x00, 0x00, 0x00, 0x00, 0x00, 0x00, 0x00, 0x00, 0x08, 0x00,
  0x00, 0x00, 0x9a, 0x66, 0xd5, 0x3b, 0x18, 0xab, 0x93, 0x3b, 0x22, 0xdd, 0x18,
  0x3c, 0x3e, 0x5f, 0xdf, 0x3b, 0xed, 0x27, 0x2c, 0x3c, 0xef, 0xfd, 0x27, 0x3c,
  0x72, 0x51, 0xbc, 0x3b, 0xf1, 0x6a, 0xd4, 0x3b, 0x08, 0x00, 0x00, 0x00, 0x11,
  0xc0, 0x95, 0x3d, 0xa3, 0x50, 0xff, 0x3e, 0xf1, 0x3a, 0x20, 0x3f, 0x80, 0xa0,
  0x5d, 0x3f, 0x9d, 0xcf, 0xaa, 0x3f, 0xf3, 0xad, 0xa6, 0x3f, 0x0d, 0xf1, 0x99,
  0xbd, 0x1b, 0xc2, 0x52, 0x3f, 0x08, 0x00, 0x00, 0x00, 0xcd, 0xbb, 0x53, 0xbf,
  0xc2, 0x83, 0x12, 0xbf, 0x68, 0xab, 0x97, 0xbf, 0xc7, 0xf3, 0x47, 0xbe, 0x1c,
  0xd9, 0x72, 0xbe, 0x76, 0xde, 0x35, 0xbe, 0xcf, 0xd8, 0x3a, 0xbf, 0x23, 0xf5,
  0x1a, 0xbf, 0x0c, 0x00, 0x00, 0x00, 0x64, 0x65, 0x70, 0x74, 0x68, 0x77, 0x69,
  0x73, 0x65, 0x5f, 0x32, 0x33, 0x00, 0x00, 0x00, 0x00, 0x04, 0x00, 0x00, 0x00,
  0x01, 0x00, 0x00, 0x00, 0x01, 0x00, 0x00, 0x00, 0x03, 0x00, 0x00, 0x00, 0x08,
  0x00, 0x00, 0x00, 0xfe, 0xcb, 0xff, 0xff, 0x14, 0x00, 0x00, 0x00, 0xdc, 0x00,
  0x00, 0x00, 0x32, 0x00, 0x00, 0x00, 0x00, 0x00, 0x00, 0x09, 0xe4, 0x00, 0x00,
  0x00, 0x0a, 0xd4, 0xff, 0xff, 0x03, 0x00, 0x00, 0x00, 0x10, 0x00, 0x00, 0x00,
  0x54, 0x00, 0x00, 0x00, 0x74, 0x00, 0x00, 0x00, 0x94, 0x00, 0x00, 0x00, 0x08,
  0x00, 0x00, 0x00, 0x00, 0x00, 0x00, 0x00, 0x00, 0x00, 0x00, 0x00, 0x00, 0x00,
  0x00, 0x00, 0x00, 0x00, 0x00, 0x00, 0x00, 0x00, 0x00, 0x00, 0x00, 0x00, 0x00,
  0x00, 0x00, 0x00, 0x00, 0x00, 0x00, 0x00, 0x00, 0x00, 0x00, 0x00, 0x00, 0x00,
  0x00, 0x00, 0x00, 0x00, 0x00, 0x00, 0x00, 0x00, 0x00, 0x00, 0x00, 0x00, 0x00,
  0x00, 0x00, 0x00, 0x00, 0x00, 0x00, 0x00, 0x00, 0x00, 0x00, 0x00, 0x00, 0x00,
  0x00, 0x00, 0x00, 0x00, 0x00, 0x00, 0x08, 0x00, 0x00, 0x00, 0x41, 0x1a, 0xd3,
  0x3b, 0xfa, 0x46, 0xc9, 0x3b, 0x03, 0x46, 0x35, 0x3c, 0x55, 0x39, 0x91, 0x3b,
  0x31, 0xa0, 0x03, 0x3c, 0x4a, 0x6e, 0x15, 0x3c, 0xb6, 0xbe, 0xb6, 0x3b, 0x80,
  0xb2, 0x17, 0x3c, 0x08, 0x00, 0x00, 0x00, 0x0c, 0x74, 0x51, 0x3f, 0x6c, 0xb4,
  0x47, 0x3f, 0x16, 0x31, 0x77, 0x3d, 0xe2, 0x16, 0x10, 0x3f, 0xf1, 0x98, 0x82,
  0x3f, 0x4b, 0xd5, 0xf0, 0xbd, 0x39, 0x51, 0x35, 0x3f, 0x94, 0x30, 0xf2, 0x3d,
  0x08, 0x00, 0x00, 0x00, 0x06, 0x5d, 0x4d, 0xbe, 0x8f, 0xde, 0x5e, 0xbe, 0x77,
  0xdb, 0xb3, 0xbf, 0x36, 0x37, 0x5a, 0x3d, 0x00, 0x2b, 0x3f, 0xbf, 0x6d, 0x43,
  0x94, 0xbf, 0x85, 0x29, 0x75, 0xbe, 0x1b, 0x83, 0x96, 0xbf, 0x0c, 0x00, 0x00,
  0x00, 0x64, 0x65, 0x70, 0x74, 0x68, 0x77, 0x69, 0x73, 0x65, 0x5f, 0x32, 0x32,
  0x00, 0x00, 0x00, 0x00, 0x04, 0x00, 0x00, 0x00, 0x01, 0x00, 0x00, 0x00, 0x03,
  0x00, 0x00, 0x00, 0x01, 0x00, 0x00, 0x00, 0x08, 0x00, 0x00, 0x00, 0x0a, 0xcd,
  0xff, 0xff, 0x14, 0x00, 0x00, 0x00, 0xd8, 0x00, 0x00, 0x00, 0x31, 0x00, 0x00,
  0x00, 0x00, 0x00, 0x00, 0x09, 0xdc, 0x00, 0x00, 0x00, 0xfc, 0xcc, 0xff, 0xff,
  0x10, 0x00, 0x00, 0x00, 0x54, 0x00, 0x00, 0x00, 0x74, 0x00, 0x00, 0x00, 0x94,
  0x00, 0x00, 0x00, 0x08, 0x00, 0x00, 0x00, 0x00, 0x00, 0x00, 0x00, 0x00, 0x00,
  0x00, 0x00, 0x00, 0x00, 0x00, 0x00, 0x00, 0x00, 0x00, 0x00, 0x00, 0x00, 0x00,
  0x00, 0x00, 0x00, 0x00, 0x00, 0x00, 0x00, 0x00, 0x00, 0x00, 0x00, 0x00, 0x00,
  0x00, 0x00, 0x00, 0x00, 0x00, 0x00, 0x00, 0x00, 0x00, 0x00, 0x00, 0x00, 0x00,
  0x00, 0x00, 0x00, 0x00, 0x00, 0x00, 0x00, 0x00, 0x00, 0x00, 0x00, 0x00, 0x00,
  0x00, 0x00, 0x00, 0x00, 0x00, 0x00, 0x00, 0x00, 0x00, 0x00, 0x08, 0x00, 0x00,
  0x00, 0xa5, 0x39, 0x0c, 0x3c, 0x32, 0x62, 0xa1, 0x3c, 0xe3, 0x88, 0x93, 0x3c,
  0x88, 0xf5, 0x7a, 0x3c, 0x6f, 0xa4, 0x43, 0x3c, 0xcf, 0x78, 0x48, 0x3c, 0x9d,
  0x6d, 0x80, 0x3c, 0xfd, 0xdb, 0xad, 0x3c, 0x08, 0x00, 0x00, 0x00, 0x32, 0x21,
  0x8b, 0x3f, 0xfe, 0x02, 0x7a, 0x3f, 0xd1, 0x61, 0x12, 0x40, 0x57, 0xd9, 0x1d,
  0x3f, 0x26, 0x1d, 0xc2, 0x3f, 0xdd, 0xe7, 0xc6, 0x3f, 0x83, 0xd9, 0xfe, 0x3f,
  0x14, 0xee, 0xa9, 0x3f, 0x08, 0x00, 0x00, 0x00, 0x5e, 0x11, 0x7f, 0xbf, 0x6e,
  0x1f, 0x20, 0xc0, 0xf7, 0xec, 0x80, 0xbf, 0x9d, 0xff, 0xf8, 0xbf, 0x52, 0x1a,
  0xc6, 0xbe, 0x52, 0xc8, 0xe4, 0xbe, 0xfb, 0xaa, 0xb9, 0xbe, 0x45, 0x80, 0x2c,
  0xc0, 0x09, 0x00, 0x00, 0x00, 0x43, 0x6f, 0x6e, 0x76, 0x32, 0x44, 0x5f, 0x31,
  0x30, 0x00, 0x00, 0x00, 0x04, 0x00, 0x00, 0x00, 0x08, 0x00, 0x00, 0x00, 0x01,
  0x00, 0x00, 0x00, 0x01, 0x00, 0x00, 0x00, 0x08, 0x00, 0x00, 0x00, 0x0e, 0xce,
  0xff, 0xff, 0x14, 0x00, 0x00, 0x00, 0xd8, 0x00, 0x00, 0x00, 0x30, 0x00, 0x00,
  0x00, 0x00, 0x00, 0x00, 0x09, 0xe0, 0x00, 0x00, 0x00, 0x1a, 0xd6, 0xff, 0xff,
  0x03, 0x00, 0x00, 0x00, 0x10, 0x00, 0x00, 0x00, 0x50, 0x00, 0x00, 0x00, 0x70,
  0x00, 0x00, 0x00, 0x90, 0x00, 0x00, 0x00, 0x08, 0x00, 0x00, 0x00, 0x00, 0x00,
  0x00, 0x00, 0x00, 0x00, 0x00, 0x00, 0x00, 0x00, 0x00, 0x00, 0x00, 0x00, 0x00,
  0x00, 0x00, 0x00, 0x00, 0x00, 0x00, 0x00, 0x00, 0x00, 0x00, 0x00, 0x00, 0x00,
  0x00, 0x00, 0x00, 0x00, 0x00, 0x00, 0x00, 0x00, 0x00, 0x00, 0x00, 0x00, 0x00,
  0x00, 0x00, 0x00, 0x00, 0x00, 0x00, 0x00, 0x00, 0x00, 0x00, 0x00, 0x00, 0x00,
  0x00, 0x00, 0x00, 0x00, 0x00, 0x00, 0x00, 0x00, 0x00, 0x00, 0x08, 0x00, 0x00,
  0x00, 0xaa, 0xec, 0xb4, 0x3b, 0xd4, 0x22, 0xb7, 0x3b, 0x04, 0x3c, 0x90, 0x3b,
  0xc4, 0x17, 0xdc, 0x3b, 0x4e, 0x00, 0x04, 0x3c, 0xbc, 0x2c, 0x01, 0x3c, 0x0e,
