const unsigned char sr7by4ra_1_tflite[] = {
  0x20, 0x00, 0x00, 0x00, 0x54, 0x46, 0x4c, 0x33, 0x00, 0x00, 0x00, 0x00, 0x00,
  0x00, 0x12, 0x00, 0x1c, 0x00, 0x18, 0x00, 0x14, 0x00, 0x10, 0x00, 0x0c, 0x00,
  0x08, 0x00, 0x00, 0x00, 0x04, 0x00, 0x12, 0x00, 0x00, 0x00, 0x18, 0x00, 0x00,
  0x00, 0x70, 0x00, 0x00, 0x00, 0x9c, 0x1b, 0x00, 0x00, 0xac, 0x1b, 0x00, 0x00,
  0x2c, 0xa3, 0x00, 0x00, 0x03, 0x00, 0x00, 0x00, 0x02, 0x00, 0x00, 0x00, 0x34,
  0x00, 0x00, 0x00, 0x04, 0x00, 0x00, 0x00, 0xdc, 0xff, 0xff, 0xff, 0x92, 0x00,
  0x00, 0x00, 0x04, 0x00, 0x00, 0x00, 0x13, 0x00, 0x00, 0x00, 0x43, 0x4f, 0x4e,
  0x56, 0x45, 0x52, 0x53, 0x49, 0x4f, 0x4e, 0x5f, 0x4d, 0x45, 0x54, 0x41, 0x44,
  0x41, 0x54, 0x41, 0x00, 0x08, 0x00, 0x0c, 0x00, 0x08, 0x00, 0x04, 0x00, 0x08,
  0x00, 0x00, 0x00, 0x91, 0x00, 0x00, 0x00, 0x04, 0x00, 0x00, 0x00, 0x13, 0x00,
  0x00, 0x00, 0x6d, 0x69, 0x6e, 0x5f, 0x72, 0x75, 0x6e, 0x74, 0x69, 0x6d, 0x65,
  0x5f, 0x76, 0x65, 0x72, 0x73, 0x69, 0x6f, 0x6e, 0x00, 0x93, 0x00, 0x00, 0x00,
  0x28, 0x1b, 0x00, 0x00, 0x20, 0x1b, 0x00, 0x00, 0xe8, 0x1a, 0x00, 0x00, 0xa8,
  0x1a, 0x00, 0x00, 0x60, 0x1a, 0x00, 0x00, 0x08, 0x1a, 0x00, 0x00, 0x98, 0x19,
  0x00, 0x00, 0x10, 0x19, 0x00, 0x00, 0xe0, 0x18, 0x00, 0x00, 0xc8, 0x18, 0x00,
  0x00, 0xb0, 0x18, 0x00, 0x00, 0x98, 0x18, 0x00, 0x00, 0xe8, 0x17, 0x00, 0x00,
  0xc4, 0x17, 0x00, 0x00, 0x78, 0x17, 0x00, 0x00, 0x2c, 0x17, 0x00, 0x00, 0xa4,
  0x16, 0x00, 0x00, 0x68, 0x15, 0x00, 0x00, 0x0c, 0x15, 0x00, 0x00, 0xb0, 0x14,
  0x00, 0x00, 0xbc, 0x13, 0x00, 0x00, 0x70, 0x13, 0x00, 0x00, 0x24, 0x13, 0x00,
  0x00, 0xe8, 0x11, 0x00, 0x00, 0xa8, 0x11, 0x00, 0x00, 0x68, 0x11, 0x00, 0x00,
  0xf8, 0x10, 0x00, 0x00, 0x34, 0x10, 0x00, 0x00, 0xe8, 0x0f, 0x00, 0x00, 0x9c,
  0x0f, 0x00, 0x00, 0xfc, 0x0e, 0x00, 0x00, 0xbc, 0x0e, 0x00, 0x00, 0x7c, 0x0e,
  0x00, 0x00, 0xb8, 0x0d, 0x00, 0x00, 0x84, 0x0d, 0x00, 0x00, 0x50, 0x0d, 0x00,
  0x00, 0xf8, 0x0c, 0x00, 0x00, 0x7c, 0x0c, 0x00, 0x00, 0x3c, 0x0c, 0x00, 0x00,
  0xfc, 0x0b, 0x00, 0x00, 0x98, 0x0b, 0x00, 0x00, 0x64, 0x0b, 0x00, 0x00, 0x30,
  0x0b, 0x00, 0x00, 0xb4, 0x0a, 0x00, 0x00, 0x88, 0x0a, 0x00, 0x00, 0x5c, 0x0a,
  0x00, 0x00, 0x14, 0x0a, 0x00, 0x00, 0xc4, 0x09, 0x00, 0x00, 0x90, 0x09, 0x00,
  0x00, 0x5c, 0x09, 0x00, 0x00, 0x18, 0x09, 0x00, 0x00, 0xec, 0x08, 0x00, 0x00,
  0xc0, 0x08, 0x00, 0x00, 0x70, 0x08, 0x00, 0x00, 0x48, 0x08, 0x00, 0x00, 0x20,
  0x08, 0x00, 0x00, 0xe8, 0x07, 0x00, 0x00, 0xb4, 0x07, 0x00, 0x00, 0x88, 0x07,
  0x00, 0x00, 0x5c, 0x07, 0x00, 0x00, 0x30, 0x07, 0x00, 0x00, 0x08, 0x07, 0x00,
  0x00, 0xe0, 0x06, 0x00, 0x00, 0xac, 0x06, 0x00, 0x00, 0x8c, 0x06, 0x00, 0x00,
  0x6c, 0x06, 0x00, 0x00, 0x40, 0x06, 0x00, 0x00, 0x14, 0x06, 0x00, 0x00, 0xe8,
  0x05, 0x00, 0x00, 0xbc, 0x05, 0x00, 0x00, 0x90, 0x05, 0x00, 0x00, 0x64, 0x05,
  0x00, 0x00, 0x4c, 0x05, 0x00, 0x00, 0x9c, 0x04, 0x00, 0x00, 0x14, 0x04, 0x00,
  0x00, 0xa4, 0x03, 0x00, 0x00, 0x4c, 0x03, 0x00, 0x00, 0x04, 0x03, 0x00, 0x00,
  0xcc, 0x02, 0x00, 0x00, 0x94, 0x02, 0x00, 0x00, 0x7c, 0x02, 0x00, 0x00, 0x74,
  0x02, 0x00, 0x00, 0x6c, 0x02, 0x00, 0x00, 0x64, 0x02, 0x00, 0x00, 0x5c, 0x02,
  0x00, 0x00, 0x54, 0x02, 0x00, 0x00, 0x4c, 0x02, 0x00, 0x00, 0x44, 0x02, 0x00,
  0x00, 0x3c, 0x02, 0x00, 0x00, 0x34, 0x02, 0x00, 0x00, 0x2c, 0x02, 0x00, 0x00,
  0x24, 0x02, 0x00, 0x00, 0x1c, 0x02, 0x00, 0x00, 0x14, 0x02, 0x00, 0x00, 0x0c,
  0x02, 0x00, 0x00, 0x04, 0x02, 0x00, 0x00, 0xfc, 0x01, 0x00, 0x00, 0xf4, 0x01,
  0x00, 0x00, 0xec, 0x01, 0x00, 0x00, 0xe4, 0x01, 0x00, 0x00, 0xdc, 0x01, 0x00,
  0x00, 0xd4, 0x01, 0x00, 0x00, 0xcc, 0x01, 0x00, 0x00, 0xc4, 0x01, 0x00, 0x00,
  0xbc, 0x01, 0x00, 0x00, 0xb4, 0x01, 0x00, 0x00, 0xac, 0x01, 0x00, 0x00, 0xa4,
  0x01, 0x00, 0x00, 0x9c, 0x01, 0x00, 0x00, 0x94, 0x01, 0x00, 0x00, 0x8c, 0x01,
  0x00, 0x00, 0x84, 0x01, 0x00, 0x00, 0x7c, 0x01, 0x00, 0x00, 0x74, 0x01, 0x00,
  0x00, 0x6c, 0x01, 0x00, 0x00, 0x64, 0x01, 0x00, 0x00, 0x5c, 0x01, 0x00, 0x00,
  0x54, 0x01, 0x00, 0x00, 0x4c, 0x01, 0x00, 0x00, 0x44, 0x01, 0x00, 0x00, 0x3c,
  0x01, 0x00, 0x00, 0x34, 0x01, 0x00, 0x00, 0x2c, 0x01, 0x00, 0x00, 0x24, 0x01,
  0x00, 0x00, 0x1c, 0x01, 0x00, 0x00, 0x14, 0x01, 0x00, 0x00, 0x0c, 0x01, 0x00,
  0x00, 0x04, 0x01, 0x00, 0x00, 0xfc, 0x00, 0x00, 0x00, 0xf4, 0x00, 0x00, 0x00,
  0xec, 0x00, 0x00, 0x00, 0xe4, 0x00, 0x00, 0x00, 0xdc, 0x00, 0x00, 0x00, 0xd4,
  0x00, 0x00, 0x00, 0xcc, 0x00, 0x00, 0x00, 0xc4, 0x00, 0x00, 0x00, 0xbc, 0x00,
  0x00, 0x00, 0xb4, 0x00, 0x00, 0x00, 0xac, 0x00, 0x00, 0x00, 0xa4, 0x00, 0x00,
  0x00, 0x9c, 0x00, 0x00, 0x00, 0x94, 0x00, 0x00, 0x00, 0x8c, 0x00, 0x00, 0x00,
  0x84, 0x00, 0x00, 0x00, 0x7c, 0x00, 0x00, 0x00, 0x5c, 0x00, 0x00, 0x00, 0x04,
  0x00, 0x00, 0x00, 0x62, 0xe7, 0xff, 0xff, 0x04, 0x00, 0x00, 0x00, 0x48, 0x00,
  0x00, 0x00, 0x04, 0x00, 0x00, 0x00, 0xdc, 0xff, 0xff, 0xff, 0x10, 0x00, 0x00,
  0x00, 0x24, 0x00, 0x00, 0x00, 0x00, 0x00, 0x06, 0x00, 0x08, 0x00, 0x04, 0x00,
  0x06, 0x00, 0x00, 0x00, 0x04, 0x00, 0x00, 0x00, 0x01, 0x00, 0x00, 0x00, 0xec,
  0x03, 0x00, 0x00, 0x08, 0x00, 0x0c, 0x00, 0x08, 0x00, 0x04, 0x00, 0x08, 0x00,
  0x00, 0x00, 0x01, 0x00, 0x00, 0x00, 0x04, 0x00, 0x00, 0x00, 0x05, 0x00, 0x00,
  0x00, 0x32, 0x2e, 0x39, 0x2e, 0x30, 0x00, 0x00, 0x00, 0xb6, 0xe7, 0xff, 0xff,
  0x04, 0x00, 0x00, 0x00, 0x10, 0x00, 0x00, 0x00, 0x31, 0x2e, 0x35, 0x2e, 0x30,
  0x00, 0x00, 0x00, 0x00, 0x00, 0x00, 0x00, 0x00, 0x00, 0x00, 0x00, 0xe0, 0x64,
  0xff, 0xff, 0xe4, 0x64, 0xff, 0xff, 0xe8, 0x64, 0xff, 0xff, 0xec, 0x64, 0xff,
  0xff, 0xf0, 0x64, 0xff, 0xff, 0xf4, 0x64, 0xff, 0xff, 0xf8, 0x64, 0xff, 0xff,
  0xfc, 0x64, 0xff, 0xff, 0x00, 0x65, 0xff, 0xff, 0x04, 0x65, 0xff, 0xff, 0x08,
  0x65, 0xff, 0xff, 0x0c, 0x65, 0xff, 0xff, 0x10, 0x65, 0xff, 0xff, 0x14, 0x65,
  0xff, 0xff, 0x18, 0x65, 0xff, 0xff, 0x1c, 0x65, 0xff, 0xff, 0x20, 0x65, 0xff,
  0xff, 0x24, 0x65, 0xff, 0xff, 0x28, 0x65, 0xff, 0xff, 0x2c, 0x65, 0xff, 0xff,
  0x30, 0x65, 0xff, 0xff, 0x34, 0x65, 0xff, 0xff, 0x38, 0x65, 0xff, 0xff, 0x3c,
  0x65, 0xff, 0xff, 0x40, 0x65, 0xff, 0xff, 0x44, 0x65, 0xff, 0xff, 0x48, 0x65,
  0xff, 0xff, 0x4c, 0x65, 0xff, 0xff, 0x50, 0x65, 0xff, 0xff, 0x54, 0x65, 0xff,
  0xff, 0x58, 0x65, 0xff, 0xff, 0x5c, 0x65, 0xff, 0xff, 0x60, 0x65, 0xff, 0xff,
  0x64, 0x65, 0xff, 0xff, 0x68, 0x65, 0xff, 0xff, 0x6c, 0x65, 0xff, 0xff, 0x70,
  0x65, 0xff, 0xff, 0x74, 0x65, 0xff, 0xff, 0x78, 0x65, 0xff, 0xff, 0x7c, 0x65,
  0xff, 0xff, 0x80, 0x65, 0xff, 0xff, 0x84, 0x65, 0xff, 0xff, 0x88, 0x65, 0xff,
  0xff, 0x8c, 0x65, 0xff, 0xff, 0x90, 0x65, 0xff, 0xff, 0x94, 0x65, 0xff, 0xff,
  0x98, 0x65, 0xff, 0xff, 0x9c, 0x65, 0xff, 0xff, 0xa0, 0x65, 0xff, 0xff, 0xa4,
  0x65, 0xff, 0xff, 0xa8, 0x65, 0xff, 0xff, 0xac, 0x65, 0xff, 0xff, 0xb0, 0x65,
  0xff, 0xff, 0xb4, 0x65, 0xff, 0xff, 0xb8, 0x65, 0xff, 0xff, 0xbc, 0x65, 0xff,
  0xff, 0xc0, 0x65, 0xff, 0xff, 0xc4, 0x65, 0xff, 0xff, 0xc8, 0x65, 0xff, 0xff,
  0xcc, 0x65, 0xff, 0xff, 0xd0, 0x65, 0xff, 0xff, 0xd4, 0x65, 0xff, 0xff, 0xd8,
  0x65, 0xff, 0xff, 0xdc, 0x65, 0xff, 0xff, 0xd2, 0xe8, 0xff, 0xff, 0x04, 0x00,
  0x00, 0x00, 0x08, 0x00, 0x00, 0x00, 0x81, 0x16, 0x00, 0x00, 0x00, 0x00, 0x00,
  0x00, 0xe6, 0xe8, 0xff, 0xff, 0x04, 0x00, 0x00, 0x00, 0x28, 0x00, 0x00, 0x00,
  0x39, 0x22, 0xff, 0xff, 0xff, 0xff, 0xff, 0xff, 0x20, 0xf6, 0xff, 0xff, 0xff,
  0xff, 0xff, 0xff, 0xe5, 0xfb, 0xff, 0xff, 0xff, 0xff, 0xff, 0xff, 0x6b, 0xee,
  0xff, 0xff, 0xff, 0xff, 0xff, 0xff, 0x27, 0xc3, 0x00, 0x00, 0x00, 0x00, 0x00,
  0x00, 0x1a, 0xe9, 0xff, 0xff, 0x04, 0x00, 0x00, 0x00, 0x28, 0x00, 0x00, 0x00,
  0x31, 0x2d, 0x01, 0x00, 0x00, 0x00, 0x00, 0x00, 0x9c, 0xad, 0xff, 0xff, 0xff,
  0xff, 0xff, 0xff, 0x23, 0x27, 0x00, 0x00, 0x00, 0x00, 0x00, 0x00, 0xca, 0xb0,
  0x00, 0x00, 0x00, 0x00, 0x00, 0x00, 0xc4, 0xeb, 0xfe, 0xff, 0xff, 0xff, 0xff,
  0xff, 0x4e, 0xe9, 0xff, 0xff, 0x04, 0x00, 0x00, 0x00, 0x38, 0x00, 0x00, 0x00,
  0x40, 0xab, 0xff, 0xff, 0xff, 0xff, 0xff, 0xff, 0x29, 0x77, 0x00, 0x00, 0x00,
  0x00, 0x00, 0x00, 0x6a, 0xe5, 0xff, 0xff, 0xff, 0xff, 0xff, 0xff, 0x68, 0x20,
  0x00, 0x00, 0x00, 0x00, 0x00, 0x00, 0xba, 0x69, 0x04, 0x00, 0x00, 0x00, 0x00,
  0x00, 0x46, 0x5f, 0xff, 0xff, 0xff, 0xff, 0xff, 0xff, 0x79, 0x54, 0x00, 0x00,
  0x00, 0x00, 0x00, 0x00, 0x92, 0xe9, 0xff, 0xff, 0x04, 0x00, 0x00, 0x00, 0x48,
  0x00, 0x00, 0x00, 0x88, 0x72, 0x00, 0x00, 0x00, 0x00, 0x00, 0x00, 0x64, 0x99,
  0xff, 0xff, 0xff, 0xff, 0xff, 0xff, 0xd5, 0x94, 0xff, 0xff, 0xff, 0xff, 0xff,
  0xff, 0x1f, 0xf1, 0xfe, 0xff, 0xff, 0xff, 0xff, 0xff, 0x9a, 0xf4, 0xff, 0xff,
  0xff, 0xff, 0xff, 0xff, 0x47, 0xc7, 0xfe, 0xff, 0xff, 0xff, 0xff, 0xff, 0x65,
  0x17, 0x00, 0x00, 0x00, 0x00, 0x00, 0x00, 0x32, 0xfd, 0xff, 0xff, 0xff, 0xff,
  0xff, 0xff, 0x3a, 0x24, 0xff, 0xff, 0xff, 0xff, 0xff, 0xff, 0xe6, 0xe9, 0xff,
  0xff, 0x04, 0x00, 0x00, 0x00, 0x60, 0x00, 0x00, 0x00, 0x91, 0x31, 0x00, 0x00,
  0x00, 0x00, 0x00, 0x00, 0x01, 0x8d, 0x00, 0x00, 0x00, 0x00, 0x00, 0x00, 0x13,
  0xc9, 0xff, 0xff, 0xff, 0xff, 0xff, 0xff, 0x6d, 0xed, 0xff, 0xff, 0xff, 0xff,
  0xff, 0xff, 0x7e, 0x2c, 0x00, 0x00, 0x00, 0x00, 0x00, 0x00, 0xa8, 0x34, 0x00,
  0x00, 0x00, 0x00, 0x00, 0x00, 0x31, 0x06, 0x00, 0x00, 0x00, 0x00, 0x00, 0x00,
  0x95, 0x36, 0x00, 0x00, 0x00, 0x00, 0x00, 0x00, 0xfd, 0xe0, 0xff, 0xff, 0xff,
  0xff, 0xff, 0xff, 0x10, 0xe7, 0xff, 0xff, 0xff, 0xff, 0xff, 0xff, 0x1e, 0x9a,
  0x00, 0x00, 0x00, 0x00, 0x00, 0x00, 0x1b, 0xc5, 0x00, 0x00, 0x00, 0x00, 0x00,
  0x00, 0x52, 0xea, 0xff, 0xff, 0x04, 0x00, 0x00, 0x00, 0x78, 0x00, 0x00, 0x00,
  0xce, 0xf3, 0xff, 0xff, 0xff, 0xff, 0xff, 0xff, 0x1b, 0xce, 0xff, 0xff, 0xff,
  0xff, 0xff, 0xff, 0x72, 0xb7, 0xff, 0xff, 0xff, 0xff, 0xff, 0xff, 0xce, 0x1f,
  0x00, 0x00, 0x00, 0x00, 0x00, 0x00, 0x62, 0x4f, 0x00, 0x00, 0x00, 0x00, 0x00,
  0x00, 0xe9, 0xe8, 0xff, 0xff, 0xff, 0xff, 0xff, 0xff, 0x3c, 0xe6, 0xff, 0xff,
  0xff, 0xff, 0xff, 0xff, 0xd6, 0x50, 0x00, 0x00, 0x00, 0x00, 0x00, 0x00, 0x8b,
  0xda, 0xff, 0xff, 0xff, 0xff, 0xff, 0xff, 0x9a, 0x4a, 0x00, 0x00, 0x00, 0x00,
  0x00, 0x00, 0x1c, 0x56, 0x00, 0x00, 0x00, 0x00, 0x00, 0x00, 0x2e, 0xa5, 0xff,
  0xff, 0xff, 0xff, 0xff, 0xff, 0xf3, 0x16, 0x00, 0x00, 0x00, 0x00, 0x00, 0x00,
  0x9c, 0xfa, 0xff, 0xff, 0xff, 0xff, 0xff, 0xff, 0x5f, 0x41, 0x00, 0x00, 0x00,
  0x00, 0x00, 0x00, 0xd6, 0xea, 0xff, 0xff, 0x04, 0x00, 0x00, 0x00, 0xa0, 0x00,
  0x00, 0x00, 0x9f, 0xe5, 0xfe, 0xff, 0xff, 0xff, 0xff, 0xff, 0x3a, 0x3c, 0xfb,
  0xff, 0xff, 0xff, 0xff, 0xff, 0x76, 0x12, 0x07, 0x00, 0x00, 0x00, 0x00, 0x00,
  0x01, 0x6d, 0x00, 0x00, 0x00, 0x00, 0x00, 0x00, 0x8b, 0xcd, 0xf4, 0xff, 0xff,
  0xff, 0xff, 0xff, 0x5c, 0xfc, 0x11, 0x00, 0x00, 0x00, 0x00, 0x00, 0xf9, 0x0f,
  0x0b, 0x00, 0x00, 0x00, 0x00, 0x00, 0xe2, 0xe8, 0xfd, 0xff, 0xff, 0xff, 0xff,
  0xff, 0xe9, 0x2c, 0xfa, 0xff, 0xff, 0xff, 0xff, 0xff, 0xca, 0x3f, 0x14, 0x00,
  0x00, 0x00, 0x00, 0x00, 0x10, 0x73, 0x00, 0x00, 0x00, 0x00, 0x00, 0x00, 0xc1,
  0xd5, 0xfb, 0xff, 0xff, 0xff, 0xff, 0xff, 0x40, 0x09, 0x02, 0x00, 0x00, 0x00,
  0x00, 0x00, 0xc0, 0x26, 0xf9, 0xff, 0xff, 0xff, 0xff, 0xff, 0x03, 0xcc, 0xe0,
  0xff, 0xff, 0xff, 0xff, 0xff, 0x69, 0x03, 0xf6, 0xff, 0xff, 0xff, 0xff, 0xff,
  0xcd, 0xd6, 0xec, 0xff, 0xff, 0xff, 0xff, 0xff, 0x24, 0x1d, 0xf3, 0xff, 0xff,
  0xff, 0xff, 0xff, 0x30, 0x24, 0xfa, 0xff, 0xff, 0xff, 0xff, 0xff, 0x4c, 0x20,
  0x00, 0x00, 0x00, 0x00, 0x00, 0x00, 0x82, 0xeb, 0xff, 0xff, 0x04, 0x00, 0x00,
  0x00, 0x05, 0x00, 0x00, 0x00, 0xb8, 0x1a, 0x1e, 0xb5, 0x7f, 0x00, 0x00, 0x00,
  0x96, 0xeb, 0xff, 0xff, 0x04, 0x00, 0x00, 0x00, 0x19, 0x00, 0x00, 0x00, 0x3c,
  0xf9, 0x02, 0xf0, 0x29, 0x00, 0x5c, 0x27, 0xf4, 0xcb, 0x81, 0x7f, 0x7f, 0x81,
  0x81, 0x12, 0x1b, 0x0a, 0x16, 0xef, 0x35, 0xe2, 0x03, 0xed, 0x3a, 0x00, 0x00,
  0x00, 0xbe, 0xeb, 0xff, 0xff, 0x04, 0x00, 0x00, 0x00, 0x19, 0x00, 0x00, 0x00,
  0xd9, 0x81, 0x5a, 0xed, 0xf1, 0x81, 0x18, 0x81, 0x46, 0x81, 0xda, 0xd9, 0x3b,
  0x81, 0x10, 0xf5, 0xfa, 0xec, 0xfc, 0x3d, 0xe9, 0x60, 0x68, 0x05, 0x11, 0x00,
  0x00, 0x00, 0xe6, 0xeb, 0xff, 0xff, 0x04, 0x00, 0x00, 0x00, 0x19, 0x00, 0x00,
  0x00, 0x81, 0xe9, 0x59, 0xf5, 0x4f, 0x3c, 0x7f, 0xb6, 0xf2, 0x0e, 0xc4, 0xb1,
  0x50, 0x7f, 0xf4, 0xeb, 0x0c, 0x92, 0x7f, 0x05, 0x55, 0x28, 0x81, 0x60, 0x84,
  0x00, 0x00, 0x00, 0x0e, 0xec, 0xff, 0xff, 0x04, 0x00, 0x00, 0x00, 0x19, 0x00,
  0x00, 0x00, 0xfc, 0xfe, 0xec, 0x12, 0x59, 0xa8, 0xf5, 0x2e, 0x53, 0xf2, 0x7f,
  0x81, 0x7f, 0x7f, 0x81, 0x8d, 0x0c, 0x11, 0x53, 0x33, 0x1c, 0xf3, 0xfe, 0x09,
  0x3d, 0x00, 0x00, 0x00, 0x36, 0xec, 0xff, 0xff, 0x04, 0x00, 0x00, 0x00, 0x19,
  0x00, 0x00, 0x00, 0x10, 0x35, 0x1d, 0x54, 0x23, 0xf5, 0x00, 0x47, 0xac, 0xb6,
  0x7f, 0x81, 0x84, 0xe7, 0x7f, 0x3f, 0x68, 0x7f, 0x2f, 0x1f, 0xeb, 0xe2, 0xb5,
  0x81, 0x06, 0x00, 0x00, 0x00, 0x5e, 0xec, 0xff, 0xff, 0x04, 0x00, 0x00, 0x00,
  0x19, 0x00, 0x00, 0x00, 0xfc, 0xbb, 0x7f, 0x19, 0xec, 0x81, 0x3b, 0x10, 0x64,
  0xb8, 0x81, 0x31, 0x20, 0x2c, 0xcc, 0x7f, 0x54, 0xd5, 0xcf, 0xb5, 0x2c, 0xc7,
  0x44, 0xb6, 0x81, 0x00, 0x00, 0x00, 0x86, 0xec, 0xff, 0xff, 0x04, 0x00, 0x00,
  0x00, 0x0f, 0x00, 0x00, 0x00, 0xf5, 0xa1, 0x50, 0xec, 0xcf, 0x81, 0x81, 0x81,
  0x81, 0x81, 0xf1, 0x9b, 0x42, 0xa4, 0xb4, 0x00, 0xa2, 0xec, 0xff, 0xff, 0x04,
  0x00, 0x00, 0x00, 0x0f, 0x00, 0x00, 0x00, 0x81, 0x2e, 0x19, 0x7f, 0x36, 0x27,
  0x24, 0x54, 0x82, 0x7f, 0x6e, 0x7f, 0x7f, 0x7b, 0xea, 0x00, 0xbe, 0xec, 0xff,
  0xff, 0x04, 0x00, 0x00, 0x00, 0x23, 0x00, 0x00, 0x00, 0x02, 0xc6, 0xca, 0x7f,
  0xde, 0xeb, 0x68, 0xe8, 0x81, 0x10, 0xfb, 0x03, 0xd5, 0xec, 0x81, 0x31, 0x0d,
  0x3e, 0x0a, 0xac, 0xbe, 0xf0, 0x7f, 0x0d, 0x03, 0xa9, 0xfe, 0xf7, 0xf3, 0xf4,
  0x7f, 0x3e, 0xd3, 0x71, 0xe2, 0x00, 0xee, 0xec, 0xff, 0xff, 0x04, 0x00, 0x00,
  0x00, 0x15, 0x00, 0x00, 0x00, 0xd1, 0x31, 0x6d, 0x59, 0xef, 0x21, 0xe1, 0x7f,
  0x81, 0xb7, 0x81, 0x7f, 0x7f, 0x7f, 0x6a, 0x2f, 0x7f, 0x35, 0xde, 0x14, 0xd4,
  0x00, 0x00, 0x00, 0x12, 0xed, 0xff, 0xff, 0x04, 0x00, 0x00, 0x00, 0x15, 0x00,
  0x00, 0x00, 0x81, 0x39, 0x2a, 0x9e, 0xe1, 0xdf, 0x7f, 0xe1, 0x7f, 0x7f, 0x7f,
  0x7f, 0x04, 0x4b, 0x0c, 0x06, 0x69, 0x02, 0xac, 0x7f, 0x11, 0x00, 0x00, 0x00,
  0x36, 0xed, 0xff, 0xff, 0x04, 0x00, 0x00, 0x00, 0x19, 0x00, 0x00, 0x00, 0x8f,
  0x7f, 0x42, 0x97, 0xa8, 0x3a, 0xd6, 0xf7, 0xbe, 0x81, 0x13, 0x17, 0xc7, 0x81,
  0xcf, 0x04, 0x54, 0x09, 0x81, 0x02, 0x91, 0x7f, 0x4c, 0x96, 0xdb, 0x00, 0x00,
  0x00, 0x5e, 0xed, 0xff, 0xff, 0x04, 0x00, 0x00, 0x00, 0x19, 0x00, 0x00, 0x00,
  0xd7, 0xf2, 0x2a, 0xfe, 0xb1, 0x15, 0x12, 0xcf, 0x23, 0x35, 0x81, 0x81, 0x81,
  0x81, 0x7f, 0x21, 0x10, 0xa2, 0x0f, 0x07, 0xd1, 0xf0, 0x29, 0x07, 0xca, 0x00,
  0x00, 0x00, 0x86, 0xed, 0xff, 0xff, 0x04, 0x00, 0x00, 0x00, 0x19, 0x00, 0x00,
  0x00, 0xf5, 0x29, 0x81, 0x0c, 0x22, 0x17, 0x81, 0x2b, 0xe4, 0x8d, 0x69, 0x8b,
  0x1e, 0x7f, 0x81, 0xc0, 0x6e, 0x44, 0xbb, 0xce, 0x7f, 0xc4, 0x1b, 0x2f, 0x34,
  0x00, 0x00, 0x00, 0xae, 0xed, 0xff, 0xff, 0x04, 0x00, 0x00, 0x00, 0x23, 0x00,
  0x00, 0x00, 0xc4, 0xff, 0xe5, 0xa2, 0x40, 0xfa, 0x81, 0x33, 0x10, 0x40, 0x81,
  0xac, 0x4c, 0xce, 0x6e, 0x07, 0x48, 0x4d, 0x2f, 0x7f, 0xba, 0xec, 0x1a, 0xfb,
  0x0d, 0x7f, 0x07, 0x09, 0x39, 0x7f, 0x33, 0xd5, 0x0b, 0xe6, 0xec, 0x00, 0xde,
  0xed, 0xff, 0xff, 0x04, 0x00, 0x00, 0x00, 0x28, 0x00, 0x00, 0x00, 0x00, 0x00,
  0x00, 0x00, 0x00, 0x00, 0x00, 0x00, 0x00, 0x00, 0x00, 0x00, 0x00, 0x00, 0x00,
  0x00, 0x00, 0x00, 0x00, 0x00, 0x00, 0x00, 0x00, 0x00, 0x00, 0x00, 0x00, 0x00,
  0x00, 0x00, 0x00, 0x00, 0x00, 0x00, 0x00, 0x00, 0x00, 0x00, 0x00, 0x00, 0x12,
  0xee, 0xff, 0xff, 0x04, 0x00, 0x00, 0x00, 0x15, 0x00, 0x00, 0x00, 0x7f, 0xe7,
  0xa3, 0x6d, 0xf5, 0x7f, 0x2e, 0x25, 0x81, 0x7f, 0x7f, 0x81, 0x09, 0x7f, 0x5f,
  0xdf, 0xdd, 0x36, 0x08, 0x73, 0x22, 0x00, 0x00, 0x00, 0x36, 0xee, 0xff, 0xff,
  0x04, 0x00, 0x00, 0x00, 0x15, 0x00, 0x00, 0x00, 0x81, 0x5c, 0x40, 0x81, 0x7f,
  0x36, 0x3c, 0xb4, 0x11, 0xf2, 0x81, 0x64, 0x7f, 0xc7, 0x32, 0x7f, 0x81, 0xf8,
  0x4a, 0x59, 0x81, 0x00, 0x00, 0x00, 0x5a, 0xee, 0xff, 0xff, 0x04, 0x00, 0x00,
  0x00, 0x3f, 0x00, 0x00, 0x00, 0x7e, 0xf9, 0x7c, 0xc9, 0xd1, 0x31, 0x7f, 0xdf,
  0x19, 0xb2, 0xa6, 0x05, 0x12, 0x1e, 0xfc, 0xba, 0x81, 0x00, 0x81, 0x1c, 0xde,
  0x9a, 0x35, 0x86, 0x73, 0xce, 0xb2, 0xb9, 0x2d, 0x81, 0xcd, 0x5f, 0x02, 0xaa,
  0x19, 0x03, 0xed, 0x0c, 0xf7, 0xea, 0x36, 0x9f, 0x26, 0x0f, 0x81, 0x0b, 0xa6,
  0xf4, 0x81, 0x4e, 0xc4, 0x52, 0x22, 0xd0, 0x06, 0x7f, 0xd8, 0x77, 0xe4, 0x85,
  0xb8, 0x12, 0x0f, 0x00, 0xa6, 0xee, 0xff, 0xff, 0x04, 0x00, 0x00, 0x00, 0x1b,
  0x00, 0x00, 0x00, 0x7f, 0x7f, 0xef, 0x0b, 0x65, 0x81, 0x81, 0x85, 0x81, 0x32,
  0xed, 0x81, 0x7f, 0x7f, 0x9a, 0x8b, 0x7f, 0x93, 0x1d, 0x0c, 0x1c, 0xef, 0xe8,
  0xf0, 0xb1, 0x9a, 0xd0, 0x00, 0xce, 0xee, 0xff, 0xff, 0x04, 0x00, 0x00, 0x00,
  0x1b, 0x00, 0x00, 0x00, 0x02, 0x81, 0x7f, 0xeb, 0x28, 0x01, 0x43, 0x2e, 0xa1,
  0xbc, 0xaf, 0xe0, 0x7f, 0xe4, 0xea, 0x81, 0x7f, 0x81, 0x81, 0x42, 0x2a, 0xf4,
  0x81, 0x81, 0x22, 0x63, 0xbf, 0x00, 0xf6, 0xee, 0xff, 0xff, 0x04, 0x00, 0x00,
  0x00, 0x31, 0x00, 0x00, 0x00, 0x4f, 0xdc, 0x72, 0xe2, 0x81, 0x9a, 0x21, 0xff,
  0xbf, 0xe3, 0xd7, 0xcf, 0x7f, 0xff, 0x08, 0xec, 0xdb, 0xf1, 0x7f, 0x10, 0xc4,
  0x55, 0xa4, 0x81, 0xf3, 0x0d, 0x1d, 0xab, 0x55, 0x81, 0x05, 0xff, 0x65, 0xe3,
  0x29, 0xba, 0xcb, 0x48, 0x98, 0xba, 0xbb, 0x81, 0x2c, 0x21, 0xb6, 0x7f, 0xf8,
  0x43, 0x16, 0x00, 0x00, 0x00, 0x36, 0xef, 0xff, 0xff, 0x04, 0x00, 0x00, 0x00,
  0x23, 0x00, 0x00, 0x00, 0x02, 0x02, 0xfc, 0xeb, 0xe8, 0xd1, 0xba, 0x65, 0x50,
  0xbf, 0x3b, 0x81, 0x81, 0xc1, 0x7f, 0x7f, 0x81, 0x7f, 0x44, 0x84, 0x81, 0x65,
  0x32, 0xb2, 0x0e, 0xbd, 0xbc, 0xdb, 0x00, 0x0e, 0x1b, 0xf8, 0xb9, 0xe6, 0xae,
  0x00, 0x66, 0xef, 0xff, 0xff, 0x04, 0x00, 0x00, 0x00, 0x23, 0x00, 0x00, 0x00,
  0x81, 0xcb, 0xdd, 0x39, 0x07, 0x1b, 0xe2, 0xcf, 0xc8, 0x04, 0x00, 0xf4, 0x7f,
  0x7f, 0x3f, 0x7f, 0x4f, 0xe3, 0x81, 0x5c, 0x00, 0x99, 0xbe, 0x81, 0x7f, 0x82,
  0x91, 0x64, 0xaf, 0x44, 0x33, 0x9d, 0x0a, 0xa8, 0xfb, 0x00, 0x96, 0xef, 0xff,
  0xff, 0x04, 0x00, 0x00, 0x00, 0x3f, 0x00, 0x00, 0x00, 0x81, 0x4d, 0x3c, 0x43,
  0xa9, 0xbb, 0x9c, 0x65, 0x63, 0xcd, 0x0a, 0xe3, 0x7f, 0xfc, 0xb6, 0x83, 0x7f,
  0xff, 0x29, 0xaf, 0x81, 0x24, 0x75, 0xaa, 0x20, 0x16, 0x29, 0x21, 0x24, 0xcf,
  0x15, 0x1c, 0x81, 0xf8, 0x1d, 0x34, 0x64, 0x15, 0x5f, 0x7f, 0xf6, 0xef, 0x5b,
  0xfb, 0x0f, 0xf9, 0x7f, 0xbb, 0x34, 0xf2, 0xf0, 0xcf, 0xe3, 0x72, 0xff, 0xa1,
  0x01, 0x0e, 0x7f, 0x3b, 0x22, 0xdd, 0x25, 0x00, 0xe2, 0xef, 0xff, 0xff, 0x04,
  0x00, 0x00, 0x00, 0x38, 0x00, 0x00, 0x00, 0x00, 0x00, 0x00, 0x00, 0x00, 0x00,
  0x00, 0x00, 0x00, 0x00, 0x00, 0x00, 0x00, 0x00, 0x00, 0x00, 0x00, 0x00, 0x00,
  0x00, 0x00, 0x00, 0x00, 0x00, 0x00, 0x00, 0x00, 0x00, 0x00, 0x00, 0x00, 0x00,
  0x00, 0x00, 0x00, 0x00, 0x00, 0x00, 0x00, 0x00, 0x00, 0x00, 0x00, 0x00, 0x00,
  0x00, 0x00, 0x00, 0x00, 0x00, 0x00, 0x00, 0x00, 0x00, 0x00, 0x00, 0x26, 0xf0,
  0xff, 0xff, 0x04, 0x00, 0x00, 0x00, 0x1b, 0x00, 0x00, 0x00, 0x81, 0x81, 0x7f,
  0x05, 0x59, 0x81, 0xef, 0x06, 0x8a, 0xa0, 0xe6, 0xf5, 0x7f, 0x7f, 0x8e, 0x81,
  0x81, 0x81, 0x9f, 0xd4, 0x49, 0xec, 0x0e, 0x00, 0xec, 0x17, 0xe6, 0x00, 0x4e,
  0xf0, 0xff, 0xff, 0x04, 0x00, 0x00, 0x00, 0x1b, 0x00, 0x00, 0x00, 0x5b, 0x04,
  0x50, 0xc3, 0x9b, 0xe8, 0x7f, 0x81, 0xa5, 0x4a, 0xa7, 0x7f, 0x81, 0x7f, 0xf2,
  0xde, 0x57, 0x7f, 0x7f, 0x7f, 0x55, 0xb0, 0xfc, 0x81, 0xe1, 0x2f, 0xdb, 0x00,
  0x76, 0xf0, 0xff, 0xff, 0x04, 0x00, 0x00, 0x00, 0x6c, 0x00, 0x00, 0x00, 0xdc,
  0x06, 0x38, 0xa1, 0x23, 0x8c, 0xa7, 0xbe, 0xea, 0xed, 0x81, 0xa2, 0xbe, 0xa2,
  0x0c, 0x81, 0xbc, 0x09, 0x14, 0x8c, 0x67, 0xf0, 0x1d, 0xbc, 0xc2, 0xa5, 0x6a,
  0xd6, 0x69, 0x7f, 0x2e, 0x5c, 0x62, 0x52, 0xb1, 0x00, 0x81, 0x2c, 0xaf, 0xd5,
  0x7d, 0xac, 0x0e, 0xca, 0x0e, 0x58, 0x64, 0x3f, 0x8f, 0x61, 0xeb, 0xc1, 0xe6,
  0x7f, 0xcc, 0x39, 0xd1, 0x70, 0xc4, 0xb6, 0xdc, 0xe7, 0x7f, 0x00, 0xbd, 0xc1,
  0x59, 0xc9, 0xde, 0xfd, 0xbf, 0x28, 0x33, 0x8c, 0xe7, 0xfb, 0xc8, 0xdf, 0x11,
  0xe7, 0x81, 0xde, 0xee, 0xf8, 0x98, 0x24, 0x18, 0x11, 0x55, 0x3d, 0xc9, 0x20,
  0x39, 0x55, 0x7f, 0x74, 0x3c, 0x81, 0x22, 0x3f, 0xee, 0xe7, 0xef, 0xac, 0x24,
  0x85, 0x09, 0x29, 0xee, 0xf0, 0xff, 0xff, 0x04, 0x00, 0x00, 0x00, 0x24, 0x00,
  0x00, 0x00, 0x3e, 0xff, 0x03, 0x07, 0x1f, 0xb3, 0xce, 0x09, 0xb2, 0x81, 0x7f,
  0xa5, 0x7f, 0xb3, 0x7f, 0x81, 0x81, 0x7f, 0x7f, 0x7f, 0x7f, 0xc0, 0xd6, 0x81,
  0xca, 0x81, 0x22, 0xec, 0xbf, 0xb3, 0x13, 0xd5, 0x3e, 0xa7, 0x6f, 0xb6, 0x1e,
  0xf1, 0xff, 0xff, 0x04, 0x00, 0x00, 0x00, 0x24, 0x00, 0x00, 0x00, 0xad, 0xcc,
  0x71, 0x1e, 0x3a, 0x0b, 0x37, 0x41, 0xe2, 0xa2, 0x0a, 0x81, 0x81, 0xd3, 0x81,
  0x43, 0xca, 0x81, 0x81, 0x3c, 0x7f, 0x81, 0x7c, 0x13, 0x8c, 0x81, 0x28, 0x81,
  0x81, 0x10, 0x60, 0x7f, 0x3e, 0xb4, 0x81, 0x38, 0x4e, 0xf1, 0xff, 0xff, 0x04,
  0x00, 0x00, 0x00, 0x51, 0x00, 0x00, 0x00, 0x09, 0x7f, 0xb7, 0x1f, 0xd9, 0x1b,
  0xc1, 0xc9, 0x77, 0x7f, 0xcc, 0xe4, 0xfb, 0x05, 0x12, 0xef, 0x1a, 0x28, 0x2f,
  0x43, 0x91, 0x7f, 0x13, 0xa7, 0xd4, 0xe1, 0x4b, 0x2b, 0x48, 0xbb, 0x7f, 0xfb,
  0xd8, 0x10, 0xfa, 0xc4, 0xfa, 0xff, 0xfa, 0x45, 0x57, 0x0a, 0x90, 0x81, 0x57,
  0x0b, 0xe9, 0xf5, 0xfd, 0x81, 0x00, 0x33, 0x05, 0x22, 0x75, 0xe3, 0xe9, 0x7f,
  0x3a, 0x46, 0xcd, 0x30, 0x44, 0xd5, 0x7f, 0x3c, 0xb5, 0xe7, 0xdb, 0xea, 0xec,
  0xa2, 0x43, 0xba, 0xea, 0xfd, 0xbc, 0x7f, 0x04, 0x30, 0xf2, 0x00, 0x00, 0x00,
  0xae, 0xf1, 0xff, 0xff, 0x04, 0x00, 0x00, 0x00, 0x2d, 0x00, 0x00, 0x00, 0x9d,
  0x03, 0x05, 0xe5, 0xbe, 0xe3, 0x25, 0x26, 0x1b, 0x4a, 0x9a, 0x60, 0x95, 0x7f,
  0x95, 0xc7, 0x81, 0xbd, 0x7f, 0x0f, 0x7f, 0x81, 0x0c, 0x7f, 0x81, 0xcc, 0x7f,
  0x47, 0x81, 0x3f, 0xac, 0xe3, 0xf3, 0x10, 0xe6, 0x3a, 0x9c, 0x08, 0x0f, 0xce,
  0xc2, 0xae, 0x13, 0xdd, 0xf7, 0x00, 0x00, 0x00, 0xea, 0xf1, 0xff, 0xff, 0x04,
  0x00, 0x00, 0x00, 0x2d, 0x00, 0x00, 0x00, 0xfb, 0x3b, 0x37, 0x91, 0xbe, 0xfb,
  0x7f, 0xec, 0x12, 0x07, 0x81, 0xfa, 0x7f, 0x26, 0x1a, 0xcf, 0x7f, 0x90, 0x2b,
  0x64, 0x5e, 0xef, 0x7f, 0xea, 0xa6, 0x7d, 0x09, 0x16, 0x78, 0xa3, 0xa5, 0xcd,
  0x81, 0x45, 0x56, 0x7f, 0x7f, 0xf7, 0x7f, 0xa5, 0x56, 0xe4, 0xf4, 0xd9, 0xed,
  0x00, 0x00, 0x00, 0x26, 0xf2, 0xff, 0xff, 0x04, 0x00, 0x00, 0x00, 0x6c, 0x00,
  0x00, 0x00, 0xfe, 0x7f, 0x46, 0x21, 0x36, 0xbd, 0xc8, 0x09, 0x64, 0xf3, 0x34,
  0x36, 0xbe, 0x35, 0x28, 0x11, 0x25, 0x22, 0xae, 0x0d, 0xf6, 0x1b, 0x0b, 0x81,
  0x04, 0x00, 0xd1, 0x81, 0xfd, 0xd8, 0xcd, 0x20, 0xc5, 0x16, 0x12, 0x30, 0x81,
  0xfe, 0x0d, 0xe5, 0x11, 0x14, 0x63, 0xff, 0xd4, 0xf8, 0x5e, 0x0e, 0x53, 0x23,
  0x19, 0xfe, 0xfe, 0xff, 0x34, 0xef, 0xf0, 0x7b, 0x7f, 0xbf, 0xb7, 0x69, 0x38,
  0x02, 0x7f, 0xe7, 0x95, 0x08, 0xc1, 0xf0, 0x4e, 0xa8, 0xc3, 0x13, 0x65, 0xdd,
  0x3a, 0x7f, 0x0d, 0x1d, 0x0d, 0x9d, 0x51, 0x27, 0xd6, 0x10, 0x62, 0x19, 0x81,
  0xd2, 0x11, 0xe0, 0x38, 0x36, 0xf5, 0xbb, 0x1d, 0xee, 0xca, 0x25, 0xfd, 0xe4,
  0x1e, 0x7f, 0xdf, 0x05, 0x04, 0x0f, 0x9e, 0xf2, 0xff, 0xff, 0x04, 0x00, 0x00,
  0x00, 0x48, 0x00, 0x00, 0x00, 0x00, 0x00, 0x00, 0x00, 0x00, 0x00, 0x00, 0x00,
  0x00, 0x00, 0x00, 0x00, 0x00, 0x00, 0x00, 0x00, 0x00, 0x00, 0x00, 0x00, 0x00,
  0x00, 0x00, 0x00, 0x00, 0x00, 0x00, 0x00, 0x00, 0x00, 0x00, 0x00, 0x00, 0x00,
  0x00, 0x00, 0x00, 0x00, 0x00, 0x00, 0x00, 0x00, 0x00, 0x00, 0x00, 0x00, 0x00,
  0x00, 0x00, 0x00, 0x00, 0x00, 0x00, 0x00, 0x00, 0x00, 0x00, 0x00, 0x00, 0x00,
  0x00, 0x00, 0x00, 0x00, 0x00, 0x00, 0x00, 0x00, 0x00, 0x00, 0x00, 0x00, 0xf2,
  0xf2, 0xff, 0xff, 0x04, 0x00, 0x00, 0x00, 0x24, 0x00, 0x00, 0x00, 0x4d, 0xa9,
  0xd8, 0x60, 0x30, 0x1d, 0xde, 0x81, 0x7f, 0x00, 0xe1, 0x45, 0x42, 0x13, 0x81,
  0x7f, 0x81, 0x7f, 0x81, 0xd8, 0x7f, 0x7f, 0x81, 0x81, 0x7f, 0x7f, 0xc4, 0x3d,
  0x97, 0x3f, 0x9f, 0xfd, 0x79, 0x30, 0x87, 0xf3, 0x22, 0xf3, 0xff, 0xff, 0x04,
  0x00, 0x00, 0x00, 0x24, 0x00, 0x00, 0x00, 0x69, 0x61, 0x08, 0x07, 0x3f, 0x98,
  0xdf, 0xe8, 0x0d, 0x81, 0x81, 0x81, 0x7f, 0x7f, 0x1f, 0x06, 0x81, 0x64, 0x8f,
  0x81, 0x81, 0xcf, 0xc5, 0x06, 0xef, 0x6e, 0x7f, 0x7f, 0xda, 0x81, 0x81, 0xc3,
  0x2f, 0x2c, 0x42, 0xe8, 0x52, 0xf3, 0xff, 0xff, 0x04, 0x00, 0x00, 0x00, 0xb4,
  0x00, 0x00, 0x00, 0x64, 0x18, 0x81, 0xee, 0xb8, 0xba, 0xef, 0xfc, 0xc1, 0xc6,
  0xd7, 0x9a, 0xcb, 0x8c, 0xde, 0x85, 0x87, 0x54, 0xbb, 0xc4, 0xff, 0x1a, 0x6b,
  0x7f, 0xbf, 0x9d, 0x8d, 0x96, 0xb4, 0x24, 0xa1, 0x81, 0x25, 0x46, 0x02, 0x13,
  0x56, 0x11, 0x0c, 0x3f, 0x26, 0xfa, 0x0c, 0x22, 0x74, 0x47, 0xdc, 0x2d, 0x5f,
  0xa0, 0xff, 0x12, 0x44, 0xe0, 0xab, 0x07, 0x06, 0x0c, 0x81, 0x20, 0x21, 0xd4,
  0xf6, 0x5a, 0x09, 0xef, 0x53, 0x42, 0x7f, 0x01, 0x21, 0xa4, 0xd3, 0xbd, 0x7c,
  0xf0, 0xb8, 0x03, 0xa5, 0xde, 0x81, 0x1d, 0xe6, 0xc4, 0x6f, 0xe2, 0x4d, 0x70,
  0xce, 0x69, 0xf3, 0xe2, 0xc7, 0xf4, 0xff, 0x0c, 0x17, 0x31, 0x81, 0x2a, 0x05,
  0xc0, 0xfe, 0xc8, 0xf5, 0x51, 0xf2, 0xb5, 0x5b, 0x90, 0x22, 0x7f, 0x3a, 0x06,
  0x89, 0xf1, 0x1e, 0x05, 0xad, 0xc3, 0x26, 0x7f, 0x27, 0xea, 0xe1, 0x8d, 0x51,
  0x3b, 0xef, 0xbd, 0xb6, 0xb3, 0xde, 0xe8, 0x58, 0x2a, 0x01, 0x02, 0xe1, 0xea,
  0x91, 0x37, 0xf6, 0xcc, 0xff, 0x81, 0x0c, 0x3d, 0x8e, 0x2d, 0xf0, 0x01, 0x03,
  0xe8, 0xd1, 0xc6, 0x1b, 0x81, 0x24, 0xf6, 0xe5, 0x50, 0x3d, 0xb4, 0x03, 0xe0,
  0x43, 0xe9, 0x31, 0xfb, 0x7f, 0xdf, 0x17, 0x15, 0xad, 0x54, 0xdc, 0x26, 0x37,
  0x8f, 0x12, 0xf4, 0xff, 0xff, 0x04, 0x00, 0x00, 0x00, 0x2d, 0x00, 0x00, 0x00,
  0xdc, 0x81, 0x81, 0x32, 0xfc, 0xd8, 0xec, 0x81, 0x81, 0x4d, 0x7f, 0xec, 0xee,
  0x7f, 0xb5, 0x7f, 0x9b, 0xef, 0x81, 0x39, 0x13, 0x7f, 0x07, 0x6b, 0x7f, 0x53,
  0x81, 0x7f, 0xbf, 0x81, 0x0f, 0xae, 0xad, 0xbe, 0x7f, 0x7f, 0xf2, 0xec, 0xe4,
  0x1f, 0x39, 0xfc, 0x64, 0xd6, 0x9c, 0x00, 0x00, 0x00, 0x4e, 0xf4, 0xff, 0xff,
  0x04, 0x00, 0x00, 0x00, 0x2d, 0x00, 0x00, 0x00, 0xf2, 0xb0, 0x1f, 0xd4, 0xf8,
  0xfb, 0x37, 0x14, 0x81, 0xfc, 0xf6, 0x0e, 0xcf, 0x0b, 0xeb, 0xc2, 0xf5, 0x81,
  0xb6, 0x7f, 0xe4, 0x81, 0x44, 0x51, 0xec, 0x10, 0x81, 0xc9, 0xbc, 0x81, 0x7f,
  0x81, 0x46, 0x81, 0xa6, 0x81, 0x23, 0x7f, 0xef, 0x81, 0x81, 0x16, 0x7f, 0x7f,
  0xd5, 0x00, 0x00, 0x00, 0x8a, 0xf4, 0xff, 0xff, 0x04, 0x00, 0x00, 0x00, 0x90,
  0x00, 0x00, 0x00, 0x21, 0x12, 0xf7, 0x09, 0xf8, 0x0d, 0xe2, 0x7f, 0x5e, 0x11,
  0xab, 0xd9, 0x6d, 0x7f, 0x2f, 0x6b, 0xf5, 0xf9, 0x35, 0x28, 0x0b, 0x09, 0xd2,
  0xe9, 0xdb, 0x47, 0x30, 0x91, 0x2a, 0x77, 0x81, 0xe0, 0x27, 0x34, 0xe0, 0x1e,
  0xdb, 0x3c, 0xf9, 0x59, 0x81, 0x25, 0xb7, 0xf3, 0x40, 0x0a, 0xbf, 0x37, 0xc6,
  0x25, 0xf2, 0x9a, 0xc8, 0x41, 0x47, 0x1a, 0xb2, 0x1d, 0xa3, 0x7f, 0xdb, 0x37,
  0x5d, 0xf3, 0x7f, 0x5e, 0x4d, 0xaa, 0xde, 0x19, 0xea, 0xc5, 0x67, 0x0a, 0xa3,
  0x68, 0xc3, 0xc8, 0x97, 0x2d, 0xa6, 0xfe, 0x7f, 0x55, 0xee, 0x14, 0xda, 0x4f,
  0x08, 0xee, 0xf0, 0xf5, 0x27, 0x19, 0xd4, 0x7f, 0xde, 0x09, 0x3d, 0xcc, 0x29,
  0xe3, 0xf6, 0x00, 0x05, 0x81, 0x04, 0xcc, 0xc9, 0x1a, 0xa5, 0x7f, 0xac, 0x44,
  0x86, 0x82, 0xbe, 0x35, 0x49, 0x1e, 0xed, 0x15, 0xc8, 0x6f, 0xc0, 0x0c, 0xf7,
  0x7f, 0xc0, 0x64, 0x46, 0x4b, 0x2d, 0x0e, 0xf1, 0xfc, 0x81, 0xd6, 0x07, 0xaf,
  0x05, 0x1e, 0x09, 0x73, 0x26, 0xf5, 0xff, 0xff, 0x04, 0x00, 0x00, 0x00, 0x3c,
  0x00, 0x00, 0x00, 0x81, 0x3e, 0xf0, 0x18, 0xec, 0x2f, 0x24, 0x33, 0xee, 0x81,
  0x11, 0x0a, 0xd5, 0x81, 0xc0, 0xdc, 0xfd, 0x7f, 0xe0, 0x7f, 0xf6, 0x6b, 0x18,
  0xfc, 0xa6, 0x12, 0x81, 0x7f, 0xcc, 0x09, 0x7f, 0x34, 0x81, 0xea, 0x14, 0x4d,
  0xfe, 0x5b, 0xa4, 0x28, 0x81, 0x6c, 0xcb, 0x06, 0x83, 0xc1, 0x7f, 0x7f, 0xaa,
  0xb4, 0xcb, 0xed, 0xec, 0x5b, 0x0e, 0x08, 0xca, 0x05, 0xfd, 0xe5, 0x6e, 0xf5,
  0xff, 0xff, 0x04, 0x00, 0x00, 0x00, 0x3c, 0x00, 0x00, 0x00, 0x40, 0xc1, 0xe5,
  0x29, 0x1f, 0xd8, 0x7f, 0x06, 0xf5, 0x03, 0x26, 0x3c, 0x2f, 0x7a, 0xd4, 0xcb,
  0x56, 0x81, 0x19, 0xd5, 0xf7, 0xf5, 0xf7, 0xd0, 0x48, 0x7f, 0xe5, 0xfa, 0x62,
  0x9a, 0xfe, 0x81, 0xe6, 0x96, 0x81, 0x3a, 0x7f, 0x8c, 0x20, 0x41, 0x7f, 0xe9,
  0x05, 0xd3, 0xcf, 0x87, 0xd6, 0xd3, 0x48, 0x31, 0x7f, 0x81, 0x44, 0x0b, 0x06,
  0xd3, 0x81, 0x81, 0x10, 0x81, 0xb6, 0xf5, 0xff, 0xff, 0x04, 0x00, 0x00, 0x00,
  0xb4, 0x00, 0x00, 0x00, 0xff, 0xb2, 0xbd, 0x7f, 0x0f, 0xd2, 0xf2, 0xa3, 0x89,
  0x1c, 0x9d, 0xf6, 0xfe, 0x2f, 0xcc, 0x63, 0x86, 0xb7, 0x03, 0x03, 0x7f, 0x8d,
  0x2b, 0xc8, 0xa9, 0x10, 0x07, 0xf0, 0xa5, 0x8d, 0x81, 0x2b, 0xf2, 0xff, 0xbd,
  0x34, 0xfb, 0x23, 0xcd, 0xcc, 0x12, 0x3a, 0xd5, 0x37, 0xaa, 0x28, 0xd9, 0xd9,
  0x18, 0x81, 0xec, 0xd1, 0xef, 0xfa, 0xcd, 0x04, 0xbb, 0x37, 0x13, 0xf0, 0xfd,
  0xb9, 0x03, 0x10, 0x05, 0x2e, 0x22, 0xf9, 0x02, 0x2f, 0x06, 0xfd, 0x7f, 0xdf,
  0xfe, 0x2e, 0xe7, 0xc6, 0xda, 0xe6, 0xfb, 0x7f, 0x38, 0x2d, 0x34, 0x38, 0x16,
  0x5e, 0xb6, 0x31, 0x66, 0x01, 0x3b, 0x39, 0x2c, 0x38, 0xcd, 0xd6, 0xf3, 0xdd,
  0xfb, 0xf3, 0x1c, 0x7f, 0xd1, 0x04, 0x29, 0x1d, 0x8a, 0xfe, 0xf9, 0x1f, 0x08,
  0x81, 0x18, 0x03, 0x09, 0x11, 0xe5, 0xde, 0x1c, 0xed, 0x02, 0xda, 0x01, 0xd8,
  0xff, 0xc6, 0x0a, 0x24, 0xed, 0x7f, 0x10, 0xf4, 0xe3, 0xc8, 0x40, 0x1a, 0x2d,
  0xfa, 0x31, 0x51, 0x15, 0xbd, 0x7f, 0x5d, 0x01, 0xdf, 0x31, 0xac, 0x22, 0xfc,
  0x7f, 0x05, 0xe0, 0xe3, 0xf6, 0xf8, 0x03, 0x01, 0x29, 0x23, 0xf8, 0x22, 0xea,
  0xd8, 0x26, 0x59, 0x11, 0xcb, 0xd5, 0x2a, 0x97, 0xe0, 0xda, 0x26, 0x18, 0x39,
  0xed, 0x81, 0x76, 0xf6, 0xff, 0xff, 0x04, 0x00, 0x00, 0x00, 0x60, 0x00, 0x00,
  0x00, 0x00, 0x00, 0x00, 0x00, 0x00, 0x00, 0x00, 0x00, 0x00, 0x00, 0x00, 0x00,
  0x00, 0x00, 0x00, 0x00, 0x00, 0x00, 0x00, 0x00, 0x00, 0x00, 0x00, 0x00, 0x00,
  0x00, 0x00, 0x00, 0x00, 0x00, 0x00, 0x00, 0x00, 0x00, 0x00, 0x00, 0x00, 0x00,
  0x00, 0x00, 0x00, 0x00, 0x00, 0x00, 0x00, 0x00, 0x00, 0x00, 0x00, 0x00, 0x00,
  0x00, 0x00, 0x00, 0x00, 0x00, 0x00, 0x00, 0x00, 0x00, 0x00, 0x00, 0x00, 0x00,
  0x00, 0x00, 0x00, 0x00, 0x00, 0x00, 0x00, 0x00, 0x00, 0x00, 0x00, 0x00, 0x00,
  0x00, 0x00, 0x00, 0x00, 0x00, 0x00, 0x00, 0x00, 0x00, 0x00, 0x00, 0x00, 0x00,
  0x00, 0x00, 0x00, 0x00, 0x00, 0x00, 0xe2, 0xf6, 0xff, 0xff, 0x04, 0x00, 0x00,
  0x00, 0x2d, 0x00, 0x00, 0x00, 0x81, 0xc2, 0x7f, 0x96, 0x81, 0x27, 0x68, 0x81,
  0xc6, 0x41, 0x72, 0x7f, 0x81, 0x7f, 0x9c, 0x0d, 0x0a, 0x27, 0x7f, 0xcf, 0x7f,
  0x7f, 0xd4, 0x7f, 0x7f, 0x7f, 0x3f, 0xde, 0x09, 0x81, 0x0f, 0x81, 0x05, 0x34,
  0xfe, 0xeb, 0xef, 0xd1, 0xb7, 0x5e, 0x74, 0x14, 0xd7, 0x01, 0x0e, 0x00, 0x00,
  0x00, 0x1e, 0xf7, 0xff, 0xff, 0x04, 0x00, 0x00, 0x00, 0x2d, 0x00, 0x00, 0x00,
  0xf6, 0xb4, 0xd8, 0x18, 0x81, 0x10, 0x0d, 0x81, 0xc8, 0x14, 0x31, 0x7f, 0x06,
  0xfe, 0x81, 0x81, 0xe4, 0x7f, 0x7f, 0x6c, 0x81, 0x7f, 0x23, 0x81, 0x81, 0xa1,
  0xfe, 0xfd, 0x5e, 0x0b, 0xfc, 0x81, 0xa4, 0x30, 0xfa, 0x4b, 0x03, 0x38, 0xca,
  0xd3, 0x7f, 0xe6, 0x7f, 0x7f, 0x83, 0x00, 0x00, 0x00, 0x5a, 0xf7, 0xff, 0xff,
  0x04, 0x00, 0x00, 0x00, 0x2c, 0x01, 0x00, 0x00, 0xd2, 0xa8, 0xa8, 0x2a, 0x27,
  0xe8, 0x0c, 0xf3, 0xa9, 0x81, 0xcf, 0x9f, 0x13, 0xb6, 0xef, 0xc8, 0xa7, 0x34,
  0xf6, 0x45, 0x1a, 0xc7, 0xcb, 0x2a, 0x41, 0x1c, 0x15, 0x60, 0x09, 0xd5, 0x0d,
  0x3f, 0x52, 0x38, 0xf1, 0x06, 0xbd, 0x81, 0x32, 0x1b, 0x17, 0xce, 0x23, 0xd0,
  0x33, 0x6c, 0x28, 0x0c, 0xc5, 0x18, 0xf4, 0x2c, 0xdf, 0xae, 0xa3, 0x22, 0xae,
  0x7f, 0x3d, 0x10, 0x40, 0xa2, 0xcf, 0xda, 0xba, 0xdd, 0x72, 0x6c, 0xef, 0x81,
  0xc6, 0xbe, 0x48, 0xf2, 0xbb, 0xcd, 0xd9, 0x24, 0x75, 0x43, 0xcd, 0x22, 0xad,
  0x81, 0x74, 0xb3, 0xfa, 0xa4, 0x2e, 0xcb, 0xf0, 0xce, 0x32, 0x3e, 0xf5, 0x9a,
  0x56, 0x08, 0xd3, 0x28, 0x47, 0xe6, 0xd9, 0x50, 0x18, 0x81, 0x45, 0x16, 0x6e,
  0x0b, 0x5b, 0xac, 0x22, 0x45, 0x7c, 0xf7, 0xfa, 0xa9, 0x5d, 0xd8, 0x7f, 0xa8,
  0x02, 0x7f, 0xd4, 0x03, 0x2f, 0x17, 0xc0, 0xdb, 0xc1, 0x0d, 0xed, 0xf4, 0x82,
  0xde, 0xca, 0x0e, 0xef, 0xb6, 0x23, 0xcf, 0x1b, 0x7f, 0x6c, 0xfb, 0x3f, 0xd3,
  0x46, 0x17, 0xcd, 0xe0, 0x54, 0x1f, 0x6c, 0xfd, 0x6d, 0x01, 0x4b, 0xea, 0x0d,
  0xdd, 0x00, 0xe0, 0x05, 0x14, 0xf1, 0xda, 0xc6, 0xf6, 0xbf, 0x1f, 0x72, 0xb7,
  0xf6, 0x96, 0xd2, 0xf3, 0xac, 0x7f, 0x39, 0xff, 0xf2, 0xdd, 0x44, 0xe4, 0x99,
  0x8a, 0xe5, 0x4e, 0xc5, 0xe5, 0x0c, 0xb6, 0xaa, 0x3a, 0xfb, 0xbe, 0xb1, 0x81,
  0xae, 0x28, 0x1f, 0xc7, 0xb4, 0xac, 0xdf, 0x1d, 0x0d, 0x10, 0xdd, 0xe2, 0xce,
  0xea, 0x7f, 0xd1, 0x54, 0x1c, 0x1c, 0x3c, 0x1d, 0x16, 0xe8, 0xfe, 0x39, 0x22,
  0x7f, 0x2a, 0xfd, 0xc3, 0xf3, 0x96, 0x2e, 0xda, 0x15, 0xcf, 0x11, 0xef, 0x3a,
  0x51, 0x0c, 0xdb, 0x32, 0x6f, 0x81, 0xe6, 0xda, 0xe2, 0xc7, 0x1b, 0xa2, 0xee,
  0x3b, 0xf1, 0xf2, 0xd3, 0x14, 0xcd, 0xd6, 0x1a, 0x06, 0xf1, 0xfd, 0xf1, 0xee,
  0xa4, 0xdd, 0x53, 0x46, 0xcc, 0xd9, 0x81, 0xc9, 0x40, 0xdb, 0xfc, 0x1f, 0x19,
  0x14, 0x82, 0xff, 0x26, 0xf4, 0x4c, 0x81, 0x1e, 0x61, 0x39, 0x03, 0x51, 0x48,
  0x52, 0xca, 0x32, 0xa6, 0xd4, 0x38, 0x5e, 0x2f, 0x14, 0x92, 0xf8, 0xff, 0xff,
  0x04, 0x00, 0x00, 0x00, 0x3c, 0x00, 0x00, 0x00, 0x43, 0x0f, 0xc2, 0xbd, 0xb4,
  0x77, 0x7f, 0x7f, 0xcc, 0x70, 0x0f, 0x7f, 0x81, 0xd0, 0xa3, 0x17, 0xbc, 0x7f,
  0xa3, 0x01, 0x81, 0x81, 0x7f, 0xc6, 0x7f, 0x7f, 0xdc, 0xdc, 0xa5, 0x7f, 0x81,
  0x59, 0x53, 0xab, 0x7f, 0xc9, 0x81, 0x1e, 0xd8, 0xec, 0x3c, 0xc4, 0xef, 0x7f,
  0xcd, 0x17, 0xa7, 0xb3, 0x7f, 0x43, 0xdd, 0x8b, 0x90, 0x7f, 0xdd, 0x7f, 0x14,
  0x23, 0x7f, 0x7f, 0xda, 0xf8, 0xff, 0xff, 0x04, 0x00, 0x00, 0x00, 0x3c, 0x00,
  0x00, 0x00, 0xf1, 0x26, 0x7f, 0xf1, 0x9e, 0x7f, 0x9b, 0x50, 0xeb, 0x7f, 0x16,
  0x81, 0xee, 0x54, 0x7f, 0xa0, 0xef, 0x81, 0xe9, 0x4d, 0x81, 0x08, 0xdb, 0x7f,
  0xea, 0x81, 0x81, 0xb0, 0x7f, 0xc8, 0x83, 0x73, 0x81, 0x7f, 0xa5, 0x7f, 0x7f,
  0xfc, 0x81, 0x81, 0xeb, 0x7f, 0xa2, 0x8d, 0x7f, 0xc6, 0xf1, 0x81, 0x57, 0x0f,
  0x7f, 0x0e, 0x7a, 0x2e, 0x69, 0x27, 0x5b, 0x4b, 0xe6, 0x1a, 0x22, 0xf9, 0xff,
  0xff, 0x04, 0x00, 0x00, 0x00, 0xe1, 0x00, 0x00, 0x00, 0x56, 0xc8, 0xe3, 0xf8,
  0x0f, 0xce, 0xd5, 0xe4, 0x70, 0x99, 0x81, 0xbd, 0xbb, 0x35, 0xf6, 0x37, 0x13,
  0x29, 0x03, 0x10, 0xce, 0xcb, 0x8a, 0x0d, 0x05, 0x06, 0x9d, 0x81, 0xca, 0x21,
  0xeb, 0x3f, 0xe8, 0xd3, 0x9a, 0x0c, 0xe1, 0x2d, 0xfb, 0x81, 0x1f, 0xf4, 0xfb,
  0xf7, 0xf5, 0x52, 0x0f, 0x0a, 0x87, 0xc4, 0x0e, 0xd2, 0xf4, 0x3a, 0x20, 0x15,
  0x19, 0x81, 0x18, 0x11, 0x49, 0x92, 0x98, 0xe6, 0xe2, 0x0a, 0xe7, 0xfc, 0x7f,
  0xe8, 0x25, 0xeb, 0xd3, 0x19, 0xa1, 0x10, 0xf9, 0x64, 0x05, 0x56, 0xd5, 0x0f,
  0xd0, 0xbb, 0x7f, 0xbd, 0x17, 0xb5, 0xc8, 0x6b, 0x1c, 0xa9, 0xa5, 0x57, 0xeb,
  0xd3, 0xd7, 0x2a, 0x3a, 0x30, 0x81, 0x43, 0x32, 0x4d, 0xcb, 0x08, 0x12, 0x14,
  0xae, 0x32, 0xd7, 0xec, 0xf5, 0x2c, 0x1e, 0x81, 0xdf, 0x2b, 0xb5, 0x13, 0x2a,
  0x17, 0x0b, 0xed, 0xfb, 0xf3, 0x0f, 0x07, 0x7f, 0xdd, 0xff, 0xdc, 0xde, 0xff,
  0x14, 0x99, 0xd9, 0xa7, 0xb3, 0x81, 0x13, 0xb0, 0x44, 0xcf, 0xc5, 0x02, 0x7b,
  0x3d, 0x39, 0xb4, 0x17, 0x81, 0xec, 0xdf, 0x17, 0x07, 0x01, 0xfd, 0x2b, 0xf7,
  0x11, 0xfc, 0x07, 0xe7, 0xf9, 0x2e, 0xf8, 0xdd, 0x1a, 0x2b, 0x7f, 0x3e, 0xe7,
  0x1a, 0x24, 0xf5, 0xcf, 0x25, 0x56, 0x3c, 0xe4, 0x24, 0xe0, 0x44, 0x34, 0xe1,
  0x81, 0x34, 0x61, 0x02, 0x8e, 0x2d, 0x65, 0xbb, 0xfa, 0xc3, 0xac, 0xdb, 0x12,
  0xda, 0x41, 0xdb, 0x18, 0x81, 0x2d, 0x2d, 0x39, 0x12, 0x04, 0xce, 0x35, 0x81,
  0x19, 0xcd, 0x59, 0xbe, 0xf7, 0xa0, 0xe8, 0x27, 0xe1, 0xd8, 0x25, 0x1e, 0x07,
  0x00, 0x00, 0x00, 0x12, 0xfa, 0xff, 0xff, 0x04, 0x00, 0x00, 0x00, 0x4b, 0x00,
  0x00, 0x00, 0xb7, 0xf7, 0x07, 0x7f, 0xf8, 0xf7, 0x26, 0x06, 0xff, 0xfd, 0xf9,
  0x81, 0xf6, 0x0d, 0x81, 0x81, 0x96, 0xbc, 0x11, 0xc0, 0x2f, 0xf5, 0x7f, 0x3e,
  0xdc, 0xce, 0x1e, 0x92, 0xdb, 0xe0, 0xce, 0xad, 0x3a, 0xcc, 0xd4, 0x7f, 0x75,
  0x0e, 0x7f, 0xa7, 0xe8, 0x0b, 0x81, 0x2b, 0x22, 0x19, 0x7f, 0x7f, 0x0f, 0x7f,
  0x03, 0x7f, 0xb2, 0xf1, 0x81, 0x81, 0xec, 0x76, 0x7f, 0xc8, 0x0a, 0xd2, 0xf0,
  0xf1, 0x25, 0xee, 0xf9, 0xf2, 0x01, 0x82, 0x1f, 0xf3, 0xc6, 0xcd, 0x0e, 0x00,
  0x6a, 0xfa, 0xff, 0xff, 0x04, 0x00, 0x00, 0x00, 0x4b, 0x00, 0x00, 0x00, 0x02,
  0x0a, 0x2b, 0xec, 0x01, 0xfb, 0xef, 0xfd, 0xf4, 0x0f, 0xf0, 0x08, 0xfd, 0x85,
  0xf5, 0xcb, 0x42, 0x81, 0x00, 0x03, 0x7f, 0x8a, 0x0a, 0x46, 0xe9, 0xfc, 0x50,
  0x03, 0xfb, 0x83, 0x81, 0x81, 0x5b, 0x7f, 0xea, 0xe4, 0x81, 0x0e, 0x81, 0x7f,
  0x81, 0x4d, 0xe1, 0x7f, 0x81, 0xf7, 0x21, 0x27, 0xf3, 0x7f, 0xb3, 0x00, 0x81,
  0xd8, 0x07, 0x00, 0x7f, 0x81, 0x17, 0x3e, 0x18, 0xfd, 0xd6, 0xf7, 0x2d, 0xc1,
  0x5f, 0x00, 0xfa, 0x18, 0xe5, 0x3c, 0x00, 0xfc, 0x51, 0x00, 0xc2, 0xfa, 0xff,
  0xff, 0x04, 0x00, 0x00, 0x00, 0x2c, 0x01, 0x00, 0x00, 0x73, 0xe4, 0x81, 0xcd,
  0xf2, 0xd7, 0x1e, 0x51, 0xe1, 0xeb, 0x08, 0x06, 0xab, 0xf0, 0x16, 0x4a, 0xaf,
  0x07, 0xda, 0x20, 0x33, 0xea, 0xe9, 0xf6, 0xf7, 0x7f, 0xea, 0xed, 0xf3, 0x09,
  0x13, 0x1e, 0xda, 0xeb, 0xfb, 0x6c, 0x2d, 0x4c, 0xe2, 0xe7, 0xe0, 0x1d, 0x22,
  0xff, 0xe4, 0x4c, 0x5a, 0x30, 0xfe, 0xeb, 0xeb, 0x7f, 0x33, 0xe3, 0xe8, 0xe9,
  0xe9, 0x0e, 0x23, 0xb9, 0x29, 0x29, 0x81, 0xea, 0xfd, 0xb2, 0x53, 0x31, 0xf2,
  0xa7, 0xf8, 0xd4, 0xeb, 0x2b, 0xf9, 0xbd, 0x43, 0xb7, 0x32, 0xf3, 0x0b, 0xbf,
  0x0f, 0xe8, 0x00, 0x5a, 0xce, 0xf2, 0x2f, 0x24, 0xdf, 0xcb, 0x13, 0x81, 0x08,
  0x16, 0x26, 0x0a, 0x04, 0x00, 0xca, 0x0a, 0x07, 0x09, 0x00, 0xe1, 0x18, 0x1d,
  0xce, 0xfc, 0x07, 0x06, 0xd5, 0xfb, 0xef, 0x7f, 0xfb, 0xe3, 0x14, 0x43, 0xe8,
  0xc0, 0xea, 0xf6, 0xfa, 0xb5, 0x13, 0xf7, 0x1b, 0x5f, 0xf5, 0x16, 0x8e, 0x19,
  0xe4, 0x14, 0x7f, 0xbf, 0x59, 0x59, 0x23, 0xe1, 0x1c, 0xc6, 0x07, 0xf1, 0x81,
  0xe6, 0x07, 0xf7, 0xcf, 0xe8, 0x07, 0x81, 0x06, 0x4b, 0xb1, 0x1c, 0x07, 0x0c,
  0x20, 0xef, 0xf0, 0xe0, 0xfd, 0xc2, 0x09, 0x1a, 0xe3, 0x12, 0x7f, 0xd3, 0x05,
  0x0a, 0xf9, 0x2a, 0x11, 0x0f, 0x0a, 0x21, 0xd9, 0x40, 0x5e, 0x90, 0xfc, 0x7f,
  0xa8, 0xd5, 0xf0, 0xdb, 0xb2, 0xcc, 0xfe, 0x3d, 0xfd, 0xb5, 0xe6, 0x13, 0xfb,
  0x0f, 0xf7, 0x81, 0xdc, 0xfe, 0xff, 0xc2, 0x0c, 0x8c, 0xea, 0x13, 0xee, 0xfb,
  0x02, 0xfd, 0x03, 0xe8, 0x09, 0x00, 0x07, 0x02, 0x7f, 0xff, 0xd6, 0x72, 0x13,
  0xdb, 0x45, 0x49, 0x53, 0x4d, 0x5c, 0x1f, 0x18, 0xe3, 0x19, 0x62, 0xc4, 0xb6,
  0xe8, 0xe9, 0xfd, 0x05, 0x21, 0xf4, 0x0e, 0x00, 0xdb, 0xf0, 0x7f, 0x37, 0x13,
  0x98, 0x69, 0xb2, 0x0a, 0xf6, 0xbc, 0x2c, 0x22, 0x3f, 0xfe, 0x20, 0xf7, 0x02,
  0xf8, 0xe8, 0xff, 0x17, 0xff, 0xbf, 0xf6, 0xf0, 0x2b, 0x08, 0xfe, 0x04, 0x81,
  0x2d, 0xce, 0xd9, 0x81, 0x2f, 0x64, 0x06, 0x04, 0x4c, 0xb6, 0x0b, 0x21, 0x60,
  0xc1, 0x41, 0xdc, 0xfa, 0xf6, 0x17, 0x83, 0x2f, 0x24, 0x05, 0xfa, 0xfb, 0xff,
  0xff, 0x04, 0x00, 0x00, 0x00, 0x78, 0x00, 0x00, 0x00, 0x00, 0x00, 0x00, 0x00,
  0x00, 0x00, 0x00, 0x00, 0x00, 0x00, 0x00, 0x00, 0x00, 0x00, 0x00, 0x00, 0x00,
  0x00, 0x00, 0x00, 0x00, 0x00, 0x00, 0x00, 0x00, 0x00, 0x00, 0x00, 0x00, 0x00,
  0x00, 0x00, 0x00, 0x00, 0x00, 0x00, 0x00, 0x00, 0x00, 0x00, 0x00, 0x00, 0x00,
  0x00, 0x00, 0x00, 0x00, 0x00, 0x00, 0x00, 0x00, 0x00, 0x00, 0x00, 0x00, 0x00,
  0x00, 0x00, 0x00, 0x00, 0x00, 0x00, 0x00, 0x00, 0x00, 0x00, 0x00, 0x00, 0x00,
  0x00, 0x00, 0x00, 0x00, 0x00, 0x00, 0x00, 0x00, 0x00, 0x00, 0x00, 0x00, 0x00,
  0x00, 0x00, 0x00, 0x00, 0x00, 0x00, 0x00, 0x00, 0x00, 0x00, 0x00, 0x00, 0x00,
  0x00, 0x00, 0x00, 0x00, 0x00, 0x00, 0x00, 0x00, 0x00, 0x00, 0x00, 0x00, 0x00,
  0x00, 0x00, 0x00, 0x00, 0x00, 0x00, 0x00, 0x00, 0x00, 0x00, 0x00, 0x00, 0x7e,
  0xfc, 0xff, 0xff, 0x04, 0x00, 0x00, 0x00, 0x3c, 0x00, 0x00, 0x00, 0xfa, 0x71,
  0x56, 0xa6, 0xd0, 0x46, 0x5d, 0x7f, 0x45, 0x7f, 0x42, 0x81, 0x7f, 0x81, 0x97,
  0x95, 0x54, 0x81, 0x7f, 0x7f, 0x4f, 0x81, 0x00, 0x7f, 0x7f, 0x81, 0x24, 0xc3,
  0x7f, 0xbe, 0xe8, 0x3c, 0x22, 0x64, 0x7f, 0x7f, 0xaf, 0x0e, 0xd0, 0x54, 0x81,
  0x19, 0x81, 0xcc, 0xd3, 0x25, 0x81, 0xc0, 0xce, 0x44, 0x81, 0xe3, 0xf5, 0x06,
  0xa9, 0x08, 0x7f, 0xee, 0x49, 0xf1, 0xc6, 0xfc, 0xff, 0xff, 0x04, 0x00, 0x00,
  0x00, 0x3c, 0x00, 0x00, 0x00, 0xb9, 0x45, 0x09, 0xce, 0x1c, 0x06, 0x45, 0xf6,
  0x81, 0x17, 0x7d, 0x81, 0x1e, 0x81, 0x5d, 0x46, 0x39, 0x04, 0x5f, 0xe5, 0x7f,
  0x44, 0x06, 0x81, 0x55, 0xb8, 0x7f, 0x7f, 0x51, 0x52, 0x7f, 0x8b, 0x81, 0x7f,
  0x81, 0x81, 0x81, 0x71, 0x17, 0x81, 0xe1, 0x81, 0x7f, 0x1a, 0x7f, 0x7f, 0xe9,
  0x90, 0x38, 0x81, 0xfa, 0xcc, 0x65, 0xf0, 0xf4, 0x37, 0x52, 0x81, 0x81, 0x74,
  0x0e, 0xfd, 0xff, 0xff, 0x04, 0x00, 0x00, 0x00, 0x14, 0x00, 0x00, 0x00, 0x81,
  0x81, 0x7f, 0x81, 0x7f, 0x7f, 0x81, 0x81, 0x81, 0x7f, 0x81, 0x81, 0x7f, 0x81,
  0x7f, 0x81, 0x81, 0x7f, 0x7f, 0x81, 0x2e, 0xfd, 0xff, 0xff, 0x04, 0x00, 0x00,
  0x00, 0xa0, 0x00, 0x00, 0x00, 0x00, 0x00, 0x00, 0x00, 0x00, 0x00, 0x00, 0x00,
  0x00, 0x00, 0x00, 0x00, 0x00, 0x00, 0x00, 0x00, 0x00, 0x00, 0x00, 0x00, 0x00,
  0x00, 0x00, 0x00, 0x00, 0x00, 0x00, 0x00, 0x00, 0x00, 0x00, 0x00, 0x00, 0x00,
  0x00, 0x00, 0x00, 0x00, 0x00, 0x00, 0x00, 0x00, 0x00, 0x00, 0x00, 0x00, 0x00,
  0x00, 0x00, 0x00, 0x00, 0x00, 0x00, 0x00, 0x00, 0x00, 0x00, 0x00, 0x00, 0x00,
  0x00, 0x00, 0x00, 0x00, 0x00, 0x00, 0x00, 0x00, 0x00, 0x00, 0x00, 0x00, 0x00,
  0x00, 0x00, 0x00, 0x00, 0x00, 0x00, 0x00, 0x00, 0x00, 0x00, 0x00, 0x00, 0x00,
  0x00, 0x00, 0x00, 0x00, 0x00, 0x00, 0x00, 0x00, 0x00, 0x00, 0x00, 0x00, 0x00,
  0x00, 0x00, 0x00, 0x00, 0x00, 0x00, 0x00, 0x00, 0x00, 0x00, 0x00, 0x00, 0x00,
  0x00, 0x00, 0x00, 0x00, 0x00, 0x00, 0x00, 0x00, 0x00, 0x00, 0x00, 0x00, 0x00,
  0x00, 0x00, 0x00, 0x00, 0x00, 0x00, 0x00, 0x00, 0x00, 0x00, 0x00, 0x00, 0x00,
  0x00, 0x00, 0x00, 0x00, 0x00, 0x00, 0x00, 0x00, 0x00, 0x00, 0x00, 0x00, 0x00,
  0x00, 0x00, 0x00, 0x00, 0x00, 0x00, 0x00, 0x00, 0x00, 0xda, 0xfd, 0xff, 0xff,
  0x04, 0x00, 0x00, 0x00, 0x05, 0x00, 0x00, 0x00, 0x01, 0x02, 0x02, 0x7f, 0xf6,
  0x00, 0x00, 0x00, 0xee, 0xfd, 0xff, 0xff, 0x04, 0x00, 0x00, 0x00, 0x05, 0x00,
  0x00, 0x00, 0x07, 0x81, 0x07, 0xfc, 0xfd, 0x00, 0x00, 0x00, 0x02, 0xfe, 0xff,
  0xff, 0x04, 0x00, 0x00, 0x00, 0x08, 0x00, 0x00, 0x00, 0x00, 0x00, 0x00, 0x00,
  0x00, 0x00, 0x00, 0x00, 0x16, 0xfe, 0xff, 0xff, 0x04, 0x00, 0x00, 0x00, 0x20,
  0x00, 0x00, 0x00, 0x00, 0x00, 0x00, 0x00, 0x00, 0x00, 0x00, 0x00, 0x02, 0x00,
  0x00, 0x00, 0x02, 0x00, 0x00, 0x00, 0x02, 0x00, 0x00, 0x00, 0x02, 0x00, 0x00,
  0x00, 0x00, 0x00, 0x00, 0x00, 0x00, 0x00, 0x00, 0x00, 0x42, 0xfe, 0xff, 0xff,
  0x04, 0x00, 0x00, 0x00, 0x78, 0x00, 0x00, 0x00, 0xe1, 0x2d, 0x00, 0x00, 0x00,
  0x00, 0x00, 0x00, 0x28, 0x3a, 0xfd, 0xff, 0xff, 0xff, 0xff, 0xff, 0x22, 0x8f,
  0xff, 0xff, 0xff, 0xff, 0xff, 0xff, 0xfd, 0x67, 0x08, 0x00, 0x00, 0x00, 0x00,
  0x00, 0x24, 0x2b, 0x01, 0x00, 0x00, 0x00, 0x00, 0x00, 0xb8, 0x03, 0x00, 0x00,
  0x00, 0x00, 0x00, 0x00, 0xf7, 0x28, 0x00, 0x00, 0x00, 0x00, 0x00, 0x00, 0xdb,
  0x49, 0xff, 0xff, 0xff, 0xff, 0xff, 0xff, 0x9b, 0x6d, 0xff, 0xff, 0xff, 0xff,
  0xff, 0xff, 0x33, 0xe6, 0xff, 0xff, 0xff, 0xff, 0xff, 0xff, 0xaa, 0xaa, 0xff,
  0xff, 0xff, 0xff, 0xff, 0xff, 0xe9, 0xdf, 0xfe, 0xff, 0xff, 0xff, 0xff, 0xff,
  0x6a, 0xa5, 0xff, 0xff, 0xff, 0xff, 0xff, 0xff, 0x4d, 0x85, 0x00, 0x00, 0x00,
  0x00, 0x00, 0x00, 0xbb, 0x41, 0x00, 0x00, 0x00, 0x00, 0x00, 0x00, 0xc6, 0xfe,
  0xff, 0xff, 0x04, 0x00, 0x00, 0x00, 0x60, 0x00, 0x00, 0x00, 0x10, 0xfc, 0xff,
  0xff, 0xff, 0xff, 0xff, 0xff, 0x4e, 0xdf, 0xff, 0xff, 0xff, 0xff, 0xff, 0xff,
  0x51, 0xb3, 0xff, 0xff, 0xff, 0xff, 0xff, 0xff, 0xae, 0xa6, 0x01, 0x00, 0x00,
  0x00, 0x00, 0x00, 0x23, 0x17, 0x00, 0x00, 0x00, 0x00, 0x00, 0x00, 0xad, 0x1f,
  0x00, 0x00, 0x00, 0x00, 0x00, 0x00, 0xf1, 0xd3, 0xff, 0xff, 0xff, 0xff, 0xff,
  0xff, 0xd6, 0xd2, 0xff, 0xff, 0xff, 0xff, 0xff, 0xff, 0xbd, 0x21, 0x00, 0x00,
  0x00, 0x00, 0x00, 0x00, 0x18, 0x49, 0x00, 0x00, 0x00, 0x00, 0x00, 0x00, 0xbf,
  0x8c, 0xff, 0xff, 0xff, 0xff, 0xff, 0xff, 0x22, 0x90, 0xfe, 0xff, 0xff, 0xff,
  0xff, 0xff, 0x32, 0xff, 0xff, 0xff, 0x04, 0x00, 0x00, 0x00, 0x48, 0x00, 0x00,
  0x00, 0xe1, 0x29, 0x01, 0x00, 0x00, 0x00, 0x00, 0x00, 0x23, 0xac, 0xf9, 0xff,
  0xff, 0xff, 0xff, 0xff, 0x2c, 0xe1, 0xff, 0xff, 0xff, 0xff, 0xff, 0xff, 0x07,
  0x79, 0xff, 0xff, 0xff, 0xff, 0xff, 0xff, 0xb7, 0xbf, 0xff, 0xff, 0xff, 0xff,
  0xff, 0xff, 0x2d, 0x93, 0xff, 0xff, 0xff, 0xff, 0xff, 0xff, 0x0c, 0x28, 0x02,
  0x00, 0x00, 0x00, 0x00, 0x00, 0x19, 0xb3, 0x00, 0x00, 0x00, 0x00, 0x00, 0x00,
  0x45, 0x3c, 0x00, 0x00, 0x00, 0x00, 0x00, 0x00, 0x86, 0xff, 0xff, 0xff, 0x04,
  0x00, 0x00, 0x00, 0x38, 0x00, 0x00, 0x00, 0x6c, 0x87, 0x00, 0x00, 0x00, 0x00,
  0x00, 0x00, 0x97, 0x78, 0x01, 0x00, 0x00, 0x00, 0x00, 0x00, 0x60, 0x54, 0x02,
  0x00, 0x00, 0x00, 0x00, 0x00, 0xaa, 0x86, 0x04, 0x00, 0x00, 0x00, 0x00, 0x00,
  0x1a, 0x5f, 0x00, 0x00, 0x00, 0x00, 0x00, 0x00, 0x56, 0xb9, 0x00, 0x00, 0x00,
  0x00, 0x00, 0x00, 0x4e, 0x50, 0x00, 0x00, 0x00, 0x00, 0x00, 0x00, 0xca, 0xff,
  0xff, 0xff, 0x04, 0x00, 0x00, 0x00, 0x28, 0x00, 0x00, 0x00, 0x51, 0xce, 0x01,
  0x00, 0x00, 0x00, 0x00, 0x00, 0x33, 0x34, 0xff, 0xff, 0xff, 0xff, 0xff, 0xff,
  0x84, 0xc8, 0x02, 0x00, 0x00, 0x00, 0x00, 0x00, 0x9a, 0xed, 0xf4, 0xff, 0xff,
  0xff, 0xff, 0xff, 0x3e, 0x91, 0x01, 0x00, 0x00, 0x00, 0x00, 0x00, 0x00, 0x00,
  0x06, 0x00, 0x08, 0x00, 0x04, 0x00, 0x06, 0x00, 0x00, 0x00, 0x04, 0x00, 0x00,
  0x00, 0x28, 0x00, 0x00, 0x00, 0x83, 0x61, 0xfd, 0xff, 0xff, 0xff, 0xff, 0xff,
  0x68, 0x37, 0xfe, 0xff, 0xff, 0xff, 0xff, 0xff, 0x3b, 0x68, 0xfa, 0xff, 0xff,
  0xff, 0xff, 0xff, 0x44, 0x14, 0x00, 0x00, 0x00, 0x00, 0x00, 0x00, 0xcc, 0x93,
  0x02, 0x00, 0x00, 0x00, 0x00, 0x00, 0x48, 0x7d, 0xff, 0xff, 0x4c, 0x7d, 0xff,
  0xff, 0x0f, 0x00, 0x00, 0x00, 0x4d, 0x4c, 0x49, 0x52, 0x20, 0x43, 0x6f, 0x6e,
  0x76, 0x65, 0x72, 0x74, 0x65, 0x64, 0x2e, 0x00, 0x01, 0x00, 0x00, 0x00, 0x14,
  0x00, 0x00, 0x00, 0x00, 0x00, 0x0e, 0x00, 0x18, 0x00, 0x14, 0x00, 0x10, 0x00,
  0x0c, 0x00, 0x08, 0x00, 0x04, 0x00, 0x0e, 0x00, 0x00, 0x00, 0x14, 0x00, 0x00,
  0x00, 0x1c, 0x00, 0x00, 0x00, 0x50, 0x11, 0x00, 0x00, 0x54, 0x11, 0x00, 0x00,
  0x58, 0x11, 0x00, 0x00, 0x04, 0x00, 0x00, 0x00, 0x6d, 0x61, 0x69, 0x6e, 0x00,
  0x00, 0x00, 0x00, 0x42, 0x00, 0x00, 0x00, 0x14, 0x11, 0x00, 0x00, 0xd8, 0x10,
  0x00, 0x00, 0x78, 0x10, 0x00, 0x00, 0x24, 0x10, 0x00, 0x00, 0xd8, 0x0f, 0x00,
  0x00, 0x94, 0x0f, 0x00, 0x00, 0x50, 0x0f, 0x00, 0x00, 0x00, 0x0f, 0x00, 0x00,
  0xbc, 0x0e, 0x00, 0x00, 0x78, 0x0e, 0x00, 0x00, 0x38, 0x0e, 0x00, 0x00, 0xf4,
  0x0d, 0x00, 0x00, 0xb0, 0x0d, 0x00, 0x00, 0x70, 0x0d, 0x00, 0x00, 0x30, 0x0d,
  0x00, 0x00, 0xec, 0x0c, 0x00, 0x00, 0xa8, 0x0c, 0x00, 0x00, 0x64, 0x0c, 0x00,
  0x00, 0x20, 0x0c, 0x00, 0x00, 0xdc, 0x0b, 0x00, 0x00, 0x9c, 0x0b, 0x00, 0x00,
  0x58, 0x0b, 0x00, 0x00, 0x14, 0x0b, 0x00, 0x00, 0xd4, 0x0a, 0x00, 0x00, 0x9c,
  0x0a, 0x00, 0x00, 0x58, 0x0a, 0x00, 0x00, 0x14, 0x0a, 0x00, 0x00, 0xd0, 0x09,
  0x00, 0x00, 0x8c, 0x09, 0x00, 0x00, 0x48, 0x09, 0x00, 0x00, 0x08, 0x09, 0x00,
  0x00, 0xc4, 0x08, 0x00, 0x00, 0x80, 0x08, 0x00, 0x00, 0x40, 0x08, 0x00, 0x00,
  0x08, 0x08, 0x00, 0x00, 0xc4, 0x07, 0x00, 0x00, 0x80, 0x07, 0x00, 0x00, 0x3c,
  0x07, 0x00, 0x00, 0xf8, 0x06, 0x00, 0x00, 0xb4, 0x06, 0x00, 0x00, 0x74, 0x06,
  0x00, 0x00, 0x30, 0x06, 0x00, 0x00, 0xec, 0x05, 0x00, 0x00, 0xac, 0x05, 0x00,
  0x00, 0x74, 0x05, 0x00, 0x00, 0x30, 0x05, 0x00, 0x00, 0xec, 0x04, 0x00, 0x00,
  0xa8, 0x04, 0x00, 0x00, 0x64, 0x04, 0x00, 0x00, 0x20, 0x04, 0x00, 0x00, 0xe0,
  0x03, 0x00, 0x00, 0x9c, 0x03, 0x00, 0x00, 0x58, 0x03, 0x00, 0x00, 0x18, 0x03,
  0x00, 0x00, 0xe0, 0x02, 0x00, 0x00, 0x9c, 0x02, 0x00, 0x00, 0x58, 0x02, 0x00,
  0x00, 0x14, 0x02, 0x00, 0x00, 0xd0, 0x01, 0x00, 0x00, 0x8c, 0x01, 0x00, 0x00,
  0x4c, 0x01, 0x00, 0x00, 0x14, 0x01, 0x00, 0x00, 0xc0, 0x00, 0x00, 0x00, 0x78,
  0x00, 0x00, 0x00, 0x28, 0x00, 0x00, 0x00, 0x04, 0x00, 0x00, 0x00, 0xfe, 0xef,
  0xff, 0xff, 0x0c, 0x00, 0x00, 0x00, 0x10, 0x00, 0x00, 0x00, 0x05, 0x00, 0x00,
  0x00, 0x01, 0x00, 0x00, 0x00, 0x91, 0x00, 0x00, 0x00, 0x01, 0x00, 0x00, 0x00,
  0x8f, 0x00, 0x00, 0x00, 0xb6, 0xf0, 0xff, 0xff, 0x20, 0x00, 0x00, 0x00, 0x00,
  0x00, 0x00, 0x01, 0x28, 0x00, 0x00, 0x00, 0x2c, 0x00, 0x00, 0x00, 0x02, 0x00,
  0x00, 0x00, 0x00, 0x00, 0x0a, 0x00, 0x10, 0x00, 0x0f, 0x00, 0x08, 0x00, 0x04,
  0x00, 0x0a, 0x00, 0x00, 0x00, 0x01, 0x00, 0x00, 0x00, 0x01, 0x00, 0x00, 0x00,
  0x00, 0x00, 0x00, 0x01, 0x01, 0x00, 0x00, 0x00, 0x8f, 0x00, 0x00, 0x00, 0x03,
  0x00, 0x00, 0x00, 0x8e, 0x00, 0x00, 0x00, 0x47, 0x00, 0x00, 0x00, 0x4f, 0x00,
  0x00, 0x00, 0x02, 0xf1, 0xff, 0xff, 0x14, 0x00, 0x00, 0x00, 0x00, 0x00, 0x00,
  0x02, 0x20, 0x00, 0x00, 0x00, 0x24, 0x00, 0x00, 0x00, 0x01, 0x00, 0x00, 0x00,
  0xbc, 0xff, 0xff, 0xff, 0x01, 0x00, 0x00, 0x00, 0x01, 0x00, 0x00, 0x00, 0x01,
  0x00, 0x00, 0x00, 0x00, 0x00, 0x00, 0x01, 0x01, 0x00, 0x00, 0x00, 0x8e, 0x00,
  0x00, 0x00, 0x03, 0x00, 0x00, 0x00, 0x8d, 0x00, 0x00, 0x00, 0x46, 0x00, 0x00,
  0x00, 0x37, 0x00, 0x00, 0x00, 0x46, 0xf1, 0xff, 0xff, 0x20, 0x00, 0x00, 0x00,
  0x00, 0x00, 0x00, 0x02, 0x2c, 0x00, 0x00, 0x00, 0x30, 0x00, 0x00, 0x00, 0x01,
  0x00, 0x00, 0x00, 0x0c, 0x00, 0x14, 0x00, 0x13, 0x00, 0x0c, 0x00, 0x08, 0x00,
  0x04, 0x00, 0x0c, 0x00, 0x00, 0x00, 0x01, 0x00, 0x00, 0x00, 0x01, 0x00, 0x00,
  0x00, 0x01, 0x00, 0x00, 0x00, 0x00, 0x00, 0x00, 0x01, 0x01, 0x00, 0x00, 0x00,
  0x8d, 0x00, 0x00, 0x00, 0x03, 0x00, 0x00, 0x00, 0x8c, 0x00, 0x00, 0x00, 0x45,
  0x00, 0x00, 0x00, 0x37, 0x00, 0x00, 0x00, 0x96, 0xf1, 0xff, 0xff, 0x14, 0x00,
  0x00, 0x00, 0x00, 0x00, 0x00, 0x0b, 0x14, 0x00, 0x00, 0x00, 0x18, 0x00, 0x00,
  0x00, 0x03, 0x00, 0x00, 0x00, 0xa0, 0xf4, 0xff, 0xff, 0x00, 0x00, 0x00, 0x00,
  0x01, 0x00, 0x00, 0x00, 0x8c, 0x00, 0x00, 0x00, 0x02, 0x00, 0x00, 0x00, 0x85,
  0x00, 0x00, 0x00, 0x8b, 0x00, 0x00, 0x00, 0xca, 0xf1, 0xff, 0xff, 0x14, 0x00,
  0x00, 0x00, 0x00, 0x00, 0x00, 0x01, 0x18, 0x00, 0x00, 0x00, 0x1c, 0x00, 0x00,
  0x00, 0x02, 0x00, 0x00, 0x00, 0x52, 0xf2, 0xff, 0xff, 0x01, 0x00, 0x00, 0x00,
  0x01, 0x00, 0x00, 0x00, 0x01, 0x00, 0x00, 0x00, 0x8b, 0x00, 0x00, 0x00, 0x03,
  0x00, 0x00, 0x00, 0x8a, 0x00, 0x00, 0x00, 0x44, 0x00, 0x00, 0x00, 0x4e, 0x00,
  0x00, 0x00, 0x06, 0xf2, 0xff, 0xff, 0x14, 0x00, 0x00, 0x00, 0x00, 0x00, 0x00,
  0x02, 0x1c, 0x00, 0x00, 0x00, 0x20, 0x00, 0x00, 0x00, 0x01, 0x00, 0x00, 0x00,
  0xf8, 0xf1, 0xff, 0xff, 0x01, 0x00, 0x00, 0x00, 0x01, 0x00, 0x00, 0x00, 0x01,
  0x00, 0x00, 0x00, 0x01, 0x00, 0x00, 0x00, 0x8a, 0x00, 0x00, 0x00, 0x03, 0x00,
  0x00, 0x00, 0x89, 0x00, 0x00, 0x00, 0x43, 0x00, 0x00, 0x00, 0x37, 0x00, 0x00,
  0x00, 0x46, 0xf2, 0xff, 0xff, 0x14, 0x00, 0x00, 0x00, 0x00, 0x00, 0x00, 0x02,
  0x1c, 0x00, 0x00, 0x00, 0x20, 0x00, 0x00, 0x00, 0x01, 0x00, 0x00, 0x00, 0x38,
  0xf2, 0xff, 0xff, 0x01, 0x00, 0x00, 0x00, 0x01, 0x00, 0x00, 0x00, 0x01, 0x00,
  0x00, 0x00, 0x01, 0x00, 0x00, 0x00, 0x89, 0x00, 0x00, 0x00, 0x03, 0x00, 0x00,
  0x00, 0x88, 0x00, 0x00, 0x00, 0x42, 0x00, 0x00, 0x00, 0x37, 0x00, 0x00, 0x00,
  0x86, 0xf2, 0xff, 0xff, 0x14, 0x00, 0x00, 0x00, 0x00, 0x00, 0x00, 0x01, 0x1c,
  0x00, 0x00, 0x00, 0x20, 0x00, 0x00, 0x00, 0x02, 0x00, 0x00, 0x00, 0xdc, 0xf3,
  0xff, 0xff, 0x00, 0x00, 0x00, 0x01, 0x01, 0x00, 0x00, 0x00, 0x01, 0x00, 0x00,
  0x00, 0x01, 0x00, 0x00, 0x00, 0x88, 0x00, 0x00, 0x00, 0x03, 0x00, 0x00, 0x00,
  0x87, 0x00, 0x00, 0x00, 0x41, 0x00, 0x00, 0x00, 0x01, 0x00, 0x00, 0x00, 0xc6,
  0xf2, 0xff, 0xff, 0x14, 0x00, 0x00, 0x00, 0x00, 0x00, 0x00, 0x02, 0x1c, 0x00,
  0x00, 0x00, 0x20, 0x00, 0x00, 0x00, 0x01, 0x00, 0x00, 0x00, 0xb8, 0xf2, 0xff,
  0xff, 0x01, 0x00, 0x00, 0x00, 0x01, 0x00, 0x00, 0x00, 0x01, 0x00, 0x00, 0x00,
  0x01, 0x00, 0x00, 0x00, 0x87, 0x00, 0x00, 0x00, 0x03, 0x00, 0x00, 0x00, 0x86,
  0x00, 0x00, 0x00, 0x40, 0x00, 0x00, 0x00, 0x37, 0x00, 0x00, 0x00, 0x06, 0xf3,
  0xff, 0xff, 0x14, 0x00, 0x00, 0x00, 0x00, 0x00, 0x00, 0x02, 0x1c, 0x00, 0x00,
  0x00, 0x20, 0x00, 0x00, 0x00, 0x01, 0x00, 0x00, 0x00, 0xf8, 0xf2, 0xff, 0xff,
  0x01, 0x00, 0x00, 0x00, 0x01, 0x00, 0x00, 0x00, 0x01, 0x00, 0x00, 0x00, 0x01,
  0x00, 0x00, 0x00, 0x86, 0x00, 0x00, 0x00, 0x03, 0x00, 0x00, 0x00, 0x85, 0x00,
  0x00, 0x00, 0x3f, 0x00, 0x00, 0x00, 0x37, 0x00, 0x00, 0x00, 0x46, 0xf3, 0xff,
  0xff, 0x14, 0x00, 0x00, 0x00, 0x00, 0x00, 0x00, 0x0b, 0x14, 0x00, 0x00, 0x00,
  0x18, 0x00, 0x00, 0x00, 0x03, 0x00, 0x00, 0x00, 0x50, 0xf6, 0xff, 0xff, 0x00,
  0x00, 0x00, 0x00, 0x01, 0x00, 0x00, 0x00, 0x85, 0x00, 0x00, 0x00, 0x02, 0x00,
  0x00, 0x00, 0x84, 0x00, 0x00, 0x00, 0x81, 0x00, 0x00, 0x00, 0x7a, 0xf3, 0xff,
  0xff, 0x14, 0x00, 0x00, 0x00, 0x00, 0x00, 0x00, 0x01, 0x18, 0x00, 0x00, 0x00,
  0x1c, 0x00, 0x00, 0x00, 0x02, 0x00, 0x00, 0x00, 0x02, 0xf4, 0xff, 0xff, 0x01,
  0x00, 0x00, 0x00, 0x01, 0x00, 0x00, 0x00, 0x01, 0x00, 0x00, 0x00, 0x84, 0x00,
  0x00, 0x00, 0x03, 0x00, 0x00, 0x00, 0x83, 0x00, 0x00, 0x00, 0x3e, 0x00, 0x00,
  0x00, 0x4d, 0x00, 0x00, 0x00, 0xb6, 0xf3, 0xff, 0xff, 0x14, 0x00, 0x00, 0x00,
  0x00, 0x00, 0x00, 0x02, 0x1c, 0x00, 0x00, 0x00, 0x20, 0x00, 0x00, 0x00, 0x01,
  0x00, 0x00, 0x00, 0xa8, 0xf3, 0xff, 0xff, 0x01, 0x00, 0x00, 0x00, 0x01, 0x00,
  0x00, 0x00, 0x01, 0x00, 0x00, 0x00, 0x01, 0x00, 0x00, 0x00, 0x83, 0x00, 0x00,
  0x00, 0x03, 0x00, 0x00, 0x00, 0x82, 0x00, 0x00, 0x00, 0x3d, 0x00, 0x00, 0x00,
  0x2d, 0x00, 0x00, 0x00, 0xf6, 0xf3, 0xff, 0xff, 0x14, 0x00, 0x00, 0x00, 0x00,
  0x00, 0x00, 0x02, 0x1c, 0x00, 0x00, 0x00, 0x20, 0x00, 0x00, 0x00, 0x01, 0x00,
  0x00, 0x00, 0xe8, 0xf3, 0xff, 0xff, 0x01, 0x00, 0x00, 0x00, 0x01, 0x00, 0x00,
  0x00, 0x01, 0x00, 0x00, 0x00, 0x01, 0x00, 0x00, 0x00, 0x82, 0x00, 0x00, 0x00,
  0x03, 0x00, 0x00, 0x00, 0x7b, 0x00, 0x00, 0x00, 0x3c, 0x00, 0x00, 0x00, 0x2d,
  0x00, 0x00, 0x00, 0x36, 0xf4, 0xff, 0xff, 0x14, 0x00, 0x00, 0x00, 0x00, 0x00,
  0x00, 0x01, 0x18, 0x00, 0x00, 0x00, 0x1c, 0x00, 0x00, 0x00, 0x02, 0x00, 0x00,
  0x00, 0xbe, 0xf4, 0xff, 0xff, 0x01, 0x00, 0x00, 0x00, 0x01, 0x00, 0x00, 0x00,
  0x01, 0x00, 0x00, 0x00, 0x81, 0x00, 0x00, 0x00, 0x03, 0x00, 0x00, 0x00, 0x80,
  0x00, 0x00, 0x00, 0x3b, 0x00, 0x00, 0x00, 0x4d, 0x00, 0x00, 0x00, 0x72, 0xf4,
  0xff, 0xff, 0x14, 0x00, 0x00, 0x00, 0x00, 0x00, 0x00, 0x02, 0x1c, 0x00, 0x00,
  0x00, 0x20, 0x00, 0x00, 0x00, 0x01, 0x00, 0x00, 0x00, 0x64, 0xf4, 0xff, 0xff,
  0x01, 0x00, 0x00, 0x00, 0x01, 0x00, 0x00, 0x00, 0x01, 0x00, 0x00, 0x00, 0x01,
  0x00, 0x00, 0x00, 0x80, 0x00, 0x00, 0x00, 0x03, 0x00, 0x00, 0x00, 0x7f, 0x00,
  0x00, 0x00, 0x3a, 0x00, 0x00, 0x00, 0x37, 0x00, 0x00, 0x00, 0xb2, 0xf4, 0xff,
  0xff, 0x14, 0x00, 0x00, 0x00, 0x00, 0x00, 0x00, 0x02, 0x1c, 0x00, 0x00, 0x00,
  0x20, 0x00, 0x00, 0x00, 0x01, 0x00, 0x00, 0x00, 0xa4, 0xf4, 0xff, 0xff, 0x01,
  0x00, 0x00, 0x00, 0x01, 0x00, 0x00, 0x00, 0x01, 0x00, 0x00, 0x00, 0x01, 0x00,
  0x00, 0x00, 0x7f, 0x00, 0x00, 0x00, 0x03, 0x00, 0x00, 0x00, 0x7e, 0x00, 0x00,
  0x00, 0x39, 0x00, 0x00, 0x00, 0x37, 0x00, 0x00, 0x00, 0xf2, 0xf4, 0xff, 0xff,
  0x14, 0x00, 0x00, 0x00, 0x00, 0x00, 0x00, 0x01, 0x1c, 0x00, 0x00, 0x00, 0x20,
  0x00, 0x00, 0x00, 0x02, 0x00, 0x00, 0x00, 0x48, 0xf6, 0xff, 0xff, 0x00, 0x00,
  0x00, 0x01, 0x01, 0x00, 0x00, 0x00, 0x01, 0x00, 0x00, 0x00, 0x01, 0x00, 0x00,
  0x00, 0x7e, 0x00, 0x00, 0x00, 0x03, 0x00, 0x00, 0x00, 0x7d, 0x00, 0x00, 0x00,
  0x38, 0x00, 0x00, 0x00, 0x02, 0x00, 0x00, 0x00, 0x32, 0xf5, 0xff, 0xff, 0x14,
  0x00, 0x00, 0x00, 0x00, 0x00, 0x00, 0x02, 0x1c, 0x00, 0x00, 0x00, 0x20, 0x00,
  0x00, 0x00, 0x01, 0x00, 0x00, 0x00, 0x24, 0xf5, 0xff, 0xff, 0x01, 0x00, 0x00,
  0x00, 0x01, 0x00, 0x00, 0x00, 0x01, 0x00, 0x00, 0x00, 0x01, 0x00, 0x00, 0x00,
  0x7d, 0x00, 0x00, 0x00, 0x03, 0x00, 0x00, 0x00, 0x7c, 0x00, 0x00, 0x00, 0x36,
  0x00, 0x00, 0x00, 0x2d, 0x00, 0x00, 0x00, 0x72, 0xf5, 0xff, 0xff, 0x14, 0x00,
  0x00, 0x00, 0x00, 0x00, 0x00, 0x02, 0x1c, 0x00, 0x00, 0x00, 0x20, 0x00, 0x00,
  0x00, 0x01, 0x00, 0x00, 0x00, 0x64, 0xf5, 0xff, 0xff, 0x01, 0x00, 0x00, 0x00,
  0x01, 0x00, 0x00, 0x00, 0x01, 0x00, 0x00, 0x00, 0x01, 0x00, 0x00, 0x00, 0x7c,
  0x00, 0x00, 0x00, 0x03, 0x00, 0x00, 0x00, 0x7b, 0x00, 0x00, 0x00, 0x35, 0x00,
  0x00, 0x00, 0x2d, 0x00, 0x00, 0x00, 0xb2, 0xf5, 0xff, 0xff, 0x14, 0x00, 0x00,
  0x00, 0x00, 0x00, 0x00, 0x0b, 0x14, 0x00, 0x00, 0x00, 0x18, 0x00, 0x00, 0x00,
  0x03, 0x00, 0x00, 0x00, 0xbc, 0xf8, 0xff, 0xff, 0x00, 0x00, 0x00, 0x00, 0x01,
  0x00, 0x00, 0x00, 0x7b, 0x00, 0x00, 0x00, 0x02, 0x00, 0x00, 0x00, 0x7a, 0x00,
  0x00, 0x00, 0x77, 0x00, 0x00, 0x00, 0xe6, 0xf5, 0xff, 0xff, 0x14, 0x00, 0x00,
  0x00, 0x00, 0x00, 0x00, 0x01, 0x18, 0x00, 0x00, 0x00, 0x1c, 0x00, 0x00, 0x00,
  0x02, 0x00, 0x00, 0x00, 0x6e, 0xf6, 0xff, 0xff, 0x01, 0x00, 0x00, 0x00, 0x01,
  0x00, 0x00, 0x00, 0x01, 0x00, 0x00, 0x00, 0x7a, 0x00, 0x00, 0x00, 0x03, 0x00,
  0x00, 0x00, 0x79, 0x00, 0x00, 0x00, 0x34, 0x00, 0x00, 0x00, 0x4c, 0x00, 0x00,
  0x00, 0x22, 0xf6, 0xff, 0xff, 0x14, 0x00, 0x00, 0x00, 0x00, 0x00, 0x00, 0x02,
  0x1c, 0x00, 0x00, 0x00, 0x20, 0x00, 0x00, 0x00, 0x01, 0x00, 0x00, 0x00, 0x14,
  0xf6, 0xff, 0xff, 0x01, 0x00, 0x00, 0x00, 0x01, 0x00, 0x00, 0x00, 0x01, 0x00,
  0x00, 0x00, 0x01, 0x00, 0x00, 0x00, 0x79, 0x00, 0x00, 0x00, 0x03, 0x00, 0x00,
  0x00, 0x78, 0x00, 0x00, 0x00, 0x33, 0x00, 0x00, 0x00, 0x23, 0x00, 0x00, 0x00,
  0x62, 0xf6, 0xff, 0xff, 0x14, 0x00, 0x00, 0x00, 0x00, 0x00, 0x00, 0x02, 0x1c,
  0x00, 0x00, 0x00, 0x20, 0x00, 0x00, 0x00, 0x01, 0x00, 0x00, 0x00, 0x54, 0xf6,
  0xff, 0xff, 0x01, 0x00, 0x00, 0x00, 0x01, 0x00, 0x00, 0x00, 0x01, 0x00, 0x00,
  0x00, 0x01, 0x00, 0x00, 0x00, 0x78, 0x00, 0x00, 0x00, 0x03, 0x00, 0x00, 0x00,
  0x71, 0x00, 0x00, 0x00, 0x32, 0x00, 0x00, 0x00, 0x23, 0x00, 0x00, 0x00, 0xa2,
  0xf6, 0xff, 0xff, 0x14, 0x00, 0x00, 0x00, 0x00, 0x00, 0x00, 0x01, 0x18, 0x00,
  0x00, 0x00, 0x1c, 0x00, 0x00, 0x00, 0x02, 0x00, 0x00, 0x00, 0x2a, 0xf7, 0xff,
  0xff, 0x01, 0x00, 0x00, 0x00, 0x01, 0x00, 0x00, 0x00, 0x01, 0x00, 0x00, 0x00,
  0x77, 0x00, 0x00, 0x00, 0x03, 0x00, 0x00, 0x00, 0x76, 0x00, 0x00, 0x00, 0x31,
  0x00, 0x00, 0x00, 0x4c, 0x00, 0x00, 0x00, 0xde, 0xf6, 0xff, 0xff, 0x14, 0x00,
  0x00, 0x00, 0x00, 0x00, 0x00, 0x02, 0x1c, 0x00, 0x00, 0x00, 0x20, 0x00, 0x00,
  0x00, 0x01, 0x00, 0x00, 0x00, 0xd0, 0xf6, 0xff, 0xff, 0x01, 0x00, 0x00, 0x00,
  0x01, 0x00, 0x00, 0x00, 0x01, 0x00, 0x00, 0x00, 0x01, 0x00, 0x00, 0x00, 0x76,
  0x00, 0x00, 0x00, 0x03, 0x00, 0x00, 0x00, 0x75, 0x00, 0x00, 0x00, 0x30, 0x00,
  0x00, 0x00, 0x2d, 0x00, 0x00, 0x00, 0x1e, 0xf7, 0xff, 0xff, 0x14, 0x00, 0x00,
  0x00, 0x00, 0x00, 0x00, 0x02, 0x1c, 0x00, 0x00, 0x00, 0x20, 0x00, 0x00, 0x00,
  0x01, 0x00, 0x00, 0x00, 0x10, 0xf7, 0xff, 0xff, 0x01, 0x00, 0x00, 0x00, 0x01,
  0x00, 0x00, 0x00, 0x01, 0x00, 0x00, 0x00, 0x01, 0x00, 0x00, 0x00, 0x75, 0x00,
  0x00, 0x00, 0x03, 0x00, 0x00, 0x00, 0x74, 0x00, 0x00, 0x00, 0x2f, 0x00, 0x00,
  0x00, 0x2d, 0x00, 0x00, 0x00, 0x5e, 0xf7, 0xff, 0xff, 0x14, 0x00, 0x00, 0x00,
  0x00, 0x00, 0x00, 0x01, 0x1c, 0x00, 0x00, 0x00, 0x20, 0x00, 0x00, 0x00, 0x02,
  0x00, 0x00, 0x00, 0xb4, 0xf8, 0xff, 0xff, 0x00, 0x00, 0x00, 0x01, 0x01, 0x00,
  0x00, 0x00, 0x01, 0x00, 0x00, 0x00, 0x01, 0x00, 0x00, 0x00, 0x74, 0x00, 0x00,
  0x00, 0x03, 0x00, 0x00, 0x00, 0x73, 0x00, 0x00, 0x00, 0x2e, 0x00, 0x00, 0x00,
  0x03, 0x00, 0x00, 0x00, 0x9e, 0xf7, 0xff, 0xff, 0x14, 0x00, 0x00, 0x00, 0x00,
  0x00, 0x00, 0x02, 0x1c, 0x00, 0x00, 0x00, 0x20, 0x00, 0x00, 0x00, 0x01, 0x00,
  0x00, 0x00, 0x90, 0xf7, 0xff, 0xff, 0x01, 0x00, 0x00, 0x00, 0x01, 0x00, 0x00,
  0x00, 0x01, 0x00, 0x00, 0x00, 0x01, 0x00, 0x00, 0x00, 0x73, 0x00, 0x00, 0x00,
  0x03, 0x00, 0x00, 0x00, 0x72, 0x00, 0x00, 0x00, 0x2c, 0x00, 0x00, 0x00, 0x23,
  0x00, 0x00, 0x00, 0xde, 0xf7, 0xff, 0xff, 0x14, 0x00, 0x00, 0x00, 0x00, 0x00,
  0x00, 0x02, 0x1c, 0x00, 0x00, 0x00, 0x20, 0x00, 0x00, 0x00, 0x01, 0x00, 0x00,
  0x00, 0xd0, 0xf7, 0xff, 0xff, 0x01, 0x00, 0x00, 0x00, 0x01, 0x00, 0x00, 0x00,
  0x01, 0x00, 0x00, 0x00, 0x01, 0x00, 0x00, 0x00, 0x72, 0x00, 0x00, 0x00, 0x03,
  0x00, 0x00, 0x00, 0x71, 0x00, 0x00, 0x00, 0x2b, 0x00, 0x00, 0x00, 0x23, 0x00,
  0x00, 0x00, 0x1e, 0xf8, 0xff, 0xff, 0x14, 0x00, 0x00, 0x00, 0x00, 0x00, 0x00,
  0x0b, 0x14, 0x00, 0x00, 0x00, 0x18, 0x00, 0x00, 0x00, 0x03, 0x00, 0x00, 0x00,
  0x28, 0xfb, 0xff, 0xff, 0x00, 0x00, 0x00, 0x00, 0x01, 0x00, 0x00, 0x00, 0x71,
  0x00, 0x00, 0x00, 0x02, 0x00, 0x00, 0x00, 0x70, 0x00, 0x00, 0x00, 0x6d, 0x00,
  0x00, 0x00, 0x52, 0xf8, 0xff, 0xff, 0x14, 0x00, 0x00, 0x00, 0x00, 0x00, 0x00,
  0x01, 0x18, 0x00, 0x00, 0x00, 0x1c, 0x00, 0x00, 0x00, 0x02, 0x00, 0x00, 0x00,
  0xda, 0xf8, 0xff, 0xff, 0x01, 0x00, 0x00, 0x00, 0x01, 0x00, 0x00, 0x00, 0x01,
  0x00, 0x00, 0x00, 0x70, 0x00, 0x00, 0x00, 0x03, 0x00, 0x00, 0x00, 0x6f, 0x00,
  0x00, 0x00, 0x2a, 0x00, 0x00, 0x00, 0x4b, 0x00, 0x00, 0x00, 0x8e, 0xf8, 0xff,
  0xff, 0x14, 0x00, 0x00, 0x00, 0x00, 0x00, 0x00, 0x02, 0x1c, 0x00, 0x00, 0x00,
  0x20, 0x00, 0x00, 0x00, 0x01, 0x00, 0x00, 0x00, 0x80, 0xf8, 0xff, 0xff, 0x01,
  0x00, 0x00, 0x00, 0x01, 0x00, 0x00, 0x00, 0x01, 0x00, 0x00, 0x00, 0x01, 0x00,
  0x00, 0x00, 0x6f, 0x00, 0x00, 0x00, 0x03, 0x00, 0x00, 0x00, 0x6e, 0x00, 0x00,
  0x00, 0x29, 0x00, 0x00, 0x00, 0x19, 0x00, 0x00, 0x00, 0xce, 0xf8, 0xff, 0xff,
  0x14, 0x00, 0x00, 0x00, 0x00, 0x00, 0x00, 0x02, 0x1c, 0x00, 0x00, 0x00, 0x20,
  0x00, 0x00, 0x00, 0x01, 0x00, 0x00, 0x00, 0xc0, 0xf8, 0xff, 0xff, 0x01, 0x00,
  0x00, 0x00, 0x01, 0x00, 0x00, 0x00, 0x01, 0x00, 0x00, 0x00, 0x01, 0x00, 0x00,
  0x00, 0x6e, 0x00, 0x00, 0x00, 0x03, 0x00, 0x00, 0x00, 0x67, 0x00, 0x00, 0x00,
  0x28, 0x00, 0x00, 0x00, 0x19, 0x00, 0x00, 0x00, 0x0e, 0xf9, 0xff, 0xff, 0x14,
  0x00, 0x00, 0x00, 0x00, 0x00, 0x00, 0x01, 0x18, 0x00, 0x00, 0x00, 0x1c, 0x00,
  0x00, 0x00, 0x02, 0x00, 0x00, 0x00, 0x96, 0xf9, 0xff, 0xff, 0x01, 0x00, 0x00,
  0x00, 0x01, 0x00, 0x00, 0x00, 0x01, 0x00, 0x00, 0x00, 0x6d, 0x00, 0x00, 0x00,
  0x03, 0x00, 0x00, 0x00, 0x6c, 0x00, 0x00, 0x00, 0x27, 0x00, 0x00, 0x00, 0x4b,
  0x00, 0x00, 0x00, 0x4a, 0xf9, 0xff, 0xff, 0x14, 0x00, 0x00, 0x00, 0x00, 0x00,
  0x00, 0x02, 0x1c, 0x00, 0x00, 0x00, 0x20, 0x00, 0x00, 0x00, 0x01, 0x00, 0x00,
  0x00, 0x3c, 0xf9, 0xff, 0xff, 0x01, 0x00, 0x00, 0x00, 0x01, 0x00, 0x00, 0x00,
  0x01, 0x00, 0x00, 0x00, 0x01, 0x00, 0x00, 0x00, 0x6c, 0x00, 0x00, 0x00, 0x03,
  0x00, 0x00, 0x00, 0x6b, 0x00, 0x00, 0x00, 0x26, 0x00, 0x00, 0x00, 0x23, 0x00,
  0x00, 0x00, 0x8a, 0xf9, 0xff, 0xff, 0x14, 0x00, 0x00, 0x00, 0x00, 0x00, 0x00,
  0x02, 0x1c, 0x00, 0x00, 0x00, 0x20, 0x00, 0x00, 0x00, 0x01, 0x00, 0x00, 0x00,
  0x7c, 0xf9, 0xff, 0xff, 0x01, 0x00, 0x00, 0x00, 0x01, 0x00, 0x00, 0x00, 0x01,
  0x00, 0x00, 0x00, 0x01, 0x00, 0x00, 0x00, 0x6b, 0x00, 0x00, 0x00, 0x03, 0x00,
  0x00, 0x00, 0x6a, 0x00, 0x00, 0x00, 0x25, 0x00, 0x00, 0x00, 0x23, 0x00, 0x00,
  0x00, 0xca, 0xf9, 0xff, 0xff, 0x14, 0x00, 0x00, 0x00, 0x00, 0x00, 0x00, 0x01,
  0x1c, 0x00, 0x00, 0x00, 0x20, 0x00, 0x00, 0x00, 0x02, 0x00, 0x00, 0x00, 0x20,
  0xfb, 0xff, 0xff, 0x00, 0x00, 0x00, 0x01, 0x01, 0x00, 0x00, 0x00, 0x01, 0x00,
  0x00, 0x00, 0x01, 0x00, 0x00, 0x00, 0x6a, 0x00, 0x00, 0x00, 0x03, 0x00, 0x00,
  0x00, 0x69, 0x00, 0x00, 0x00, 0x24, 0x00, 0x00, 0x00, 0x04, 0x00, 0x00, 0x00,
  0x0a, 0xfa, 0xff, 0xff, 0x14, 0x00, 0x00, 0x00, 0x00, 0x00, 0x00, 0x02, 0x1c,
  0x00, 0x00, 0x00, 0x20, 0x00, 0x00, 0x00, 0x01, 0x00, 0x00, 0x00, 0xfc, 0xf9,
  0xff, 0xff, 0x01, 0x00, 0x00, 0x00, 0x01, 0x00, 0x00, 0x00, 0x01, 0x00, 0x00,
  0x00, 0x01, 0x00, 0x00, 0x00, 0x69, 0x00, 0x00, 0x00, 0x03, 0x00, 0x00, 0x00,
  0x68, 0x00, 0x00, 0x00, 0x22, 0x00, 0x00, 0x00, 0x19, 0x00, 0x00, 0x00, 0x4a,
  0xfa, 0xff, 0xff, 0x14, 0x00, 0x00, 0x00, 0x00, 0x00, 0x00, 0x02, 0x1c, 0x00,
  0x00, 0x00, 0x20, 0x00, 0x00, 0x00, 0x01, 0x00, 0x00, 0x00, 0x3c, 0xfa, 0xff,
  0xff, 0x01, 0x00, 0x00, 0x00, 0x01, 0x00, 0x00, 0x00, 0x01, 0x00, 0x00, 0x00,
  0x01, 0x00, 0x00, 0x00, 0x68, 0x00, 0x00, 0x00, 0x03, 0x00, 0x00, 0x00, 0x67,
  0x00, 0x00, 0x00, 0x21, 0x00, 0x00, 0x00, 0x19, 0x00, 0x00, 0x00, 0x8a, 0xfa,
  0xff, 0xff, 0x14, 0x00, 0x00, 0x00, 0x00, 0x00, 0x00, 0x0b, 0x14, 0x00, 0x00,
  0x00, 0x18, 0x00, 0x00, 0x00, 0x03, 0x00, 0x00, 0x00, 0x94, 0xfd, 0xff, 0xff,
  0x00, 0x00, 0x00, 0x00, 0x01, 0x00, 0x00, 0x00, 0x67, 0x00, 0x00, 0x00, 0x02,
  0x00, 0x00, 0x00, 0x66, 0x00, 0x00, 0x00, 0x63, 0x00, 0x00, 0x00, 0xbe, 0xfa,
  0xff, 0xff, 0x14, 0x00, 0x00, 0x00, 0x00, 0x00, 0x00, 0x01, 0x18, 0x00, 0x00,
  0x00, 0x1c, 0x00, 0x00, 0x00, 0x02, 0x00, 0x00, 0x00, 0x46, 0xfb, 0xff, 0xff,
  0x01, 0x00, 0x00, 0x00, 0x01, 0x00, 0x00, 0x00, 0x01, 0x00, 0x00, 0x00, 0x66,
  0x00, 0x00, 0x00, 0x03, 0x00, 0x00, 0x00, 0x65, 0x00, 0x00, 0x00, 0x20, 0x00,
  0x00, 0x00, 0x4a, 0x00, 0x00, 0x00, 0xfa, 0xfa, 0xff, 0xff, 0x14, 0x00, 0x00,
  0x00, 0x00, 0x00, 0x00, 0x02, 0x1c, 0x00, 0x00, 0x00, 0x20, 0x00, 0x00, 0x00,
  0x01, 0x00, 0x00, 0x00, 0xec, 0xfa, 0xff, 0xff, 0x01, 0x00, 0x00, 0x00, 0x01,
  0x00, 0x00, 0x00, 0x01, 0x00, 0x00, 0x00, 0x01, 0x00, 0x00, 0x00, 0x65, 0x00,
  0x00, 0x00, 0x03, 0x00, 0x00, 0x00, 0x64, 0x00, 0x00, 0x00, 0x1f, 0x00, 0x00,
  0x00, 0x0f, 0x00, 0x00, 0x00, 0x3a, 0xfb, 0xff, 0xff, 0x14, 0x00, 0x00, 0x00,
  0x00, 0x00, 0x00, 0x02, 0x1c, 0x00, 0x00, 0x00, 0x20, 0x00, 0x00, 0x00, 0x01,
  0x00, 0x00, 0x00, 0x2c, 0xfb, 0xff, 0xff, 0x01, 0x00, 0x00, 0x00, 0x01, 0x00,
  0x00, 0x00, 0x01, 0x00, 0x00, 0x00, 0x01, 0x00, 0x00, 0x00, 0x64, 0x00, 0x00,
  0x00, 0x03, 0x00, 0x00, 0x00, 0x5d, 0x00, 0x00, 0x00, 0x1e, 0x00, 0x00, 0x00,
  0x0f, 0x00, 0x00, 0x00, 0x7a, 0xfb, 0xff, 0xff, 0x14, 0x00, 0x00, 0x00, 0x00,
  0x00, 0x00, 0x01, 0x18, 0x00, 0x00, 0x00, 0x1c, 0x00, 0x00, 0x00, 0x02, 0x00,
  0x00, 0x00, 0x02, 0xfc, 0xff, 0xff, 0x01, 0x00, 0x00, 0x00, 0x01, 0x00, 0x00,
  0x00, 0x01, 0x00, 0x00, 0x00, 0x63, 0x00, 0x00, 0x00, 0x03, 0x00, 0x00, 0x00,
  0x62, 0x00, 0x00, 0x00, 0x1d, 0x00, 0x00, 0x00, 0x4a, 0x00, 0x00, 0x00, 0xb6,
  0xfb, 0xff, 0xff, 0x14, 0x00, 0x00, 0x00, 0x00, 0x00, 0x00, 0x02, 0x1c, 0x00,
  0x00, 0x00, 0x20, 0x00, 0x00, 0x00, 0x01, 0x00, 0x00, 0x00, 0xa8, 0xfb, 0xff,
  0xff, 0x01, 0x00, 0x00, 0x00, 0x01, 0x00, 0x00, 0x00, 0x01, 0x00, 0x00, 0x00,
  0x01, 0x00, 0x00, 0x00, 0x62, 0x00, 0x00, 0x00, 0x03, 0x00, 0x00, 0x00, 0x61,
  0x00, 0x00, 0x00, 0x1c, 0x00, 0x00, 0x00, 0x19, 0x00, 0x00, 0x00, 0xf6, 0xfb,
  0xff, 0xff, 0x14, 0x00, 0x00, 0x00, 0x00, 0x00, 0x00, 0x02, 0x1c, 0x00, 0x00,
  0x00, 0x20, 0x00, 0x00, 0x00, 0x01, 0x00, 0x00, 0x00, 0xe8, 0xfb, 0xff, 0xff,
  0x01, 0x00, 0x00, 0x00, 0x01, 0x00, 0x00, 0x00, 0x01, 0x00, 0x00, 0x00, 0x01,
  0x00, 0x00, 0x00, 0x61, 0x00, 0x00, 0x00, 0x03, 0x00, 0x00, 0x00, 0x60, 0x00,
  0x00, 0x00, 0x1b, 0x00, 0x00, 0x00, 0x19, 0x00, 0x00, 0x00, 0x36, 0xfc, 0xff,
  0xff, 0x14, 0x00, 0x00, 0x00, 0x00, 0x00, 0x00, 0x01, 0x1c, 0x00, 0x00, 0x00,
  0x20, 0x00, 0x00, 0x00, 0x02, 0x00, 0x00, 0x00, 0x8c, 0xfd, 0xff, 0xff, 0x00,
  0x00, 0x00, 0x01, 0x01, 0x00, 0x00, 0x00, 0x01, 0x00, 0x00, 0x00, 0x01, 0x00,
  0x00, 0x00, 0x60, 0x00, 0x00, 0x00, 0x03, 0x00, 0x00, 0x00, 0x5f, 0x00, 0x00,
  0x00, 0x1a, 0x00, 0x00, 0x00, 0x05, 0x00, 0x00, 0x00, 0x76, 0xfc, 0xff, 0xff,
  0x14, 0x00, 0x00, 0x00, 0x00, 0x00, 0x00, 0x02, 0x1c, 0x00, 0x00, 0x00, 0x20,
  0x00, 0x00, 0x00, 0x01, 0x00, 0x00, 0x00, 0x68, 0xfc, 0xff, 0xff, 0x01, 0x00,
  0x00, 0x00, 0x01, 0x00, 0x00, 0x00, 0x01, 0x00, 0x00, 0x00, 0x01, 0x00, 0x00,
  0x00, 0x5f, 0x00, 0x00, 0x00, 0x03, 0x00, 0x00, 0x00, 0x5e, 0x00, 0x00, 0x00,
  0x18, 0x00, 0x00, 0x00, 0x0f, 0x00, 0x00, 0x00, 0xb6, 0xfc, 0xff, 0xff, 0x14,
  0x00, 0x00, 0x00, 0x00, 0x00, 0x00, 0x02, 0x1c, 0x00, 0x00, 0x00, 0x20, 0x00,
  0x00, 0x00, 0x01, 0x00, 0x00, 0x00, 0xa8, 0xfc, 0xff, 0xff, 0x01, 0x00, 0x00,
  0x00, 0x01, 0x00, 0x00, 0x00, 0x01, 0x00, 0x00, 0x00, 0x01, 0x00, 0x00, 0x00,
  0x5e, 0x00, 0x00, 0x00, 0x03, 0x00, 0x00, 0x00, 0x5d, 0x00, 0x00, 0x00, 0x17,
  0x00, 0x00, 0x00, 0x0f, 0x00, 0x00, 0x00, 0xf6, 0xfc, 0xff, 0xff, 0x1c, 0x00,
  0x00, 0x00, 0x00, 0x00, 0x00, 0x0b, 0x1c, 0x00, 0x00, 0x00, 0x20, 0x00, 0x00,
  0x00, 0x03, 0x00, 0x00, 0x00, 0x08, 0x00, 0x08, 0x00, 0x00, 0x00, 0x07, 0x00,
  0x08, 0x00, 0x00, 0x00, 0x00, 0x00, 0x00, 0x00, 0x01, 0x00, 0x00, 0x00, 0x5d,
  0x00, 0x00, 0x00, 0x02, 0x00, 0x00, 0x00, 0x5c, 0x00, 0x00, 0x00, 0x59, 0x00,
  0x00, 0x00, 0x32, 0xfd, 0xff, 0xff, 0x14, 0x00, 0x00, 0x00, 0x00, 0x00, 0x00,
  0x01, 0x18, 0x00, 0x00, 0x00, 0x1c, 0x00, 0x00, 0x00, 0x02, 0x00, 0x00, 0x00,
  0xba, 0xfd, 0xff, 0xff, 0x01, 0x00, 0x00, 0x00, 0x01, 0x00, 0x00, 0x00, 0x01,
  0x00, 0x00, 0x00, 0x5c, 0x00, 0x00, 0x00, 0x03, 0x00, 0x00, 0x00, 0x5b, 0x00,
  0x00, 0x00, 0x16, 0x00, 0x00, 0x00, 0x49, 0x00, 0x00, 0x00, 0x6e, 0xfd, 0xff,
  0xff, 0x14, 0x00, 0x00, 0x00, 0x00, 0x00, 0x00, 0x02, 0x1c, 0x00, 0x00, 0x00,
  0x20, 0x00, 0x00, 0x00, 0x01, 0x00, 0x00, 0x00, 0x60, 0xfd, 0xff, 0xff, 0x01,
  0x00, 0x00, 0x00, 0x01, 0x00, 0x00, 0x00, 0x01, 0x00, 0x00, 0x00, 0x01, 0x00,
  0x00, 0x00, 0x5b, 0x00, 0x00, 0x00, 0x03, 0x00, 0x00, 0x00, 0x5a, 0x00, 0x00,
  0x00, 0x15, 0x00, 0x00, 0x00, 0x0b, 0x00, 0x00, 0x00, 0xae, 0xfd, 0xff, 0xff,
  0x14, 0x00, 0x00, 0x00, 0x00, 0x00, 0x00, 0x02, 0x1c, 0x00, 0x00, 0x00, 0x20,
  0x00, 0x00, 0x00, 0x01, 0x00, 0x00, 0x00, 0xa0, 0xfd, 0xff, 0xff, 0x01, 0x00,
  0x00, 0x00, 0x01, 0x00, 0x00, 0x00, 0x01, 0x00, 0x00, 0x00, 0x01, 0x00, 0x00,
  0x00, 0x5a, 0x00, 0x00, 0x00, 0x03, 0x00, 0x00, 0x00, 0x53, 0x00, 0x00, 0x00,
  0x14, 0x00, 0x00, 0x00, 0x0b, 0x00, 0x00, 0x00, 0xee, 0xfd, 0xff, 0xff, 0x14,
  0x00, 0x00, 0x00, 0x00, 0x00, 0x00, 0x01, 0x18, 0x00, 0x00, 0x00, 0x1c, 0x00,
  0x00, 0x00, 0x02, 0x00, 0x00, 0x00, 0x76, 0xfe, 0xff, 0xff, 0x01, 0x00, 0x00,
  0x00, 0x01, 0x00, 0x00, 0x00, 0x01, 0x00, 0x00, 0x00, 0x59, 0x00, 0x00, 0x00,
  0x03, 0x00, 0x00, 0x00, 0x58, 0x00, 0x00, 0x00, 0x13, 0x00, 0x00, 0x00, 0x49,
  0x00, 0x00, 0x00, 0x2a, 0xfe, 0xff, 0xff, 0x14, 0x00, 0x00, 0x00, 0x00, 0x00,
  0x00, 0x02, 0x1c, 0x00, 0x00, 0x00, 0x20, 0x00, 0x00, 0x00, 0x01, 0x00, 0x00,
  0x00, 0x1c, 0xfe, 0xff, 0xff, 0x01, 0x00, 0x00, 0x00, 0x01, 0x00, 0x00, 0x00,
  0x01, 0x00, 0x00, 0x00, 0x01, 0x00, 0x00, 0x00, 0x58, 0x00, 0x00, 0x00, 0x03,
  0x00, 0x00, 0x00, 0x57, 0x00, 0x00, 0x00, 0x12, 0x00, 0x00, 0x00, 0x0f, 0x00,
  0x00, 0x00, 0x6a, 0xfe, 0xff, 0xff, 0x14, 0x00, 0x00, 0x00, 0x00, 0x00, 0x00,
  0x02, 0x1c, 0x00, 0x00, 0x00, 0x20, 0x00, 0x00, 0x00, 0x01, 0x00, 0x00, 0x00,
  0x5c, 0xfe, 0xff, 0xff, 0x01, 0x00, 0x00, 0x00, 0x01, 0x00, 0x00, 0x00, 0x01,
  0x00, 0x00, 0x00, 0x01, 0x00, 0x00, 0x00, 0x57, 0x00, 0x00, 0x00, 0x03, 0x00,
  0x00, 0x00, 0x56, 0x00, 0x00, 0x00, 0x11, 0x00, 0x00, 0x00, 0x0f, 0x00, 0x00,
  0x00, 0xaa, 0xfe, 0xff, 0xff, 0x20, 0x00, 0x00, 0x00, 0x00, 0x00, 0x00, 0x01,
  0x28, 0x00, 0x00, 0x00, 0x2c, 0x00, 0x00, 0x00, 0x02, 0x00, 0x00, 0x00, 0x0c,
  0x00, 0x10, 0x00, 0x00, 0x00, 0x0c, 0x00, 0x08, 0x00, 0x07, 0x00, 0x0c, 0x00,
  0x00, 0x00, 0x00, 0x00, 0x00, 0x01, 0x01, 0x00, 0x00, 0x00, 0x01, 0x00, 0x00,
  0x00, 0x01, 0x00, 0x00, 0x00, 0x56, 0x00, 0x00, 0x00, 0x03, 0x00, 0x00, 0x00,
  0x55, 0x00, 0x00, 0x00, 0x10, 0x00, 0x00, 0x00, 0x06, 0x00, 0x00, 0x00, 0xf6,
  0xfe, 0xff, 0xff, 0x14, 0x00, 0x00, 0x00, 0x00, 0x00, 0x00, 0x02, 0x1c, 0x00,
  0x00, 0x00, 0x20, 0x00, 0x00, 0x00, 0x01, 0x00, 0x00, 0x00, 0xe8, 0xfe, 0xff,
  0xff, 0x01, 0x00, 0x00, 0x00, 0x01, 0x00, 0x00, 0x00, 0x01, 0x00, 0x00, 0x00,
  0x01, 0x00, 0x00, 0x00, 0x55, 0x00, 0x00, 0x00, 0x03, 0x00, 0x00, 0x00, 0x54,
  0x00, 0x00, 0x00, 0x0e, 0x00, 0x00, 0x00, 0x0b, 0x00, 0x00, 0x00, 0x36, 0xff,
  0xff, 0xff, 0x14, 0x00, 0x00, 0x00, 0x00, 0x00, 0x00, 0x02, 0x1c, 0x00, 0x00,
  0x00, 0x20, 0x00, 0x00, 0x00, 0x01, 0x00, 0x00, 0x00, 0x28, 0xff, 0xff, 0xff,
  0x01, 0x00, 0x00, 0x00, 0x01, 0x00, 0x00, 0x00, 0x01, 0x00, 0x00, 0x00, 0x01,
  0x00, 0x00, 0x00, 0x54, 0x00, 0x00, 0x00, 0x03, 0x00, 0x00, 0x00, 0x53, 0x00,
  0x00, 0x00, 0x0d, 0x00, 0x00, 0x00, 0x0b, 0x00, 0x00, 0x00, 0x76, 0xff, 0xff,
  0xff, 0x20, 0x00, 0x00, 0x00, 0x00, 0x00, 0x00, 0x01, 0x24, 0x00, 0x00, 0x00,
  0x28, 0x00, 0x00, 0x00, 0x02, 0x00, 0x00, 0x00, 0x00, 0x00, 0x0a, 0x00, 0x0c,
  0x00, 0x00, 0x00, 0x08, 0x00, 0x04, 0x00, 0x0a, 0x00, 0x00, 0x00, 0x01, 0x00,
  0x00, 0x00, 0x01, 0x00, 0x00, 0x00, 0x01, 0x00, 0x00, 0x00, 0x53, 0x00, 0x00,
  0x00, 0x03, 0x00, 0x00, 0x00, 0x52, 0x00, 0x00, 0x00, 0x0c, 0x00, 0x00, 0x00,
  0x48, 0x00, 0x00, 0x00, 0xbe, 0xff, 0xff, 0xff, 0x14, 0x00, 0x00, 0x00, 0x00,
  0x00, 0x00, 0x02, 0x1c, 0x00, 0x00, 0x00, 0x20, 0x00, 0x00, 0x00, 0x01, 0x00,
  0x00, 0x00, 0xb0, 0xff, 0xff, 0xff, 0x01, 0x00, 0x00, 0x00, 0x01, 0x00, 0x00,
  0x00, 0x01, 0x00, 0x00, 0x00, 0x01, 0x00, 0x00, 0x00, 0x52, 0x00, 0x00, 0x00,
  0x03, 0x00, 0x00, 0x00, 0x51, 0x00, 0x00, 0x00, 0x0a, 0x00, 0x00, 0x00, 0x08,
  0x00, 0x00, 0x00, 0x00, 0x00, 0x0e, 0x00, 0x18, 0x00, 0x14, 0x00, 0x10, 0x00,
  0x0c, 0x00, 0x0b, 0x00, 0x04, 0x00, 0x0e, 0x00, 0x00, 0x00, 0x20, 0x00, 0x00,
  0x00, 0x00, 0x00, 0x00, 0x02, 0x28, 0x00, 0x00, 0x00, 0x2c, 0x00, 0x00, 0x00,
  0x01, 0x00, 0x00, 0x00, 0x0c, 0x00, 0x10, 0x00, 0x00, 0x00, 0x0c, 0x00, 0x08,
  0x00, 0x04, 0x00, 0x0c, 0x00, 0x00, 0x00, 0x01, 0x00, 0x00, 0x00, 0x01, 0x00,
  0x00, 0x00, 0x01, 0x00, 0x00, 0x00, 0x01, 0x00, 0x00, 0x00, 0x51, 0x00, 0x00,
  0x00, 0x03, 0x00, 0x00, 0x00, 0x50, 0x00, 0x00, 0x00, 0x09, 0x00, 0x00, 0x00,
  0x08, 0x00, 0x00, 0x00, 0x00, 0x00, 0x0e, 0x00, 0x14, 0x00, 0x00, 0x00, 0x10,
  0x00, 0x0c, 0x00, 0x0b, 0x00, 0x04, 0x00, 0x0e, 0x00, 0x00, 0x00, 0x10, 0x00,
  0x00, 0x00, 0x00, 0x00, 0x00, 0x16, 0x0c, 0x00, 0x00, 0x00, 0x10, 0x00, 0x00,
  0x00, 0x94, 0x8e, 0xff, 0xff, 0x01, 0x00, 0x00, 0x00, 0x50, 0x00, 0x00, 0x00,
  0x02, 0x00, 0x00, 0x00, 0x00, 0x00, 0x00, 0x00, 0x07, 0x00, 0x00, 0x00, 0x00,
  0x00, 0x0a, 0x00, 0x10, 0x00, 0x0c, 0x00, 0x08, 0x00, 0x04, 0x00, 0x0a, 0x00,
  0x00, 0x00, 0x0c, 0x00, 0x00, 0x00, 0x10, 0x00, 0x00, 0x00, 0x04, 0x00, 0x00,
  0x00, 0x01, 0x00, 0x00, 0x00, 0x00, 0x00, 0x00, 0x00, 0x01, 0x00, 0x00, 0x00,
  0x90, 0x00, 0x00, 0x00, 0x01, 0x00, 0x00, 0x00, 0x91, 0x00, 0x00, 0x00, 0x01,
  0x00, 0x00, 0x00, 0x90, 0x00, 0x00, 0x00, 0x92, 0x00, 0x00, 0x00, 0x70, 0x75,
  0x00, 0x00, 0xcc, 0x74, 0x00, 0x00, 0x44, 0x74, 0x00, 0x00, 0xa8, 0x73, 0x00,
  0x00, 0xf4, 0x72, 0x00, 0x00, 0x18, 0x72, 0x00, 0x00, 0x1c, 0x71, 0x00, 0x00,
  0xe0, 0x70, 0x00, 0x00, 0x8c, 0x70, 0x00, 0x00, 0xf8, 0x6f, 0x00, 0x00, 0x78,
  0x6f, 0x00, 0x00, 0x40, 0x6e, 0x00, 0x00, 0x4c, 0x6c, 0x00, 0x00, 0x54, 0x6a,
  0x00, 0x00, 0x58, 0x68, 0x00, 0x00, 0x58, 0x67, 0x00, 0x00, 0xc4, 0x65, 0x00,
  0x00, 0x2c, 0x64, 0x00, 0x00, 0x98, 0x62, 0x00, 0x00, 0x08, 0x61, 0x00, 0x00,
  0x10, 0x5f, 0x00, 0x00, 0x14, 0x5d, 0x00, 0x00, 0x84, 0x5b, 0x00, 0x00, 0xec,
  0x59, 0x00, 0x00, 0x58, 0x58, 0x00, 0x00, 0x78, 0x57, 0x00, 0x00, 0x24, 0x56,
  0x00, 0x00, 0xc4, 0x54, 0x00, 0x00, 0x68, 0x53, 0x00, 0x00, 0x10, 0x52, 0x00,
  0x00, 0x78, 0x50, 0x00, 0x00, 0xdc, 0x4e, 0x00, 0x00, 0x84, 0x4d, 0x00, 0x00,
  0x24, 0x4c, 0x00, 0x00, 0xc8, 0x4a, 0x00, 0x00, 0x10, 0x4a, 0x00, 0x00, 0xf4,
  0x48, 0x00, 0x00, 0xd4, 0x47, 0x00, 0x00, 0xb0, 0x46, 0x00, 0x00, 0x98, 0x45,
  0x00, 0x00, 0x38, 0x44, 0x00, 0x00, 0xdc, 0x42, 0x00, 0x00, 0xc4, 0x41, 0x00,
  0x00, 0xa4, 0x40, 0x00, 0x00, 0x80, 0x3f, 0x00, 0x00, 0xe0, 0x3e, 0x00, 0x00,
  0xec, 0x3d, 0x00, 0x00, 0xf4, 0x3c, 0x00, 0x00, 0xf8, 0x3b, 0x00, 0x00, 0x08,
  0x3b, 0x00, 0x00, 0xe8, 0x39, 0x00, 0x00, 0xc4, 0x38, 0x00, 0x00, 0xd4, 0x37,
  0x00, 0x00, 0xdc, 0x36, 0x00, 0x00, 0xe0, 0x35, 0x00, 0x00, 0x58, 0x35, 0x00,
  0x00, 0x8c, 0x34, 0x00, 0x00, 0xbc, 0x33, 0x00, 0x00, 0xe8, 0x32, 0x00, 0x00,
  0x20, 0x32, 0x00, 0x00, 0x28, 0x31, 0x00, 0x00, 0x2c, 0x30, 0x00, 0x00, 0x64,
  0x2f, 0x00, 0x00, 0x94, 0x2e, 0x00, 0x00, 0xc0, 0x2d, 0x00, 0x00, 0xf8, 0x2c,
  0x00, 0x00, 0x28, 0x2c, 0x00, 0x00, 0x54, 0x2b, 0x00, 0x00, 0x8c, 0x2a, 0x00,
  0x00, 0xbc, 0x29, 0x00, 0x00, 0xe8, 0x28, 0x00, 0x00, 0x70, 0x28, 0x00, 0x00,
  0x1c, 0x27, 0x00, 0x00, 0x00, 0x26, 0x00, 0x00, 0x04, 0x25, 0x00, 0x00, 0x30,
  0x24, 0x00, 0x00, 0x6c, 0x23, 0x00, 0x00, 0xc0, 0x22, 0x00, 0x00, 0x14, 0x22,
  0x00, 0x00, 0xa8, 0x21, 0x00, 0x00, 0x34, 0x21, 0x00, 0x00, 0xb8, 0x20, 0x00,
  0x00, 0x3c, 0x20, 0x00, 0x00, 0xa8, 0x1f, 0x00, 0x00, 0x2c, 0x1f, 0x00, 0x00,
  0xb0, 0x1e, 0x00, 0x00, 0x14, 0x1e, 0x00, 0x00, 0x98, 0x1d, 0x00, 0x00, 0x1c,
  0x1d, 0x00, 0x00, 0x80, 0x1c, 0x00, 0x00, 0x04, 0x1c, 0x00, 0x00, 0x88, 0x1b,
  0x00, 0x00, 0xec, 0x1a, 0x00, 0x00, 0x78, 0x1a, 0x00, 0x00, 0xfc, 0x19, 0x00,
  0x00, 0x80, 0x19, 0x00, 0x00, 0xdc, 0x18, 0x00, 0x00, 0x60, 0x18, 0x00, 0x00,
  0xe4, 0x17, 0x00, 0x00, 0x48, 0x17, 0x00, 0x00, 0xcc, 0x16, 0x00, 0x00, 0x50,
  0x16, 0x00, 0x00, 0xb4, 0x15, 0x00, 0x00, 0x40, 0x15, 0x00, 0x00, 0xc4, 0x14,
  0x00, 0x00, 0x48, 0x14, 0x00, 0x00, 0xa4, 0x13, 0x00, 0x00, 0x28, 0x13, 0x00,
  0x00, 0xac, 0x12, 0x00, 0x00, 0x10, 0x12, 0x00, 0x00, 0x94, 0x11, 0x00, 0x00,
  0x18, 0x11, 0x00, 0x00, 0x7c, 0x10, 0x00, 0x00, 0x08, 0x10, 0x00, 0x00, 0x8c,
  0x0f, 0x00, 0x00, 0x10, 0x0f, 0x00, 0x00, 0x6c, 0x0e, 0x00, 0x00, 0xf0, 0x0d,
  0x00, 0x00, 0x74, 0x0d, 0x00, 0x00, 0xd8, 0x0c, 0x00, 0x00, 0x5c, 0x0c, 0x00,
  0x00, 0xe0, 0x0b, 0x00, 0x00, 0x44, 0x0b, 0x00, 0x00, 0xd0, 0x0a, 0x00, 0x00,
  0x54, 0x0a, 0x00, 0x00, 0xd8, 0x09, 0x00, 0x00, 0x34, 0x09, 0x00, 0x00, 0xb8,
  0x08, 0x00, 0x00, 0x3c, 0x08, 0x00, 0x00, 0xa0, 0x07, 0x00, 0x00, 0x24, 0x07,
  0x00, 0x00, 0xa8, 0x06, 0x00, 0x00, 0x0c, 0x06, 0x00, 0x00, 0x98, 0x05, 0x00,
  0x00, 0x1c, 0x05, 0x00, 0x00, 0xa0, 0x04, 0x00, 0x00, 0xfc, 0x03, 0x00, 0x00,
  0x80, 0x03, 0x00, 0x00, 0x04, 0x03, 0x00, 0x00, 0x68, 0x02, 0x00, 0x00, 0xf4,
  0x01, 0x00, 0x00, 0x78, 0x01, 0x00, 0x00, 0xfc, 0x00, 0x00, 0x00, 0x78, 0x00,
  0x00, 0x00, 0x44, 0x00, 0x00, 0x00, 0x04, 0x00, 0x00, 0x00, 0xd0, 0xff, 0xff,
  0xff, 0x08, 0x00, 0x00, 0x00, 0x14, 0x00, 0x00, 0x00, 0x0a, 0x00, 0x00, 0x00,
  0x42, 0x69, 0x61, 0x73, 0x41, 0x64, 0x64, 0x5f, 0x31, 0x38, 0x00, 0x00, 0x04,
  0x00, 0x00, 0x00, 0x01, 0x00, 0x00, 0x00, 0x38, 0x04, 0x00, 0x00, 0x80, 0x07,
  0x00, 0x00, 0x01, 0x00, 0x00, 0x00, 0x0c, 0x00, 0x0c, 0x00, 0x08, 0x00, 0x00,
  0x00, 0x00, 0x00, 0x04, 0x00, 0x0c, 0x00, 0x00, 0x00, 0x08, 0x00, 0x00, 0x00,
  0x14, 0x00, 0x00, 0x00, 0x0b, 0x00, 0x00, 0x00, 0x50, 0x6c, 0x61, 0x63, 0x65,
  0x68, 0x6f, 0x6c, 0x64, 0x65, 0x72, 0x00, 0x04, 0x00, 0x00, 0x00, 0x01, 0x00,
  0x00, 0x00, 0x38, 0x04, 0x00, 0x00, 0x80, 0x07, 0x00, 0x00, 0x01, 0x00, 0x00,
  0x00, 0x52, 0x8d, 0xff, 0xff, 0x14, 0x00, 0x00, 0x00, 0x4c, 0x00, 0x00, 0x00,
  0x90, 0x00, 0x00, 0x00, 0x00, 0x00, 0x00, 0x07, 0x58, 0x00, 0x00, 0x00, 0x44,
  0x8d, 0xff, 0xff, 0x10, 0x00, 0x00, 0x00, 0x1c, 0x00, 0x00, 0x00, 0x20, 0x00,
  0x00, 0x00, 0x24, 0x00, 0x00, 0x00, 0x01, 0x00, 0x00, 0x00, 0x00, 0x00, 0x00,
  0x00, 0x00, 0x00, 0x00, 0x00, 0x00, 0x00, 0x00, 0x00, 0x01, 0x00, 0x00, 0x00,
  0xd0, 0x01, 0xd2, 0x36, 0x01, 0x00, 0x00, 0x00, 0x18, 0xc4, 0x3a, 0x3e, 0x01,
  0x00, 0x00, 0x00, 0x2c, 0x00, 0x52, 0xbe, 0x10, 0x00, 0x00, 0x00, 0x42, 0x69,
  0x61, 0x73, 0x41, 0x64, 0x64, 0x5f, 0x31, 0x38, 0x5f, 0x69, 0x6e, 0x74, 0x31,
  0x36, 0x00, 0x00, 0x00, 0x00, 0x04, 0x00, 0x00, 0x00, 0x01, 0x00, 0x00, 0x00,
  0x38, 0x04, 0x00, 0x00, 0x80, 0x07, 0x00, 0x00, 0x01, 0x00, 0x00, 0x00, 0xd2,
  0x8d, 0xff, 0xff, 0x14, 0x00, 0x00, 0x00, 0x48, 0x00, 0x00, 0x00, 0x8f, 0x00,
  0x00, 0x00, 0x00, 0x00, 0x00, 0x07, 0x50, 0x00, 0x00, 0x00, 0xc4, 0x8d, 0xff,
  0xff, 0x10, 0x00, 0x00, 0x00, 0x18, 0x00, 0x00, 0x00, 0x1c, 0x00, 0x00, 0x00,
  0x20, 0x00, 0x00, 0x00, 0x01, 0x00, 0x00, 0x00, 0x00, 0x00, 0x00, 0x00, 0x00,
  0x00, 0x00, 0x00, 0x01, 0x00, 0x00, 0x00, 0xe9, 0xcf, 0xab, 0x38, 0x01, 0x00,
  0x00, 0x00, 0x06, 0x69, 0xe8, 0x3f, 0x01, 0x00, 0x00, 0x00, 0x91, 0xce, 0x2b,
  0xc0, 0x0d, 0x00, 0x00, 0x00, 0x64, 0x65, 0x70, 0x74, 0x68, 0x77, 0x69, 0x73,
  0x65, 0x5f, 0x33, 0x37, 0x32, 0x00, 0x00, 0x00, 0x04, 0x00, 0x00, 0x00, 0x01,
  0x00, 0x00, 0x00, 0x38, 0x04, 0x00, 0x00, 0x80, 0x07, 0x00, 0x00, 0x05, 0x00,
  0x00, 0x00, 0x4a, 0x8e, 0xff, 0xff, 0x14, 0x00, 0x00, 0x00, 0x48, 0x00, 0x00,
  0x00, 0x8e, 0x00, 0x00, 0x00, 0x00, 0x00, 0x00, 0x07, 0x50, 0x00, 0x00, 0x00,
  0x3c, 0x8e, 0xff, 0xff, 0x10, 0x00, 0x00, 0x00, 0x18, 0x00, 0x00, 0x00, 0x1c,
  0x00, 0x00, 0x00, 0x20, 0x00, 0x00, 0x00, 0x01, 0x00, 0x00, 0x00, 0x00, 0x00,
  0x00, 0x00, 0x00, 0x00, 0x00, 0x00, 0x01, 0x00, 0x00, 0x00, 0xf3, 0xd0, 0x5b,
  0x39, 0x01, 0x00, 0x00, 0x00, 0x4f, 0x82, 0x98, 0x40, 0x01, 0x00, 0x00, 0x00,
  0x3b, 0xcf, 0xdb, 0xc0, 0x0d, 0x00, 0x00, 0x00, 0x64, 0x65, 0x70, 0x74, 0x68,
  0x77, 0x69, 0x73, 0x65, 0x5f, 0x33, 0x36, 0x31, 0x00, 0x00, 0x00, 0x04, 0x00,
  0x00, 0x00, 0x01, 0x00, 0x00, 0x00, 0x38, 0x04, 0x00, 0x00, 0x84, 0x07, 0x00,
  0x00, 0x05, 0x00, 0x00, 0x00, 0xc2, 0x8e, 0xff, 0xff, 0x14, 0x00, 0x00, 0x00,
  0x48, 0x00, 0x00, 0x00, 0x8d, 0x00, 0x00, 0x00, 0x00, 0x00, 0x00, 0x07, 0x48,
  0x00, 0x00, 0x00, 0xb4, 0x8e, 0xff, 0xff, 0x10, 0x00, 0x00, 0x00, 0x18, 0x00,
  0x00, 0x00, 0x1c, 0x00, 0x00, 0x00, 0x20, 0x00, 0x00, 0x00, 0x01, 0x00, 0x00,
  0x00, 0x00, 0x00, 0x00, 0x00, 0x00, 0x00, 0x00, 0x00, 0x01, 0x00, 0x00, 0x00,
  0x6b, 0xb2, 0x24, 0x3a, 0x01, 0x00, 0x00, 0x00, 0x22, 0xb1, 0xa4, 0x41, 0x01,
  0x00, 0x00, 0x00, 0x73, 0xcb, 0x60, 0xc1, 0x05, 0x00, 0x00, 0x00, 0x41, 0x64,
  0x64, 0x5f, 0x35, 0x00, 0x00, 0x00, 0x04, 0x00, 0x00, 0x00, 0x01, 0x00, 0x00,
  0x00, 0x3c, 0x04, 0x00, 0x00, 0x84, 0x07, 0x00, 0x00, 0x05, 0x00, 0x00, 0x00,
  0x32, 0x8f, 0xff, 0xff, 0x14, 0x00, 0x00, 0x00, 0x48, 0x00, 0x00, 0x00, 0x8c,
  0x00, 0x00, 0x00, 0x00, 0x00, 0x00, 0x07, 0x70, 0x00, 0x00, 0x00, 0x24, 0x8f,
  0xff, 0xff, 0x10, 0x00, 0x00, 0x00, 0x18, 0x00, 0x00, 0x00, 0x1c, 0x00, 0x00,
  0x00, 0x20, 0x00, 0x00, 0x00, 0x01, 0x00, 0x00, 0x00, 0x00, 0x00, 0x00, 0x00,
  0x00, 0x00, 0x00, 0x00, 0x01, 0x00, 0x00, 0x00, 0xc9, 0x66, 0x02, 0x3a, 0x01,
  0x00, 0x00, 0x00, 0xc4, 0x65, 0x82, 0x41, 0x01, 0x00, 0x00, 0x00, 0xe1, 0x88,
  0x79, 0xc1, 0x2d, 0x00, 0x00, 0x00, 0x42, 0x69, 0x61, 0x73, 0x41, 0x64, 0x64,
  0x5f, 0x31, 0x37, 0x3b, 0x64, 0x65, 0x70, 0x74, 0x68, 0x77, 0x69, 0x73, 0x65,
  0x5f, 0x33, 0x37, 0x3b, 0x43, 0x6f, 0x6e, 0x76, 0x32, 0x44, 0x5f, 0x31, 0x37,
  0x3b, 0x63, 0x6f, 0x6e, 0x76, 0x5f, 0x36, 0x5f, 0x31, 0x5f, 0x62, 0x31, 0x00,
  0x00, 0x00, 0x04, 0x00, 0x00, 0x00, 0x01, 0x00, 0x00, 0x00, 0x3c, 0x04, 0x00,
  0x00, 0x84, 0x07, 0x00, 0x00, 0x05, 0x00, 0x00, 0x00, 0xca, 0x8f, 0xff, 0xff,
  0x14, 0x00, 0x00, 0x00, 0x48, 0x00, 0x00, 0x00, 0x8b, 0x00, 0x00, 0x00, 0x00,
  0x00, 0x00, 0x07, 0x50, 0x00, 0x00, 0x00, 0xbc, 0x8f, 0xff, 0xff, 0x10, 0x00,
  0x00, 0x00, 0x18, 0x00, 0x00, 0x00, 0x1c, 0x00, 0x00, 0x00, 0x20, 0x00, 0x00,
  0x00, 0x01, 0x00, 0x00, 0x00, 0x00, 0x00, 0x00, 0x00, 0x00, 0x00, 0x00, 0x00,
  0x01, 0x00, 0x00, 0x00, 0x20, 0x17, 0xce, 0x39, 0x01, 0x00, 0x00, 0x00, 0xef,
  0xb8, 0x03, 0x41, 0x01, 0x00, 0x00, 0x00, 0x84, 0x15, 0x4e, 0xc1, 0x0d, 0x00,
  0x00, 0x00, 0x64, 0x65, 0x70, 0x74, 0x68, 0x77, 0x69, 0x73, 0x65, 0x5f, 0x33,
  0x35, 0x31, 0x00, 0x00, 0x00, 0x04, 0x00, 0x00, 0x00, 0x01, 0x00, 0x00, 0x00,
  0x3c, 0x04, 0x00, 0x00, 0x84, 0x07, 0x00, 0x00, 0x05, 0x00, 0x00, 0x00, 0x42,
  0x90, 0xff, 0xff, 0x14, 0x00, 0x00, 0x00, 0x48, 0x00, 0x00, 0x00, 0x8a, 0x00,
  0x00, 0x00, 0x00, 0x00, 0x00, 0x07, 0x50, 0x00, 0x00, 0x00, 0x34, 0x90, 0xff,
  0xff, 0x10, 0x00, 0x00, 0x00, 0x18, 0x00, 0x00, 0x00, 0x1c, 0x00, 0x00, 0x00,
  0x20, 0x00, 0x00, 0x00, 0x01, 0x00, 0x00, 0x00, 0x00, 0x00, 0x00, 0x00, 0x00,
  0x00, 0x00, 0x00, 0x01, 0x00, 0x00, 0x00, 0x88, 0xec, 0xad, 0x39, 0x01, 0x00,
  0x00, 0x00, 0x2c, 0xeb, 0x2d, 0x41, 0x01, 0x00, 0x00, 0x00, 0x38, 0x10, 0xd8,
  0xc0, 0x0d, 0x00, 0x00, 0x00, 0x64, 0x65, 0x70, 0x74, 0x68, 0x77, 0x69, 0x73,
  0x65, 0x5f, 0x33, 0x34, 0x31, 0x00, 0x00, 0x00, 0x04, 0x00, 0x00, 0x00, 0x01,
  0x00, 0x00, 0x00, 0x3c, 0x04, 0x00, 0x00, 0x84, 0x07, 0x00, 0x00, 0x05, 0x00,
  0x00, 0x00, 0xba, 0x90, 0xff, 0xff, 0x14, 0x00, 0x00, 0x00, 0x4c, 0x00, 0x00,
  0x00, 0x89, 0x00, 0x00, 0x00, 0x00, 0x00, 0x00, 0x07, 0x78, 0x00, 0x00, 0x00,
  0xac, 0x90, 0xff, 0xff, 0x10, 0x00, 0x00, 0x00, 0x1c, 0x00, 0x00, 0x00, 0x20,
  0x00, 0x00, 0x00, 0x24, 0x00, 0x00, 0x00, 0x01, 0x00, 0x00, 0x00, 0x00, 0x00,
  0x00, 0x00, 0x00, 0x00, 0x00, 0x00, 0x00, 0x00, 0x00, 0x00, 0x01, 0x00, 0x00,
  0x00, 0xdb, 0x2a, 0xfb, 0x39, 0x01, 0x00, 0x00, 0x00, 0xe5, 0x28, 0x7b, 0x41,
  0x01, 0x00, 0x00, 0x00, 0x00, 0x00, 0x00, 0x00, 0x33, 0x00, 0x00, 0x00, 0x52,
  0x65, 0x6c, 0x75, 0x5f, 0x35, 0x3b, 0x42, 0x69, 0x61, 0x73, 0x41, 0x64, 0x64,
  0x5f, 0x31, 0x36, 0x3b, 0x64, 0x65, 0x70, 0x74, 0x68, 0x77, 0x69, 0x73, 0x65,
  0x5f, 0x33, 0x37, 0x3b, 0x43, 0x6f, 0x6e, 0x76, 0x32, 0x44, 0x5f, 0x31, 0x36,
  0x3b, 0x63, 0x6f, 0x6e, 0x76, 0x5f, 0x36, 0x5f, 0x30, 0x5f, 0x62, 0x00, 0x04,
  0x00, 0x00, 0x00, 0x01, 0x00, 0x00, 0x00, 0x3c, 0x04, 0x00, 0x00, 0x84, 0x07,
  0x00, 0x00, 0x05, 0x00, 0x00, 0x00, 0x5a, 0x91, 0xff, 0xff, 0x14, 0x00, 0x00,
  0x00, 0x48, 0x00, 0x00, 0x00, 0x88, 0x00, 0x00, 0x00, 0x00, 0x00, 0x00, 0x07,
  0x50, 0x00, 0x00, 0x00, 0x4c, 0x91, 0xff, 0xff, 0x10, 0x00, 0x00, 0x00, 0x18,
  0x00, 0x00, 0x00, 0x1c, 0x00, 0x00, 0x00, 0x20, 0x00, 0x00, 0x00, 0x01, 0x00,
  0x00, 0x00, 0x00, 0x00, 0x00, 0x00, 0x00, 0x00, 0x00, 0x00, 0x01, 0x00, 0x00,
  0x00, 0x8c, 0x05, 0xa9, 0x39, 0x01, 0x00, 0x00, 0x00, 0x76, 0x03, 0x57, 0x40,
  0x01, 0x00, 0x00, 0x00, 0x3a, 0x04, 0x29, 0xc1, 0x0d, 0x00, 0x00, 0x00, 0x64,
  0x65, 0x70, 0x74, 0x68, 0x77, 0x69, 0x73, 0x65, 0x5f, 0x33, 0x33, 0x31, 0x00,
  0x00, 0x00, 0x04, 0x00, 0x00, 0x00, 0x01, 0x00, 0x00, 0x00, 0x3c, 0x04, 0x00,
  0x00, 0x84, 0x07, 0x00, 0x00, 0x05, 0x00, 0x00, 0x00, 0xd2, 0x91, 0xff, 0xff,
  0x14, 0x00, 0x00, 0x00, 0x48, 0x00, 0x00, 0x00, 0x87, 0x00, 0x00, 0x00, 0x00,
  0x00, 0x00, 0x07, 0x50, 0x00, 0x00, 0x00, 0xc4, 0x91, 0xff, 0xff, 0x10, 0x00,
  0x00, 0x00, 0x18, 0x00, 0x00, 0x00, 0x1c, 0x00, 0x00, 0x00, 0x20, 0x00, 0x00,
  0x00, 0x01, 0x00, 0x00, 0x00, 0x00, 0x00, 0x00, 0x00, 0x00, 0x00, 0x00, 0x00,
  0x01, 0x00, 0x00, 0x00, 0xe2, 0x1c, 0x94, 0x39, 0x01, 0x00, 0x00, 0x00, 0xba,
  0x1b, 0x14, 0x41, 0x01, 0x00, 0x00, 0x00, 0xa8, 0xbd, 0x6b, 0xc0, 0x0d, 0x00,
  0x00, 0x00, 0x64, 0x65, 0x70, 0x74, 0x68, 0x77, 0x69, 0x73, 0x65, 0x5f, 0x33,
  0x32, 0x31, 0x00, 0x00, 0x00, 0x04, 0x00, 0x00, 0x00, 0x01, 0x00, 0x00, 0x00,
  0x3c, 0x04, 0x00, 0x00, 0x84, 0x07, 0x00, 0x00, 0x05, 0x00, 0x00, 0x00, 0x4a,
  0x92, 0xff, 0xff, 0x14, 0x00, 0x00, 0x00, 0x48, 0x00, 0x00, 0x00, 0x86, 0x00,
  0x00, 0x00, 0x00, 0x00, 0x00, 0x07, 0x48, 0x00, 0x00, 0x00, 0x3c, 0x92, 0xff,
  0xff, 0x10, 0x00, 0x00, 0x00, 0x18, 0x00, 0x00, 0x00, 0x1c, 0x00, 0x00, 0x00,
  0x20, 0x00, 0x00, 0x00, 0x01, 0x00, 0x00, 0x00, 0x00, 0x00, 0x00, 0x00, 0x00,
  0x00, 0x00, 0x00, 0x01, 0x00, 0x00, 0x00, 0xea, 0xd5, 0x82, 0x39, 0x01, 0x00,
  0x00, 0x00, 0xe4, 0xd4, 0x02, 0x41, 0x01, 0x00, 0x00, 0x00, 0xf3, 0xbb, 0x9c,
  0xc0, 0x05, 0x00, 0x00, 0x00, 0x41, 0x64, 0x64, 0x5f, 0x34, 0x00, 0x00, 0x00,
  0x04, 0x00, 0x00, 0x00, 0x01, 0x00, 0x00, 0x00, 0x3c, 0x04, 0x00, 0x00, 0x84,
  0x07, 0x00, 0x00, 0x05, 0x00, 0x00, 0x00, 0xba, 0x92, 0xff, 0xff, 0x14, 0x00,
  0x00, 0x00, 0x48, 0x00, 0x00, 0x00, 0x85, 0x00, 0x00, 0x00, 0x00, 0x00, 0x00,
  0x07, 0x70, 0x00, 0x00, 0x00, 0xac, 0x92, 0xff, 0xff, 0x10, 0x00, 0x00, 0x00,
  0x18, 0x00, 0x00, 0x00, 0x1c, 0x00, 0x00, 0x00, 0x20, 0x00, 0x00, 0x00, 0x01,
  0x00, 0x00, 0x00, 0x00, 0x00, 0x00, 0x00, 0x00, 0x00, 0x00, 0x00, 0x01, 0x00,
  0x00, 0x00, 0x9f, 0x9a, 0x3b, 0x39, 0x01, 0x00, 0x00, 0x00, 0x28, 0x99, 0xbb,
  0x40, 0x01, 0x00, 0x00, 0x00, 0x7e, 0xa4, 0xa3, 0xc0, 0x2d, 0x00, 0x00, 0x00,
  0x42, 0x69, 0x61, 0x73, 0x41, 0x64, 0x64, 0x5f, 0x31, 0x35, 0x3b, 0x64, 0x65,
  0x70, 0x74, 0x68, 0x77, 0x69, 0x73, 0x65, 0x5f, 0x33, 0x37, 0x3b, 0x43, 0x6f,
  0x6e, 0x76, 0x32, 0x44, 0x5f, 0x31, 0x35, 0x3b, 0x63, 0x6f, 0x6e, 0x76, 0x5f,
  0x35, 0x5f, 0x31, 0x5f, 0x62, 0x31, 0x00, 0x00, 0x00, 0x04, 0x00, 0x00, 0x00,
  0x01, 0x00, 0x00, 0x00, 0x3c, 0x04, 0x00, 0x00, 0x84, 0x07, 0x00, 0x00, 0x05,
  0x00, 0x00, 0x00, 0x52, 0x93, 0xff, 0xff, 0x14, 0x00, 0x00, 0x00, 0x48, 0x00,
  0x00, 0x00, 0x84, 0x00, 0x00, 0x00, 0x00, 0x00, 0x00, 0x07, 0x50, 0x00, 0x00,
  0x00, 0x44, 0x93, 0xff, 0xff, 0x10, 0x00, 0x00, 0x00, 0x18, 0x00, 0x00, 0x00,
  0x1c, 0x00, 0x00, 0x00, 0x20, 0x00, 0x00, 0x00, 0x01, 0x00, 0x00, 0x00, 0x00,
  0x00, 0x00, 0x00, 0x00, 0x00, 0x00, 0x00, 0x01, 0x00, 0x00, 0x00, 0x39, 0x6c,
  0xa1, 0x39, 0x01, 0x00, 0x00, 0x00, 0xf6, 0x6a, 0x21, 0x41, 0x01, 0x00, 0x00,
  0x00, 0xf8, 0xd6, 0x44, 0xc0, 0x0d, 0x00, 0x00, 0x00, 0x64, 0x65, 0x70, 0x74,
  0x68, 0x77, 0x69, 0x73, 0x65, 0x5f, 0x33, 0x31, 0x32, 0x00, 0x00, 0x00, 0x04,
  0x00, 0x00, 0x00, 0x01, 0x00, 0x00, 0x00, 0x3c, 0x04, 0x00, 0x00, 0x84, 0x07,
  0x00, 0x00, 0x07, 0x00, 0x00, 0x00, 0xca, 0x93, 0xff, 0xff, 0x14, 0x00, 0x00,
  0x00, 0x48, 0x00, 0x00, 0x00, 0x83, 0x00, 0x00, 0x00, 0x00, 0x00, 0x00, 0x07,
  0x50, 0x00, 0x00, 0x00, 0xbc, 0x93, 0xff, 0xff, 0x10, 0x00, 0x00, 0x00, 0x18,
  0x00, 0x00, 0x00, 0x1c, 0x00, 0x00, 0x00, 0x20, 0x00, 0x00, 0x00, 0x01, 0x00,
  0x00, 0x00, 0x00, 0x00, 0x00, 0x00, 0x00, 0x00, 0x00, 0x00, 0x01, 0x00, 0x00,
  0x00, 0x1d, 0x59, 0x07, 0x3a, 0x01, 0x00, 0x00, 0x00, 0x0e, 0x58, 0x87, 0x41,
  0x01, 0x00, 0x00, 0x00, 0xe5, 0xd5, 0x68, 0xc1, 0x0d, 0x00, 0x00, 0x00, 0x64,
  0x65, 0x70, 0x74, 0x68, 0x77, 0x69, 0x73, 0x65, 0x5f, 0x33, 0x30, 0x31, 0x00,
  0x00, 0x00, 0x04, 0x00, 0x00, 0x00, 0x01, 0x00, 0x00, 0x00, 0x3c, 0x04, 0x00,
  0x00, 0x84, 0x07, 0x00, 0x00, 0x07, 0x00, 0x00, 0x00, 0x42, 0x94, 0xff, 0xff,
  0x14, 0x00, 0x00, 0x00, 0x48, 0x00, 0x00, 0x00, 0x82, 0x00, 0x00, 0x00, 0x00,
  0x00, 0x00, 0x07, 0x70, 0x00, 0x00, 0x00, 0x34, 0x94, 0xff, 0xff, 0x10, 0x00,
  0x00, 0x00, 0x18, 0x00, 0x00, 0x00, 0x1c, 0x00, 0x00, 0x00, 0x20, 0x00, 0x00,
  0x00, 0x01, 0x00, 0x00, 0x00, 0x00, 0x00, 0x00, 0x00, 0x00, 0x00, 0x00, 0x00,
  0x01, 0x00, 0x00, 0x00, 0xcc, 0x03, 0x81, 0x39, 0x01, 0x00, 0x00, 0x00, 0xca,
  0x02, 0x01, 0x41, 0x01, 0x00, 0x00, 0x00, 0xb7, 0x8b, 0x68, 0xc0, 0x2c, 0x00,
  0x00, 0x00, 0x42, 0x69, 0x61, 0x73, 0x41, 0x64, 0x64, 0x5f, 0x31, 0x34, 0x3b,
  0x64, 0x65, 0x70, 0x74, 0x68, 0x77, 0x69, 0x73, 0x65, 0x5f, 0x33, 0x37, 0x3b,
  0x43, 0x6f, 0x6e, 0x76, 0x32, 0x44, 0x5f, 0x31, 0x34, 0x3b, 0x63, 0x6f, 0x6e,
  0x76, 0x5f, 0x35, 0x5f, 0x31, 0x5f, 0x62, 0x00, 0x00, 0x00, 0x00, 0x04, 0x00,
  0x00, 0x00, 0x01, 0x00, 0x00, 0x00, 0x3c, 0x04, 0x00, 0x00, 0x84, 0x07, 0x00,
  0x00, 0x05, 0x00, 0x00, 0x00, 0xda, 0x94, 0xff, 0xff, 0x14, 0x00, 0x00, 0x00,
  0x48, 0x00, 0x00, 0x00, 0x81, 0x00, 0x00, 0x00, 0x00, 0x00, 0x00, 0x07, 0x50,
  0x00, 0x00, 0x00, 0xcc, 0x94, 0xff, 0xff, 0x10, 0x00, 0x00, 0x00, 0x18, 0x00,
  0x00, 0x00, 0x1c, 0x00, 0x00, 0x00, 0x20, 0x00, 0x00, 0x00, 0x01, 0x00, 0x00,
  0x00, 0x00, 0x00, 0x00, 0x00, 0x00, 0x00, 0x00, 0x00, 0x01, 0x00, 0x00, 0x00,
  0x8e, 0x7d, 0x7b, 0x39, 0x01, 0x00, 0x00, 0x00, 0x35, 0x12, 0x8d, 0x40, 0x01,
  0x00, 0x00, 0x00, 0x97, 0x7b, 0xfb, 0xc0, 0x0d, 0x00, 0x00, 0x00, 0x64, 0x65,
  0x70, 0x74, 0x68, 0x77, 0x69, 0x73, 0x65, 0x5f, 0x32, 0x39, 0x31, 0x00, 0x00,
  0x00, 0x04, 0x00, 0x00, 0x00, 0x01, 0x00, 0x00, 0x00, 0x3c, 0x04, 0x00, 0x00,
  0x84, 0x07, 0x00, 0x00, 0x05, 0x00, 0x00, 0x00, 0x52, 0x95, 0xff, 0xff, 0x14,
  0x00, 0x00, 0x00, 0x48, 0x00, 0x00, 0x00, 0x80, 0x00, 0x00, 0x00, 0x00, 0x00,
  0x00, 0x07, 0x50, 0x00, 0x00, 0x00, 0x44, 0x95, 0xff, 0xff, 0x10, 0x00, 0x00,
  0x00, 0x18, 0x00, 0x00, 0x00, 0x1c, 0x00, 0x00, 0x00, 0x20, 0x00, 0x00, 0x00,
  0x01, 0x00, 0x00, 0x00, 0x00, 0x00, 0x00, 0x00, 0x00, 0x00, 0x00, 0x00, 0x01,
  0x00, 0x00, 0x00, 0x5e, 0xc3, 0xfb, 0x39, 0x01, 0x00, 0x00, 0x00, 0xa3, 0xf3,
  0xb8, 0x40, 0x01, 0x00, 0x00, 0x00, 0x66, 0xc1, 0x7b, 0xc1, 0x0d, 0x00, 0x00,
  0x00, 0x64, 0x65, 0x70, 0x74, 0x68, 0x77, 0x69, 0x73, 0x65, 0x5f, 0x32, 0x38,
  0x31, 0x00, 0x00, 0x00, 0x04, 0x00, 0x00, 0x00, 0x01, 0x00, 0x00, 0x00, 0x3c,
  0x04, 0x00, 0x00, 0x84, 0x07, 0x00, 0x00, 0x05, 0x00, 0x00, 0x00, 0xca, 0x95,
  0xff, 0xff, 0x14, 0x00, 0x00, 0x00, 0x4c, 0x00, 0x00, 0x00, 0x7f, 0x00, 0x00,
  0x00, 0x00, 0x00, 0x00, 0x07, 0x78, 0x00, 0x00, 0x00, 0xbc, 0x95, 0xff, 0xff,
  0x10, 0x00, 0x00, 0x00, 0x1c, 0x00, 0x00, 0x00, 0x20, 0x00, 0x00, 0x00, 0x24,
  0x00, 0x00, 0x00, 0x01, 0x00, 0x00, 0x00, 0x00, 0x00, 0x00, 0x00, 0x00, 0x00,
  0x00, 0x00, 0x00, 0x00, 0x00, 0x00, 0x01, 0x00, 0x00, 0x00, 0x8e, 0xec, 0x15,
  0x3a, 0x01, 0x00, 0x00, 0x00, 0x62, 0xeb, 0x95, 0x41, 0x01, 0x00, 0x00, 0x00,
  0x00, 0x00, 0x00, 0x00, 0x33, 0x00, 0x00, 0x00, 0x52, 0x65, 0x6c, 0x75, 0x5f,
  0x34, 0x3b, 0x42, 0x69, 0x61, 0x73, 0x41, 0x64, 0x64, 0x5f, 0x31, 0x33, 0x3b,
  0x64, 0x65, 0x70, 0x74, 0x68, 0x77, 0x69, 0x73, 0x65, 0x5f, 0x33, 0x37, 0x3b,
  0x43, 0x6f, 0x6e, 0x76, 0x32, 0x44, 0x5f, 0x31, 0x33, 0x3b, 0x63, 0x6f, 0x6e,
  0x76, 0x5f, 0x35, 0x5f, 0x30, 0x5f, 0x62, 0x00, 0x04, 0x00, 0x00, 0x00, 0x01,
  0x00, 0x00, 0x00, 0x3c, 0x04, 0x00, 0x00, 0x84, 0x07, 0x00, 0x00, 0x05, 0x00,
  0x00, 0x00, 0x6a, 0x96, 0xff, 0xff, 0x14, 0x00, 0x00, 0x00, 0x48, 0x00, 0x00,
  0x00, 0x7e, 0x00, 0x00, 0x00, 0x00, 0x00, 0x00, 0x07, 0x50, 0x00, 0x00, 0x00,
  0x5c, 0x96, 0xff, 0xff, 0x10, 0x00, 0x00, 0x00, 0x18, 0x00, 0x00, 0x00, 0x1c,
  0x00, 0x00, 0x00, 0x20, 0x00, 0x00, 0x00, 0x01, 0x00, 0x00, 0x00, 0x00, 0x00,
  0x00, 0x00, 0x00, 0x00, 0x00, 0x00, 0x01, 0x00, 0x00, 0x00, 0x1b, 0x70, 0xcf,
  0x39, 0x01, 0x00, 0x00, 0x00, 0x7c, 0x6e, 0x4f, 0x41, 0x01, 0x00, 0x00, 0x00,
  0xe6, 0xc2, 0x2d, 0xc1, 0x0d, 0x00, 0x00, 0x00, 0x64, 0x65, 0x70, 0x74, 0x68,
  0x77, 0x69, 0x73, 0x65, 0x5f, 0x32, 0x37, 0x31, 0x00, 0x00, 0x00, 0x04, 0x00,
  0x00, 0x00, 0x01, 0x00, 0x00, 0x00, 0x3c, 0x04, 0x00, 0x00, 0x84, 0x07, 0x00,
  0x00, 0x07, 0x00, 0x00, 0x00, 0xe2, 0x96, 0xff, 0xff, 0x14, 0x00, 0x00, 0x00,
  0x48, 0x00, 0x00, 0x00, 0x7d, 0x00, 0x00, 0x00, 0x00, 0x00, 0x00, 0x07, 0x50,
  0x00, 0x00, 0x00, 0xd4, 0x96, 0xff, 0xff, 0x10, 0x00, 0x00, 0x00, 0x18, 0x00,
  0x00, 0x00, 0x1c, 0x00, 0x00, 0x00, 0x20, 0x00, 0x00, 0x00, 0x01, 0x00, 0x00,
  0x00, 0x00, 0x00, 0x00, 0x00, 0x00, 0x00, 0x00, 0x00, 0x01, 0x00, 0x00, 0x00,
  0xe6, 0xc3, 0x1f, 0x3a, 0x01, 0x00, 0x00, 0x00, 0xa6, 0xc2, 0x9f, 0x41, 0x01,
  0x00, 0x00, 0x00, 0xb9, 0x7b, 0x83, 0xc1, 0x0d, 0x00, 0x00, 0x00, 0x64, 0x65,
  0x70, 0x74, 0x68, 0x77, 0x69, 0x73, 0x65, 0x5f, 0x32, 0x36, 0x31, 0x00, 0x00,
  0x00, 0x04, 0x00, 0x00, 0x00, 0x01, 0x00, 0x00, 0x00, 0x3c, 0x04, 0x00, 0x00,
  0x84, 0x07, 0x00, 0x00, 0x07, 0x00, 0x00, 0x00, 0x5a, 0x97, 0xff, 0xff, 0x14,
  0x00, 0x00, 0x00, 0x48, 0x00, 0x00, 0x00, 0x7c, 0x00, 0x00, 0x00, 0x00, 0x00,
  0x00, 0x07, 0x48, 0x00, 0x00, 0x00, 0x4c, 0x97, 0xff, 0xff, 0x10, 0x00, 0x00,
  0x00, 0x18, 0x00, 0x00, 0x00, 0x1c, 0x00, 0x00, 0x00, 0x20, 0x00, 0x00, 0x00,
  0x01, 0x00, 0x00, 0x00, 0x00, 0x00, 0x00, 0x00, 0x00, 0x00, 0x00, 0x00, 0x01,
  0x00, 0x00, 0x00, 0x30, 0xd4, 0x82, 0x3a, 0x01, 0x00, 0x00, 0x00, 0x2a, 0xd3,
  0x02, 0x42, 0x01, 0x00, 0x00, 0x00, 0x46, 0x8b, 0xeb, 0xc1, 0x05, 0x00, 0x00,
  0x00, 0x41, 0x64, 0x64, 0x5f, 0x33, 0x00, 0x00, 0x00, 0x04, 0x00, 0x00, 0x00,
  0x01, 0x00, 0x00, 0x00, 0x3c, 0x04, 0x00, 0x00, 0x84, 0x07, 0x00, 0x00, 0x07,
  0x00, 0x00, 0x00, 0xca, 0x97, 0xff, 0xff, 0x14, 0x00, 0x00, 0x00, 0x48, 0x00,
  0x00, 0x00, 0x7b, 0x00, 0x00, 0x00, 0x00, 0x00, 0x00, 0x07, 0x70, 0x00, 0x00,
  0x00, 0xbc, 0x97, 0xff, 0xff, 0x10, 0x00, 0x00, 0x00, 0x18, 0x00, 0x00, 0x00,
  0x1c, 0x00, 0x00, 0x00, 0x20, 0x00, 0x00, 0x00, 0x01, 0x00, 0x00, 0x00, 0x00,
  0x00, 0x00, 0x00, 0x00, 0x00, 0x00, 0x00, 0x01, 0x00, 0x00, 0x00, 0x5b, 0x03,
  0x68, 0x3a, 0x01, 0x00, 0x00, 0x00, 0x45, 0x7d, 0xaf, 0x41, 0x01, 0x00, 0x00,
  0x00, 0x8b, 0x01, 0xe8, 0xc1, 0x2d, 0x00, 0x00, 0x00, 0x42, 0x69, 0x61, 0x73,
  0x41, 0x64, 0x64, 0x5f, 0x31, 0x32, 0x3b, 0x64, 0x65, 0x70, 0x74, 0x68, 0x77,
  0x69, 0x73, 0x65, 0x5f, 0x33, 0x31, 0x3b, 0x43, 0x6f, 0x6e, 0x76, 0x32, 0x44,
  0x5f, 0x31, 0x32, 0x3b, 0x63, 0x6f, 0x6e, 0x76, 0x5f, 0x34, 0x5f, 0x31, 0x5f,
  0x62, 0x31, 0x00, 0x00, 0x00, 0x04, 0x00, 0x00, 0x00, 0x01, 0x00, 0x00, 0x00,
  0x3c, 0x04, 0x00, 0x00, 0x84, 0x07, 0x00, 0x00, 0x07, 0x00, 0x00, 0x00, 0x62,
  0x98, 0xff, 0xff, 0x14, 0x00, 0x00, 0x00, 0x48, 0x00, 0x00, 0x00, 0x7a, 0x00,
  0x00, 0x00, 0x00, 0x00, 0x00, 0x07, 0x50, 0x00, 0x00, 0x00, 0x54, 0x98, 0xff,
  0xff, 0x10, 0x00, 0x00, 0x00, 0x18, 0x00, 0x00, 0x00, 0x1c, 0x00, 0x00, 0x00,
  0x20, 0x00, 0x00, 0x00, 0x01, 0x00, 0x00, 0x00, 0x00, 0x00, 0x00, 0x00, 0x00,
  0x00, 0x00, 0x00, 0x01, 0x00, 0x00, 0x00, 0xcc, 0xb7, 0x37, 0x3a, 0x01, 0x00,
  0x00, 0x00, 0xc1, 0xd1, 0xa1, 0x41, 0x01, 0x00, 0x00, 0x00, 0x5d, 0xb6, 0xb7,
  0xc1, 0x0d, 0x00, 0x00, 0x00, 0x64, 0x65, 0x70, 0x74, 0x68, 0x77, 0x69, 0x73,
  0x65, 0x5f, 0x32, 0x35, 0x32, 0x00, 0x00, 0x00, 0x04, 0x00, 0x00, 0x00, 0x01,
  0x00, 0x00, 0x00, 0x3c, 0x04, 0x00, 0x00, 0x84, 0x07, 0x00, 0x00, 0x09, 0x00,
  0x00, 0x00, 0xda, 0x98, 0xff, 0xff, 0x14, 0x00, 0x00, 0x00, 0x48, 0x00, 0x00,
  0x00, 0x79, 0x00, 0x00, 0x00, 0x00, 0x00, 0x00, 0x07, 0x50, 0x00, 0x00, 0x00,
  0xcc, 0x98, 0xff, 0xff, 0x10, 0x00, 0x00, 0x00, 0x18, 0x00, 0x00, 0x00, 0x1c,
  0x00, 0x00, 0x00, 0x20, 0x00, 0x00, 0x00, 0x01, 0x00, 0x00, 0x00, 0x00, 0x00,
  0x00, 0x00, 0x00, 0x00, 0x00, 0x00, 0x01, 0x00, 0x00, 0x00, 0xc0, 0xc5, 0xb1,
  0x3a, 0x01, 0x00, 0x00, 0x00, 0x44, 0x78, 0x0f, 0x42, 0x01, 0x00, 0x00, 0x00,
  0x5c, 0xc4, 0x31, 0xc2, 0x0d, 0x00, 0x00, 0x00, 0x64, 0x65, 0x70, 0x74, 0x68,
  0x77, 0x69, 0x73, 0x65, 0x5f, 0x32, 0x34, 0x31, 0x00, 0x00, 0x00, 0x04, 0x00,
  0x00, 0x00, 0x01, 0x00, 0x00, 0x00, 0x3c, 0x04, 0x00, 0x00, 0x84, 0x07, 0x00,
  0x00, 0x09, 0x00, 0x00, 0x00, 0x52, 0x99, 0xff, 0xff, 0x14, 0x00, 0x00, 0x00,
  0x48, 0x00, 0x00, 0x00, 0x78, 0x00, 0x00, 0x00, 0x00, 0x00, 0x00, 0x07, 0x70,
  0x00, 0x00, 0x00, 0x44, 0x99, 0xff, 0xff, 0x10, 0x00, 0x00, 0x00, 0x18, 0x00,
  0x00, 0x00, 0x1c, 0x00, 0x00, 0x00, 0x20, 0x00, 0x00, 0x00, 0x01, 0x00, 0x00,
  0x00, 0x00, 0x00, 0x00, 0x00, 0x00, 0x00, 0x00, 0x00, 0x01, 0x00, 0x00, 0x00,
  0x26, 0x56, 0x8b, 0x3a, 0x01, 0x00, 0x00, 0x00, 0x0f, 0x55, 0x0b, 0x42, 0x01,
  0x00, 0x00, 0x00, 0x22, 0xf8, 0xd0, 0xc1, 0x2c, 0x00, 0x00, 0x00, 0x42, 0x69,
  0x61, 0x73, 0x41, 0x64, 0x64, 0x5f, 0x31, 0x31, 0x3b, 0x64, 0x65, 0x70, 0x74,
  0x68, 0x77, 0x69, 0x73, 0x65, 0x5f, 0x33, 0x31, 0x3b, 0x43, 0x6f, 0x6e, 0x76,
  0x32, 0x44, 0x5f, 0x31, 0x31, 0x3b, 0x63, 0x6f, 0x6e, 0x76, 0x5f, 0x34, 0x5f,
  0x31, 0x5f, 0x62, 0x00, 0x00, 0x00, 0x00, 0x04, 0x00, 0x00, 0x00, 0x01, 0x00,
  0x00, 0x00, 0x3c, 0x04, 0x00, 0x00, 0x84, 0x07, 0x00, 0x00, 0x07, 0x00, 0x00,
  0x00, 0xea, 0x99, 0xff, 0xff, 0x14, 0x00, 0x00, 0x00, 0x48, 0x00, 0x00, 0x00,
  0x77, 0x00, 0x00, 0x00, 0x00, 0x00, 0x00, 0x07, 0x50, 0x00, 0x00, 0x00, 0xdc,
  0x99, 0xff, 0xff, 0x10, 0x00, 0x00, 0x00, 0x18, 0x00, 0x00, 0x00, 0x1c, 0x00,
  0x00, 0x00, 0x20, 0x00, 0x00, 0x00, 0x01, 0x00, 0x00, 0x00, 0x00, 0x00, 0x00,
  0x00, 0x00, 0x00, 0x00, 0x00, 0x01, 0x00, 0x00, 0x00, 0x14, 0xe7, 0x78, 0x3a,
  0x01, 0x00, 0x00, 0x00, 0x22, 0xe5, 0xf8, 0x41, 0x01, 0x00, 0x00, 0x00, 0x11,
  0x7a, 0xc2, 0xc1, 0x0d, 0x00, 0x00, 0x00, 0x64, 0x65, 0x70, 0x74, 0x68, 0x77,
  0x69, 0x73, 0x65, 0x5f, 0x32, 0x33, 0x31, 0x00, 0x00, 0x00, 0x04, 0x00, 0x00,
  0x00, 0x01, 0x00, 0x00, 0x00, 0x3c, 0x04, 0x00, 0x00, 0x84, 0x07, 0x00, 0x00,
  0x07, 0x00, 0x00, 0x00, 0x62, 0x9a, 0xff, 0xff, 0x14, 0x00, 0x00, 0x00, 0x48,
  0x00, 0x00, 0x00, 0x76, 0x00, 0x00, 0x00, 0x00, 0x00, 0x00, 0x07, 0x50, 0x00,
  0x00, 0x00, 0x54, 0x9a, 0xff, 0xff, 0x10, 0x00, 0x00, 0x00, 0x18, 0x00, 0x00,
  0x00, 0x1c, 0x00, 0x00, 0x00, 0x20, 0x00, 0x00, 0x00, 0x01, 0x00, 0x00, 0x00,
  0x00, 0x00, 0x00, 0x00, 0x00, 0x00, 0x00, 0x00, 0x01, 0x00, 0x00, 0x00, 0x52,
  0x01, 0x68, 0x3a, 0x01, 0x00, 0x00, 0x00, 0x28, 0xf2, 0x90, 0x41, 0x01, 0x00,
  0x00, 0x00, 0x82, 0xff, 0xe7, 0xc1, 0x0d, 0x00, 0x00, 0x00, 0x64, 0x65, 0x70,
  0x74, 0x68, 0x77, 0x69, 0x73, 0x65, 0x5f, 0x32, 0x32, 0x31, 0x00, 0x00, 0x00,
  0x04, 0x00, 0x00, 0x00, 0x01, 0x00, 0x00, 0x00, 0x3c, 0x04, 0x00, 0x00, 0x84,
  0x07, 0x00, 0x00, 0x07, 0x00, 0x00, 0x00, 0xda, 0x9a, 0xff, 0xff, 0x14, 0x00,
  0x00, 0x00, 0x4c, 0x00, 0x00, 0x00, 0x75, 0x00, 0x00, 0x00, 0x00, 0x00, 0x00,
  0x07, 0x78, 0x00, 0x00, 0x00, 0xcc, 0x9a, 0xff, 0xff, 0x10, 0x00, 0x00, 0x00,
  0x1c, 0x00, 0x00, 0x00, 0x20, 0x00, 0x00, 0x00, 0x24, 0x00, 0x00, 0x00, 0x01,
  0x00, 0x00, 0x00, 0x00, 0x00, 0x00, 0x00, 0x00, 0x00, 0x00, 0x00, 0x00, 0x00,
  0x00, 0x00, 0x01, 0x00, 0x00, 0x00, 0xbe, 0x10, 0x71, 0x3a, 0x01, 0x00, 0x00,
  0x00, 0xdc, 0x0e, 0xf1, 0x41, 0x01, 0x00, 0x00, 0x00, 0x00, 0x00, 0x00, 0x00,
  0x33, 0x00, 0x00, 0x00, 0x52, 0x65, 0x6c, 0x75, 0x5f, 0x33, 0x3b, 0x42, 0x69,
  0x61, 0x73, 0x41, 0x64, 0x64, 0x5f, 0x31, 0x30, 0x3b, 0x64, 0x65, 0x70, 0x74,
  0x68, 0x77, 0x69, 0x73, 0x65, 0x5f, 0x33, 0x31, 0x3b, 0x43, 0x6f, 0x6e, 0x76,
  0x32, 0x44, 0x5f, 0x31, 0x30, 0x3b, 0x63, 0x6f, 0x6e, 0x76, 0x5f, 0x34, 0x5f,
  0x30, 0x5f, 0x62, 0x00, 0x04, 0x00, 0x00, 0x00, 0x01, 0x00, 0x00, 0x00, 0x3c,
  0x04, 0x00, 0x00, 0x84, 0x07, 0x00, 0x00, 0x07, 0x00, 0x00, 0x00, 0x7a, 0x9b,
  0xff, 0xff, 0x14, 0x00, 0x00, 0x00, 0x48, 0x00, 0x00, 0x00, 0x74, 0x00, 0x00,
  0x00, 0x00, 0x00, 0x00, 0x07, 0x50, 0x00, 0x00, 0x00, 0x6c, 0x9b, 0xff, 0xff,
  0x10, 0x00, 0x00, 0x00, 0x18, 0x00, 0x00, 0x00, 0x1c, 0x00, 0x00, 0x00, 0x20,
  0x00, 0x00, 0x00, 0x01, 0x00, 0x00, 0x00, 0x00, 0x00, 0x00, 0x00, 0x00, 0x00,
  0x00, 0x00, 0x01, 0x00, 0x00, 0x00, 0x42, 0xd7, 0x6c, 0x3a, 0x01, 0x00, 0x00,
  0x00, 0x68, 0xd5, 0xec, 0x41, 0x01, 0x00, 0x00, 0x00, 0xca, 0xec, 0xb4, 0xc1,
  0x0d, 0x00, 0x00, 0x00, 0x64, 0x65, 0x70, 0x74, 0x68, 0x77, 0x69, 0x73, 0x65,
  0x5f, 0x32, 0x31, 0x31, 0x00, 0x00, 0x00, 0x04, 0x00, 0x00, 0x00, 0x01, 0x00,
  0x00, 0x00, 0x3c, 0x04, 0x00, 0x00, 0x84, 0x07, 0x00, 0x00, 0x09, 0x00, 0x00,
  0x00, 0xf2, 0x9b, 0xff, 0xff, 0x14, 0x00, 0x00, 0x00, 0x48, 0x00, 0x00, 0x00,
  0x73, 0x00, 0x00, 0x00, 0x00, 0x00, 0x00, 0x07, 0x50, 0x00, 0x00, 0x00, 0xe4,
  0x9b, 0xff, 0xff, 0x10, 0x00, 0x00, 0x00, 0x18, 0x00, 0x00, 0x00, 0x1c, 0x00,
  0x00, 0x00, 0x20, 0x00, 0x00, 0x00, 0x01, 0x00, 0x00, 0x00, 0x00, 0x00, 0x00,
  0x00, 0x00, 0x00, 0x00, 0x00, 0x01, 0x00, 0x00, 0x00, 0x35, 0x68, 0x91, 0x3a,
  0x01, 0x00, 0x00, 0x00, 0x12, 0x67, 0x11, 0x42, 0x01, 0x00, 0x00, 0x00, 0x74,
  0xeb, 0xee, 0xc1, 0x0d, 0x00, 0x00, 0x00, 0x64, 0x65, 0x70, 0x74, 0x68, 0x77,
  0x69, 0x73, 0x65, 0x5f, 0x32, 0x30, 0x31, 0x00, 0x00, 0x00, 0x04, 0x00, 0x00,
  0x00, 0x01, 0x00, 0x00, 0x00, 0x3c, 0x04, 0x00, 0x00, 0x84, 0x07, 0x00, 0x00,
  0x09, 0x00, 0x00, 0x00, 0x6a, 0x9c, 0xff, 0xff, 0x14, 0x00, 0x00, 0x00, 0x48,
  0x00, 0x00, 0x00, 0x72, 0x00, 0x00, 0x00, 0x00, 0x00, 0x00, 0x07, 0x48, 0x00,
  0x00, 0x00, 0x5c, 0x9c, 0xff, 0xff, 0x10, 0x00, 0x00, 0x00, 0x18, 0x00, 0x00,
  0x00, 0x1c, 0x00, 0x00, 0x00, 0x20, 0x00, 0x00, 0x00, 0x01, 0x00, 0x00, 0x00,
  0x00, 0x00, 0x00, 0x00, 0x00, 0x00, 0x00, 0x00, 0x01, 0x00, 0x00, 0x00, 0xae,
